<pad>	0
<unk>	0
<s>	0
</s>	0
▁t	-0
he	-1
▁a	-2
in	-3
er	-4
▁s	-5
▁the	-6
on	-7
▁w	-8
re	-9
ed	-10
en	-11
▁c	-12
or	-13
at	-14
▁b	-15
▁f	-16
an	-17
is	-18
▁o	-19
ing	-20
it	-21
▁h	-22
▁to	-23
ar	-24
es	-25
▁p	-26
▁in	-27
nd	-28
ou	-29
as	-30
al	-31
▁m	-32
▁of	-33
▁d	-34
ic	-35
▁and	-36
le	-37
om	-38
il	-39
id	-40
▁th	-41
ion	-42
ent	-43
▁T	-44
▁be	-45
▁l	-46
▁he	-47
▁n	-48
▁re	-49
st	-50
▁S	-51
ve	-52
ay	-53
ot	-54
ol	-55
▁g	-56
ut	-57
▁on	-58
▁A	-59
ad	-60
▁M	-61
am	-62
ac	-63
▁C	-64
ow	-65
el	-66
ur	-67
▁for	-68
im	-69
▁e	-70
ter	-71
ig	-72
▁was	-73
ir	-74
▁I	-75
ly	-76
ver	-77
et	-78
▁st	-79
▁B	-80
ro	-81
▁is	-82
us	-83
▁that	-84
▁The	-85
▁wh	-86
ec	-87
ith	-88
▁H	-89
▁with	-90
▁at	-91
▁'	-92
ill	-93
▁sa	-94
ld	-95
ri	-96
▁P	-97
▁as	-98
▁it	-99
un	-100
▁an	-101
ce	-102
▁said	-103
ear	-104
▁his	-105
ers	-106
ation	-107
▁al	-108
her	-109
▁W	-110
os	-111
ra	-112
▁ha	-113
▁y	-114
▁D	-115
and	-116
ch	-117
ul	-118
▁.	-119
ts	-120
▁L	-121
igh	-122
ag	-123
th	-124
▁F	-125
rom	-126
op	-127
▁R	-128
ak	-129
▁con	-130
em	-131
est	-132
ore	-133
▁1	-134
if	-135
pp	-136
▁N	-137
▁from	-138
▁has	-139
▁have	-140
▁2	-141
▁r	-142
our	-143
▁G	-144
▁by	-145
▁her	-146
▁are	-147
ted	-148
▁sh	-149
ain	-150
▁ch	-151
ew	-152
▁v	-153
▁com	-154
▁J	-155
od	-156
res	-157
00	-158
▁E	-159
▁de	-160
ould	-161
▁le	-162
up	-163
end	-164
ast	-165
▁se	-166
▁not	-167
ack	-168
▁k	-169
▁we	-170
ate	-171
ess	-172
▁af	-173
um	-174
ight	-175
▁"	-176
ct	-177
gh	-178
ust	-179
all	-180
▁j	-181
▁O	-182
ok	-183
▁ex	-184
▁who	-185
ice	-186
ab	-187
▁had	-188
ity	-189
ard	-190
▁pro	-191
ist	-192
ere	-193
ive	-194
▁sp	-195
▁whe	-196
se	-197
art	-198
▁after	-199
red	-200
oc	-201
▁pl	-202
▁she	-203
ment	-204
rou	-205
▁been	-206
▁su	-207
▁were	-208
ome	-209
oun	-210
ies	-211
ort	-212
▁ab	-213
▁U	-214
iv	-215
ud	-216
▁they	-217
▁their	-218
qu	-219
ich	-220
ge	-221
ost	-222
out	-223
▁but	-224
ide	-225
▁K	-226
ord	-227
ant	-228
▁-	-229
ell	-230
▁go	-231
▁off	-232
▁cl	-233
▁will	-234
▁out	-235
▁this	-236
▁year	-237
ial	-238
▁wor	-239
own	-240
ry	-241
ie	-242
day	-243
ap	-244
ia	-245
one	-246
ep	-247
ff	-248
cc	-249
ren	-250
ber	-251
▁up	-252
ong	-253
ous	-254
▁ag	-255
ine	-256
▁or	-257
▁do	-258
▁ad	-259
▁un	-260
ays	-261
ans	-262
old	-263
ict	-264
und	-265
▁which	-266
▁He	-267
ime	-268
▁St	-269
▁ne	-270
mer	-271
▁Ch	-272
ub	-273
▁int	-274
ace	-275
▁us	-276
▁can	-277
▁when	-278
wo	-279
ect	-280
ame	-281
ue	-282
▁(	-283
ke	-284
ated	-285
▁one	-286
age	-287
▁rep	-288
▁man	-289
ther	-290
so	-291
▁res	-292
▁him	-293
ally	-294
▁In	-295
▁all	-296
.'	-297
▁about	-298
ile	-299
▁inc	-300
ary	-301
ake	-302
oll	-303
ound	-304
ure	-305
▁pe	-306
▁more	-307
ond	-308
ail	-309
▁over	-310
ild	-311
▁would	-312
av	-313
ions	-314
ip	-315
▁comp	-316
ian	-317
▁ar	-318
▁cont	-319
ident	-320
▁me	-321
ook	-322
▁also	-323
ople	-324
ence	-325
▁dis	-326
very	-327
ire	-328
ree	-329
og	-330
ass	-331
▁20	-332
▁exp	-333
▁Th	-334
▁pol	-335
ind	-336
ign	-337
▁you	-338
▁sc	-339
ite	-340
▁two	-341
▁so	-342
▁im	-343
other	-344
ose	-345
ks	-346
▁people	-347
ru	-348
▁acc	-349
▁V	-350
▁att	-351
▁pr	-352
ne	-353
▁It	-354
ft	-355
▁bec	-356
aus	-357
ish	-358
hed	-359
man	-360
ress	-361
▁than	-362
▁app	-363
are	-364
oy	-365
▁into	-366
▁Mr	-367
▁fir	-368
▁3	-369
ick	-370
▁ev	-371
ount	-372
▁te	-373
▁new	-374
▁told	-375
ved	-376
▁per	-377
▁rec	-378
ib	-379
▁just	-380
▁en	-381
ough	-382
▁them	-383
rit	-384
,"	-385
▁li	-386
amp	-387
ors	-388
▁last	-389
act	-390
▁time	-391
ged	-392
ark	-393
▁could	-394
▁its	-395
▁years	-396
▁kn	-397
reat	-398
iss	-399
▁work	-400
ach	-401
ning	-402
ade	-403
ife	-404
▁first	-405
▁other	-406
fore	-407
aw	-408
▁Y	-409
uc	-410
ations	-411
▁part	-412
ied	-413
anc	-414
ens	-415
ob	-416
ath	-417
ance	-418
ely	-419
ase	-420
ily	-421
iz	-422
ting	-423
able	-424
▁201	-425
▁tr	-426
▁play	-427
▁there	-428
round	-429
▁bl	-430
▁But	-431
▁back	-432
▁before	-433
ood	-434
▁fam	-435
▁ro	-436
land	-437
ove	-438
ause	-439
▁again	-440
ater	-441
▁pre	-442
▁down	-443
ool	-444
,'	-445
year	-446
▁being	-447
urn	-448
▁my	-449
▁inv	-450
ek	-451
▁qu	-452
▁fl	-453
▁get	-454
▁car	-455
▁some	-456
ious	-457
ang	-458
."	-459
orm	-460
▁show	-461
▁19	-462
under	-463
ons	-464
▁no	-465
▁She	-466
▁tra	-467
000	-468
ical	-469
▁child	-470
▁offic	-471
▁home	-472
▁mon	-473
▁any	-474
uring	-475
we	-476
▁sec	-477
▁cr	-478
▁police	-479
▁now	-480
lic	-481
ink	-482
▁Un	-483
▁4	-484
▁Al	-485
ton	-486
▁ser	-487
▁what	-488
▁found	-489
per	-490
▁New	-491
ult	-492
ents	-493
The	-494
oin	-495
▁des	-496
▁say	-497
▁inter	-498
ured	-499
,000	-500
ition	-501
▁dec	-502
enc	-503
wn	-504
▁did	-505
ving	-506
ates	-507
▁An	-508
vel	-509
au	-510
▁under	-511
▁am	-512
rough	-513
lud	-514
ited	-515
over	-516
▁ph	-517
▁says	-518
▁call	-519
als	-520
ory	-521
▁br	-522
▁act	-523
ings	-524
▁three	-525
ash	-526
ters	-527
ier	-528
▁add	-529
oot	-530
▁fe	-531
ince	-532
▁where	-533
iver	-534
▁wom	-535
▁like	-536
▁5	-537
▁char	-538
illion	-539
▁because	-540
▁rem	-541
ock	-542
▁if	-543
▁Le	-544
▁month	-545
▁200	-546
pt	-547
aking	-548
▁includ	-549
ather	-550
▁bel	-551
▁only	-552
▁ra	-553
▁family	-554
▁imp	-555
▁sur	-556
ourt	-557
▁look	-558
▁cent	-559
▁made	-560
aim	-561
air	-562
riend	-563
▁against	-564
▁hel	-565
▁comm	-566
ss	-567
▁while	-568
ered	-569
fer	-570
▁how	-571
ational	-572
▁during	-573
rib	-574
▁bet	-575
ating	-576
ty	-577
ues	-578
oss	-579
led	-580
▁gr	-581
▁week	-582
son	-583
▁count	-584
ph	-585
▁repor	-586
les	-587
ital	-588
▁claim	-589
▁help	-590
▁then	-591
ont	-592
▁our	-593
▁aw	-594
ouse	-595
▁Sc	-596
▁left	-597
▁ac	-598
▁Fr	-599
ise	-600
elf	-601
ublic	-602
▁6	-603
▁ins	-604
▁ear	-605
▁kill	-606
▁through	-607
ix	-608
▁most	-609
▁fin	-610
▁Mar	-611
ities	-612
atch	-613
▁And	-614
▁Sp	-615
ording	-616
▁min	-617
ased	-618
ful	-619
augh	-620
chool	-621
▁own	-622
irl	-623
pl	-624
▁def	-625
orn	-626
ven	-627
▁day	-628
▁tri	-629
oh	-630
hen	-631
ared	-632
ope	-633
▁ret	-634
▁around	-635
med	-636
ah	-637
▁team	-638
▁Af	-639
▁Ar	-640
ug	-641
▁lead	-642
▁em	-643
ger	-644
▁four	-645
tle	-646
▁supp	-647
▁rel	-648
ov	-649
owing	-650
▁star	-651
▁even	-652
▁make	-653
▁pres	-654
hes	-655
▁life	-656
▁world	-657
▁very	-658
ned	-659
▁$	-660
▁belie	-661
▁En	-662
▁every	-663
▁cons	-664
▁children	-665
▁sm	-666
▁Brit	-667
ked	-668
oth	-669
outh	-670
uch	-671
ected	-672
ork	-673
ction	-674
▁ass	-675
▁We	-676
▁take	-677
▁need	-678
ody	-679
ures	-680
get	-681
▁set	-682
xt	-683
▁attack	-684
sh	-685
▁Wh	-686
▁Br	-687
ember	-688
osp	-689
iew	-690
▁bu	-691
ement	-692
▁since	-693
▁invest	-694
▁win	-695
ull	-696
▁inf	-697
erson	-698
ale	-699
roup	-700
▁end	-701
▁head	-702
ced	-703
nment	-704
▁see	-705
meric	-706
▁vide	-707
▁know	-708
▁reg	-709
▁death	-710
ric	-711
ble	-712
iel	-713
▁stud	-714
te	-715
▁law	-716
gan	-717
▁med	-718
ual	-719
▁pict	-720
ason	-721
ave	-722
▁hand	-723
▁should	-724
▁Sh	-725
aren	-726
▁long	-727
ward	-728
▁ind	-729
▁way	-730
▁well	-731
ists	-732
ene	-733
az	-734
ives	-735
▁They	-736
imes	-737
▁war	-738
▁foll	-739
▁may	-740
▁plan	-741
▁friend	-742
▁still	-743
▁Re	-744
▁near	-745
We	-746
▁Pol	-747
alth	-748
▁gover	-749
▁many	-750
ner	-751
ney	-752
▁happ	-753
▁mother	-754
ised	-755
uth	-756
▁tak	-757
▁think	-758
▁gu	-759
ling	-760
▁conf	-761
cer	-762
hing	-763
▁Americ	-764
▁school	-765
▁co	-766
▁7	-767
rest	-768
▁mil	-769
ames	-770
▁cap	-771
▁going	-772
▁though	-773
▁official	-774
▁op	-775
any	-776
▁court	-777
▁sign	-778
▁high	-779
▁United	-780
ral	-781
▁ter	-782
▁resp	-783
▁video	-784
▁bo	-785
▁those	-786
uss	-787
ween	-788
▁used	-789
▁group	-790
gg	-791
▁right	-792
▁disc	-793
ister	-794
▁night	-795
▁dri	-796
ster	-797
▁second	-798
der	-799
alk	-800
ves	-801
ley	-802
ank	-803
▁former	-804
▁between	-805
▁ke	-806
io	-807
ott	-808
ury	-809
▁10	-810
ady	-811
ross	-812
▁including	-813
▁put	-814
▁sent	-815
ours	-816
▁Cl	-817
▁mar	-818
ible	-819
▁investig	-820
its	-821
▁spok	-822
▁country	-823
urs	-824
ospital	-825
▁Eng	-826
It	-827
ants	-828
▁alle	-829
▁run	-830
ms	-831
bs	-832
ular	-833
ened	-834
ina	-835
▁leg	-836
tain	-837
▁took	-838
▁pass	-839
▁according	-840
br	-841
▁dif	-842
ecut	-843
olog	-844
▁vict	-845
ange	-846
▁public	-847
ama	-848
▁called	-849
ll	-850
▁che	-851
▁such	-852
ax	-853
▁inj	-854
▁government	-855
▁sl	-856
▁col	-857
oung	-858
▁fr	-859
▁girl	-860
tern	-861
▁don	-862
▁five	-863
app	-864
ison	-865
▁num	-866
ck	-867
used	-868
▁next	-869
▁want	-870
ins	-871
▁Is	-872
orth	-873
ness	-874
▁much	-875
ines	-876
ision	-877
▁stat	-878
side	-879
ever	-880
▁cond	-881
▁rele	-882
▁later	-883
▁Mon	-884
rem	-885
▁good	-886
▁Chr	-887
▁phot	-888
ower	-889
oney	-890
▁women	-891
▁ext	-892
▁reported	-893
▁days	-894
ple	-895
▁wr	-896
▁prot	-897
ret	-898
gr	-899
eral	-900
▁your	-901
▁added	-902
▁care	-903
▁str	-904
▁Police	-905
▁post	-906
▁another	-907
▁loc	-908
uthor	-909
▁Lond	-910
ets	-911
▁This	-912
▁person	-913
ics	-914
▁months	-915
ages	-916
▁At	-917
▁ent	-918
▁arrest	-919
ham	-920
ague	-921
▁air	-922
▁As	-923
▁cle	-924
▁London	-925
▁beh	-926
bers	-927
▁contr	-928
iday	-929
▁sy	-930
NN	-931
ivers	-932
▁dr	-933
▁away	-934
ote	-935
▁report	-936
▁Mc	-937
▁ref	-938
▁bus	-939
▁seen	-940
▁fil	-941
▁De	-942
▁Q	-943
ech	-944
hip	-945
▁adm	-946
▁Pr	-947
▁8	-948
▁taken	-949
▁Z	-950
ments	-951
▁million	-952
usp	-953
iving	-954
atur	-955
▁never	-956
▁men	-957
▁mem	-958
▁vis	-959
line	-960
ges	-961
vice	-962
▁contin	-963
▁bre	-964
▁sex	-965
▁case	-966
iam	-967
by	-968
▁CNN	-969
vers	-970
▁young	-971
▁9	-972
▁died	-973
▁went	-974
▁find	-975
▁got	-976
self	-977
omet	-978
▁six	-979
ights	-980
▁come	-981
▁Bar	-982
alf	-983
ices	-984
ative	-985
ually	-986
omm	-987
ex	-988
▁came	-989
▁same	-990
▁Joh	-991
▁woman	-992
▁try	-993
nes	-994
▁miss	-995
ient	-996
ys	-997
▁both	-998
ired	-999
osed	-1000
▁foot	-1001
▁cre	-1002
▁place	-1003
ele	-1004
▁ele	-1005
▁susp	-1006
▁Car	-1007
ived	-1008
ute	-1009
▁poin	-1010
▁cur	-1011
▁top	-1012
▁Ob	-1013
▁Wor	-1014
▁camp	-1015
▁For	-1016
▁exper	-1017
▁house	-1018
▁big	-1019
▁ann	-1020
▁spe	-1021
hel	-1022
▁Aust	-1023
▁today	-1024
ility	-1025
▁does	-1026
▁these	-1027
▁South	-1028
▁John	-1029
▁state	-1030
▁cou	-1031
▁Dav	-1032
▁manag	-1033
ched	-1034
ony	-1035
ands	-1036
▁killed	-1037
ency	-1038
▁eff	-1039
aughter	-1040
▁dep	-1041
▁prov	-1042
pr	-1043
▁boy	-1044
▁rece	-1045
▁father	-1046
ird	-1047
aj	-1048
▁wife	-1049
▁On	-1050
▁prev	-1051
els	-1052
▁trans	-1053
rent	-1054
▁pay	-1055
▁sk	-1056
▁club	-1057
ried	-1058
▁Bl	-1059
ield	-1060
▁use	-1061
duc	-1062
▁hospital	-1063
▁rest	-1064
riv	-1065
aff	-1066
ept	-1067
▁spec	-1068
▁fac	-1069
earch	-1070
urned	-1071
▁det	-1072
▁ord	-1073
▁news	-1074
▁World	-1075
▁sub	-1076
▁remain	-1077
▁iss	-1078
▁real	-1079
rug	-1080
▁season	-1081
▁expl	-1082
ball	-1083
▁lit	-1084
▁England	-1085
oved	-1086
▁York	-1087
ific	-1088
att	-1089
▁sever	-1090
▁recent	-1091
▁spokes	-1092
▁son	-1093
til	-1094
ering	-1095
▁game	-1096
▁didn	-1097
▁met	-1098
▁shot	-1099
▁Sund	-1100
pped	-1101
▁Eur	-1102
'.	-1103
orts	-1104
▁12	-1105
▁face	-1106
▁train	-1107
▁far	-1108
▁suff	-1109
▁Christ	-1110
ces	-1111
▁body	-1112
▁health	-1113
▁gl	-1114
▁number	-1115
▁sw	-1116
▁Obama	-1117
▁too	-1118
▁really	-1119
▁reve	-1120
ued	-1121
▁15	-1122
ctor	-1123
▁aff	-1124
▁stop	-1125
▁dire	-1126
▁victim	-1127
▁par	-1128
▁ve	-1129
▁Sunday	-1130
▁somet	-1131
istr	-1132
▁lar	-1133
▁Ro	-1134
▁perf	-1135
▁support	-1136
▁Sy	-1137
itted	-1138
▁alleged	-1139
▁side	-1140
roll	-1141
artment	-1142
amer	-1143
▁mur	-1144
▁City	-1145
▁move	-1146
▁money	-1147
iven	-1148
▁appear	-1149
▁Monday	-1150
▁gen	-1151
▁great	-1152
▁Austral	-1153
▁author	-1154
ik	-1155
iness	-1156
ane	-1157
▁milit	-1158
▁fire	-1159
▁best	-1160
▁inst	-1161
ten	-1162
ann	-1163
inal	-1164
amed	-1165
▁record	-1166
view	-1167
▁hit	-1168
▁sit	-1169
ats	-1170
urity	-1171
▁British	-1172
▁keep	-1173
▁pat	-1174
▁president	-1175
▁poss	-1176
iol	-1177
uesday	-1178
▁West	-1179
ided	-1180
anted	-1181
▁Tuesday	-1182
▁hours	-1183
▁paren	-1184
▁company	-1185
▁How	-1186
▁One	-1187
▁until	-1188
▁Be	-1189
▁let	-1190
▁del	-1191
▁intern	-1192
ended	-1193
▁sim	-1194
▁thought	-1195
▁colle	-1196
▁Pres	-1197
let	-1198
ones	-1199
▁dead	-1200
ished	-1201
uck	-1202
▁following	-1203
ately	-1204
ending	-1205
▁desc	-1206
enn	-1207
▁having	-1208
▁start	-1209
▁invol	-1210
port	-1211
iet	-1212
owed	-1213
▁open	-1214
iversity	-1215
thing	-1216
▁without	-1217
▁Friday	-1218
ailed	-1219
▁differ	-1220
▁18	-1221
▁build	-1222
▁saying	-1223
▁daughter	-1224
aled	-1225
to	-1226
▁pop	-1227
▁League	-1228
▁ago	-1229
▁UK	-1230
▁appe	-1231
ention	-1232
▁statement	-1233
▁Har	-1234
▁few	-1235
▁stri	-1236
▁Wed	-1237
ism	-1238
ense	-1239
▁times	-1240
▁dem	-1241
▁Cup	-1242
aturday	-1243
▁here	-1244
ined	-1245
du	-1246
ways	-1247
idence	-1248
ief	-1249
▁old	-1250
com	-1251
aul	-1252
▁lot	-1253
▁May	-1254
▁oper	-1255
▁soc	-1256
▁pictured	-1257
▁incident	-1258
▁Saturday	-1259
anche	-1260
▁city	-1261
▁proble	-1262
ogra	-1263
▁Miss	-1264
▁Ind	-1265
overed	-1266
▁Min	-1267
Th	-1268
▁drug	-1269
▁Ger	-1270
▁water	-1271
▁Her	-1272
ror	-1273
▁asked	-1274
utes	-1275
▁commun	-1276
▁job	-1277
▁past	-1278
▁opp	-1279
lier	-1280
▁won	-1281
▁feel	-1282
▁bro	-1283
nesday	-1284
con	-1285
▁President	-1286
▁Wednesday	-1287
▁hum	-1288
▁mid	-1289
aid	-1290
▁Ad	-1291
▁known	-1292
stem	-1293
ially	-1294
▁There	-1295
be	-1296
▁Se	-1297
pite	-1298
▁given	-1299
▁each	-1300
▁prom	-1301
▁mod	-1302
▁Ph	-1303
▁across	-1304
cl	-1305
▁area	-1306
ying	-1307
▁cost	-1308
▁deal	-1309
▁officials	-1310
eks	-1311
▁Europe	-1312
band	-1313
atic	-1314
▁11	-1315
▁30	-1316
ior	-1317
▁His	-1318
▁couple	-1319
▁Am	-1320
▁stand	-1321
▁polit	-1322
▁David	-1323
ready	-1324
▁coun	-1325
ising	-1326
rop	-1327
▁stru	-1328
▁able	-1329
use	-1330
ump	-1331
▁caus	-1332
aring	-1333
ards	-1334
▁viol	-1335
uper	-1336
aign	-1337
right	-1338
▁Ms	-1339
ursday	-1340
ploy	-1341
velop	-1342
▁Thursday	-1343
▁pos	-1344
▁along	-1345
▁arrested	-1346
▁travel	-1347
ized	-1348
aun	-1349
iting	-1350
▁current	-1351
▁half	-1352
▁quest	-1353
▁already	-1354
▁saf	-1355
▁av	-1356
▁Fl	-1357
▁little	-1358
ution	-1359
▁parents	-1360
ified	-1361
ects	-1362
▁Pe	-1363
▁ob	-1364
▁Rep	-1365
ection	-1366
▁friends	-1367
▁join	-1368
▁Col	-1369
▁weeks	-1370
ience	-1371
▁prison	-1372
▁system	-1373
▁test	-1374
▁members	-1375
▁believe	-1376
▁hard	-1377
▁When	-1378
▁inform	-1379
▁behind	-1380
▁mor	-1381
▁outside	-1382
▁Will	-1383
▁something	-1384
▁describ	-1385
▁2012	-1386
▁mark	-1387
▁fight	-1388
▁heard	-1389
▁ap	-1390
▁Ab	-1391
▁clear	-1392
reen	-1393
▁released	-1394
▁Russ	-1395
▁Pro	-1396
reet	-1397
book	-1398
oor	-1399
▁taking	-1400
▁lik	-1401
oon	-1402
▁treat	-1403
cess	-1404
▁Scroll	-1405
▁American	-1406
usband	-1407
▁North	-1408
▁using	-1409
head	-1410
▁Court	-1411
ows	-1412
▁Ge	-1413
▁working	-1414
pe	-1415
▁Co	-1416
▁Cr	-1417
ike	-1418
cent	-1419
▁event	-1420
▁business	-1421
▁murder	-1422
▁started	-1423
▁claims	-1424
ored	-1425
udge	-1426
▁art	-1427
iously	-1428
▁requ	-1429
▁campaign	-1430
gy	-1431
▁el	-1432
▁conv	-1433
ajor	-1434
af	-1435
ained	-1436
atter	-1437
▁tell	-1438
▁199	-1439
enal	-1440
▁After	-1441
anchester	-1442
▁est	-1443
▁concer	-1444
ales	-1445
rew	-1446
▁meet	-1447
ries	-1448
▁adv	-1449
▁cele	-1450
esc	-1451
▁lost	-1452
▁gun	-1453
▁local	-1454
ming	-1455
eng	-1456
▁early	-1457
▁Manchester	-1458
▁Mich	-1459
ael	-1460
),	-1461
▁incre	-1462
▁sold	-1463
▁players	-1464
▁spokesman	-1465
▁Mrs	-1466
▁hold	-1467
▁Comm	-1468
ars	-1469
▁several	-1470
secut	-1471
▁officers	-1472
▁threat	-1473
▁bab	-1474
▁less	-1475
▁develop	-1476
BC	-1477
▁always	-1478
▁announ	-1479
▁become	-1480
▁give	-1481
ests	-1482
▁husband	-1483
▁sn	-1484
▁16	-1485
akes	-1486
▁prof	-1487
▁Gr	-1488
▁least	-1489
▁cust	-1490
▁making	-1491
ians	-1492
▁fact	-1493
less	-1494
He	-1495
ccess	-1496
▁shows	-1497
une	-1498
▁wanted	-1499
rain	-1500
▁saw	-1501
way	-1502
▁mom	-1503
▁whether	-1504
▁cer	-1505
▁proper	-1506
▁crit	-1507
▁Sec	-1508
ject	-1509
▁mess	-1510
▁Jan	-1511
▁press	-1512
▁All	-1513
▁power	-1514
▁design	-1515
▁military	-1516
▁front	-1517
▁security	-1518
ators	-1519
ional	-1520
▁final	-1521
million	-1522
▁sum	-1523
wit	-1524
▁Tr	-1525
fic	-1526
▁Face	-1527
▁dog	-1528
▁view	-1529
▁small	-1530
▁fore	-1531
▁claimed	-1532
▁media	-1533
▁ed	-1534
alif	-1535
▁Ser	-1536
most	-1537
▁Dr	-1538
▁different	-1539
▁25	-1540
▁Off	-1541
ases	-1542
ester	-1543
▁ris	-1544
▁Afric	-1545
▁trying	-1546
▁cut	-1547
ium	-1548
▁That	-1549
▁revealed	-1550
1,	-1551
go	-1552
▁shoot	-1553
▁University	-1554
▁full	-1555
▁hist	-1556
gram	-1557
▁Facebook	-1558
▁attem	-1559
▁minutes	-1560
ev	-1561
▁investigation	-1562
▁food	-1563
ush	-1564
▁dra	-1565
ator	-1566
▁held	-1567
cher	-1568
nt	-1569
▁staff	-1570
▁earlier	-1571
▁Dep	-1572
▁rul	-1573
▁book	-1574
▁love	-1575
ington	-1576
▁himself	-1577
▁close	-1578
▁morning	-1579
lex	-1580
of	-1581
here	-1582
▁sing	-1583
▁must	-1584
▁room	-1585
▁seem	-1586
▁major	-1587
▁ever	-1588
▁If	-1589
▁fur	-1590
▁goal	-1591
ressed	-1592
ern	-1593
▁celebr	-1594
▁emer	-1595
▁better	-1596
▁authorities	-1597
ald	-1598
istan	-1599
▁short	-1600
▁14	-1601
▁pain	-1602
▁might	-1603
ille	-1604
▁tax	-1605
▁third	-1606
▁looking	-1607
▁consid	-1608
▁ident	-1609
bed	-1610
▁land	-1611
left	-1612
elt	-1613
▁decision	-1614
ran	-1615
▁Ju	-1616
▁Britain	-1617
▁among	-1618
▁ban	-1619
my	-1620
▁watch	-1621
▁free	-1622
▁Man	-1623
ey	-1624
▁occ	-1625
▁name	-1626
aced	-1627
sea	-1628
▁wrote	-1629
▁success	-1630
▁arri	-1631
▁House	-1632
▁tre	-1633
▁ple	-1634
▁began	-1635
▁charges	-1636
▁accused	-1637
ee	-1638
▁live	-1639
ler	-1640
gether	-1641
▁together	-1642
▁sugg	-1643
3,	-1644
▁laun	-1645
ford	-1646
▁party	-1647
▁hot	-1648
room	-1649
▁return	-1650
▁hom	-1651
▁However	-1652
▁main	-1653
▁stay	-1654
▁things	-1655
ai	-1656
ances	-1657
▁Ed	-1658
ampions	-1659
▁match	-1660
ically	-1661
▁expected	-1662
ize	-1663
echn	-1664
ole	-1665
▁charged	-1666
urch	-1667
▁wa	-1668
▁Count	-1669
▁You	-1670
▁organ	-1671
▁information	-1672
▁17	-1673
▁appro	-1674
▁ground	-1675
▁Par	-1676
gin	-1677
cept	-1678
▁level	-1679
▁football	-1680
0,000	-1681
▁cor	-1682
▁German	-1683
▁due	-1684
▁Cent	-1685
▁seven	-1686
▁partic	-1687
▁form	-1688
▁wear	-1689
▁program	-1690
ides	-1691
uary	-1692
conom	-1693
▁change	-1694
▁dist	-1695
▁Con	-1696
▁became	-1697
▁heart	-1698
cil	-1699
▁fall	-1700
acy	-1701
▁eight	-1702
▁No	-1703
▁Geor	-1704
▁phone	-1705
ology	-1706
gest	-1707
▁Gu	-1708
ature	-1709
▁visit	-1710
▁States	-1711
,.	-1712
aving	-1713
▁evidence	-1714
ictured	-1715
ung	-1716
str	-1717
▁import	-1718
▁den	-1719
▁dam	-1720
ops	-1721
term	-1722
ighb	-1723
▁compet	-1724
▁Michael	-1725
▁priv	-1726
reed	-1727
vices	-1728
ences	-1729
▁others	-1730
▁kid	-1731
pool	-1732
▁fell	-1733
▁US	-1734
▁El	-1735
▁once	-1736
▁anim	-1737
▁ey	-1738
▁black	-1739
▁site	-1740
▁read	-1741
▁enough	-1742
▁hope	-1743
▁William	-1744
▁point	-1745
wards	-1746
den	-1747
▁service	-1748
▁break	-1749
esterday	-1750
▁happened	-1751
ches	-1752
-1	-1753
▁National	-1754
▁social	-1755
idge	-1756
▁eng	-1757
▁likely	-1758
que	-1759
▁tar	-1760
urg	-1761
▁tried	-1762
▁manager	-1763
▁bar	-1764
▁Acc	-1765
raz	-1766
lish	-1767
oe	-1768
▁road	-1769
▁why	-1770
▁$1	-1771
▁spent	-1772
ox	-1773
▁deb	-1774
omb	-1775
▁done	-1776
▁inside	-1777
▁comes	-1778
friend	-1779
▁brother	-1780
▁confir	-1781
▁believed	-1782
▁webs	-1783
▁trial	-1784
ead	-1785
▁interview	-1786
▁getting	-1787
▁almost	-1788
▁Park	-1789
▁photogra	-1790
▁relations	-1791
▁13	-1792
▁hop	-1793
ocked	-1794
erv	-1795
the	-1796
▁fans	-1797
ission	-1798
▁cour	-1799
▁received	-1800
aut	-1801
eb	-1802
▁100	-1803
▁Dec	-1804
▁econom	-1805
▁spot	-1806
▁baby	-1807
▁doing	-1808
▁officer	-1809
uge	-1810
ream	-1811
anger	-1812
▁wind	-1813
▁host	-1814
irth	-1815
▁international	-1816
▁played	-1817
▁lo	-1818
itness	-1819
▁lives	-1820
aly	-1821
hern	-1822
▁leave	-1823
▁class	-1824
witter	-1825
▁control	-1826
▁involved	-1827
▁January	-1828
▁grand	-1829
▁employ	-1830
▁fut	-1831
stand	-1832
icle	-1833
▁War	-1834
aper	-1835
▁eas	-1836
▁Chel	-1837
▁described	-1838
▁late	-1839
▁produc	-1840
▁walk	-1841
▁techn	-1842
▁office	-1843
▁age	-1844
▁2010	-1845
▁Char	-1846
▁scene	-1847
mp	-1848
ana	-1849
isc	-1850
▁Dem	-1851
▁ball	-1852
orney	-1853
▁Pal	-1854
ped	-1855
▁human	-1856
▁online	-1857
▁comment	-1858
lam	-1859
▁County	-1860
▁talk	-1861
aster	-1862
▁pot	-1863
▁China	-1864
though	-1865
▁squ	-1866
This	-1867
▁writ	-1868
▁list	-1869
▁fund	-1870
ably	-1871
ails	-1872
▁Ang	-1873
ocr	-1874
▁polic	-1875
▁24	-1876
▁fun	-1877
▁teen	-1878
ns	-1879
oke	-1880
▁terror	-1881
▁Ham	-1882
▁gave	-1883
▁Twitter	-1884
▁prosecut	-1885
dle	-1886
▁Sm	-1887
▁compl	-1888
▁reports	-1889
stit	-1890
▁further	-1891
▁execut	-1892
ctors	-1893
▁Liver	-1894
▁Syri	-1895
sp	-1896
row	-1897
itions	-1898
▁led	-1899
ef	-1900
▁50	-1901
ients	-1902
ourn	-1903
▁State	-1904
▁despite	-1905
▁guil	-1906
▁line	-1907
pictured	-1908
▁ide	-1909
▁target	-1910
▁Sept	-1911
▁yet	-1912
▁tw	-1913
▁future	-1914
▁equ	-1915
sel	-1916
▁allegedly	-1917
ought	-1918
aur	-1919
eal	-1920
▁Or	-1921
par	-1922
▁Liverpool	-1923
▁town	-1924
▁special	-1925
▁neighb	-1926
ape	-1927
▁admitted	-1928
ective	-1929
▁strong	-1930
▁Australia	-1931
▁training	-1932
▁legal	-1933
▁mot	-1934
▁player	-1935
▁Republic	-1936
▁thing	-1937
uted	-1938
bert	-1939
▁birth	-1940
▁living	-1941
uff	-1942
▁question	-1943
▁film	-1944
▁capt	-1945
ocum	-1946
ipp	-1947
▁light	-1948
▁Department	-1949
▁Paul	-1950
▁fig	-1951
ached	-1952
ination	-1953
▁ahead	-1954
▁forward	-1955
▁Just	-1956
▁important	-1957
▁veh	-1958
igr	-1959
▁bed	-1960
▁mus	-1961
▁action	-1962
▁national	-1963
▁dou	-1964
▁often	-1965
arm	-1966
ilar	-1967
▁September	-1968
▁2011	-1969
▁Prem	-1970
ti	-1971
ault	-1972
▁community	-1973
▁super	-1974
▁Ex	-1975
raq	-1976
▁News	-1977
ety	-1978
off	-1979
▁blood	-1980
work	-1981
▁Mad	-1982
▁Intern	-1983
▁James	-1984
▁turned	-1985
icted	-1986
▁Chelsea	-1987
ortun	-1988
▁suggest	-1989
▁website	-1990
aliforn	-1991
▁yesterday	-1992
▁TV	-1993
▁Mor	-1994
rench	-1995
▁Gl	-1996
▁bit	-1997
▁bring	-1998
▁gra	-1999
▁strik	-2000
▁appeared	-2001
▁bad	-2002
▁Iraq	-2003
▁within	-2004
▁Air	-2005
ensive	-2006
▁di	-2007
▁order	-2008
▁guilty	-2009
ening	-2010
▁Mart	-2011
ederal	-2012
▁Sw	-2013
acher	-2014
▁interest	-2015
▁Californ	-2016
▁cover	-2017
▁search	-2018
aded	-2019
**	-2020
aps	-2021
▁large	-2022
aught	-2023
▁process	-2024
▁Jack	-2025
ficult	-2026
▁camer	-2027
▁chall	-2028
.5	-2029
▁activ	-2030
2,	-2031
gency	-2032
▁lear	-2033
▁possible	-2034
▁Pl	-2035
iation	-2036
▁forced	-2037
eck	-2038
▁June	-2039
agn	-2040
▁political	-2041
for	-2042
▁Aug	-2043
▁someone	-2044
▁beat	-2045
▁playing	-2046
mber	-2047
▁net	-2048
▁40	-2049
▁Me	-2050
itive	-2051
▁summer	-2052
▁carry	-2053
▁pub	-2054
▁sol	-2055
▁According	-2056
ona	-2057
▁building	-2058
ented	-2059
▁defend	-2060
▁turn	-2061
▁hol	-2062
pted	-2063
▁difficult	-2064
uries	-2065
▁students	-2066
yle	-2067
inc	-2068
ring	-2069
▁California	-2070
▁Ste	-2071
ills	-2072
▁bene	-2073
ories	-2074
▁December	-2075
▁risk	-2076
▁caused	-2077
▁ty	-2078
▁imm	-2079
▁victims	-2080
▁Premier	-2081
▁Oct	-2082
▁worked	-2083
▁Roy	-2084
oo	-2085
▁Mil	-2086
▁red	-2087
enced	-2088
▁Can	-2089
',	-2090
ico	-2091
ovember	-2092
▁posted	-2093
irc	-2094
▁docum	-2095
▁relationship	-2096
lin	-2097
▁suffered	-2098
▁ask	-2099
▁series	-2100
▁Sam	-2101
▁custom	-2102
▁Ear	-2103
▁August	-2104
▁respons	-2105
▁contrib	-2106
▁famil	-2107
ober	-2108
rought	-2109
▁history	-2110
▁medical	-2111
oring	-2112
▁round	-2113
▁announced	-2114
iding	-2115
▁Em	-2116
ivil	-2117
omp	-2118
▁study	-2119
attle	-2120
▁White	-2121
▁quick	-2122
▁moment	-2123
▁condition	-2124
not	-2125
unt	-2126
pril	-2127
▁treatment	-2128
▁miles	-2129
weet	-2130
▁French	-2131
ino	-2132
cel	-2133
isted	-2134
▁judge	-2135
ron	-2136
▁chief	-2137
▁Wash	-2138
▁November	-2139
▁word	-2140
▁leaders	-2141
time	-2142
joy	-2143
▁step	-2144
▁hor	-2145
▁cancer	-2146
▁showed	-2147
▁pair	-2148
cted	-2149
▁ill	-2150
▁pick	-2151
▁tal	-2152
▁April	-2153
erry	-2154
9,	-2155
▁198	-2156
▁March	-2157
▁director	-2158
int	-2159
▁Minister	-2160
ession	-2161
▁America	-2162
▁currently	-2163
▁coming	-2164
▁leader	-2165
▁Ass	-2166
▁accident	-2167
▁Ars	-2168
▁July	-2169
▁sour	-2170
▁wrong	-2171
▁story	-2172
retary	-2173
▁tour	-2174
▁tit	-2175
▁October	-2176
uation	-2177
me	-2178
ray	-2179
▁shop	-2180
▁games	-2181
▁sure	-2182
▁continue	-2183
▁Washington	-2184
ousands	-2185
▁Kore	-2186
▁anything	-2187
▁hig	-2188
▁rights	-2189
▁elect	-2190
medi	-2191
▁plans	-2192
▁i	-2193
▁surv	-2194
▁sell	-2195
▁mass	-2196
▁mean	-2197
▁comple	-2198
▁Sen	-2199
8,	-2200
ging	-2201
▁dro	-2202
▁store	-2203
▁role	-2204
▁Go	-2205
▁repl	-2206
▁park	-2207
oman	-2208
ential	-2209
mas	-2210
field	-2211
▁tem	-2212
ults	-2213
ata	-2214
▁sexual	-2215
▁produ	-2216
▁App	-2217
▁popular	-2218
▁European	-2219
▁insp	-2220
▁nearly	-2221
▁soon	-2222
▁So	-2223
ask	-2224
▁coll	-2225
▁resident	-2226
uel	-2227
ots	-2228
▁lim	-2229
6,	-2230
▁problem	-2231
selves	-2232
▁kind	-2233
▁Ne	-2234
aily	-2235
▁disapp	-2236
▁Des	-2237
▁feat	-2238
▁picture	-2239
▁recently	-2240
▁decided	-2241
order	-2242
7,	-2243
▁discovered	-2244
▁nation	-2245
▁exc	-2246
min	-2247
▁missing	-2248
▁While	-2249
▁Res	-2250
▁lat	-2251
▁prop	-2252
▁enjoy	-2253
aces	-2254
▁arg	-2255
por	-2256
▁property	-2257
ades	-2258
▁repres	-2259
osing	-2260
ality	-2261
▁named	-2262
▁strugg	-2263
▁fav	-2264
avy	-2265
▁paid	-2266
▁nothing	-2267
▁white	-2268
eth	-2269
ida	-2270
▁low	-2271
▁countries	-2272
rid	-2273
▁orig	-2274
▁failed	-2275
▁whose	-2276
▁lif	-2277
▁hands	-2278
yl	-2279
▁tot	-2280
▁course	-2281
▁similar	-2282
▁fear	-2283
▁enc	-2284
▁ri	-2285
iers	-2286
gress	-2287
ference	-2288
▁With	-2289
▁Angel	-2290
▁esc	-2291
read	-2292
▁serious	-2293
▁immedi	-2294
cast	-2295
▁challen	-2296
▁problems	-2297
▁moved	-2298
▁Phil	-2299
▁crim	-2300
lim	-2301
▁result	-2302
▁Some	-2303
▁girls	-2304
ding	-2305
▁market	-2306
▁looked	-2307
▁career	-2308
ournal	-2309
▁2013	-2310
iec	-2311
▁lawy	-2312
▁brought	-2313
ps	-2314
▁vot	-2315
▁nine	-2316
▁impro	-2317
lo	-2318
ither	-2319
▁driver	-2320
▁val	-2321
▁dest	-2322
▁latest	-2323
▁er	-2324
▁Sch	-2325
▁Im	-2326
▁Champions	-2327
▁flight	-2328
▁injuries	-2329
ips	-2330
▁issue	-2331
▁weekend	-2332
▁bur	-2333
sc	-2334
▁track	-2335
▁knew	-2336
▁crash	-2337
▁extrem	-2338
▁hearing	-2339
▁member	-2340
▁Islam	-2341
▁init	-2342
▁board	-2343
There	-2344
They	-2345
▁Rich	-2346
ery	-2347
ij	-2348
▁chance	-2349
▁Last	-2350
▁remains	-2351
▁France	-2352
▁makes	-2353
▁include	-2354
▁East	-2355
▁Med	-2356
▁Pat	-2357
itch	-2358
▁tro	-2359
yn	-2360
▁Lab	-2361
▁Dan	-2362
ulation	-2363
▁Mid	-2364
▁charge	-2365
▁account	-2366
rael	-2367
▁Christmas	-2368
reg	-2369
ashed	-2370
▁sen	-2371
▁felt	-2372
▁Que	-2373
▁Alex	-2374
▁cause	-2375
▁means	-2376
ston	-2377
▁plane	-2378
▁comments	-2379
wood	-2380
ghan	-2381
▁ran	-2382
▁Mail	-2383
kn	-2384
▁gener	-2385
▁leaving	-2386
▁Su	-2387
umb	-2388
▁drink	-2389
ett	-2390
▁danger	-2391
aged	-2392
▁shooting	-2393
▁certain	-2394
▁safety	-2395
▁access	-2396
▁Hol	-2397
cle	-2398
▁running	-2399
▁Lu	-2400
▁driving	-2401
▁Two	-2402
▁killing	-2403
▁cases	-2404
▁Braz	-2405
4,	-2406
undred	-2407
▁student	-2408
back	-2409
▁trad	-2410
▁arrived	-2411
▁violence	-2412
▁private	-2413
▁Mark	-2414
▁Camer	-2415
lying	-2416
▁Feb	-2417
▁rad	-2418
ains	-2419
▁race	-2420
▁decl	-2421
▁civil	-2422
▁families	-2423
ners	-2424
▁Israel	-2425
▁21	-2426
EO	-2427
▁cho	-2428
iety	-2429
▁force	-2430
▁happy	-2431
▁allowed	-2432
▁respond	-2433
▁Flor	-2434
▁Rob	-2435
▁Mus	-2436
raft	-2437
ilt	-2438
ky	-2439
▁Red	-2440
▁aut	-2441
▁points	-2442
▁huge	-2443
▁injured	-2444
▁Afghan	-2445
▁Tra	-2446
▁sle	-2447
▁George	-2448
▁abuse	-2449
▁thousands	-2450
▁prob	-2451
wh	-2452
ounds	-2453
▁crime	-2454
onald	-2455
▁Cor	-2456
▁critic	-2457
▁wants	-2458
lished	-2459
▁X	-2460
▁prep	-2461
ruary	-2462
▁injury	-2463
▁Brown	-2464
▁Ber	-2465
ping	-2466
▁anyone	-2467
▁laws	-2468
▁married	-2469
▁Brazil	-2470
▁mov	-2471
▁confirmed	-2472
▁Mex	-2473
-0	-2474
▁station	-2475
▁McC	-2476
▁federal	-2477
▁February	-2478
▁benef	-2479
fully	-2480
uty	-2481
▁commit	-2482
▁pun	-2483
▁fem	-2484
▁doesn	-2485
▁needed	-2486
▁thr	-2487
▁forces	-2488
▁attacks	-2489
▁Hospital	-2490
asing	-2491
acted	-2492
▁tele	-2493
▁Wil	-2494
oid	-2495
ption	-2496
▁photo	-2497
▁meas	-2498
orman	-2499
▁themselves	-2500
▁release	-2501
aker	-2502
▁returned	-2503
▁attorney	-2504
).	-2505
▁pri	-2506
▁avail	-2507
▁Arsenal	-2508
▁King	-2509
owd	-2510
▁research	-2511
▁images	-2512
▁Africa	-2513
▁fail	-2514
irt	-2515
▁self	-2516
▁workers	-2517
▁weap	-2518
▁particular	-2519
▁Democr	-2520
ese	-2521
ibility	-2522
ken	-2523
▁message	-2524
hire	-2525
▁boss	-2526
ises	-2527
▁Now	-2528
▁San	-2529
▁circ	-2530
▁helped	-2531
mon	-2532
▁foc	-2533
▁experience	-2534
ental	-2535
▁Mal	-2536
iff	-2537
▁caught	-2538
▁Mur	-2539
▁School	-2540
ease	-2541
▁everything	-2542
▁Fer	-2543
▁creat	-2544
ara	-2545
▁vol	-2546
▁cross	-2547
▁My	-2548
▁patients	-2549
▁Ben	-2550
▁based	-2551
▁Florida	-2552
▁[	-2553
▁neg	-2554
sw	-2555
▁Australian	-2556
▁BBC	-2557
▁div	-2558
▁bank	-2559
▁What	-2560
▁image	-2561
▁personal	-2562
5,	-2563
▁gone	-2564
na	-2565
▁conn	-2566
oard	-2567
▁expect	-2568
▁understand	-2569
ze	-2570
atives	-2571
▁meeting	-2572
▁space	-2573
▁Lou	-2574
▁Smith	-2575
▁Iran	-2576
▁rac	-2577
▁coach	-2578
▁jail	-2579
▁Bro	-2580
▁worth	-2581
ager	-2582
▁perform	-2583
▁hon	-2584
▁sister	-2585
iron	-2586
▁wasn	-2587
▁High	-2588
▁drugs	-2589
▁surger	-2590
ently	-2591
▁chang	-2592
verage	-2593
▁percent	-2594
30	-2595
iber	-2596
uit	-2597
imate	-2598
▁available	-2599
▁victory	-2600
▁witness	-2601
▁idea	-2602
che	-2603
▁suppor	-2604
rup	-2605
▁ste	-2606
20	-2607
chers	-2608
▁services	-2609
apan	-2610
iod	-2611
iant	-2612
▁goals	-2613
▁billion	-2614
▁page	-2615
▁reach	-2616
ivid	-2617
▁clos	-2618
▁wat	-2619
She	-2620
▁situation	-2621
▁pract	-2622
▁looks	-2623
▁rather	-2624
50	-2625
▁assault	-2626
riage	-2627
ushed	-2628
▁determ	-2629
amb	-2630
▁door	-2631
▁amb	-2632
istrict	-2633
▁More	-2634
▁areas	-2635
▁rob	-2636
▁bill	-2637
▁sentence	-2638
▁resc	-2639
gn	-2640
▁born	-2641
▁wearing	-2642
itional	-2643
▁loss	-2644
▁pictures	-2645
▁ten	-2646
▁abs	-2647
form	-2648
▁buy	-2649
▁box	-2650
▁position	-2651
engers	-2652
▁present	-2653
▁capital	-2654
▁hotel	-2655
▁complain	-2656
de	-2657
▁Royal	-2658
▁197	-2659
▁Japan	-2660
ola	-2661
owers	-2662
▁doctors	-2663
urb	-2664
▁Day	-2665
hood	-2666
▁mat	-2667
▁actually	-2668
▁sat	-2669
▁kept	-2670
▁discuss	-2671
▁International	-2672
▁emb	-2673
uct	-2674
▁centre	-2675
lymp	-2676
▁z	-2677
▁wed	-2678
You	-2679
▁cell	-2680
▁MP	-2681
▁longer	-2682
▁van	-2683
▁created	-2684
▁deep	-2685
▁cannot	-2686
arent	-2687
▁Tex	-2688
▁street	-2689
▁dev	-2690
IS	-2691
▁draw	-2692
▁mag	-2693
▁music	-2694
▁indust	-2695
▁teacher	-2696
▁alleg	-2697
▁needs	-2698
▁Gover	-2699
▁English	-2700
ogn	-2701
▁owner	-2702
▁reason	-2703
▁leading	-2704
▁Olymp	-2705
▁22	-2706
anged	-2707
▁Te	-2708
▁Pak	-2709
▁lab	-2710
ergy	-2711
▁stra	-2712
▁cal	-2713
ny	-2714
rey	-2715
▁trip	-2716
▁fat	-2717
key	-2718
▁ens	-2719
▁admin	-2720
urt	-2721
4.	-2722
▁scored	-2723
▁Syria	-2724
oving	-2725
▁behav	-2726
▁phys	-2727
▁calls	-2728
▁everyone	-2729
undreds	-2730
▁matter	-2731
pm	-2732
▁£	-2733
▁camera	-2734
ival	-2735
9.	-2736
▁criminal	-2737
▁carried	-2738
ert	-2739
▁surpr	-2740
▁vehicle	-2741
▁provide	-2742
▁period	-2743
▁begin	-2744
▁policy	-2745
▁Prime	-2746
▁single	-2747
▁letter	-2748
▁const	-2749
co	-2750
▁dont	-2751
▁disp	-2752
▁Scot	-2753
alled	-2754
▁Coun	-2755
▁surgery	-2756
▁bomb	-2757
▁separ	-2758
inese	-2759
▁groups	-2760
mar	-2761
oura	-2762
▁north	-2763
phy	-2764
▁Offic	-2765
▁issues	-2766
▁Vict	-2767
▁launched	-2768
▁photos	-2769
▁Russia	-2770
ris	-2771
If	-2772
▁whole	-2773
▁assist	-2774
▁speak	-2775
▁Scott	-2776
▁feet	-2777
▁1,	-2778
▁allow	-2779
▁Cameron	-2780
▁protect	-2781
▁above	-2782
▁seek	-2783
roy	-2784
▁agency	-2785
▁Sim	-2786
acked	-2787
▁south	-2788
▁opportun	-2789
▁tru	-2790
▁takes	-2791
▁dom	-2792
▁surve	-2793
▁link	-2794
▁included	-2795
▁users	-2796
oint	-2797
▁Its	-2798
acter	-2799
▁anti	-2800
▁firm	-2801
▁Pakistan	-2802
▁norm	-2803
▁displ	-2804
icide	-2805
▁previously	-2806
▁dress	-2807
▁Martin	-2808
▁Germany	-2809
▁key	-2810
▁Texas	-2811
oming	-2812
▁Madrid	-2813
lands	-2814
▁convicted	-2815
▁pressure	-2816
▁penal	-2817
▁educ	-2818
▁average	-2819
▁bas	-2820
▁previous	-2821
▁extra	-2822
▁individ	-2823
▁warned	-2824
epend	-2825
▁Rod	-2826
▁refused	-2827
▁believes	-2828
▁mob	-2829
Wh	-2830
▁Street	-2831
▁profess	-2832
▁brain	-2833
In	-2834
iled	-2835
▁title	-2836
ma	-2837
▁Black	-2838
▁senior	-2839
body	-2840
action	-2841
▁storm	-2842
▁continued	-2843
▁Russian	-2844
tee	-2845
ify	-2846
▁Williams	-2847
▁cand	-2848
▁Gen	-2849
▁homes	-2850
▁model	-2851
ift	-2852
▁disease	-2853
rovers	-2854
▁Cong	-2855
▁data	-2856
oph	-2857
▁hair	-2858
▁glob	-2859
▁60	-2860
▁Franc	-2861
▁performan	-2862
▁beaut	-2863
▁however	-2864
cement	-2865
▁mult	-2866
▁demand	-2867
vision	-2868
▁financ	-2869
▁female	-2870
esp	-2871
▁region	-2872
▁bag	-2873
▁crew	-2874
▁contributed	-2875
▁Chinese	-2876
eat	-2877
▁comb	-2878
▁pred	-2879
ude	-2880
ees	-2881
▁Real	-2882
▁Not	-2883
▁total	-2884
▁piec	-2885
istration	-2886
▁immediately	-2887
▁Port	-2888
urning	-2889
▁infl	-2890
▁Op	-2891
▁field	-2892
▁grow	-2893
▁crowd	-2894
ada	-2895
▁weight	-2896
▁wal	-2897
▁stage	-2898
▁scient	-2899
▁contract	-2900
berg	-2901
TV	-2902
▁denied	-2903
onse	-2904
▁offer	-2905
yan	-2906
oul	-2907
▁compan	-2908
shire	-2909
▁speed	-2910
▁var	-2911
▁Bel	-2912
▁quite	-2913
▁Val	-2914
▁striker	-2915
▁quickly	-2916
vert	-2917
▁Sir	-2918
▁Bay	-2919
▁chair	-2920
enger	-2921
▁instead	-2922
▁contact	-2923
oud	-2924
▁Secretary	-2925
▁Per	-2926
ID	-2927
▁IS	-2928
▁Ken	-2929
▁holiday	-2930
▁pregn	-2931
▁safe	-2932
▁hear	-2933
▁direct	-2934
▁Uk	-2935
▁To	-2936
overy	-2937
inger	-2938
aves	-2939
▁hour	-2940
▁sun	-2941
▁vill	-2942
▁journal	-2943
▁works	-2944
▁Americans	-2945
gal	-2946
emy	-2947
▁joined	-2948
▁sal	-2949
▁23	-2950
▁although	-2951
▁quar	-2952
ificant	-2953
▁biggest	-2954
▁bid	-2955
▁damage	-2956
▁refer	-2957
▁tweet	-2958
ugh	-2959
pro	-2960
ander	-2961
oper	-2962
hest	-2963
▁eye	-2964
night	-2965
▁fighting	-2966
▁Clin	-2967
▁price	-2968
▁non	-2969
▁passengers	-2970
▁har	-2971
▁states	-2972
het	-2973
▁battle	-2974
itor	-2975
▁card	-2976
▁lived	-2977
▁immigr	-2978
▁reportedly	-2979
▁regular	-2980
lect	-2981
▁port	-2982
olf	-2983
▁Je	-2984
ider	-2985
▁Despite	-2986
irst	-2987
▁giving	-2988
vent	-2989
▁minister	-2990
▁residents	-2991
▁potential	-2992
▁operation	-2993
inks	-2994
▁foreign	-2995
▁Prince	-2996
5.	-2997
▁pul	-2998
▁represent	-2999
▁answ	-3000
▁inqu	-3001
▁occur	-3002
▁cars	-3003
▁iP	-3004
▁2008	-3005
orthern	-3006
▁marriage	-3007
▁Richard	-3008
▁entire	-3009
▁cat	-3010
uk	-3011
earchers	-3012
ode	-3013
▁famous	-3014
▁raised	-3015
▁towards	-3016
▁photograph	-3017
imb	-3018
▁cred	-3019
▁jump	-3020
▁reb	-3021
ament	-3022
▁Muslim	-3023
▁customers	-3024
▁Labour	-3025
▁Council	-3026
▁details	-3027
▁conditions	-3028
▁pet	-3029
▁table	-3030
gu	-3031
▁rock	-3032
▁ille	-3033
▁comput	-3034
▁response	-3035
▁26	-3036
▁share	-3037
▁sleep	-3038
On	-3039
▁Former	-3040
▁technology	-3041
▁squad	-3042
▁ended	-3043
▁sil	-3044
▁doub	-3045
▁executive	-3046
▁review	-3047
▁Los	-3048
▁project	-3049
▁pil	-3050
▁Tur	-3051
▁built	-3052
▁trou	-3053
estern	-3054
▁attention	-3055
omas	-3056
ization	-3057
▁herself	-3058
ique	-3059
ica	-3060
▁mist	-3061
ply	-3062
▁Part	-3063
▁source	-3064
▁winning	-3065
▁196	-3066
▁followed	-3067
▁shown	-3068
▁offered	-3069
▁Office	-3070
otten	-3071
▁vote	-3072
▁mind	-3073
▁Do	-3074
▁signed	-3075
▁allegations	-3076
▁Health	-3077
▁hous	-3078
▁stab	-3079
▁stopped	-3080
▁mis	-3081
▁spend	-3082
▁$2	-3083
▁faces	-3084
riff	-3085
ires	-3086
▁common	-3087
ashion	-3088
▁create	-3089
▁term	-3090
▁restaur	-3091
viron	-3092
▁address	-3093
▁Ke	-3094
▁partner	-3095
▁newsp	-3096
▁1.	-3097
▁controvers	-3098
▁emergency	-3099
▁conference	-3100
ado	-3101
▁passed	-3102
:.	-3103
ule	-3104
▁African	-3105
▁traff	-3106
▁range	-3107
based	-3108
eated	-3109
illed	-3110
astic	-3111
▁treated	-3112
▁ur	-3113
▁Rom	-3114
▁cult	-3115
▁spoke	-3116
▁Another	-3117
▁Chris	-3118
▁cru	-3119
▁apparent	-3120
▁trib	-3121
▁recogn	-3122
iger	-3123
▁broke	-3124
But	-3125
orry	-3126
▁poll	-3127
erc	-3128
ogle	-3129
sex	-3130
▁Cle	-3131
▁gold	-3132
▁Def	-3133
▁kids	-3134
▁Spe	-3135
▁Apple	-3136
▁election	-3137
iction	-3138
7.	-3139
▁Mel	-3140
▁Author	-3141
▁general	-3142
▁Government	-3143
adium	-3144
▁Scotland	-3145
▁cit	-3146
ams	-3147
ohol	-3148
▁floor	-3149
▁council	-3150
▁opening	-3151
▁shock	-3152
▁appears	-3153
▁aged	-3154
▁lawyer	-3155
ender	-3156
asons	-3157
▁Afghanistan	-3158
▁results	-3159
▁Daily	-3160
▁aftern	-3161
▁ordered	-3162
▁significant	-3163
▁Louis	-3164
cohol	-3165
▁Peter	-3166
▁rare	-3167
▁suspect	-3168
iated	-3169
ini	-3170
orks	-3171
oms	-3172
▁check	-3173
▁broad	-3174
▁India	-3175
▁impact	-3176
▁published	-3177
aud	-3178
▁clean	-3179
rab	-3180
▁animals	-3181
▁attr	-3182
▁Span	-3183
▁Spain	-3184
sy	-3185
▁Cap	-3186
unk	-3187
han	-3188
arr	-3189
▁events	-3190
▁captain	-3191
▁afternoon	-3192
▁cash	-3193
▁rout	-3194
▁poor	-3195
pher	-3196
mark	-3197
▁By	-3198
▁words	-3199
▁bod	-3200
bor	-3201
ancy	-3202
down	-3203
▁wedding	-3204
▁fra	-3205
raw	-3206
▁jailed	-3207
▁Johnson	-3208
▁opened	-3209
▁agreed	-3210
▁Wales	-3211
▁kick	-3212
▁appeal	-3213
▁nearby	-3214
rol	-3215
▁sentenced	-3216
▁increase	-3217
▁stre	-3218
ural	-3219
HS	-3220
ension	-3221
▁companies	-3222
▁bul	-3223
▁Inst	-3224
▁either	-3225
▁dangerous	-3226
▁finally	-3227
▁Angeles	-3228
ho	-3229
airs	-3230
▁pret	-3231
ceed	-3232
▁score	-3233
craft	-3234
▁Mic	-3235
▁attend	-3236
ca	-3237
▁hundreds	-3238
dney	-3239
▁identified	-3240
▁Google	-3241
500	-3242
ils	-3243
iate	-3244
▁animal	-3245
▁deliver	-3246
ecess	-3247
▁esp	-3248
▁Che	-3249
▁surf	-3250
▁bought	-3251
come	-3252
▁happen	-3253
▁champ	-3254
ishing	-3255
▁unable	-3256
▁boys	-3257
elling	-3258
▁showing	-3259
ample	-3260
set	-3261
vironment	-3262
▁goes	-3263
illa	-3264
▁Clinton	-3265
▁vers	-3266
gent	-3267
▁Sydney	-3268
ya	-3269
▁launch	-3270
▁couldn	-3271
▁28	-3272
▁enter	-3273
▁Bal	-3274
▁pan	-3275
onstr	-3276
▁consum	-3277
▁prevent	-3278
inated	-3279
▁alone	-3280
▁financial	-3281
▁footage	-3282
▁costs	-3283
▁bott	-3284
ecially	-3285
▁Jones	-3286
nder	-3287
▁Qu	-3288
▁issued	-3289
▁jury	-3290
▁Congress	-3291
▁figures	-3292
aked	-3293
▁questions	-3294
▁surround	-3295
▁aim	-3296
▁Van	-3297
▁mill	-3298
▁mater	-3299
▁weather	-3300
▁encoura	-3301
▁twice	-3302
▁Cam	-3303
▁gas	-3304
▁attempt	-3305
▁parts	-3306
▁Korea	-3307
▁drive	-3308
▁Mexico	-3309
istic	-3310
▁Law	-3311
fort	-3312
ibly	-3313
▁peace	-3314
ground	-3315
▁oppos	-3316
▁Kim	-3317
▁probably	-3318
▁estim	-3319
rupt	-3320
▁evening	-3321
▁suffering	-3322
icket	-3323
▁Carol	-3324
▁amount	-3325
▁Center	-3326
▁wall	-3327
▁challenge	-3328
▁touch	-3329
▁unf	-3330
▁changed	-3331
▁ver	-3332
▁complet	-3333
▁sens	-3334
▁brand	-3335
▁charity	-3336
▁Sal	-3337
▁Jackson	-3338
▁coast	-3339
▁aud	-3340
while	-3341
▁ang	-3342
▁spending	-3343
▁network	-3344
rian	-3345
▁Crown	-3346
ellig	-3347
▁attacked	-3348
uing	-3349
▁troops	-3350
▁indic	-3351
▁jud	-3352
▁seems	-3353
-2	-3354
▁consider	-3355
▁diagn	-3356
▁onto	-3357
▁growing	-3358
▁girlfriend	-3359
SA	-3360
▁engine	-3361
ipped	-3362
▁emerged	-3363
▁schools	-3364
chie	-3365
▁ship	-3366
▁fle	-3367
▁considered	-3368
▁focus	-3369
▁rev	-3370
▁industry	-3371
ials	-3372
▁Wood	-3373
▁managed	-3374
ari	-3375
▁size	-3376
vest	-3377
▁candid	-3378
▁Hill	-3379
ares	-3380
▁else	-3381
ux	-3382
▁complete	-3383
gic	-3384
▁Tod	-3385
pting	-3386
▁calling	-3387
▁performance	-3388
bre	-3389
▁Matt	-3390
▁pulled	-3391
▁warning	-3392
▁border	-3393
rel	-3394
men	-3395
▁penalty	-3396
▁Robert	-3397
rif	-3398
▁snow	-3399
▁energy	-3400
iles	-3401
▁fast	-3402
▁remember	-3403
▁removed	-3404
▁request	-3405
celona	-3406
▁doctor	-3407
▁alcohol	-3408
▁simply	-3409
▁base	-3410
aed	-3411
▁obs	-3412
ading	-3413
▁vir	-3414
▁Judge	-3415
1.	-3416
▁award	-3417
▁Step	-3418
▁exam	-3419
▁suit	-3420
▁Assoc	-3421
▁cris	-3422
▁eyes	-3423
▁Att	-3424
▁oil	-3425
▁eventually	-3426
▁trust	-3427
▁Other	-3428
▁airport	-3429
▁arm	-3430
▁especially	-3431
▁fourth	-3432
▁designed	-3433
▁ready	-3434
atory	-3435
▁Italy	-3436
▁27	-3437
lant	-3438
▁fit	-3439
▁spread	-3440
▁Fore	-3441
▁avoid	-3442
ctions	-3443
▁Thomas	-3444
▁save	-3445
▁Barcelona	-3446
duced	-3447
▁economic	-3448
ears	-3449
▁Mary	-3450
▁transfer	-3451
▁pack	-3452
▁effort	-3453
▁soldiers	-3454
▁emot	-3455
rief	-3456
When	-3457
▁din	-3458
isters	-3459
▁wild	-3460
▁Andrew	-3461
▁Green	-3462
▁display	-3463
▁send	-3464
▁apolog	-3465
▁moving	-3466
▁Lib	-3467
▁Nor	-3468
▁citiz	-3469
▁Jos	-3470
▁unl	-3471
oz	-3472
▁Ev	-3473
▁Ital	-3474
oes	-3475
▁concerns	-3476
mit	-3477
ielder	-3478
▁Times	-3479
▁Sur	-3480
▁rules	-3481
ki	-3482
▁FA	-3483
▁largest	-3484
elled	-3485
▁cy	-3486
icks	-3487
ersey	-3488
▁fre	-3489
▁changes	-3490
▁Gar	-3491
▁temper	-3492
▁served	-3493
ighters	-3494
▁independ	-3495
▁demonstr	-3496
inary	-3497
hold	-3498
▁intro	-3499
▁Paris	-3500
▁fellow	-3501
▁middle	-3502
▁Queen	-3503
▁minute	-3504
▁item	-3505
▁television	-3506
▁These	-3507
well	-3508
▁adding	-3509
▁Det	-3510
▁struck	-3511
aches	-3512
ability	-3513
▁Republican	-3514
▁skin	-3515
▁During	-3516
▁secret	-3517
ube	-3518
▁fired	-3519
▁natur	-3520
▁perfect	-3521
▁speech	-3522
fielder	-3523
lor	-3524
ram	-3525
▁ice	-3526
outhern	-3527
▁opportunity	-3528
anda	-3529
▁Victor	-3530
▁date	-3531
▁global	-3532
▁lack	-3533
▁newspaper	-3534
▁Indian	-3535
▁Bill	-3536
▁dism	-3537
istry	-3538
6.	-3539
▁sched	-3540
▁experts	-3541
olution	-3542
oned	-3543
▁Ros	-3544
▁Far	-3545
ounts	-3546
▁conc	-3547
woman	-3548
▁explos	-3549
▁Tom	-3550
▁Lee	-3551
▁improve	-3552
▁carrying	-3553
▁weapons	-3554
00,000	-3555
▁aircraft	-3556
▁efforts	-3557
▁motor	-3558
iling	-3559
liam	-3560
▁Mill	-3561
▁Sand	-3562
▁Many	-3563
▁NHS	-3564
▁acce	-3565
▁fine	-3566
▁Daniel	-3567
▁ep	-3568
▁hopes	-3569
▁vo	-3570
0.	-3571
▁straight	-3572
▁sport	-3573
roud	-3574
ago	-3575
My	-3576
▁Ash	-3577
▁wound	-3578
lear	-3579
▁dogs	-3580
▁People	-3581
▁apartment	-3582
▁sym	-3583
light	-3584
▁flood	-3585
add	-3586
▁meant	-3587
▁riv	-3588
▁Camp	-3589
▁pers	-3590
▁higher	-3591
▁Super	-3592
▁dropped	-3593
▁Hall	-3594
▁telling	-3595
▁ren	-3596
▁character	-3597
iny	-3598
arden	-3599
▁competition	-3600
▁La	-3601
liament	-3602
▁bra	-3603
▁&	-3604
mates	-3605
▁holding	-3606
▁po	-3607
IDEO	-3608
▁reached	-3609
month	-3610
ampton	-3611
▁Vir	-3612
akers	-3613
▁messages	-3614
▁VIDEO	-3615
▁completely	-3616
▁responsible	-3617
ites	-3618
▁documents	-3619
▁gang	-3620
▁deaths	-3621
rick	-3622
▁achie	-3623
▁owners	-3624
▁asking	-3625
igg	-3626
▁screen	-3627
cy	-3628
ucky	-3629
▁economy	-3630
▁loved	-3631
▁placed	-3632
▁mobile	-3633
▁custody	-3634
▁terms	-3635
▁ful	-3636
▁Don	-3637
ruction	-3638
▁experi	-3639
▁broken	-3640
▁quarter	-3641
ropri	-3642
iful	-3643
▁rate	-3644
▁Islamic	-3645
▁sale	-3646
▁bodies	-3647
▁raise	-3648
▁ensure	-3649
▁walking	-3650
jected	-3651
aine	-3652
▁hero	-3653
▁central	-3654
▁2009	-3655
▁Mer	-3656
▁closed	-3657
▁Inter	-3658
▁pur	-3659
▁Charl	-3660
▁teams	-3661
▁levels	-3662
BI	-3663
▁seeing	-3664
bour	-3665
▁church	-3666
▁includes	-3667
▁Mag	-3668
erve	-3669
▁rise	-3670
▁written	-3671
▁relig	-3672
▁suicide	-3673
▁filed	-3674
▁Justice	-3675
▁chem	-3676
▁defeat	-3677
▁heavy	-3678
▁favour	-3679
going	-3680
▁effect	-3681
▁fan	-3682
▁midfielder	-3683
▁90	-3684
▁Lord	-3685
▁tourn	-3686
▁hy	-3687
▁lose	-3688
▁captured	-3689
▁particularly	-3690
▁protest	-3691
▁eat	-3692
▁waiting	-3693
gree	-3694
▁champion	-3695
gypt	-3696
▁crisis	-3697
▁wait	-3698
▁paper	-3699
▁example	-3700
asts	-3701
▁throughout	-3702
ilities	-3703
bit	-3704
▁repeated	-3705
iple	-3706
▁exact	-3707
3.	-3708
▁Army	-3709
▁fashion	-3710
▁actions	-3711
▁Old	-3712
▁block	-3713
▁sea	-3714
▁streets	-3715
▁didnt	-3716
cial	-3717
▁movie	-3718
FA	-3719
▁fair	-3720
▁Argent	-3721
▁Tal	-3722
sych	-3723
▁Both	-3724
▁ISIS	-3725
▁assoc	-3726
▁gets	-3727
▁concerned	-3728
▁airl	-3729
▁increasing	-3730
▁Italian	-3731
▁wond	-3732
▁male	-3733
▁accept	-3734
▁Soc	-3735
▁incred	-3736
▁swim	-3737
gen	-3738
▁talking	-3739
▁Egypt	-3740
▁claiming	-3741
▁Eb	-3742
▁Of	-3743
▁center	-3744
▁Harry	-3745
nor	-3746
▁Earth	-3747
▁appearance	-3748
▁reporters	-3749
▁doz	-3750
azine	-3751
▁winner	-3752
▁jobs	-3753
▁Service	-3754
▁suspended	-3755
isl	-3756
▁isn	-3757
omen	-3758
za	-3759
▁highest	-3760
ression	-3761
▁figure	-3762
▁Jon	-3763
?'	-3764
aging	-3765
keep	-3766
▁planned	-3767
▁education	-3768
born	-3769
ildren	-3770
▁spotted	-3771
▁Ga	-3772
▁rape	-3773
▁double	-3774
▁illegal	-3775
▁Great	-3776
inson	-3777
▁Spanish	-3778
▁pull	-3779
▁mission	-3780
ustr	-3781
aped	-3782
▁league	-3783
▁alongside	-3784
▁stars	-3785
elly	-3786
▁ruled	-3787
▁Cons	-3788
▁Under	-3789
elligence	-3790
▁kit	-3791
▁contain	-3792
▁typ	-3793
5,000	-3794
uclear	-3795
hib	-3796
▁Holl	-3797
▁rain	-3798
▁planning	-3799
ero	-3800
▁numbers	-3801
▁sense	-3802
▁mach	-3803
▁suggested	-3804
▁blue	-3805
▁true	-3806
▁Sun	-3807
▁inn	-3808
▁Lew	-3809
▁prior	-3810
▁normal	-3811
▁pleaded	-3812
ties	-3813
▁millions	-3814
▁Post	-3815
rim	-3816
▁shared	-3817
▁cerem	-3818
▁Sn	-3819
clus	-3820
▁Arab	-3821
▁Fam	-3822
ector	-3823
▁dream	-3824
▁Act	-3825
▁supporters	-3826
uled	-3827
apped	-3828
▁opt	-3829
▁roll	-3830
dd	-3831
win	-3832
▁enfor	-3833
▁successful	-3834
▁positive	-3835
icles	-3836
▁Mo	-3837
▁administration	-3838
azing	-3839
▁aid	-3840
▁justice	-3841
rap	-3842
▁older	-3843
▁Hum	-3844
▁2014	-3845
ements	-3846
▁original	-3847
▁helping	-3848
▁breat	-3849
▁First	-3850
▁computer	-3851
▁vac	-3852
▁Sar	-3853
AT	-3854
▁cop	-3855
▁benefits	-3856
ih	-3857
▁Ronald	-3858
stitute	-3859
▁Atlant	-3860
▁doll	-3861
▁feeling	-3862
arks	-3863
▁teenager	-3864
▁records	-3865
▁sales	-3866
▁causing	-3867
▁features	-3868
▁environment	-3869
▁God	-3870
eds	-3871
▁massive	-3872
ez	-3873
▁fix	-3874
▁population	-3875
▁champions	-3876
▁estab	-3877
▁products	-3878
iced	-3879
▁Dar	-3880
▁sports	-3881
▁document	-3882
EW	-3883
▁FBI	-3884
▁Den	-3885
▁device	-3886
▁wel	-3887
▁worst	-3888
▁itself	-3889
▁department	-3890
▁compared	-3891
castle	-3892
▁restaurant	-3893
▁agre	-3894
▁Jim	-3895
▁Met	-3896
angu	-3897
▁Good	-3898
▁opin	-3899
▁Union	-3900
▁occas	-3901
van	-3902
▁shut	-3903
▁2012.	-3904
▁Virgin	-3905
▁70	-3906
estic	-3907
ka	-3908
▁decades	-3909
▁Bur	-3910
▁communic	-3911
ological	-3912
▁Frank	-3913
▁Net	-3914
▁dark	-3915
▁approach	-3916
asc	-3917
▁Bre	-3918
▁Ol	-3919
▁occurred	-3920
▁wid	-3921
sequ	-3922
▁Prof	-3923
▁veter	-3924
wide	-3925
▁General	-3926
▁bal	-3927
unch	-3928
▁island	-3929
▁receive	-3930
▁behavi	-3931
udget	-3932
▁unc	-3933
▁starting	-3934
▁lay	-3935
▁investigators	-3936
▁continues	-3937
▁green	-3938
▁scientists	-3939
iest	-3940
▁die	-3941
▁Sant	-3942
▁Rec	-3943
ville	-3944
▁cold	-3945
▁window	-3946
▁Chief	-3947
hab	-3948
bl	-3949
2.	-3950
jects	-3951
▁Commission	-3952
▁reveal	-3953
▁Newcastle	-3954
▁neighbor	-3955
▁sem	-3956
cks	-3957
▁spl	-3958
▁linked	-3959
▁becoming	-3960
▁regard	-3961
andal	-3962
udd	-3963
▁Three	-3964
▁Senate	-3965
▁Open	-3966
▁smart	-3967
▁grad	-3968
▁Watch	-3969
▁talks	-3970
▁devast	-3971
▁spir	-3972
▁losing	-3973
▁watching	-3974
pping	-3975
bridge	-3976
▁easy	-3977
▁investigating	-3978
▁lower	-3979
▁suspic	-3980
▁Security	-3981
▁defense	-3982
▁traffic	-3983
▁mount	-3984
▁adop	-3985
▁walked	-3986
▁influ	-3987
▁minor	-3988
▁aware	-3989
▁majority	-3990
▁Del	-3991
iance	-3992
▁histor	-3993
▁Bush	-3994
▁armed	-3995
igan	-3996
▁Although	-3997
rie	-3998
▁beach	-3999
▁internet	-4000
▁banned	-4001
▁facing	-4002
▁committed	-4003
▁development	-4004
▁attempted	-4005
▁Ever	-4006
fl	-4007
▁Gold	-4008
inho	-4009
▁Jo	-4010
▁pretty	-4011
can	-4012
▁whom	-4013
▁Jul	-4014
▁insisted	-4015
▁affected	-4016
eed	-4017
▁stun	-4018
olut	-4019
▁strike	-4020
resh	-4021
▁handed	-4022
▁bird	-4023
▁names	-4024
utch	-4025
anging	-4026
▁song	-4027
▁expressed	-4028
▁2.	-4029
▁Mos	-4030
▁covered	-4031
▁80	-4032
▁nuclear	-4033
▁researchers	-4034
mail	-4035
▁Grand	-4036
▁und	-4037
▁pregnant	-4038
▁reasons	-4039
▁Wat	-4040
▁spark	-4041
▁Mean	-4042
▁29	-4043
hew	-4044
▁tournament	-4045
ador	-4046
eless	-4047
using	-4048
▁natural	-4049
▁Com	-4050
▁Tay	-4051
anks	-4052
▁village	-4053
▁freed	-4054
▁counts	-4055
imum	-4056
As	-4057
vis	-4058
eder	-4059
pir	-4060
ym	-4061
NA	-4062
▁explained	-4063
▁signs	-4064
stitution	-4065
▁items	-4066
▁Authorities	-4067
▁flag	-4068
arian	-4069
▁particip	-4070
▁maintain	-4071
▁boat	-4072
▁myself	-4073
▁follow	-4074
▁Palace	-4075
pts	-4076
▁collection	-4077
▁Since	-4078
▁Rad	-4079
▁putting	-4080
▁professional	-4081
▁Rober	-4082
▁runs	-4083
▁Ve	-4084
11	-4085
kins	-4086
▁counter	-4087
▁bail	-4088
itt	-4089
useum	-4090
▁rescue	-4091
uf	-4092
▁Som	-4093
▁lic	-4094
nel	-4095
▁birthday	-4096
inally	-4097
upp	-4098
mond	-4099
▁uns	-4100
▁Ebola	-4101
▁Georg	-4102
▁Barack	-4103
▁psych	-4104
▁Moh	-4105
rage	-4106
▁Even	-4107
▁Colle	-4108
▁spokeswoman	-4109
chen	-4110
▁dig	-4111
▁seat	-4112
▁suspected	-4113
▁gay	-4114
▁Kar	-4115
reng	-4116
▁Party	-4117
▁attended	-4118
rying	-4119
▁apparently	-4120
▁Meanwhile	-4121
urance	-4122
▁Cont	-4123
▁estimated	-4124
inals	-4125
▁survey	-4126
▁beg	-4127
▁magazine	-4128
▁Speaking	-4129
▁glass	-4130
cious	-4131
▁Middle	-4132
Online	-4133
▁Win	-4134
▁provided	-4135
▁giant	-4136
▁NEW	-4137
▁chairman	-4138
▁patient	-4139
▁Today	-4140
▁Tim	-4141
▁Cost	-4142
annel	-4143
▁medic	-4144
▁Murray	-4145
▁drop	-4146
▁employees	-4147
▁Christian	-4148
▁Star	-4149
▁River	-4150
ovic	-4151
▁Prosecut	-4152
ae	-4153
▁places	-4154
▁Gre	-4155
val	-4156
▁advert	-4157
▁fly	-4158
▁initially	-4159
▁boyfriend	-4160
▁Nick	-4161
▁behaviour	-4162
▁loan	-4163
oking	-4164
duce	-4165
▁below	-4166
mate	-4167
▁Steve	-4168
▁Charles	-4169
▁Bir	-4170
▁progress	-4171
house	-4172
oston	-4173
▁Mass	-4174
▁promot	-4175
▁defender	-4176
▁Wal	-4177
▁feed	-4178
▁ring	-4179
▁Olympic	-4180
▁Bob	-4181
▁reform	-4182
▁Ari	-4183
▁proud	-4184
▁beautiful	-4185
onn	-4186
▁piece	-4187
▁fraud	-4188
ait	-4189
▁Ir	-4190
▁version	-4191
▁row	-4192
▁arch	-4193
▁sick	-4194
▁Invest	-4195
angers	-4196
board	-4197
▁Hel	-4198
haps	-4199
▁bath	-4200
▁band	-4201
▁Ty	-4202
esters	-4203
ounger	-4204
arez	-4205
▁alive	-4206
▁presidential	-4207
aret	-4208
▁hoping	-4209
▁respect	-4210
▁sound	-4211
▁Ryan	-4212
▁visited	-4213
▁Group	-4214
▁crimes	-4215
▁Their	-4216
ula	-4217
▁Sil	-4218
▁Holly	-4219
like	-4220
▁missed	-4221
▁Hen	-4222
ha	-4223
▁conduct	-4224
▁destroy	-4225
▁annual	-4226
▁corn	-4227
ropriate	-4228
▁violent	-4229
▁harm	-4230
▁necess	-4231
ifth	-4232
▁Brad	-4233
▁tweeted	-4234
▁clearly	-4235
▁ult	-4236
▁EU	-4237
▁Association	-4238
met	-4239
ship	-4240
▁Stud	-4241
▁bi	-4242
▁standing	-4243
▁flat	-4244
▁Boston	-4245
▁actor	-4246
▁resign	-4247
▁ceremony	-4248
▁brief	-4249
orial	-4250
▁arms	-4251
gra	-4252
▁Gaal	-4253
▁flying	-4254
ipl	-4255
gers	-4256
▁ways	-4257
▁Kn	-4258
':	-4259
bury	-4260
raine	-4261
yond	-4262
▁Church	-4263
▁extremely	-4264
▁Web	-4265
▁healthy	-4266
▁shel	-4267
▁Os	-4268
▁hurt	-4269
▁fully	-4270
▁comfort	-4271
▁MailOnline	-4272
▁severe	-4273
▁practice	-4274
resp	-4275
▁worker	-4276
▁Shar	-4277
ointed	-4278
▁convers	-4279
▁murd	-4280
▁shortly	-4281
▁tests	-4282
▁Gra	-4283
▁seemed	-4284
▁certainly	-4285
▁35	-4286
▁ability	-4287
▁university	-4288
▁clubs	-4289
ala	-4290
▁Jer	-4291
▁Brook	-4292
atures	-4293
▁century	-4294
ighter	-4295
iser	-4296
▁via	-4297
▁Dis	-4298
▁prosecutors	-4299
▁watched	-4300
▁operations	-4301
▁Coast	-4302
▁drinking	-4303
▁text	-4304
▁increased	-4305
▁thinking	-4306
▁threatened	-4307
▁clin	-4308
▁diagnosed	-4309
▁prem	-4310
▁citizens	-4311
▁opposition	-4312
phone	-4313
olutely	-4314
ena	-4315
▁pounds	-4316
▁sometimes	-4317
▁Island	-4318
▁views	-4319
▁specific	-4320
life	-4321
▁prices	-4322
.,	-4323
▁District	-4324
uction	-4325
▁Jord	-4326
▁choice	-4327
ourney	-4328
▁ant	-4329
▁prim	-4330
▁clot	-4331
▁matches	-4332
▁Mont	-4333
hered	-4334
▁exch	-4335
▁neck	-4336
ammed	-4337
▁wood	-4338
reme	-4339
▁mix	-4340
▁individual	-4341
erved	-4342
imately	-4343
▁wouldn	-4344
▁modern	-4345
▁ruling	-4346
▁seconds	-4347
▁Fire	-4348
▁style	-4349
▁streng	-4350
ani	-4351
▁ones	-4352
▁Taylor	-4353
▁Joe	-4354
▁Most	-4355
▁sitting	-4356
▁Jersey	-4357
▁tough	-4358
zz	-4359
That	-4360
▁college	-4361
▁Di	-4362
▁eating	-4363
▁product	-4364
oked	-4365
▁scoring	-4366
ottenham	-4367
ume	-4368
essed	-4369
ayne	-4370
▁Kent	-4371
▁purch	-4372
▁effective	-4373
▁soft	-4374
▁Ram	-4375
▁picked	-4376
apt	-4377
▁usually	-4378
ennis	-4379
▁underst	-4380
▁divor	-4381
▁younger	-4382
▁sad	-4383
▁pilot	-4384
cing	-4385
▁langu	-4386
▁dismiss	-4387
illing	-4388
known	-4389
ads	-4390
cean	-4391
▁developed	-4392
▁proced	-4393
ervative	-4394
▁confident	-4395
▁Profess	-4396
▁domestic	-4397
▁2011.	-4398
▁bedroom	-4399
▁bottom	-4400
▁truck	-4401
▁assaul	-4402
▁mans	-4403
▁photographer	-4404
▁mental	-4405
▁finding	-4406
cture	-4407
▁32	-4408
▁legisl	-4409
▁debate	-4410
▁Tor	-4411
▁pup	-4412
▁Home	-4413
▁pool	-4414
▁Hot	-4415
▁Mac	-4416
▁remained	-4417
▁budget	-4418
▁learn	-4419
▁Syrian	-4420
▁exist	-4421
▁legs	-4422
▁knows	-4423
▁kidn	-4424
▁Tottenham	-4425
▁slow	-4426
itting	-4427
▁Chic	-4428
rier	-4429
ayers	-4430
▁lux	-4431
▁finished	-4432
▁selling	-4433
▁serving	-4434
▁recomm	-4435
▁reality	-4436
▁iPh	-4437
▁Mess	-4438
arily	-4439
▁multiple	-4440
▁separate	-4441
anch	-4442
▁intelligence	-4443
▁seeking	-4444
aeda	-4445
▁Ire	-4446
▁immigration	-4447
▁Penn	-4448
ilton	-4449
▁responsibility	-4450
▁Tony	-4451
▁Ter	-4452
▁guard	-4453
alys	-4454
▁Down	-4455
ota	-4456
uses	-4457
▁Wel	-4458
▁1,000	-4459
And	-4460
▁exerc	-4461
gar	-4462
▁decade	-4463
▁obv	-4464
▁(1	-4465
licop	-4466
▁Stephen	-4467
▁radio	-4468
▁estate	-4469
acts	-4470
ously	-4471
▁Pre	-4472
▁helicop	-4473
▁cab	-4474
▁Trans	-4475
▁physical	-4476
▁Wilson	-4477
agues	-4478
gedy	-4479
!'	-4480
▁concern	-4481
▁Then	-4482
▁tom	-4483
▁Sports	-4484
▁district	-4485
▁Ireland	-4486
▁Jose	-4487
olen	-4488
▁controversial	-4489
▁quality	-4490
zer	-4491
▁belong	-4492
▁politic	-4493
▁Wall	-4494
▁required	-4495
▁Sl	-4496
▁scheduled	-4497
aire	-4498
rog	-4499
▁growth	-4500
▁circum	-4501
▁vehicles	-4502
▁meth	-4503
▁type	-4504
antly	-4505
▁imag	-4506
▁farm	-4507
encing	-4508
ighted	-4509
▁catch	-4510
▁amazing	-4511
▁gar	-4512
▁pitch	-4513
ledge	-4514
▁ic	-4515
▁determined	-4516
▁drivers	-4517
▁Kev	-4518
▁II	-4519
▁value	-4520
▁Die	-4521
▁Dun	-4522
anny	-4523
▁ath	-4524
▁Big	-4525
othing	-4526
omatic	-4527
acing	-4528
do	-4529
▁Fox	-4530
ican	-4531
▁serve	-4532
ellow	-4533
▁Mike	-4534
▁underw	-4535
▁Pri	-4536
▁Pet	-4537
▁cities	-4538
▁learned	-4539
▁dram	-4540
▁activity	-4541
sey	-4542
▁cast	-4543
▁recover	-4544
entially	-4545
▁journey	-4546
▁addition	-4547
ends	-4548
▁lawsuit	-4549
▁ign	-4550
▁speaking	-4551
▁terrorist	-4552
▁traditional	-4553
▁beyond	-4554
▁Republicans	-4555
▁Cast	-4556
▁fort	-4557
▁parties	-4558
burg	-4559
unte	-4560
▁singer	-4561
▁recorded	-4562
▁Foot	-4563
▁expert	-4564
oured	-4565
aith	-4566
▁beginning	-4567
acking	-4568
uals	-4569
▁coup	-4570
▁answer	-4571
▁agreement	-4572
▁rid	-4573
▁illness	-4574
athan	-4575
aries	-4576
▁Investig	-4577
stances	-4578
▁fresh	-4579
ength	-4580
ius	-4581
▁Carl	-4582
▁Haw	-4583
▁Korean	-4584
▁Mour	-4585
▁Guard	-4586
▁gives	-4587
▁Chicago	-4588
▁signing	-4589
▁northern	-4590
▁hun	-4591
ella	-4592
ein	-4593
▁Championship	-4594
eman	-4595
▁powerful	-4596
▁batt	-4597
8.	-4598
ols	-4599
ulance	-4600
▁defin	-4601
▁commission	-4602
▁Maria	-4603
▁complex	-4604
▁path	-4605
▁Airport	-4606
▁meaning	-4607
▁Liber	-4608
▁visitors	-4609
oma	-4610
▁McD	-4611
oles	-4612
rig	-4613
▁tack	-4614
▁movement	-4615
▁scr	-4616
▁worse	-4617
▁31	-4618
▁remove	-4619
▁measures	-4620
alls	-4621
▁Foll	-4622
▁wonder	-4623
▁blog	-4624
▁subject	-4625
▁Sus	-4626
▁article	-4627
▁confl	-4628
▁appl	-4629
▁shocked	-4630
▁uses	-4631
▁explain	-4632
isions	-4633
▁garden	-4634
▁east	-4635
▁Road	-4636
bur	-4637
▁wide	-4638
rison	-4639
▁uncle	-4640
ewhere	-4641
west	-4642
▁Ukraine	-4643
▁batter	-4644
What	-4645
▁Over	-4646
ulated	-4647
itation	-4648
ids	-4649
▁bom	-4650
▁cook	-4651
▁videos	-4652
▁enforcement	-4653
▁note	-4654
▁recovery	-4655
▁southern	-4656
▁west	-4657
▁strate	-4658
▁exactly	-4659
ruit	-4660
▁doubt	-4661
▁Jordan	-4662
▁2012,	-4663
ictions	-4664
▁apart	-4665
▁Dev	-4666
▁45	-4667
▁Attorney	-4668
▁Bank	-4669
▁faced	-4670
izing	-4671
ga	-4672
▁scen	-4673
▁fifth	-4674
▁Kevin	-4675
▁society	-4676
ushing	-4677
isation	-4678
▁highly	-4679
▁Kh	-4680
▁heav	-4681
▁Put	-4682
▁Lewis	-4683
run	-4684
ugg	-4685
ela	-4686
ocks	-4687
▁purs	-4688
▁Canada	-4689
▁responded	-4690
▁fish	-4691
▁conflict	-4692
▁tree	-4693
▁3.	-4694
▁fest	-4695
no	-4696
itude	-4697
▁Eric	-4698
▁sites	-4699
lers	-4700
▁scandal	-4701
ittee	-4702
▁san	-4703
▁desper	-4704
▁seriously	-4705
▁$3	-4706
▁Georgia	-4707
▁Young	-4708
where	-4709
ument	-4710
ova	-4711
▁thanks	-4712
▁Jew	-4713
▁kne	-4714
▁applic	-4715
▁finish	-4716
▁Family	-4717
▁2007	-4718
▁artist	-4719
▁equip	-4720
▁clothes	-4721
▁Games	-4722
▁negot	-4723
▁Earlier	-4724
iano	-4725
▁expensive	-4726
mother	-4727
orted	-4728
▁escape	-4729
▁unit	-4730
inn	-4731
asted	-4732
▁Club	-4733
aughters	-4734
▁delay	-4735
▁active	-4736
▁feature	-4737
▁Du	-4738
iana	-4739
▁Year	-4740
▁Ver	-4741
▁roy	-4742
▁2,	-4743
▁voice	-4744
▁location	-4745
▁bot	-4746
ware	-4747
▁passenger	-4748
iban	-4749
▁propos	-4750
look	-4751
rible	-4752
▁critical	-4753
outs	-4754
?"	-4755
gus	-4756
▁Southampton	-4757
▁repeatedly	-4758
▁programme	-4759
▁favor	-4760
▁wheel	-4761
apping	-4762
▁unus	-4763
▁upon	-4764
▁36	-4765
▁upset	-4766
▁wealth	-4767
▁amid	-4768
▁paying	-4769
▁stolen	-4770
▁collect	-4771
ipe	-4772
▁Oh	-4773
▁surface	-4774
▁grab	-4775
▁Sky	-4776
▁fuel	-4777
▁various	-4778
▁connection	-4779
▁user	-4780
▁dramatic	-4781
▁require	-4782
▁Bor	-4783
▁Professor	-4784
▁prepared	-4785
▁Nic	-4786
▁pra	-4787
▁Democratic	-4788
▁aband	-4789
▁credit	-4790
▁Victoria	-4791
▁committee	-4792
▁YouT	-4793
▁commer	-4794
▁stands	-4795
▁Every	-4796
▁sort	-4797
▁Rooney	-4798
▁agent	-4799
anded	-4800
▁Andy	-4801
▁protests	-4802
wich	-4803
▁perm	-4804
▁culture	-4805
▁youth	-4806
▁Mem	-4807
▁partners	-4808
keeper	-4809
▁equipment	-4810
▁Israeli	-4811
▁rap	-4812
▁iPhone	-4813
▁YouTube	-4814
▁fears	-4815
bing	-4816
mingham	-4817
ections	-4818
St	-4819
40	-4820
▁Jeff	-4821
▁Carolina	-4822
▁Ann	-4823
▁keeping	-4824
olic	-4825
▁clash	-4826
▁voters	-4827
lement	-4828
▁declined	-4829
3-	-4830
▁Ox	-4831
▁material	-4832
▁daily	-4833
▁cant	-4834
▁obtain	-4835
▁College	-4836
▁actress	-4837
▁shopping	-4838
▁organization	-4839
▁protesters	-4840
▁Comp	-4841
▁plant	-4842
▁Taliban	-4843
▁Ell	-4844
▁Steven	-4845
▁Ac	-4846
▁Zeal	-4847
ification	-4848
▁Birmingham	-4849
▁tow	-4850
▁Niger	-4851
▁guy	-4852
▁nature	-4853
encies	-4854
▁rub	-4855
▁nom	-4856
▁nurs	-4857
icking	-4858
▁auction	-4859
▁photographs	-4860
upreme	-4861
▁boost	-4862
more	-4863
▁entered	-4864
▁Anth	-4865
▁sche	-4866
uests	-4867
dden	-4868
▁der	-4869
▁Virginia	-4870
rec	-4871
▁Committee	-4872
▁fal	-4873
▁shots	-4874
▁trouble	-4875
▁inquir	-4876
lig	-4877
▁qualif	-4878
▁Holland	-4879
▁Western	-4880
▁From	-4881
va	-4882
▁daughters	-4883
▁Luc	-4884
bon	-4885
elli	-4886
▁defence	-4887
ua	-4888
▁volunte	-4889
▁fled	-4890
▁lines	-4891
▁Mourinho	-4892
gas	-4893
▁2013.	-4894
▁Cur	-4895
lyn	-4896
▁Found	-4897
▁Kate	-4898
ER	-4899
▁funeral	-4900
▁impress	-4901
▁sides	-4902
▁insurance	-4903
iment	-4904
onym	-4905
▁Hollywood	-4906
oner	-4907
▁cuts	-4908
▁FI	-4909
▁Tour	-4910
▁#	-4911
▁returning	-4912
▁pen	-4913
aching	-4914
▁produced	-4915
▁Bol	-4916
ront	-4917
▁coff	-4918
orrow	-4919
▁spect	-4920
▁absolutely	-4921
▁sources	-4922
▁Central	-4923
enty	-4924
▁sudden	-4925
▁prove	-4926
file	-4927
anced	-4928
▁targeted	-4929
owned	-4930
▁Rog	-4931
▁Fergus	-4932
▁struggling	-4933
▁Stadium	-4934
▁Bu	-4935
▁knife	-4936
▁angry	-4937
bourne	-4938
▁advice	-4939
ologist	-4940
▁Tory	-4941
▁Kat	-4942
▁relative	-4943
ias	-4944
ources	-4945
▁suspects	-4946
▁Michel	-4947
▁benefit	-4948
▁Four	-4949
▁religious	-4950
▁Card	-4951
ba	-4952
▁Ronaldo	-4953
▁regul	-4954
▁crashed	-4955
▁related	-4956
▁Ford	-4957
▁questioned	-4958
▁completed	-4959
iring	-4960
▁rule	-4961
▁Diego	-4962
▁Reg	-4963
▁earth	-4964
▁Sarah	-4965
▁Mir	-4966
▁CEO	-4967
▁devices	-4968
lets	-4969
▁Zealand	-4970
▁celebrate	-4971
▁wish	-4972
ufact	-4973
▁Everton	-4974
▁Suarez	-4975
▁accounts	-4976
▁simple	-4977
▁rates	-4978
▁Argentina	-4979
▁difference	-4980
▁Hug	-4981
▁warm	-4982
▁Morgan	-4983
▁session	-4984
▁falling	-4985
▁assistant	-4986
ayer	-4987
▁Jess	-4988
▁debut	-4989
▁virus	-4990
▁Democrats	-4991
▁flights	-4992
ED	-4993
▁setting	-4994
▁offers	-4995
▁0	-4996
▁Qaeda	-4997
▁2011,	-4998
▁prime	-4999
▁stret	-5000
▁ble	-5001
▁lawyers	-5002
▁allowing	-5003
itals	-5004
▁Anthony	-5005
▁toward	-5006
▁confidence	-5007
▁Boy	-5008
▁failure	-5009
▁settle	-5010
▁Adam	-5011
ancing	-5012
▁books	-5013
▁Internet	-5014
CA	-5015
bro	-5016
▁declared	-5017
▁receiving	-5018
▁MPs	-5019
▁Press	-5020
▁controll	-5021
▁6-	-5022
iley	-5023
ecause	-5024
dom	-5025
itan	-5026
oted	-5027
▁upd	-5028
▁4.	-5029
▁Mun	-5030
▁urged	-5031
afe	-5032
▁Cambridge	-5033
▁hur	-5034
PR	-5035
▁Yorks	-5036
rant	-5037
▁diet	-5038
kin	-5039
▁withd	-5040
▁Kelly	-5041
▁Nations	-5042
▁500	-5043
▁Tre	-5044
▁stood	-5045
▁Milan	-5046
▁army	-5047
idel	-5048
▁chemical	-5049
▁Roman	-5050
▁Costa	-5051
iner	-5052
▁Beach	-5053
▁stories	-5054
▁Queens	-5055
rific	-5056
▁proceed	-5057
agram	-5058
▁ABC	-5059
▁Jam	-5060
isher	-5061
▁beaten	-5062
▁attract	-5063
▁register	-5064
▁cart	-5065
▁breast	-5066
▁Children	-5067
▁colleagues	-5068
▁tragedy	-5069
▁suffer	-5070
▁surprise	-5071
▁independent	-5072
▁burn	-5073
▁confirm	-5074
▁Ferguson	-5075
▁secretary	-5076
▁Ba	-5077
▁electric	-5078
▁sending	-5079
rial	-5080
▁Prot	-5081
▁Lind	-5082
▁royal	-5083
▁language	-5084
▁cool	-5085
▁achieve	-5086
foot	-5087
break	-5088
▁Medical	-5089
▁militants	-5090
rist	-5091
alling	-5092
▁duty	-5093
▁Long	-5094
phic	-5095
▁Out	-5096
▁luxury	-5097
▁contest	-5098
▁wake	-5099
▁involving	-5100
BS	-5101
ores	-5102
vention	-5103
▁Sav	-5104
oves	-5105
incess	-5106
know	-5107
▁drove	-5108
iami	-5109
▁Ray	-5110
eared	-5111
▁unp	-5112
▁rushed	-5113
▁survived	-5114
▁complaint	-5115
cri	-5116
▁secure	-5117
▁deadly	-5118
▁length	-5119
▁Sing	-5120
▁Beck	-5121
▁cameras	-5122
▁Alan	-5123
elle	-5124
▁push	-5125
▁thank	-5126
▁Ill	-5127
▁production	-5128
▁Es	-5129
▁emotional	-5130
▁Those	-5131
▁offering	-5132
▁weapon	-5133
▁analy	-5134
▁limit	-5135
FL	-5136
▁adults	-5137
▁sons	-5138
apers	-5139
▁stuff	-5140
billion	-5141
▁winter	-5142
▁trade	-5143
rect	-5144
▁Ah	-5145
fit	-5146
▁worried	-5147
▁Bo	-5148
▁Squ	-5149
▁Hart	-5150
▁Dou	-5151
▁Dutch	-5152
▁moments	-5153
▁stress	-5154
▁Id	-5155
uated	-5156
▁Abb	-5157
▁sole	-5158
cow	-5159
▁afford	-5160
▁steps	-5161
▁measure	-5162
▁Miami	-5163
▁transport	-5164
▁tells	-5165
▁conclud	-5166
ryst	-5167
▁machine	-5168
▁Roberts	-5169
▁log	-5170
▁Str	-5171
▁overse	-5172
▁Hay	-5173
▁owned	-5174
▁detect	-5175
▁dinner	-5176
▁Portug	-5177
▁comed	-5178
▁Ag	-5179
▁sky	-5180
▁criticism	-5181
long	-5182
Our	-5183
▁directly	-5184
▁regime	-5185
coming	-5186
▁eth	-5187
ching	-5188
▁circumstances	-5189
▁Sa	-5190
▁bear	-5191
agers	-5192
▁@	-5193
▁plot	-5194
▁species	-5195
uana	-5196
▁300	-5197
ensions	-5198
emen	-5199
zona	-5200
▁mum	-5201
Americ	-5202
▁Loc	-5203
antage	-5204
▁supposed	-5205
▁Belg	-5206
▁sust	-5207
▁DNA	-5208
icken	-5209
▁relatives	-5210
▁status	-5211
▁Agency	-5212
makers	-5213
▁candidate	-5214
itely	-5215
erous	-5216
ulf	-5217
ashes	-5218
venue	-5219
▁beating	-5220
aze	-5221
▁Simon	-5222
▁unusual	-5223
▁leadership	-5224
ptoms	-5225
▁Dire	-5226
▁manufact	-5227
▁perhaps	-5228
▁Inc	-5229
▁Conn	-5230
▁additional	-5231
▁Palest	-5232
▁kitchen	-5233
▁Jenn	-5234
▁agents	-5235
aming	-5236
▁Romney	-5237
▁contacted	-5238
omes	-5239
▁false	-5240
▁swe	-5241
ining	-5242
▁saved	-5243
▁Bow	-5244
▁cas	-5245
▁threats	-5246
icated	-5247
▁Burn	-5248
4-	-5249
▁corner	-5250
▁inspired	-5251
ien	-5252
▁frustr	-5253
▁keen	-5254
▁Yorkshire	-5255
▁originally	-5256
▁Supreme	-5257
▁failing	-5258
ker	-5259
▁sand	-5260
amm	-5261
▁Turkey	-5262
▁incredible	-5263
▁Navy	-5264
▁bow	-5265
▁filmed	-5266
▁reduce	-5267
▁Scottish	-5268
▁temperatures	-5269
▁acknow	-5270
ijuana	-5271
▁retired	-5272
la	-5273
▁Abd	-5274
▁standards	-5275
▁wounded	-5276
▁hat	-5277
▁Davis	-5278
▁Feder	-5279
▁horse	-5280
▁ton	-5281
▁disappear	-5282
otic	-5283
▁Cath	-5284
▁Well	-5285
▁innoc	-5286
▁Gary	-5287
▁Force	-5288
▁involve	-5289
▁Us	-5290
aken	-5291
▁ir	-5292
half	-5293
▁Foreign	-5294
▁content	-5295
▁Arizona	-5296
▁affect	-5297
▁favourite	-5298
emb	-5299
▁Mount	-5300
▁Matthew	-5301
▁Villa	-5302
lection	-5303
▁introduced	-5304
▁Japanese	-5305
▁dipl	-5306
▁protection	-5307
▁chest	-5308
▁robber	-5309
▁gain	-5310
iar	-5311
▁Lat	-5312
umn	-5313
▁mouth	-5314
▁enjoyed	-5315
▁elder	-5316
▁Dub	-5317
▁Gal	-5318
▁resul	-5319
▁mer	-5320
rell	-5321
▁shirt	-5322
▁crack	-5323
▁decide	-5324
bo	-5325
illance	-5326
▁suggests	-5327
▁tiny	-5328
▁agree	-5329
▁damaged	-5330
▁inquest	-5331
▁facility	-5332
▁condem	-5333
quar	-5334
▁flu	-5335
orado	-5336
▁trend	-5337
een	-5338
▁except	-5339
▁Hong	-5340
asters	-5341
abeth	-5342
▁Walk	-5343
▁guests	-5344
ickets	-5345
tery	-5346
▁Corn	-5347
▁willing	-5348
▁dating	-5349
mes	-5350
▁collaps	-5351
aying	-5352
▁bright	-5353
▁ambulance	-5354
▁sear	-5355
▁neighbour	-5356
boy	-5357
isco	-5358
▁fatal	-5359
▁spoken	-5360
▁surge	-5361
▁Up	-5362
▁pushed	-5363
urse	-5364
▁regularly	-5365
isa	-5366
▁Ma	-5367
▁email	-5368
▁Hamilton	-5369
▁reaction	-5370
▁sexually	-5371
▁fant	-5372
▁individuals	-5373
ruption	-5374
▁buildings	-5375
ables	-5376
▁oppon	-5377
▁mention	-5378
rep	-5379
▁recovered	-5380
▁coc	-5381
▁GP	-5382
▁faith	-5383
▁laugh	-5384
▁mayor	-5385
▁vess	-5386
▁destroyed	-5387
oses	-5388
▁Cal	-5389
aint	-5390
▁migr	-5391
▁Eliz	-5392
ulate	-5393
▁Before	-5394
▁Staff	-5395
star	-5396
▁babies	-5397
▁leaves	-5398
▁Av	-5399
ulner	-5400
▁unique	-5401
▁helicopter	-5402
▁writing	-5403
kes	-5404
▁Fab	-5405
▁frequ	-5406
▁Ive	-5407
▁bringing	-5408
▁dad	-5409
▁dressed	-5410
▁aggress	-5411
99	-5412
▁2006	-5413
▁Miller	-5414
▁Der	-5415
▁heat	-5416
▁Northern	-5417
▁stadium	-5418
▁Er	-5419
▁audience	-5420
ON	-5421
arrass	-5422
▁Kong	-5423
▁Leices	-5424
▁background	-5425
andez	-5426
▁turning	-5427
ocking	-5428
▁phones	-5429
▁Ministry	-5430
▁tribute	-5431
▁princ	-5432
urd	-5433
▁Centre	-5434
▁5.	-5435
ademy	-5436
▁Instagram	-5437
▁anc	-5438
▁brut	-5439
▁allows	-5440
▁hid	-5441
▁Hor	-5442
▁causes	-5443
tr	-5444
ucted	-5445
onic	-5446
▁2010.	-5447
▁monit	-5448
IA	-5449
▁jet	-5450
▁Kenned	-5451
▁Ali	-5452
sters	-5453
▁Lake	-5454
▁Ok	-5455
▁bond	-5456
clusive	-5457
▁Messi	-5458
▁nice	-5459
▁greater	-5460
▁understood	-5461
▁Cook	-5462
▁rival	-5463
▁sparked	-5464
▁travelling	-5465
roat	-5466
▁depart	-5467
▁brothers	-5468
▁holds	-5469
▁Pac	-5470
▁retail	-5471
▁adult	-5472
▁burg	-5473
▁golf	-5474
worth	-5475
▁split	-5476
▁mic	-5477
iversary	-5478
person	-5479
▁feels	-5480
▁affair	-5481
▁soldier	-5482
▁acqu	-5483
▁grew	-5484
OP	-5485
▁steal	-5486
▁effects	-5487
▁Cole	-5488
▁commercial	-5489
father	-5490
▁limited	-5491
▁Bern	-5492
▁Instead	-5493
▁surrounding	-5494
▁necessary	-5495
hatt	-5496
▁management	-5497
▁ride	-5498
▁providing	-5499
▁argued	-5500
▁subst	-5501
iat	-5502
aza	-5503
▁Colorado	-5504
▁quiet	-5505
appy	-5506
▁elections	-5507
▁determine	-5508
▁Osc	-5509
▁Hod	-5510
▁Ster	-5511
works	-5512
char	-5513
▁sight	-5514
▁province	-5515
▁activities	-5516
▁lying	-5517
▁ded	-5518
▁Saud	-5519
▁systems	-5520
istol	-5521
At	-5522
▁Lit	-5523
▁tum	-5524
▁located	-5525
▁neighborhood	-5526
hi	-5527
ban	-5528
law	-5529
▁ongoing	-5530
▁purp	-5531
fire	-5532
▁Sheriff	-5533
▁Putin	-5534
▁Wayne	-5535
gl	-5536
▁punish	-5537
▁Ten	-5538
▁2000	-5539
▁freedom	-5540
lected	-5541
▁busy	-5542
▁tight	-5543
▁Research	-5544
▁entertain	-5545
▁Football	-5546
▁Cub	-5547
▁kil	-5548
▁unve	-5549
itz	-5550
uche	-5551
▁McG	-5552
▁interested	-5553
ios	-5554
▁wore	-5555
▁Ohio	-5556
▁verd	-5557
▁memory	-5558
ano	-5559
▁urg	-5560
▁plastic	-5561
▁Bridge	-5562
▁Kennedy	-5563
etts	-5564
atever	-5565
▁express	-5566
▁hal	-5567
▁Human	-5568
▁identify	-5569
▁2010,	-5570
ette	-5571
Ch	-5572
▁experienced	-5573
▁rail	-5574
▁politics	-5575
▁struggled	-5576
▁witnesses	-5577
fford	-5578
OR	-5579
▁businesses	-5580
▁symptoms	-5581
state	-5582
ikely	-5583
▁scream	-5584
▁6.	-5585
▁NBC	-5586
▁gather	-5587
▁stabbed	-5588
bel	-5589
▁Art	-5590
▁scheme	-5591
osure	-5592
▁killer	-5593
▁smoke	-5594
▁houses	-5595
tered	-5596
▁bars	-5597
▁produce	-5598
▁Here	-5599
▁CC	-5600
▁Atlanta	-5601
▁income	-5602
▁debt	-5603
▁breaking	-5604
etic	-5605
▁featured	-5606
ivity	-5607
▁Harris	-5608
▁anniversary	-5609
▁climate	-5610
▁larger	-5611
▁findings	-5612
▁guns	-5613
▁weigh	-5614
▁attempts	-5615
road	-5616
▁beauty	-5617
▁vulner	-5618
illy	-5619
pper	-5620
azi	-5621
▁lucky	-5622
ography	-5623
▁forg	-5624
▁employee	-5625
▁Sol	-5626
▁gat	-5627
▁mir	-5628
▁visiting	-5629
anna	-5630
▁epis	-5631
▁Melbourne	-5632
hour	-5633
▁celebrates	-5634
eph	-5635
▁hes	-5636
▁Palestin	-5637
▁noted	-5638
▁FIFA	-5639
▁announcement	-5640
alition	-5641
war	-5642
▁7.	-5643
▁Trust	-5644
▁reading	-5645
▁possession	-5646
▁Coll	-5647
▁ess	-5648
ounced	-5649
▁Institute	-5650
▁Airl	-5651
vey	-5652
▁deputy	-5653
▁noticed	-5654
▁plays	-5655
▁colour	-5656
▁shape	-5657
opp	-5658
▁firef	-5659
▁advantage	-5660
▁airline	-5661
▁stores	-5662
▁landing	-5663
▁mort	-5664
▁funding	-5665
▁nations	-5666
▁194	-5667
▁offences	-5668
▁marijuana	-5669
▁models	-5670
enders	-5671
▁performed	-5672
▁analys	-5673
▁accepted	-5674
ospitals	-5675
ader	-5676
▁presence	-5677
▁Swed	-5678
umped	-5679
IC	-5680
▁legend	-5681
bell	-5682
assy	-5683
▁Elizabeth	-5684
▁Scient	-5685
▁mistake	-5686
▁perman	-5687
▁identity	-5688
▁prosecutor	-5689
▁compens	-5690
▁evac	-5691
▁influence	-5692
▁intended	-5693
▁rejected	-5694
ipping	-5695
▁truth	-5696
▁Swan	-5697
▁likes	-5698
▁pieces	-5699
▁myster	-5700
7-	-5701
▁parliament	-5702
▁dozens	-5703
▁haven	-5704
▁exercise	-5705
uchess	-5706
▁tragic	-5707
▁acting	-5708
▁instru	-5709
▁Manhatt	-5710
▁river	-5711
▁bull	-5712
▁fallen	-5713
cked	-5714
▁murdered	-5715
▁Francisco	-5716
▁panel	-5717
▁encoun	-5718
▁exhib	-5719
▁fighters	-5720
▁Anderson	-5721
▁initial	-5722
usted	-5723
▁incidents	-5724
▁governor	-5725
▁Bayern	-5726
▁sought	-5727
▁plat	-5728
▁tempor	-5729
PD	-5730
▁affil	-5731
▁slight	-5732
▁complained	-5733
leg	-5734
▁housing	-5735
asket	-5736
▁hole	-5737
▁potentially	-5738
▁Only	-5739
▁equal	-5740
▁increasingly	-5741
abor	-5742
▁Defense	-5743
▁heads	-5744
duction	-5745
ocol	-5746
▁strength	-5747
▁semi	-5748
▁Olympics	-5749
▁boot	-5750
▁creating	-5751
▁landed	-5752
▁disaster	-5753
▁lands	-5754
▁blame	-5755
▁Bus	-5756
▁NFL	-5757
utation	-5758
▁bigger	-5759
▁proved	-5760
▁letters	-5761
▁Wenger	-5762
▁hasn	-5763
▁sorry	-5764
▁Manhattan	-5765
▁planet	-5766
▁funds	-5767
▁stone	-5768
▁Six	-5769
▁designer	-5770
▁policies	-5771
related	-5772
omin	-5773
▁maybe	-5774
▁cup	-5775
▁complaints	-5776
▁object	-5777
▁thrown	-5778
▁proposed	-5779
▁Luis	-5780
▁Saudi	-5781
▁inches	-5782
▁conducted	-5783
▁prosecution	-5784
▁Commun	-5785
achus	-5786
▁porn	-5787
▁ticket	-5788
olk	-5789
▁Evans	-5790
▁easily	-5791
▁tim	-5792
▁eastern	-5793
rystal	-5794
uate	-5795
▁learning	-5796
▁deploy	-5797
▁NA	-5798
▁investigate	-5799
▁egg	-5800
▁divorce	-5801
▁Town	-5802
▁Marc	-5803
▁tort	-5804
▁surveillance	-5805
ijing	-5806
▁Rodgers	-5807
icient	-5808
▁Cru	-5809
▁Mayor	-5810
▁grandmother	-5811
▁Ross	-5812
▁consult	-5813
mosp	-5814
weight	-5815
▁suppl	-5816
▁altern	-5817
▁skills	-5818
▁Pan	-5819
ortunately	-5820
▁Sterling	-5821
▁Iraqi	-5822
▁Ut	-5823
▁Lanc	-5824
eme	-5825
▁Ra	-5826
▁rising	-5827
▁parking	-5828
▁extr	-5829
▁notice	-5830
▁embarrass	-5831
▁lights	-5832
ronic	-5833
▁Fort	-5834
▁struggle	-5835
▁cells	-5836
▁remind	-5837
All	-5838
▁dollars	-5839
▁inquiry	-5840
achusetts	-5841
tar	-5842
atal	-5843
▁Lam	-5844
▁painting	-5845
▁arriv	-5846
▁20-	-5847
▁Our	-5848
▁hug	-5849
▁18-	-5850
▁goalkeeper	-5851
▁behavior	-5852
▁Phill	-5853
▁metal	-5854
▁couples	-5855
▁Gun	-5856
▁joint	-5857
standing	-5858
▁Henry	-5859
▁union	-5860
▁teachers	-5861
▁195	-5862
▁changing	-5863
▁Milib	-5864
▁conspir	-5865
▁Barb	-5866
▁possibility	-5867
▁CCTV	-5868
▁fought	-5869
mph	-5870
▁extreme	-5871
▁athlet	-5872
▁instit	-5873
▁knowledge	-5874
ni	-5875
▁Fern	-5876
▁bin	-5877
arre	-5878
opher	-5879
▁chances	-5880
▁client	-5881
▁exchange	-5882
week	-5883
▁Beijing	-5884
▁option	-5885
For	-5886
▁Duchess	-5887
rah	-5888
▁remark	-5889
▁surprised	-5890
town	-5891
▁tourists	-5892
▁Tw	-5893
▁drag	-5894
▁Exper	-5895
▁degree	-5896
▁cards	-5897
▁Hamp	-5898
▁disappeared	-5899
▁unlikely	-5900
▁Brian	-5901
▁Hou	-5902
▁viewers	-5903
inet	-5904
▁saving	-5905
▁Sea	-5906
▁legislation	-5907
▁Massachusetts	-5908
▁Foundation	-5909
agh	-5910
▁roof	-5911
▁nurse	-5912
▁Cy	-5913
▁filled	-5914
▁establish	-5915
▁humans	-5916
▁flo	-5917
▁Women	-5918
▁immediate	-5919
▁rough	-5920
▁Abu	-5921
▁rum	-5922
▁Ian	-5923
▁tall	-5924
▁mothers	-5925
▁tears	-5926
▁considering	-5927
▁delivered	-5928
▁passing	-5929
osis	-5930
▁primary	-5931
▁gathered	-5932
▁blamed	-5933
▁Cra	-5934
▁closer	-5935
▁som	-5936
▁testing	-5937
era	-5938
▁Mexican	-5939
▁route	-5940
▁spirit	-5941
employ	-5942
▁assess	-5943
▁journalist	-5944
▁acts	-5945
▁bare	-5946
▁publicly	-5947
isf	-5948
▁Somal	-5949
▁stuck	-5950
▁Fin	-5951
▁weak	-5952
minute	-5953
▁veteran	-5954
▁insists	-5955
▁knee	-5956
▁Michelle	-5957
▁dismissed	-5958
▁science	-5959
▁Parliament	-5960
▁happens	-5961
▁accomp	-5962
▁teenage	-5963
▁Channel	-5964
▁tie	-5965
▁vice	-5966
uez	-5967
ench	-5968
▁Rock	-5969
▁Also	-5970
ques	-5971
▁Leicester	-5972
▁earned	-5973
No	-5974
iform	-5975
part	-5976
▁Jac	-5977
▁verdict	-5978
▁films	-5979
▁bathroom	-5980
ovel	-5981
▁meat	-5982
▁developing	-5983
▁magn	-5984
▁broadcast	-5985
▁max	-5986
ylvan	-5987
▁decisions	-5988
sec	-5989
2-	-5990
▁Colomb	-5991
astern	-5992
away	-5993
ugby	-5994
▁buried	-5995
▁Sher	-5996
▁Why	-5997
ST	-5998
utions	-5999
▁retire	-6000
▁occasion	-6001
▁Cab	-6002
So	-6003
▁hoped	-6004
▁Once	-6005
▁2013,	-6006
▁seized	-6007
enses	-6008
▁numerous	-6009
▁Hun	-6010
▁Canad	-6011
▁Las	-6012
Every	-6013
eline	-6014
▁Moscow	-6015
▁$4	-6016
▁Hotel	-6017
izz	-6018
owell	-6019
▁Officials	-6020
▁taxp	-6021
▁Sunder	-6022
▁vast	-6023
▁cocaine	-6024
▁journalists	-6025
ylvania	-6026
aks	-6027
▁presented	-6028
▁remaining	-6029
▁Penns	-6030
▁resort	-6031
▁abandoned	-6032
▁Work	-6033
▁pled	-6034
pet	-6035
▁ut	-6036
oom	-6037
▁Officers	-6038
▁trained	-6039
▁chain	-6040
▁wins	-6041
▁parent	-6042
▁Read	-6043
▁heading	-6044
▁stayed	-6045
▁prefer	-6046
rified	-6047
ita	-6048
EA	-6049
▁staying	-6050
▁2005	-6051
▁driven	-6052
▁conversation	-6053
▁prin	-6054
▁elderly	-6055
▁Hull	-6056
▁refuge	-6057
▁friendly	-6058
▁tast	-6059
▁blow	-6060
▁promised	-6061
ihad	-6062
▁react	-6063
▁waters	-6064
▁pupils	-6065
▁communities	-6066
▁standard	-6067
▁20,	-6068
▁25,	-6069
▁Mand	-6070
▁Airlines	-6071
▁corpor	-6072
▁personnel	-6073
▁editor	-6074
▁capture	-6075
centre	-6076
▁Max	-6077
▁happening	-6078
▁distrib	-6079
▁replaced	-6080
▁headed	-6081
burgh	-6082
▁pension	-6083
ifer	-6084
▁Public	-6085
▁Asia	-6086
▁3,	-6087
▁widely	-6088
ko	-6089
▁clothing	-6090
icip	-6091
▁profile	-6092
▁48	-6093
▁method	-6094
▁impressive	-6095
▁10-	-6096
▁Patrick	-6097
▁Terry	-6098
▁wine	-6099
▁mountain	-6100
iamond	-6101
▁yellow	-6102
BA	-6103
▁construction	-6104
ossible	-6105
▁22,	-6106
inate	-6107
▁ven	-6108
abled	-6109
▁collapsed	-6110
▁stick	-6111
degree	-6112
▁trees	-6113
▁swimming	-6114
▁Pennsylvania	-6115
▁Joseph	-6116
▁Sunderland	-6117
▁buying	-6118
▁awarded	-6119
▁choose	-6120
▁Snow	-6121
▁Care	-6122
▁climb	-6123
▁operating	-6124
rip	-6125
istor	-6126
usion	-6127
▁Jr	-6128
reck	-6129
obody	-6130
▁Lar	-6131
▁traum	-6132
▁Federal	-6133
▁infection	-6134
agement	-6135
▁odd	-6136
▁historic	-6137
▁tomorrow	-6138
▁dance	-6139
▁Princess	-6140
▁investment	-6141
▁Andre	-6142
▁Ly	-6143
eree	-6144
▁organiz	-6145
▁Nev	-6146
ashing	-6147
imp	-6148
▁overall	-6149
▁escaped	-6150
▁tested	-6151
point	-6152
▁19,	-6153
▁alb	-6154
▁ham	-6155
▁Dam	-6156
ctive	-6157
uts	-6158
▁prosp	-6159
▁seats	-6160
▁Khan	-6161
▁relax	-6162
▁Kir	-6163
▁transform	-6164
▁150	-6165
▁focused	-6166
▁criticised	-6167
reek	-6168
▁15-	-6169
▁vulnerable	-6170
▁Cross	-6171
ansas	-6172
estyle	-6173
▁acknowled	-6174
▁Bul	-6175
▁1990	-6176
▁professor	-6177
▁Fal	-6178
ounted	-6179
▁Mother	-6180
▁smaller	-6181
▁granted	-6182
▁locked	-6183
▁anonym	-6184
ishes	-6185
▁GOP	-6186
▁Buck	-6187
ria	-6188
earing	-6189
▁Lau	-6190
▁celebrity	-6191
▁38	-6192
▁Lady	-6193
▁bags	-6194
▁opinion	-6195
▁Greg	-6196
▁Jay	-6197
▁kiss	-6198
▁appearances	-6199
▁ment	-6200
▁bottle	-6201
▁atmosp	-6202
▁tennis	-6203
▁12-	-6204
▁Stan	-6205
▁Oscar	-6206
▁basis	-6207
▁properly	-6208
▁Josh	-6209
stone	-6210
▁mostly	-6211
▁Among	-6212
▁conviction	-6213
▁heavily	-6214
▁Valley	-6215
▁Miliband	-6216
▁listed	-6217
▁agencies	-6218
▁bridge	-6219
▁Men	-6220
▁Indones	-6221
▁possibly	-6222
▁aren	-6223
oster	-6224
▁canc	-6225
elfare	-6226
eland	-6227
▁23,	-6228
▁nose	-6229
▁qual	-6230
▁household	-6231
▁lunch	-6232
▁threatening	-6233
▁drunk	-6234
▁resources	-6235
igned	-6236
▁Rodrig	-6237
▁generation	-6238
ira	-6239
▁pal	-6240
ogan	-6241
▁definitely	-6242
▁Bet	-6243
ordon	-6244
▁75	-6245
▁stom	-6246
▁Tele	-6247
irts	-6248
ervation	-6249
▁options	-6250
▁section	-6251
▁accus	-6252
stron	-6253
allas	-6254
▁rivals	-6255
gun	-6256
▁adj	-6257
istics	-6258
▁restr	-6259
▁rooms	-6260
▁Bru	-6261
▁helps	-6262
▁uniform	-6263
IN	-6264
▁21,	-6265
▁Mu	-6266
SP	-6267
sts	-6268
immer	-6269
▁Rick	-6270
▁consequ	-6271
▁correct	-6272
market	-6273
cont	-6274
▁About	-6275
▁coverage	-6276
▁privacy	-6277
▁welcome	-6278
***	-6279
▁empt	-6280
▁Mit	-6281
oli	-6282
▁Hern	-6283
▁Houston	-6284
acks	-6285
▁Top	-6286
har	-6287
▁Journal	-6288
▁obviously	-6289
▁nor	-6290
▁plea	-6291
lah	-6292
▁24,	-6293
▁Alexander	-6294
▁tied	-6295
▁2009.	-6296
rence	-6297
▁Charlie	-6298
irates	-6299
▁approached	-6300
▁politicians	-6301
▁calm	-6302
▁Graham	-6303
▁stunning	-6304
▁Trafford	-6305
▁doors	-6306
▁Hughes	-6307
▁square	-6308
eding	-6309
istrates	-6310
▁18,	-6311
▁yours	-6312
wise	-6313
▁grown	-6314
▁Christopher	-6315
▁gym	-6316
▁threw	-6317
▁Ts	-6318
▁command	-6319
ache	-6320
▁jumped	-6321
▁disorder	-6322
▁advoc	-6323
▁Sorry	-6324
▁challenges	-6325
▁explosion	-6326
▁8.	-6327
▁reveals	-6328
▁Mat	-6329
▁Test	-6330
▁map	-6331
▁shar	-6332
▁edge	-6333
▁honor	-6334
▁Jason	-6335
▁Vegas	-6336
▁supply	-6337
▁consist	-6338
▁Swansea	-6339
▁coin	-6340
▁admits	-6341
▁democr	-6342
▁Mars	-6343
▁toile	-6344
▁prec	-6345
▁authority	-6346
▁Malays	-6347
60	-6348
▁Sport	-6349
▁Prosecutors	-6350
▁micro	-6351
▁stock	-6352
▁prisoners	-6353
▁Allen	-6354
gely	-6355
aden	-6356
▁Friend	-6357
igaret	-6358
▁Wild	-6359
▁30,	-6360
▁Irish	-6361
▁Boe	-6362
▁survive	-6363
▁trail	-6364
▁customer	-6365
▁flew	-6366
▁offensive	-6367
▁complic	-6368
▁Let	-6369
▁harass	-6370
▁passion	-6371
▁jack	-6372
▁approved	-6373
▁Mot	-6374
▁chose	-6375
▁exposed	-6376
▁terrorism	-6377
uties	-6378
▁combat	-6379
45	-6380
▁negoti	-6381
▁sets	-6382
▁2009,	-6383
▁stomach	-6384
▁rescued	-6385
▁investigated	-6386
olds	-6387
ateg	-6388
▁2014.	-6389
▁Cooper	-6390
ece	-6391
▁26,	-6392
▁shocking	-6393
▁exclusive	-6394
uster	-6395
▁distance	-6396
▁realised	-6397
▁discovery	-6398
urban	-6399
▁wer	-6400
agger	-6401
IP	-6402
▁metres	-6403
▁opinions	-6404
ulous	-6405
▁followers	-6406
▁occup	-6407
▁silver	-6408
agon	-6409
okes	-6410
▁Abbott	-6411
▁24-	-6412
▁negative	-6413
▁platform	-6414
▁excited	-6415
▁feared	-6416
▁string	-6417
▁Rights	-6418
▁overt	-6419
▁suspicion	-6420
asy	-6421
▁Team	-6422
▁USA	-6423
▁Philipp	-6424
▁arrive	-6425
▁Canadian	-6426
▁thinks	-6427
▁remarks	-6428
▁Sk	-6429
▁reduced	-6430
▁hospitals	-6431
▁raising	-6432
▁Rel	-6433
▁backed	-6434
▁medal	-6435
▁aggressive	-6436
▁theft	-6437
▁Anton	-6438
esty	-6439
lines	-6440
▁fake	-6441
▁Michigan	-6442
▁nar	-6443
▁voted	-6444
▁largely	-6445
tha	-6446
rees	-6447
▁hall	-6448
▁sees	-6449
▁1980	-6450
▁wasnt	-6451
Pe	-6452
▁worldwide	-6453
▁Francis	-6454
inent	-6455
acle	-6456
▁lady	-6457
ishop	-6458
stein	-6459
▁cleared	-6460
▁desperate	-6461
orter	-6462
▁Duke	-6463
▁referred	-6464
▁roads	-6465
▁Lo	-6466
▁cloud	-6467
strong	-6468
▁tun	-6469
▁hitting	-6470
▁10,000	-6471
▁rat	-6472
▁controversy	-6473
iter	-6474
▁Show	-6475
ouri	-6476
▁knocked	-6477
▁2,000	-6478
assador	-6479
▁burgl	-6480
▁adds	-6481
▁2-1	-6482
hens	-6483
▁Turk	-6484
▁Stand	-6485
▁courts	-6486
▁10.	-6487
▁Gh	-6488
▁Second	-6489
▁shoes	-6490
▁remote	-6491
▁denies	-6492
▁outbreak	-6493
▁supported	-6494
▁pin	-6495
▁Bell	-6496
▁revel	-6497
▁Kl	-6498
▁banks	-6499
▁territ	-6500
▁pointed	-6501
▁1-0	-6502
▁grounds	-6503
▁27,	-6504
▁Square	-6505
▁scores	-6506
▁replace	-6507
▁greatest	-6508
10	-6509
ila	-6510
▁abused	-6511
▁permission	-6512
▁Crist	-6513
▁Brazilian	-6514
▁devastated	-6515
▁cann	-6516
70	-6517
▁prompted	-6518
▁scenes	-6519
▁associated	-6520
roc	-6521
▁coffee	-6522
▁bills	-6523
▁write	-6524
▁Danny	-6525
▁winds	-6526
▁museum	-6527
▁Hernandez	-6528
▁Oxford	-6529
▁400	-6530
▁28,	-6531
▁waste	-6532
▁rebels	-6533
▁arrival	-6534
▁Leeds	-6535
▁argument	-6536
awn	-6537
iot	-6538
adel	-6539
▁Jane	-6540
▁unknown	-6541
▁Saf	-6542
▁Fil	-6543
▁lie	-6544
style	-6545
rapped	-6546
▁knowing	-6547
erted	-6548
▁targets	-6549
borne	-6550
▁tickets	-6551
ointment	-6552
▁Santa	-6553
▁founder	-6554
ext	-6555
wall	-6556
▁stepped	-6557
▁searching	-6558
▁compensation	-6559
▁attacking	-6560
▁anger	-6561
▁isol	-6562
▁belief	-6563
ibr	-6564
emble	-6565
itors	-6566
ords	-6567
rome	-6568
▁detail	-6569
aser	-6570
vant	-6571
emic	-6572
ros	-6573
▁scre	-6574
▁jew	-6575
▁zone	-6576
▁(2	-6577
▁memorial	-6578
▁Li	-6579
arch	-6580
▁du	-6581
▁Mod	-6582
place	-6583
▁thats	-6584
▁$5	-6585
▁Doctors	-6586
▁joining	-6587
▁Following	-6588
▁internal	-6589
▁Organ	-6590
▁tatt	-6591
care	-6592
▁33	-6593
▁stro	-6594
▁hate	-6595
▁tend	-6596
▁continuing	-6597
elson	-6598
▁Essex	-6599
▁Craig	-6600
▁Sud	-6601
▁raped	-6602
▁detained	-6603
▁rom	-6604
▁Rio	-6605
▁motiv	-6606
▁unn	-6607
▁starts	-6608
fall	-6609
▁defending	-6610
▁16-	-6611
▁discrim	-6612
▁procedure	-6613
▁none	-6614
▁tor	-6615
▁outrage	-6616
▁terrorists	-6617
▁concluded	-6618
American	-6619
▁reputation	-6620
▁discover	-6621
▁eur	-6622
▁drawn	-6623
▁subs	-6624
whel	-6625
▁Gall	-6626
▁Ashley	-6627
▁surviv	-6628
▁Stoke	-6629
▁scale	-6630
▁erup	-6631
▁Jonathan	-6632
▁Phot	-6633
▁lots	-6634
osen	-6635
▁critics	-6636
eing	-6637
▁badly	-6638
ellor	-6639
▁Bang	-6640
▁solely	-6641
▁appropriate	-6642
imal	-6643
▁statements	-6644
▁Iranian	-6645
▁tradition	-6646
▁Muslims	-6647
▁unclear	-6648
▁notes	-6649
▁arr	-6650
▁Edward	-6651
aska	-6652
▁accepting	-6653
erves	-6654
umber	-6655
▁Sever	-6656
▁Space	-6657
▁follows	-6658
▁pregnancy	-6659
hand	-6660
quarters	-6661
▁dozen	-6662
▁thoughts	-6663
cia	-6664
ogue	-6665
ports	-6666
▁moon	-6667
▁intention	-6668
▁2004	-6669
▁lung	-6670
▁candidates	-6671
ancer	-6672
▁kicked	-6673
▁gall	-6674
▁album	-6675
▁Nas	-6676
▁whatever	-6677
▁deeply	-6678
▁activists	-6679
▁robbery	-6680
chell	-6681
▁tackle	-6682
▁Life	-6683
▁Moore	-6684
▁blind	-6685
▁studies	-6686
▁insist	-6687
▁Gerr	-6688
▁Rodriguez	-6689
▁virt	-6690
hetic	-6691
▁guys	-6692
These	-6693
inating	-6694
▁Pakistani	-6695
gio	-6696
▁Crime	-6697
▁Balot	-6698
▁hidden	-6699
▁civilians	-6700
▁abroad	-6701
▁Campbell	-6702
▁troub	-6703
▁tact	-6704
heast	-6705
▁Arch	-6706
▁atmosphere	-6707
oyd	-6708
zen	-6709
▁princip	-6710
▁Back	-6711
arents	-6712
▁raid	-6713
▁direction	-6714
▁adopt	-6715
ecutive	-6716
▁posed	-6717
▁2-0	-6718
▁horrific	-6719
▁rich	-6720
▁Arm	-6721
ortion	-6722
▁easier	-6723
To	-6724
▁Gordon	-6725
▁clim	-6726
▁deliber	-6727
▁twe	-6728
▁Laur	-6729
▁Vill	-6730
▁Little	-6731
▁Leon	-6732
▁9.	-6733
▁Cardiff	-6734
▁encourage	-6735
▁bike	-6736
centr	-6737
▁defendant	-6738
▁conservative	-6739
olved	-6740
▁rif	-6741
▁preparing	-6742
▁symb	-6743
▁doesnt	-6744
izarre	-6745
▁highl	-6746
arant	-6747
▁sixth	-6748
apse	-6749
▁trapped	-6750
▁Catholic	-6751
▁supporting	-6752
▁posting	-6753
▁disappearance	-6754
▁29,	-6755
ranged	-6756
▁fitness	-6757
▁Balotelli	-6758
girl	-6759
▁Wright	-6760
▁UN	-6761
▁17-	-6762
▁established	-6763
▁leads	-6764
▁intent	-6765
▁Insp	-6766
▁liter	-6767
▁Scientists	-6768
▁wounds	-6769
▁Fel	-6770
▁Each	-6771
▁Munich	-6772
▁25-	-6773
▁spell	-6774
▁minimum	-6775
▁jur	-6776
▁spons	-6777
▁Christie	-6778
▁somebody	-6779
▁everybody	-6780
▁replied	-6781
▁Fred	-6782
fast	-6783
▁strikes	-6784
▁Who	-6785
▁Walker	-6786
▁Watson	-6787
▁welfare	-6788
▁Qat	-6789
▁impossible	-6790
▁Director	-6791
80	-6792
▁Any	-6793
▁comfortable	-6794
▁Jamie	-6795
▁Pers	-6796
▁Oklah	-6797
▁Sum	-6798
mouth	-6799
▁dub	-6800
▁teeth	-6801
▁Spec	-6802
▁satell	-6803
▁pose	-6804
acity	-6805
▁offence	-6806
▁Pass	-6807
▁Gulf	-6808
▁Museum	-6809
▁software	-6810
rum	-6811
▁dispute	-6812
olas	-6813
▁dying	-6814
▁Radio	-6815
vy	-6816
brit	-6817
▁Robin	-6818
▁battery	-6819
▁finger	-6820
▁ped	-6821
▁risks	-6822
▁Nad	-6823
amples	-6824
▁Bry	-6825
▁Thomp	-6826
▁spring	-6827
▁height	-6828
▁native	-6829
▁satisf	-6830
▁strategy	-6831
▁Nigeria	-6832
▁conspiracy	-6833
▁elected	-6834
▁fro	-6835
▁Land	-6836
▁tea	-6837
▁deter	-6838
ema	-6839
▁closely	-6840
▁Gerrard	-6841
▁balance	-6842
▁consumers	-6843
▁racist	-6844
▁terrible	-6845
▁30-	-6846
▁cutting	-6847
▁behalf	-6848
▁Ker	-6849
▁Bull	-6850
▁fel	-6851
▁newly	-6852
▁Mah	-6853
▁17,	-6854
▁Turn	-6855
▁blast	-6856
How	-6857
▁unless	-6858
▁craz	-6859
▁Woods	-6860
▁engaged	-6861
▁Hear	-6862
▁talked	-6863
▁pock	-6864
water	-6865
▁Cop	-6866
▁Pope	-6867
▁maximum	-6868
brities	-6869
▁Bristol	-6870
two	-6871
▁compete	-6872
▁Hodg	-6873
ifying	-6874
▁western	-6875
▁aimed	-6876
▁ancient	-6877
▁Ball	-6878
▁Dallas	-6879
▁Investigators	-6880
▁Jen	-6881
▁therap	-6882
▁4,	-6883
▁sleeping	-6884
azz	-6885
▁obtained	-6886
▁Nich	-6887
nic	-6888
▁marks	-6889
▁Oklahoma	-6890
▁Yet	-6891
▁concentr	-6892
▁QPR	-6893
▁naked	-6894
▁basket	-6895
▁cooper	-6896
▁empty	-6897
▁wonderful	-6898
▁attempting	-6899
▁provides	-6900
▁Glob	-6901
▁unemploy	-6902
▁enjoying	-6903
▁web	-6904
▁birds	-6905
▁Love	-6906
▁novel	-6907
ta	-6908
▁arriving	-6909
izes	-6910
▁immigrants	-6911
▁Asian	-6912
▁Oper	-6913
▁discl	-6914
▁prepare	-6915
AF	-6916
▁episode	-6917
adow	-6918
ima	-6919
▁Jean	-6920
lan	-6921
▁moves	-6922
▁Rh	-6923
▁McL	-6924
▁fee	-6925
Af	-6926
bec	-6927
▁Wimb	-6928
▁sweet	-6929
king	-6930
▁touc	-6931
▁55	-6932
▁invited	-6933
▁subsequ	-6934
▁championship	-6935
▁arrests	-6936
▁1970	-6937
▁vital	-6938
15	-6939
▁bound	-6940
inez	-6941
▁wave	-6942
▁Clark	-6943
▁bench	-6944
▁ca	-6945
▁truly	-6946
aling	-6947
▁involvement	-6948
phia	-6949
▁Thompson	-6950
iev	-6951
▁labor	-6952
▁plenty	-6953
▁meal	-6954
▁dealing	-6955
▁reporter	-6956
ardo	-6957
▁Ferr	-6958
▁surrounded	-6959
▁19-	-6960
▁Peters	-6961
tlet	-6962
▁31,	-6963
▁vacc	-6964
▁Five	-6965
▁Brom	-6966
▁Lyn	-6967
▁code	-6968
▁solar	-6969
▁lifestyle	-6970
gment	-6971
bu	-6972
▁Stew	-6973
▁commentary	-6974
25	-6975
exp	-6976
▁Local	-6977
maker	-6978
ridge	-6979
▁100,000	-6980
▁Bas	-6981
▁racing	-6982
IV	-6983
mo	-6984
▁Rose	-6985
▁scared	-6986
▁excess	-6987
▁task	-6988
▁smoking	-6989
▁shoulder	-6990
▁relief	-6991
▁interests	-6992
▁2008,	-6993
▁assistance	-6994
mers	-6995
▁proposal	-6996
shot	-6997
▁Aston	-6998
▁Pot	-6999
called	-7000
▁mal	-7001
▁normally	-7002
▁lift	-7003
▁orders	-7004
ye	-7005
amin	-7006
▁Gov	-7007
▁Services	-7008
▁suddenly	-7009
rag	-7010
▁basic	-7011
▁Like	-7012
adelphia	-7013
athon	-7014
▁switch	-7015
▁2015	-7016
▁forget	-7017
▁testified	-7018
▁inte	-7019
People	-7020
cedes	-7021
▁Common	-7022
▁couldnt	-7023
▁pushing	-7024
essions	-7025
▁describes	-7026
9-	-7027
ando	-7028
▁Bab	-7029
ancellor	-7030
▁pattern	-7031
▁affiliate	-7032
▁dry	-7033
ledon	-7034
▁informed	-7035
▁65	-7036
CC	-7037
▁overwhel	-7038
▁Because	-7039
▁adopted	-7040
▁Fair	-7041
▁rapid	-7042
▁rank	-7043
▁rocket	-7044
▁Missouri	-7045
▁worry	-7046
ordinary	-7047
▁judges	-7048
dy	-7049
▁Supp	-7050
▁unveiled	-7051
atherine	-7052
▁($	-7053
RA	-7054
▁Hampshire	-7055
yard	-7056
otherap	-7057
▁Gib	-7058
▁sett	-7059
▁innocent	-7060
▁laid	-7061
aya	-7062
▁conce	-7063
▁travelled	-7064
▁pig	-7065
▁solution	-7066
▁Philadelphia	-7067
▁teenagers	-7068
▁reflect	-7069
1-	-7070
▁drinks	-7071
▁cock	-7072
▁begins	-7073
▁talent	-7074
▁spokesperson	-7075
obs	-7076
▁Wind	-7077
▁plus	-7078
▁apology	-7079
agan	-7080
▁pit	-7081
▁planes	-7082
▁yourself	-7083
mad	-7084
aug	-7085
aron	-7086
ingly	-7087
▁programs	-7088
▁fantastic	-7089
orders	-7090
▁6,	-7091
▁stated	-7092
▁documentary	-7093
▁Week	-7094
▁recalled	-7095
▁digital	-7096
▁Bra	-7097
orious	-7098
iration	-7099
▁Hard	-7100
idelines	-7101
▁demanded	-7102
▁poison	-7103
▁resist	-7104
▁hide	-7105
ato	-7106
umed	-7107
▁Admin	-7108
▁CIA	-7109
ideo	-7110
icked	-7111
▁Amaz	-7112
▁permanent	-7113
▁Yemen	-7114
▁reporting	-7115
▁See	-7116
▁Girl	-7117
▁properties	-7118
areness	-7119
inations	-7120
▁Jennifer	-7121
▁Wimbledon	-7122
ito	-7123
▁Marine	-7124
itary	-7125
tletico	-7126
▁McDonald	-7127
▁defended	-7128
▁sheriff	-7129
▁chosen	-7130
▁lies	-7131
▁festival	-7132
ifts	-7133
▁specialist	-7134
▁drew	-7135
acre	-7136
▁Jewish	-7137
▁astron	-7138
▁overseas	-7139
▁Researchers	-7140
▁presenter	-7141
chair	-7142
▁Celt	-7143
▁rein	-7144
▁lover	-7145
▁Brooklyn	-7146
▁2008.	-7147
▁Mario	-7148
▁connected	-7149
▁tur	-7150
iable	-7151
▁mas	-7152
mann	-7153
ocolate	-7154
▁Brend	-7155
▁Turkish	-7156
▁payments	-7157
iece	-7158
▁Mitchell	-7159
rett	-7160
▁congress	-7161
▁petition	-7162
▁waves	-7163
▁diss	-7164
▁Still	-7165
▁facilities	-7166
▁torn	-7167
icious	-7168
▁Academy	-7169
▁turns	-7170
▁depression	-7171
▁misc	-7172
▁becomes	-7173
▁reun	-7174
iders	-7175
▁14-	-7176
▁corruption	-7177
▁alternative	-7178
▁NY	-7179
▁Rub	-7180
▁Asked	-7181
▁gap	-7182
▁embr	-7183
▁Philip	-7184
▁understanding	-7185
▁slightly	-7186
▁liber	-7187
▁Dave	-7188
▁rose	-7189
▁Justin	-7190
▁withdraw	-7191
isers	-7192
▁formed	-7193
▁Sub	-7194
▁Hy	-7195
▁scan	-7196
▁Perry	-7197
▁yards	-7198
▁bombing	-7199
usive	-7200
▁Marg	-7201
▁neighbours	-7202
Al	-7203
▁Swit	-7204
▁ocean	-7205
▁referee	-7206
▁warrant	-7207
▁Martinez	-7208
esh	-7209
achel	-7210
illiant	-7211
▁Hold	-7212
▁tex	-7213
▁Social	-7214
▁Fre	-7215
▁Transport	-7216
▁breath	-7217
▁Ib	-7218
▁tank	-7219
▁Jessica	-7220
▁categ	-7221
▁attending	-7222
▁diver	-7223
▁windows	-7224
▁iconic	-7225
▁Water	-7226
▁patrol	-7227
▁Hillary	-7228
▁LA	-7229
▁2016	-7230
▁mansion	-7231
annah	-7232
▁chat	-7233
▁vent	-7234
TA	-7235
▁Lt	-7236
▁firms	-7237
▁gift	-7238
▁16,	-7239
▁Libya	-7240
▁prize	-7241
▁rural	-7242
▁quit	-7243
▁Atletico	-7244
▁Jeremy	-7245
▁totally	-7246
ora	-7247
▁Brother	-7248
▁Time	-7249
▁Marsh	-7250
▁reward	-7251
▁34	-7252
antic	-7253
▁cous	-7254
▁vessel	-7255
▁punishment	-7256
▁extended	-7257
▁Whit	-7258
echan	-7259
▁function	-7260
pread	-7261
olitan	-7262
▁Dj	-7263
▁Hunt	-7264
OW	-7265
▁Pear	-7266
vin	-7267
▁structure	-7268
▁2003	-7269
▁honest	-7270
orous	-7271
▁discip	-7272
▁entit	-7273
▁imagine	-7274
▁Raf	-7275
hy	-7276
eller	-7277
▁jihad	-7278
mitted	-7279
▁Ocean	-7280
▁coalition	-7281
▁posts	-7282
▁Portugal	-7283
zing	-7284
▁anx	-7285
▁campus	-7286
▁Connect	-7287
▁Greece	-7288
▁Society	-7289
▁sanctions	-7290
odes	-7291
▁Food	-7292
▁Stewart	-7293
▁contained	-7294
ls	-7295
▁bullet	-7296
▁smile	-7297
▁ministers	-7298
▁22-	-7299
uay	-7300
▁deli	-7301
idespread	-7302
▁testim	-7303
▁fees	-7304
▁joke	-7305
▁shed	-7306
▁apprec	-7307
▁recommend	-7308
▁earn	-7309
loaded	-7310
▁Experts	-7311
onscious	-7312
▁promote	-7313
▁file	-7314
▁dedicated	-7315
▁describe	-7316
uls	-7317
▁Kerry	-7318
▁sisters	-7319
▁Edin	-7320
▁Amazon	-7321
▁Carter	-7322
▁Davies	-7323
▁walls	-7324
!"	-7325
irty	-7326
▁Gaza	-7327
▁ultimately	-7328
inois	-7329
▁Mohammed	-7330
▁demanding	-7331
enez	-7332
▁Neil	-7333
▁stream	-7334
▁Roger	-7335
▁decor	-7336
wick	-7337
▁Belgium	-7338
▁Bruce	-7339
▁Jimmy	-7340
▁stole	-7341
ologists	-7342
▁Luke	-7343
ayed	-7344
grav	-7345
▁tear	-7346
bar	-7347
LL	-7348
▁collected	-7349
ingham	-7350
ja	-7351
▁Lisa	-7352
▁capable	-7353
▁Ow	-7354
▁Gil	-7355
▁Glas	-7356
▁throw	-7357
▁pleased	-7358
aval	-7359
▁Call	-7360
real	-7361
▁assaulted	-7362
▁performing	-7363
▁CBS	-7364
▁Hom	-7365
▁handle	-7366
▁Lane	-7367
nam	-7368
▁cha	-7369
▁matters	-7370
▁disappointed	-7371
dale	-7372
▁administr	-7373
▁milk	-7374
▁46	-7375
▁Palestinian	-7376
▁mile	-7377
▁celebrities	-7378
raid	-7379
aco	-7380
▁guarant	-7381
▁earning	-7382
tra	-7383
▁plants	-7384
▁AC	-7385
▁temperature	-7386
▁Get	-7387
▁pink	-7388
▁Are	-7389
▁Pacific	-7390
▁Rangers	-7391
▁caps	-7392
▁aboard	-7393
▁bombs	-7394
itarian	-7395
▁sentencing	-7396
▁shares	-7397
▁radical	-7398
▁firefighters	-7399
▁Stone	-7400
▁loud	-7401
▁officially	-7402
▁interviewed	-7403
▁Garcia	-7404
▁brutal	-7405
oln	-7406
rifying	-7407
▁Ay	-7408
anchez	-7409
▁tracks	-7410
▁Seattle	-7411
▁relatively	-7412
▁Pen	-7413
unction	-7414
▁crying	-7415
▁rehab	-7416
▁analysis	-7417
,000.	-7418
▁burned	-7419
▁marked	-7420
****	-7421
▁McI	-7422
orough	-7423
▁fruit	-7424
▁Deb	-7425
▁enth	-7426
▁stem	-7427
▁Atlantic	-7428
▁23-	-7429
▁ing	-7430
final	-7431
rich	-7432
▁wreck	-7433
▁Russell	-7434
▁veget	-7435
▁ow	-7436
pers	-7437
▁Brand	-7438
▁homeless	-7439
▁Deputy	-7440
▁drama	-7441
▁Columb	-7442
▁incredibly	-7443
anes	-7444
obby	-7445
▁earthqu	-7446
▁grabbed	-7447
▁Rev	-7448
▁bizarre	-7449
▁Cos	-7450
put	-7451
▁Disney	-7452
▁beer	-7453
▁hired	-7454
▁cigaret	-7455
▁Crystal	-7456
▁delighted	-7457
▁routine	-7458
▁Clegg	-7459
▁crucial	-7460
▁AT	-7461
▁powers	-7462
▁Clar	-7463
▁Moy	-7464
▁ties	-7465
▁strict	-7466
▁Broad	-7467
▁Officer	-7468
▁devastating	-7469
dad	-7470
▁Laura	-7471
▁Has	-7472
icut	-7473
▁entirely	-7474
▁searched	-7475
gow	-7476
▁vision	-7477
▁execution	-7478
▁Nig	-7479
▁writes	-7480
▁Switzer	-7481
▁sharing	-7482
acters	-7483
▁Sanchez	-7484
▁clinic	-7485
▁weren	-7486
▁Yesterday	-7487
▁lock	-7488
▁overnight	-7489
▁inapp	-7490
equ	-7491
▁Gab	-7492
▁consequences	-7493
▁dubbed	-7494
▁seed	-7495
▁papers	-7496
▁opportunities	-7497
Is	-7498
▁gained	-7499
▁explains	-7500
▁NASA	-7501
▁apply	-7502
▁shops	-7503
▁Lig	-7504
▁tries	-7505
burn	-7506
▁tip	-7507
ooth	-7508
lings	-7509
▁Roll	-7510
▁Jud	-7511
▁Stu	-7512
▁implement	-7513
▁anywhere	-7514
▁childhood	-7515
MA	-7516
▁fault	-7517
▁Illinois	-7518
▁21-	-7519
▁chef	-7520
ighton	-7521
rene	-7522
aware	-7523
▁votes	-7524
otherapy	-7525
▁Educ	-7526
▁Switzerland	-7527
don	-7528
▁detectives	-7529
▁awareness	-7530
Its	-7531
▁explo	-7532
▁killings	-7533
▁rent	-7534
▁fighter	-7535
▁Major	-7536
▁McK	-7537
breaking	-7538
die	-7539
▁shark	-7540
▁Commons	-7541
▁ru	-7542
▁Alab	-7543
▁reaching	-7544
▁Dubai	-7545
oyal	-7546
▁breathing	-7547
▁poses	-7548
▁Mercedes	-7549
▁37	-7550
▁Gill	-7551
An	-7552
▁king	-7553
▁revolution	-7554
▁Several	-7555
▁Hu	-7556
▁taxi	-7557
▁fewer	-7558
200	-7559
▁mos	-7560
▁Zimmer	-7561
class	-7562
▁joy	-7563
▁listen	-7564
▁locations	-7565
DA	-7566
minster	-7567
▁screaming	-7568
▁entr	-7569
▁scar	-7570
▁vig	-7571
▁classic	-7572
▁Whe	-7573
▁rally	-7574
▁tonight	-7575
▁priority	-7576
▁characters	-7577
▁county	-7578
▁titles	-7579
incoln	-7580
icy	-7581
▁hits	-7582
▁ordeal	-7583
ffield	-7584
▁Southern	-7585
▁Utah	-7586
▁Friends	-7587
acement	-7588
▁commitment	-7589
box	-7590
▁widespread	-7591
▁5,	-7592
active	-7593
▁Sean	-7594
▁application	-7595
lete	-7596
▁occasions	-7597
▁11,	-7598
▁Form	-7599
▁otherwise	-7600
attered	-7601
▁cancel	-7602
▁grandfather	-7603
▁favorite	-7604
▁drone	-7605
▁ski	-7606
▁smugg	-7607
▁brilliant	-7608
▁eleph	-7609
▁toilet	-7610
▁registered	-7611
orses	-7612
▁celebrated	-7613
▁Connecticut	-7614
usting	-7615
▁regarding	-7616
idays	-7617
esus	-7618
din	-7619
▁bone	-7620
▁Hodgson	-7621
▁tourist	-7622
pan	-7623
free	-7624
phed	-7625
▁PM	-7626
▁shift	-7627
▁expand	-7628
▁automatic	-7629
▁governments	-7630
▁constitution	-7631
▁bat	-7632
▁flowers	-7633
fe	-7634
leep	-7635
▁Sheffield	-7636
season	-7637
▁taught	-7638
▁cheap	-7639
▁grave	-7640
▁Nap	-7641
▁infected	-7642
▁Father	-7643
▁attracted	-7644
▁projects	-7645
ailand	-7646
▁Board	-7647
▁Glasgow	-7648
▁Ale	-7649
overty	-7650
▁youngest	-7651
▁Swiss	-7652
▁conver	-7653
▁delivery	-7654
ateful	-7655
ducing	-7656
▁habit	-7657
▁settlement	-7658
▁improved	-7659
▁profession	-7660
▁Aff	-7661
▁Best	-7662
▁Shaw	-7663
▁goods	-7664
▁taxes	-7665
▁controlled	-7666
▁Bos	-7667
▁celebrating	-7668
▁ending	-7669
wan	-7670
▁clients	-7671
▁Juan	-7672
itable	-7673
▁NAT	-7674
▁alert	-7675
▁911	-7676
▁checked	-7677
▁demands	-7678
▁Enter	-7679
▁Head	-7680
▁Power	-7681
ikh	-7682
▁la	-7683
athy	-7684
▁bik	-7685
▁puts	-7686
▁Leg	-7687
inch	-7688
▁Pent	-7689
iac	-7690
▁Howard	-7691
▁branch	-7692
▁casual	-7693
▁temporary	-7694
how	-7695
▁Heath	-7696
lad	-7697
▁Low	-7698
▁Sudan	-7699
▁featuring	-7700
dog	-7701
▁master	-7702
▁compar	-7703
▁fiance	-7704
▁spr	-7705
▁Blair	-7706
▁recon	-7707
▁15,	-7708
▁Thailand	-7709
▁headquarters	-7710
▁pron	-7711
▁afraid	-7712
▁stable	-7713
▁mine	-7714
▁Ward	-7715
▁Aaron	-7716
▁Agu	-7717
▁Notting	-7718
▁hanging	-7719
▁purpose	-7720
▁suspicious	-7721
▁ge	-7722
▁cricket	-7723
▁links	-7724
▁Dur	-7725
▁extraordinary	-7726
▁bru	-7727
▁traveling	-7728
ctic	-7729
▁ideas	-7730
▁2007.	-7731
issions	-7732
One	-7733
iden	-7734
▁guards	-7735
▁Lincoln	-7736
▁extensive	-7737
▁ju	-7738
▁archit	-7739
▁filming	-7740
▁Alabama	-7741
eler	-7742
▁Tou	-7743
▁testimony	-7744
roid	-7745
▁Resc	-7746
▁tail	-7747
enny	-7748
▁Rem	-7749
def	-7750
▁Ukrain	-7751
▁je	-7752
▁pleas	-7753
▁$6	-7754
▁promise	-7755
▁bon	-7756
gt	-7757
▁iPad	-7758
▁praised	-7759
▁checks	-7760
▁variety	-7761
▁fill	-7762
▁Robinson	-7763
▁Cas	-7764
olph	-7765
▁Ha	-7766
olly	-7767
▁Adams	-7768
▁Lion	-7769
▁sits	-7770
▁rugby	-7771
car	-7772
▁accur	-7773
ommod	-7774
▁ends	-7775
▁emails	-7776
▁Stuart	-7777
▁Tar	-7778
▁acted	-7779
▁fined	-7780
▁advance	-7781
▁Hawai	-7782
pass	-7783
▁els	-7784
▁burst	-7785
▁Derby	-7786
▁brown	-7787
▁resulted	-7788
▁containing	-7789
etime	-7790
li	-7791
▁Trib	-7792
▁cruel	-7793
low	-7794
▁skull	-7795
▁grass	-7796
eor	-7797
▁copy	-7798
▁ward	-7799
▁hiding	-7800
▁0.	-7801
▁Hur	-7802
grees	-7803
▁criminals	-7804
▁wing	-7805
▁Nov	-7806
▁Was	-7807
▁recording	-7808
▁attached	-7809
▁winners	-7810
owered	-7811
▁gunman	-7812
xic	-7813
▁interesting	-7814
▁Spurs	-7815
uan	-7816
▁smashed	-7817
▁Row	-7818
▁trophy	-7819
▁liqu	-7820
▁Celtic	-7821
▁transpl	-7822
case	-7823
▁burning	-7824
ami	-7825
och	-7826
▁NATO	-7827
▁Emer	-7828
ighth	-7829
amedics	-7830
▁deem	-7831
▁deny	-7832
arms	-7833
▁sector	-7834
▁package	-7835
▁Conservative	-7836
▁ster	-7837
▁firing	-7838
▁Federer	-7839
▁entering	-7840
▁deals	-7841
▁advised	-7842
▁stealing	-7843
▁teaching	-7844
found	-7845
▁2002	-7846
▁enorm	-7847
▁sustained	-7848
ello	-7849
▁narrow	-7850
▁integr	-7851
▁founded	-7852
▁Secret	-7853
▁Though	-7854
urer	-7855
▁requires	-7856
▁Bond	-7857
▁Video	-7858
▁probation	-7859
▁successfully	-7860
oded	-7861
venth	-7862
▁fract	-7863
▁suggesting	-7864
▁Administration	-7865
dr	-7866
iro	-7867
▁monitor	-7868
▁gro	-7869
asion	-7870
▁todd	-7871
bie	-7872
▁Duncan	-7873
▁carbon	-7874
roit	-7875
▁impressed	-7876
▁multi	-7877
▁visits	-7878
▁applied	-7879
▁stages	-7880
▁Hend	-7881
▁illeg	-7882
mund	-7883
▁condemned	-7884
col	-7885
▁tape	-7886
borough	-7887
bris	-7888
erald	-7889
▁Egyptian	-7890
▁hung	-7891
▁intense	-7892
▁combined	-7893
▁$7	-7894
above	-7895
▁sib	-7896
▁flames	-7897
▁Welsh	-7898
▁blaze	-7899
▁degrees	-7900
▁enthus	-7901
▁teens	-7902
▁garage	-7903
▁suc	-7904
▁acknowledged	-7905
icit	-7906
▁crews	-7907
▁closing	-7908
▁athletes	-7909
▁exciting	-7910
▁chocolate	-7911
▁formal	-7912
▁mechan	-7913
▁mut	-7914
800	-7915
▁£1	-7916
otte	-7917
▁riding	-7918
▁basketball	-7919
▁Exp	-7920
▁Roma	-7921
▁accommod	-7922
oen	-7923
▁colleague	-7924
▁5,000	-7925
▁Kurd	-7926
▁fundra	-7927
xy	-7928
▁Theres	-7929
▁gender	-7930
onz	-7931
▁cul	-7932
▁capacity	-7933
▁types	-7934
▁Cornwall	-7935
ompl	-7936
▁sac	-7937
▁confron	-7938
▁regional	-7939
▁14,	-7940
▁cub	-7941
▁restaurants	-7942
▁convin	-7943
▁succeed	-7944
ureau	-7945
▁probe	-7946
▁positions	-7947
▁Ret	-7948
▁factory	-7949
▁satellite	-7950
▁193	-7951
▁fier	-7952
km	-7953
▁nick	-7954
▁End	-7955
erm	-7956
▁solid	-7957
▁oldest	-7958
▁typically	-7959
▁Cat	-7960
▁loves	-7961
▁summit	-7962
▁encounter	-7963
aghdad	-7964
▁Susan	-7965
▁desire	-7966
ois	-7967
▁Bart	-7968
▁hang	-7969
▁resigned	-7970
▁Collins	-7971
▁Zimmerman	-7972
abet	-7973
icts	-7974
▁Chancellor	-7975
▁organisation	-7976
▁throwing	-7977
▁independence	-7978
▁investigations	-7979
▁Sgt	-7980
ricane	-7981
▁transferred	-7982
▁initi	-7983
▁shout	-7984
▁movies	-7985
▁Westminster	-7986
▁Morris	-7987
unior	-7988
▁blocked	-7989
roso	-7990
▁toll	-7991
▁Int	-7992
▁recovering	-7993
▁communications	-7994
▁lad	-7995
▁tweets	-7996
▁42	-7997
▁taste	-7998
▁packed	-7999
▁gest	-8000
endent	-8001
▁avo	-8002
▁Chile	-8003
▁procedures	-8004
▁Est	-8005
▁convinced	-8006
▁elsewhere	-8007
▁Stev	-8008
mans	-8009
▁shelter	-8010
onnell	-8011
▁factor	-8012
▁26-	-8013
▁era	-8014
▁aer	-8015
▁Live	-8016
cling	-8017
SW	-8018
▁lifted	-8019
▁Play	-8020
▁worn	-8021
▁medication	-8022
▁marry	-8023
▁encouraged	-8024
▁witnessed	-8025
Un	-8026
essing	-8027
▁crossing	-8028
▁HM	-8029
▁Edinburgh	-8030
▁Hills	-8031
heim	-8032
▁cited	-8033
▁manage	-8034
▁hack	-8035
▁error	-8036
▁funny	-8037
▁volunteers	-8038
▁owns	-8039
apes	-8040
beat	-8041
▁Amy	-8042
▁Look	-8043
▁approval	-8044
▁ambassador	-8045
▁tag	-8046
▁materials	-8047
▁7,	-8048
▁affairs	-8049
▁commander	-8050
▁Magistrates	-8051
ndrome	-8052
▁Education	-8053
▁Ll	-8054
▁waited	-8055
▁familiar	-8056
umes	-8057
▁Py	-8058
abis	-8059
▁renew	-8060
▁accusations	-8061
▁Urug	-8062
acular	-8063
esco	-8064
▁lav	-8065
▁environmental	-8066
▁emp	-8067
▁advent	-8068
▁indict	-8069
▁contains	-8070
▁Queensland	-8071
▁represents	-8072
▁32,	-8073
ether	-8074
▁Around	-8075
▁Authority	-8076
▁Beckham	-8077
ecting	-8078
▁guide	-8079
▁disabled	-8080
▁Az	-8081
▁predict	-8082
writ	-8083
▁Had	-8084
▁7-	-8085
▁Emma	-8086
▁3,000	-8087
▁luck	-8088
▁Rome	-8089
▁cos	-8090
sung	-8091
▁Book	-8092
▁flooding	-8093
tic	-8094
▁keeps	-8095
▁breach	-8096
▁Burnley	-8097
▁advertising	-8098
▁collision	-8099
▁Key	-8100
▁McIl	-8101
▁effectively	-8102
▁confront	-8103
▁Amb	-8104
▁pace	-8105
▁label	-8106
▁stronger	-8107
▁unac	-8108
ture	-8109
icial	-8110
▁blank	-8111
▁welcom	-8112
▁Detroit	-8113
▁existing	-8114
▁disturb	-8115
DC	-8116
▁Brendan	-8117
▁Business	-8118
▁awa	-8119
▁Pictured	-8120
ught	-8121
▁expecting	-8122
▁concept	-8123
inking	-8124
▁honour	-8125
itage	-8126
▁relationships	-8127
▁Rand	-8128
▁clip	-8129
caster	-8130
made	-8131
▁Dor	-8132
▁meetings	-8133
▁requests	-8134
▁detailed	-8135
▁asp	-8136
regon	-8137
▁Emb	-8138
▁aggrav	-8139
▁entitled	-8140
da	-8141
▁parked	-8142
AR	-8143
▁anybody	-8144
▁Kay	-8145
▁entry	-8146
ximately	-8147
▁Nottingham	-8148
▁walks	-8149
▁usual	-8150
▁barely	-8151
▁bosses	-8152
▁visible	-8153
▁accompan	-8154
▁Kenya	-8155
▁motion	-8156
▁bacter	-8157
▁sugar	-8158
▁Spring	-8159
▁Ukrainian	-8160
▁Beat	-8161
▁hunt	-8162
▁hosts	-8163
amber	-8164
eping	-8165
▁2007,	-8166
▁Barcl	-8167
▁apps	-8168
▁vowed	-8169
iatric	-8170
▁Uruguay	-8171
▁PC	-8172
▁territory	-8173
▁wire	-8174
▁Sandy	-8175
▁appointed	-8176
early	-8177
▁classes	-8178
▁studio	-8179
ported	-8180
▁Devon	-8181
▁meals	-8182
children	-8183
▁cats	-8184
-3	-8185
▁Donald	-8186
▁Const	-8187
Le	-8188
▁nut	-8189
AS	-8190
phones	-8191
▁Safety	-8192
iants	-8193
▁therefore	-8194
▁Ry	-8195
▁guest	-8196
▁announce	-8197
axy	-8198
▁accompl	-8199
▁Special	-8200
▁surprising	-8201
▁genu	-8202
▁thin	-8203
▁Commissioner	-8204
cles	-8205
▁migrants	-8206
▁appearing	-8207
▁Bon	-8208
▁Mack	-8209
▁Oregon	-8210
▁branded	-8211
▁covering	-8212
▁seasons	-8213
tes	-8214
▁1960	-8215
▁mixed	-8216
▁Bailey	-8217
▁Manuel	-8218
▁please	-8219
▁kidnapping	-8220
▁fishing	-8221
▁Arabia	-8222
▁speculation	-8223
profile	-8224
laughter	-8225
▁opponents	-8226
▁191	-8227
With	-8228
▁sacked	-8229
istle	-8230
▁Leban	-8231
▁license	-8232
▁ITV	-8233
▁purchase	-8234
▁inappropriate	-8235
▁11.	-8236
▁Victim	-8237
▁supplies	-8238
▁slowly	-8239
ilst	-8240
▁sharp	-8241
▁Anne	-8242
▁felony	-8243
▁indicated	-8244
▁values	-8245
▁Ron	-8246
▁Medic	-8247
▁HIV	-8248
▁Detective	-8249
▁celebration	-8250
ucks	-8251
▁Bad	-8252
▁Snowden	-8253
▁27-	-8254
▁hunting	-8255
▁viral	-8256
▁stations	-8257
▁detention	-8258
▁Dy	-8259
ulations	-8260
aved	-8261
▁predicted	-8262
▁Mull	-8263
▁brave	-8264
▁strip	-8265
▁collapse	-8266
▁monitoring	-8267
▁coroner	-8268
▁imprison	-8269
▁Rice	-8270
▁delayed	-8271
▁finds	-8272
▁interviews	-8273
▁Aut	-8274
▁absence	-8275
▁Midlands	-8276
itis	-8277
▁Democrat	-8278
▁Cou	-8279
▁Tam	-8280
▁Cuba	-8281
▁reception	-8282
ded	-8283
▁bones	-8284
▁Clarke	-8285
verse	-8286
▁thick	-8287
▁transl	-8288
wing	-8289
▁faster	-8290
▁manner	-8291
▁experiences	-8292
wife	-8293
▁alarm	-8294
orage	-8295
▁Gard	-8296
▁Child	-8297
▁OK	-8298
▁Sony	-8299
▁greet	-8300
▁sporting	-8301
▁electricity	-8302
rehens	-8303
▁touched	-8304
▁contem	-8305
▁univers	-8306
▁veterans	-8307
certain	-8308
▁neither	-8309
▁attorneys	-8310
!!	-8311
▁smartphone	-8312
▁regulations	-8313
▁43	-8314
▁Fur	-8315
▁throat	-8316
▁ministry	-8317
▁ships	-8318
▁Amanda	-8319
▁writer	-8320
▁Maryland	-8321
rets	-8322
▁generally	-8323
▁flown	-8324
▁artists	-8325
▁mystery	-8326
▁Eve	-8327
▁twins	-8328
▁striking	-8329
▁admit	-8330
ati	-8331
chi	-8332
had	-8333
▁inmates	-8334
▁symp	-8335
▁Samsung	-8336
graph	-8337
▁conclus	-8338
oty	-8339
▁hell	-8340
▁Qatar	-8341
cho	-8342
▁ethnic	-8343
▁Ple	-8344
wealth	-8345
osition	-8346
yo	-8347
▁Reid	-8348
▁prepar	-8349
▁debris	-8350
▁pilots	-8351
wa	-8352
▁McIlroy	-8353
▁Forest	-8354
▁hadn	-8355
▁ages	-8356
ointing	-8357
▁12,	-8358
▁Flight	-8359
▁channel	-8360
afi	-8361
▁Pop	-8362
▁Osborne	-8363
▁33,	-8364
▁trains	-8365
▁shouldn	-8366
▁Ban	-8367
▁Hait	-8368
idents	-8369
▁safely	-8370
▁racial	-8371
▁bes	-8372
▁pulling	-8373
▁Pelle	-8374
▁Poland	-8375
▁outcome	-8376
▁ramp	-8377
abe	-8378
isb	-8379
▁objects	-8380
cott	-8381
▁Blue	-8382
▁recru	-8383
▁sounds	-8384
▁Phillips	-8385
ivalent	-8386
▁competitive	-8387
▁Independ	-8388
▁nobody	-8389
▁civilian	-8390
hem	-8391
▁producer	-8392
▁protected	-8393
▁tattoo	-8394
▁innov	-8395
▁offices	-8396
▁races	-8397
▁landsc	-8398
orer	-8399
▁Djok	-8400
▁mand	-8401
▁Neighb	-8402
▁Nelson	-8403
▁opposite	-8404
▁speaks	-8405
▁strange	-8406
▁Barbara	-8407
▁Somalia	-8408
▁defensive	-8409
▁12.	-8410
▁proceedings	-8411
▁organizations	-8412
armed	-8413
▁Crit	-8414
▁computers	-8415
oos	-8416
▁retirement	-8417
etch	-8418
▁manslaughter	-8419
rait	-8420
▁rig	-8421
▁poverty	-8422
▁Vol	-8423
▁Domin	-8424
▁Surrey	-8425
▁Defence	-8426
anne	-8427
▁wealthy	-8428
▁pump	-8429
ulture	-8430
▁cry	-8431
▁theory	-8432
▁pronounced	-8433
▁Grant	-8434
▁nurses	-8435
▁compound	-8436
▁Dri	-8437
OS	-8438
▁Bloom	-8439
▁persu	-8440
▁studying	-8441
▁forcing	-8442
but	-8443
▁Free	-8444
▁rounds	-8445
▁Tenness	-8446
idal	-8447
▁spin	-8448
▁noise	-8449
▁Austin	-8450
▁Colombia	-8451
▁Cristiano	-8452
▁Moyes	-8453
▁nerv	-8454
▁posing	-8455
▁fitted	-8456
▁chicken	-8457
onna	-8458
▁2001	-8459
▁obst	-8460
▁loyal	-8461
CR	-8462
▁Euro	-8463
▁horses	-8464
▁Ful	-8465
umph	-8466
▁Britons	-8467
▁midfield	-8468
owa	-8469
▁Stat	-8470
▁Castro	-8471
▁awards	-8472
▁markets	-8473
▁Vin	-8474
▁importance	-8475
▁factors	-8476
▁Ney	-8477
▁partnership	-8478
▁10,	-8479
▁Britains	-8480
▁Djokovic	-8481
▁Station	-8482
▁Morning	-8483
▁remarkable	-8484
▁brings	-8485
respond	-8486
".	-8487
list	-8488
uations	-8489
ropolitan	-8490
omy	-8491
▁cream	-8492
▁Eth	-8493
▁Witness	-8494
▁representative	-8495
▁memories	-8496
Some	-8497
▁shell	-8498
▁amounts	-8499
▁supermarket	-8500
▁admitting	-8501
▁paint	-8502
▁Fund	-8503
guard	-8504
▁managers	-8505
▁pupp	-8506
▁Edwards	-8507
▁handling	-8508
▁Indonesia	-8509
▁represented	-8510
▁representing	-8511
erez	-8512
uting	-8513
▁sail	-8514
▁prohib	-8515
▁obvious	-8516
olve	-8517
▁13-	-8518
▁stroke	-8519
▁knock	-8520
▁diamond	-8521
▁accompanied	-8522
tim	-8523
▁11-	-8524
▁sch	-8525
upper	-8526
▁eggs	-8527
▁comedy	-8528
▁licence	-8529
▁nights	-8530
oir	-8531
▁networks	-8532
▁Thanks	-8533
▁distress	-8534
▁Bah	-8535
▁NBA	-8536
▁ank	-8537
▁twin	-8538
▁begun	-8539
▁excell	-8540
▁stamp	-8541
ifted	-8542
▁booked	-8543
▁illegally	-8544
▁conced	-8545
▁calc	-8546
rast	-8547
▁religion	-8548
ES	-8549
▁acad	-8550
▁Antonio	-8551
▁Malaysia	-8552
▁harder	-8553
▁bottles	-8554
▁counsel	-8555
▁discussed	-8556
▁EST	-8557
▁pending	-8558
▁holidays	-8559
▁cert	-8560
▁Dougl	-8561
oons	-8562
▁Civil	-8563
▁unconscious	-8564
▁pill	-8565
▁Mas	-8566
▁cannabis	-8567
opsy	-8568
▁Maur	-8569
▁strongly	-8570
cript	-8571
▁cope	-8572
▁locals	-8573
▁opposed	-8574
crib	-8575
▁citizen	-8576
▁contrast	-8577
▁Ven	-8578
▁regret	-8579
▁websites	-8580
gage	-8581
▁units	-8582
second	-8583
▁equivalent	-8584
▁referring	-8585
90	-8586
aws	-8587
rete	-8588
▁Les	-8589
nesota	-8590
▁Murphy	-8591
▁Wolf	-8592
▁exit	-8593
▁spray	-8594
▁cruise	-8595
▁600	-8596
▁Treas	-8597
▁activist	-8598
▁distr	-8599
▁substant	-8600
▁headlines	-8601
▁Berlin	-8602
▁discrimination	-8603
▁Box	-8604
issa	-8605
▁enormous	-8606
▁curren	-8607
▁Margaret	-8608
esity	-8609
▁Serge	-8610
▁Darren	-8611
load	-8612
uous	-8613
▁crazy	-8614
▁nickn	-8615
▁technical	-8616
▁afterwards	-8617
▁cycl	-8618
▁color	-8619
inder	-8620
▁Tok	-8621
▁smell	-8622
gging	-8623
▁distin	-8624
▁donations	-8625
▁seventh	-8626
▁horror	-8627
onduct	-8628
▁Sussex	-8629
▁deemed	-8630
▁extent	-8631
▁drawing	-8632
After	-8633
▁rebu	-8634
▁donated	-8635
▁wildlife	-8636
▁Lamp	-8637
▁Nether	-8638
▁negotiations	-8639
▁Ren	-8640
ilding	-8641
▁Pentagon	-8642
uer	-8643
▁exhibition	-8644
▁Jong	-8645
▁Krist	-8646
▁reads	-8647
▁ridic	-8648
▁Captain	-8649
lb	-8650
lessly	-8651
▁earthquake	-8652
akh	-8653
▁spac	-8654
▁Hawaii	-8655
oni	-8656
▁outfit	-8657
ras	-8658
▁pages	-8659
iller	-8660
▁salary	-8661
▁viewed	-8662
▁Laden	-8663
osh	-8664
LA	-8665
▁picking	-8666
▁Barclays	-8667
bits	-8668
enson	-8669
▁Microso	-8670
▁alter	-8671
▁forms	-8672
▁achieved	-8673
▁Ap	-8674
▁mini	-8675
▁Griff	-8676
▁Night	-8677
▁Neymar	-8678
▁Emirates	-8679
▁emph	-8680
▁Class	-8681
▁significantly	-8682
▁answers	-8683
▁traveled	-8684
▁popularity	-8685
:30	-8686
▁Kyle	-8687
▁dict	-8688
▁dates	-8689
▁winger	-8690
▁Tennessee	-8691
▁businessman	-8692
▁Knight	-8693
▁Minnesota	-8694
▁youngster	-8695
▁Disc	-8696
icing	-8697
▁voting	-8698
vard	-8699
riers	-8700
atched	-8701
▁44	-8702
▁Kansas	-8703
ervatives	-8704
▁warnings	-8705
raf	-8706
rahim	-8707
▁restrictions	-8708
▁Tem	-8709
▁tent	-8710
Ne	-8711
aven	-8712
▁bears	-8713
▁neighbors	-8714
ais	-8715
▁elim	-8716
▁Sweden	-8717
▁cousin	-8718
▁battling	-8719
▁Ivan	-8720
▁Anfield	-8721
▁diplomatic	-8722
▁Keith	-8723
▁architect	-8724
▁Eastern	-8725
rors	-8726
▁NSW	-8727
▁division	-8728
▁Lawrence	-8729
oa	-8730
held	-8731
▁Hope	-8732
▁volcan	-8733
▁Baghdad	-8734
▁selection	-8735
▁Nigel	-8736
▁estimates	-8737
endum	-8738
▁fame	-8739
▁sentences	-8740
▁facts	-8741
▁offenders	-8742
▁13,	-8743
leton	-8744
▁harassment	-8745
ructure	-8746
▁pocket	-8747
▁strang	-8748
▁therapy	-8749
▁towns	-8750
▁personally	-8751
vised	-8752
▁Wy	-8753
ylum	-8754
▁marketing	-8755
.-	-8756
usal	-8757
▁Haz	-8758
▁prospect	-8759
▁residence	-8760
▁Oliver	-8761
▁gri	-8762
ierra	-8763
▁recruit	-8764
▁roughly	-8765
▁34,	-8766
▁Greek	-8767
▁Barry	-8768
▁sensitive	-8769
▁physically	-8770
▁Viet	-8771
▁trick	-8772
▁Sergio	-8773
▁lawmakers	-8774
upid	-8775
bag	-8776
▁tens	-8777
page	-8778
▁Case	-8779
▁Hes	-8780
▁Serb	-8781
▁Fro	-8782
ician	-8783
▁indec	-8784
▁dischar	-8785
▁songs	-8786
▁Cher	-8787
▁trips	-8788
▁Alaska	-8789
▁McCain	-8790
▁toddler	-8791
dis	-8792
stri	-8793
front	-8794
iki	-8795
uable	-8796
▁Simp	-8797
▁Ald	-8798
zed	-8799
orld	-8800
▁argue	-8801
▁Ferrari	-8802
▁concert	-8803
▁theat	-8804
▁Sportsmail	-8805
▁aggravated	-8806
▁Stock	-8807
veland	-8808
▁treating	-8809
▁approximately	-8810
▁rebel	-8811
▁Others	-8812
actor	-8813
▁shame	-8814
▁SU	-8815
▁actual	-8816
▁crossed	-8817
▁beneath	-8818
rical	-8819
▁toler	-8820
▁photographed	-8821
▁studied	-8822
▁Anna	-8823
abetes	-8824
▁fence	-8825
▁addressed	-8826
▁dust	-8827
▁Microsoft	-8828
olar	-8829
▁industrial	-8830
▁survival	-8831
▁footballer	-8832
▁Commonwealth	-8833
▁constantly	-8834
▁managing	-8835
▁inspiration	-8836
igger	-8837
▁dressing	-8838
olis	-8839
▁Sut	-8840
▁Jesus	-8841
▁Formula	-8842
▁mainly	-8843
iggs	-8844
▁unfair	-8845
▁dragged	-8846
▁Ahmed	-8847
▁Julie	-8848
▁cultural	-8849
▁purchased	-8850
▁Louisiana	-8851
▁glam	-8852
▁select	-8853
▁forever	-8854
▁directed	-8855
ww	-8856
▁tech	-8857
viously	-8858
▁performances	-8859
▁Denver	-8860
ceptable	-8861
▁resolution	-8862
sm	-8863
thy	-8864
greg	-8865
▁Div	-8866
▁dancing	-8867
▁apologised	-8868
etta	-8869
acht	-8870
club	-8871
▁undergo	-8872
▁Bradley	-8873
▁taxpayers	-8874
nsic	-8875
▁Nadal	-8876
enezuel	-8877
▁Charlotte	-8878
ardy	-8879
▁neur	-8880
▁slammed	-8881
▁creative	-8882
winning	-8883
▁vs	-8884
▁upcoming	-8885
thal	-8886
orse	-8887
▁250	-8888
▁Netherlands	-8889
apore	-8890
▁underwent	-8891
▁targeting	-8892
▁Iowa	-8893
▁Chap	-8894
▁murders	-8895
▁impl	-8896
igious	-8897
▁rocks	-8898
▁Warren	-8899
embley	-8900
▁Avenue	-8901
▁comprom	-8902
▁highlight	-8903
▁Student	-8904
▁stunned	-8905
▁reven	-8906
▁medicine	-8907
ahl	-8908
ici	-8909
level	-8910
▁Golden	-8911
12	-8912
▁welcomed	-8913
▁iron	-8914
▁intim	-8915
▁executed	-8916
ighed	-8917
berry	-8918
▁struct	-8919
math	-8920
▁Dean	-8921
▁disag	-8922
▁guidelines	-8923
▁hotels	-8924
▁Hundreds	-8925
▁youngsters	-8926
▁reforms	-8927
▁criticized	-8928
▁recommended	-8929
▁tired	-8930
▁assass	-8931
▁odds	-8932
▁Cleveland	-8933
▁Fest	-8934
▁upper	-8935
▁Wembley	-8936
▁20,000	-8937
▁jurors	-8938
▁confessed	-8939
▁fab	-8940
Sh	-8941
▁trigg	-8942
▁accidentally	-8943
inos	-8944
bedroom	-8945
▁heroin	-8946
▁insurg	-8947
▁baseball	-8948
▁constant	-8949
▁Polit	-8950
▁appointment	-8951
▁Benn	-8952
▁painful	-8953
obi	-8954
▁disg	-8955
▁aside	-8956
▁crowds	-8957
▁quoted	-8958
▁symbol	-8959
xual	-8960
▁leaked	-8961
▁peak	-8962
▁Venezuel	-8963
▁advanced	-8964
▁Ky	-8965
▁torture	-8966
▁Fernando	-8967
▁departure	-8968
▁reference	-8969
▁3-	-8970
▁diplom	-8971
▁stretch	-8972
▁Armstrong	-8973
▁yes	-8974
enging	-8975
▁flash	-8976
otti	-8977
▁Rachel	-8978
bal	-8979
▁Lambert	-8980
▁referendum	-8981
▁Made	-8982
▁Lloyd	-8983
rd	-8984
▁citing	-8985
▁fortune	-8986
▁spectacular	-8987
itched	-8988
▁Vlad	-8989
▁Brisb	-8990
▁damages	-8991
▁Downing	-8992
▁grateful	-8993
▁Inf	-8994
▁fasc	-8995
▁specifically	-8996
sk	-8997
▁loving	-8998
▁essential	-8999
▁(3	-9000
▁employment	-9001
▁lessons	-9002
mile	-9003
▁tool	-9004
▁Katie	-9005
▁separated	-9006
urers	-9007
▁Arsene	-9008
▁Persie	-9009
▁destination	-9010
oop	-9011
orable	-9012
▁Capital	-9013
▁abortion	-9014
▁tools	-9015
▁Brisbane	-9016
▁realized	-9017
▁Sierra	-9018
▁portray	-9019
bey	-9020
▁Simpson	-9021
▁emotion	-9022
▁feelings	-9023
▁28-	-9024
▁Prix	-9025
▁regions	-9026
▁Hit	-9027
jo	-9028
▁Bat	-9029
▁Lionel	-9030
▁Douglas	-9031
abs	-9032
ippi	-9033
▁toy	-9034
▁Singapore	-9035
▁everywhere	-9036
awa	-9037
▁hosted	-9038
▁deployed	-9039
▁entrance	-9040
enda	-9041
▁slam	-9042
▁Bale	-9043
▁Cabinet	-9044
Rep	-9045
terror	-9046
▁Cair	-9047
▁opponent	-9048
acc	-9049
▁Dog	-9050
ullah	-9051
▁lowest	-9052
▁graduate	-9053
▁sed	-9054
abilities	-9055
ING	-9056
▁unw	-9057
▁Hond	-9058
▁burns	-9059
▁breaks	-9060
▁fright	-9061
▁Telegraph	-9062
lee	-9063
aints	-9064
▁rear	-9065
estone	-9066
itated	-9067
▁frame	-9068
▁kidney	-9069
▁militant	-9070
oria	-9071
▁wrapped	-9072
▁survivors	-9073
▁Did	-9074
▁scientific	-9075
▁Crim	-9076
▁aims	-9077
▁View	-9078
▁fing	-9079
▁reass	-9080
tt	-9081
reprene	-9082
▁suburb	-9083
▁engineer	-9084
▁39	-9085
bound	-9086
▁secured	-9087
▁defendants	-9088
▁returns	-9089
asty	-9090
▁payment	-9091
▁attitude	-9092
▁Bowl	-9093
iences	-9094
▁Somers	-9095
ser	-9096
iture	-9097
▁extrad	-9098
host	-9099
▁chap	-9100
ogether	-9101
amo	-9102
inth	-9103
▁nervous	-9104
▁Biden	-9105
▁anonymous	-9106
▁Short	-9107
▁roles	-9108
▁Silver	-9109
▁Freed	-9110
▁wet	-9111
▁Bolton	-9112
▁ourselves	-9113
▁Tokyo	-9114
▁phen	-9115
▁Having	-9116
▁personality	-9117
▁questioning	-9118
jan	-9119
uters	-9120
▁disgr	-9121
▁involves	-9122
▁dim	-9123
▁frequently	-9124
▁Hal	-9125
▁repair	-9126
▁communication	-9127
▁bitter	-9128
▁youre	-9129
gate	-9130
▁Yes	-9131
▁operate	-9132
zy	-9133
rous	-9134
inter	-9135
▁teach	-9136
▁Islamist	-9137
▁Gro	-9138
bi	-9139
▁Cele	-9140
▁Seven	-9141
opez	-9142
identified	-9143
▁oxy	-9144
▁Pard	-9145
▁Buckingham	-9146
▁Obam	-9147
cription	-9148
fortunately	-9149
▁suspension	-9150
encer	-9151
▁entertainment	-9152
hill	-9153
▁bleeding	-9154
aga	-9155
door	-9156
▁settled	-9157
400	-9158
▁ignored	-9159
▁sustain	-9160
▁typical	-9161
▁humanitarian	-9162
▁designs	-9163
▁respective	-9164
▁warn	-9165
▁Bark	-9166
▁Soph	-9167
rolled	-9168
▁Greater	-9169
oren	-9170
▁liked	-9171
▁selected	-9172
▁Dale	-9173
ashire	-9174
▁Monaco	-9175
▁painted	-9176
inion	-9177
raining	-9178
ventus	-9179
▁fires	-9180
▁worlds	-9181
▁belt	-9182
ums	-9183
▁Tan	-9184
▁silence	-9185
▁mistakes	-9186
▁asylum	-9187
▁$1.	-9188
▁venue	-9189
▁electronic	-9190
▁Hon	-9191
▁Ukip	-9192
▁Europ	-9193
▁fed	-9194
▁discussion	-9195
nity	-9196
▁Nathan	-9197
izza	-9198
▁tiss	-9199
▁extend	-9200
idency	-9201
▁wouldnt	-9202
▁Stafford	-9203
▁Heart	-9204
▁punched	-9205
rastructure	-9206
▁lake	-9207
▁replacement	-9208
▁buck	-9209
▁controls	-9210
areth	-9211
▁BM	-9212
▁conscious	-9213
lar	-9214
▁hammer	-9215
▁courage	-9216
▁appeals	-9217
▁jacket	-9218
▁ec	-9219
encia	-9220
▁experiment	-9221
▁Plan	-9222
▁anticip	-9223
▁missile	-9224
▁peaceful	-9225
▁triumph	-9226
▁convictions	-9227
▁dial	-9228
▁carries	-9229
▁realise	-9230
▁Sab	-9231
ups	-9232
▁29-	-9233
▁telephone	-9234
▁foods	-9235
▁lets	-9236
▁requested	-9237
▁politician	-9238
▁cheer	-9239
▁combination	-9240
▁encouraging	-9241
▁zoo	-9242
▁Techn	-9243
▁Ferdin	-9244
▁Powell	-9245
▁Prov	-9246
▁rarely	-9247
▁Turner	-9248
▁8,	-9249
▁legit	-9250
▁deserve	-9251
expected	-9252
▁coord	-9253
lbs	-9254
▁Liga	-9255
thur	-9256
▁decline	-9257
▁investors	-9258
▁pursue	-9259
▁suffers	-9260
▁cow	-9261
▁Zoo	-9262
▁backing	-9263
▁Lancashire	-9264
issippi	-9265
▁minority	-9266
▁Thousands	-9267
stan	-9268
▁Aud	-9269
▁1.5	-9270
▁vigil	-9271
▁Pistor	-9272
▁breakfast	-9273
illo	-9274
looking	-9275
▁Carlos	-9276
▁56	-9277
▁escal	-9278
▁practices	-9279
▁Vis	-9280
▁assets	-9281
EFA	-9282
pre	-9283
imir	-9284
▁gifts	-9285
▁transplant	-9286
cao	-9287
cts	-9288
▁gear	-9289
▁substance	-9290
hett	-9291
▁3-0	-9292
election	-9293
step	-9294
▁elite	-9295
▁Android	-9296
▁updated	-9297
▁cafe	-9298
▁Metropolitan	-9299
AC	-9300
▁furn	-9301
▁PS	-9302
▁Brighton	-9303
▁plate	-9304
▁Emergency	-9305
▁35,	-9306
▁Dal	-9307
▁Nazi	-9308
ules	-9309
▁Tri	-9310
▁asks	-9311
▁hundred	-9312
▁Ak	-9313
▁Jav	-9314
▁Cust	-9315
▁Baker	-9316
Now	-9317
with	-9318
▁Sin	-9319
▁Stur	-9320
▁shore	-9321
aping	-9322
▁Lopez	-9323
▁ce	-9324
▁Mandela	-9325
outed	-9326
▁QC	-9327
ione	-9328
ivan	-9329
▁Chan	-9330
ectors	-9331
▁convention	-9332
spe	-9333
▁Parker	-9334
▁participants	-9335
II	-9336
▁85	-9337
▁muscle	-9338
▁passport	-9339
▁Juventus	-9340
uits	-9341
formation	-9342
▁Nob	-9343
▁adviser	-9344
▁mentioned	-9345
▁weighed	-9346
hum	-9347
then	-9348
▁Ref	-9349
ested	-9350
▁Project	-9351
▁legally	-9352
▁Ferdinand	-9353
pat	-9354
ints	-9355
▁grey	-9356
▁kidnapped	-9357
▁keeper	-9358
ews	-9359
▁Ho	-9360
unal	-9361
▁Shel	-9362
ographer	-9363
▁finishing	-9364
inging	-9365
TS	-9366
▁hostage	-9367
▁democracy	-9368
▁Sent	-9369
▁transp	-9370
▁Media	-9371
acey	-9372
▁constru	-9373
ockey	-9374
orr	-9375
▁dumped	-9376
▁singing	-9377
aimed	-9378
▁machines	-9379
oken	-9380
▁affects	-9381
▁increases	-9382
▁Circ	-9383
tershire	-9384
▁sty	-9385
▁libr	-9386
▁soil	-9387
▁crown	-9388
▁camps	-9389
▁Memorial	-9390
▁confronted	-9391
▁trafficking	-9392
▁Pistorius	-9393
hat	-9394
▁ric	-9395
▁excellent	-9396
▁Mississippi	-9397
▁reck	-9398
ouring	-9399
Bl	-9400
▁id	-9401
just	-9402
▁oblig	-9403
▁Lank	-9404
▁UEFA	-9405
▁reign	-9406
▁Rescue	-9407
▁wheelchair	-9408
rend	-9409
▁Oz	-9410
▁cabin	-9411
▁Gareth	-9412
▁delays	-9413
▁diabetes	-9414
▁airports	-9415
▁shoppers	-9416
▁mel	-9417
▁foul	-9418
▁challenging	-9419
▁allies	-9420
▁Pellegr	-9421
▁imposed	-9422
igible	-9423
▁install	-9424
▁evacuated	-9425
▁hyp	-9426
▁tensions	-9427
▁murdering	-9428
▁Winter	-9429
▁somewhere	-9430
beck	-9431
▁Add	-9432
eling	-9433
▁Indiana	-9434
quir	-9435
▁Vice	-9436
▁resulting	-9437
▁maintained	-9438
▁Ul	-9439
dri	-9440
▁unemployment	-9441
▁49	-9442
▁Tun	-9443
▁obesity	-9444
▁boxes	-9445
▁explan	-9446
obile	-9447
▁Later	-9448
portion	-9449
▁homicide	-9450
acon	-9451
▁alt	-9452
▁burglary	-9453
uz	-9454
▁genetic	-9455
▁bullying	-9456
▁boasts	-9457
oning	-9458
▁2006.	-9459
▁siblings	-9460
aux	-9461
oration	-9462
▁Boeing	-9463
▁paramedics	-9464
adh	-9465
▁800	-9466
▁Ibrahim	-9467
▁toys	-9468
▁Sri	-9469
▁bug	-9470
▁arrang	-9471
▁sequ	-9472
▁Falcao	-9473
▁refusing	-9474
▁perfectly	-9475
▁mood	-9476
▁chase	-9477
▁duo	-9478
▁Berg	-9479
amford	-9480
▁Network	-9481
▁caution	-9482
▁liquid	-9483
org	-9484
▁column	-9485
▁cancelled	-9486
enz	-9487
▁Bash	-9488
onia	-9489
▁flow	-9490
▁relie	-9491
antha	-9492
▁soccer	-9493
orge	-9494
▁beloved	-9495
▁describing	-9496
▁frozen	-9497
▁prominent	-9498
▁41	-9499
▁3-1	-9500
amous	-9501
▁Iv	-9502
idges	-9503
ieber	-9504
▁Tower	-9505
▁recall	-9506
abul	-9507
▁embassy	-9508
▁Bund	-9509
▁rush	-9510
eld	-9511
▁Assist	-9512
mm	-9513
▁lovely	-9514
▁stunt	-9515
▁wont	-9516
top	-9517
▁Kentucky	-9518
▁airlines	-9519
anson	-9520
oca	-9521
aver	-9522
▁groom	-9523
▁dreams	-9524
ortmund	-9525
▁toug	-9526
▁Holmes	-9527
▁Tragic	-9528
▁engagement	-9529
ixon	-9530
▁Pict	-9531
▁Albert	-9532
▁nightclub	-9533
happy	-9534
▁Wol	-9535
▁infrastructure	-9536
oko	-9537
▁Mick	-9538
▁woke	-9539
▁nationwide	-9540
8-	-9541
mare	-9542
▁voc	-9543
▁hopeful	-9544
▁lifetime	-9545
▁pound	-9546
andom	-9547
▁detain	-9548
▁holes	-9549
▁shr	-9550
arted	-9551
three	-9552
▁Bent	-9553
▁Nancy	-9554
▁2006,	-9555
▁Company	-9556
▁constit	-9557
▁Dortmund	-9558
▁consumer	-9559
was	-9560
▁Fle	-9561
▁Price	-9562
▁treatments	-9563
▁boats	-9564
▁Tro	-9565
atican	-9566
▁clashes	-9567
▁Sad	-9568
▁Knox	-9569
▁carefully	-9570
irm	-9571
bean	-9572
▁Hannah	-9573
▁‘	-9574
▁rib	-9575
inf	-9576
▁Bou	-9577
ource	-9578
▁wage	-9579
▁hearts	-9580
▁alerted	-9581
force	-9582
▁kilome	-9583
▁47	-9584
regas	-9585
▁Travel	-9586
▁organised	-9587
▁correspond	-9588
▁foundation	-9589
▁mamm	-9590
▁Cz	-9591
▁paed	-9592
▁trigger	-9593
▁50,000	-9594
▁rolled	-9595
▁Where	-9596
▁falls	-9597
▁profit	-9598
▁Spencer	-9599
hall	-9600
▁Wars	-9601
▁smiles	-9602
▁Prosecutor	-9603
oenix	-9604
▁elev	-9605
▁zero	-9606
rington	-9607
His	-9608
▁clock	-9609
▁Bron	-9610
▁publish	-9611
▁protecting	-9612
▁eighth	-9613
iques	-9614
▁thorough	-9615
▁unexpected	-9616
pes	-9617
▁indeed	-9618
▁prayers	-9619
▁consultant	-9620
▁toxic	-9621
▁SUV	-9622
▁mad	-9623
esome	-9624
▁trauma	-9625
Ass	-9626
tering	-9627
ulating	-9628
EN	-9629
▁dish	-9630
▁ankle	-9631
▁enh	-9632
onsin	-9633
▁notorious	-9634
22	-9635
▁Bureau	-9636
▁glad	-9637
▁Roberto	-9638
600	-9639
▁Sov	-9640
▁Rover	-9641
▁bacteria	-9642
▁Pit	-9643
▁bite	-9644
ucker	-9645
▁Fabregas	-9646
▁40,	-9647
▁desk	-9648
▁Vatican	-9649
▁plun	-9650
shirt	-9651
▁Oliv	-9652
▁Tesco	-9653
FC	-9654
obb	-9655
lington	-9656
▁courtroom	-9657
▁Environment	-9658
ussels	-9659
▁Entertain	-9660
300	-9661
▁uncovered	-9662
▁concrete	-9663
▁Quest	-9664
▁chaos	-9665
▁replic	-9666
▁letting	-9667
▁principal	-9668
▁schedule	-9669
▁prol	-9670
▁Vincent	-9671
▁Philippines	-9672
▁gent	-9673
▁passes	-9674
isconsin	-9675
▁Phoenix	-9676
▁exposure	-9677
▁technique	-9678
▁ingred	-9679
▁Corpor	-9680
▁parole	-9681
Mr	-9682
▁crop	-9683
▁Silva	-9684
▁Savile	-9685
▁Tsar	-9686
kinson	-9687
▁qualifying	-9688
cuff	-9689
▁overwhelming	-9690
isons	-9691
▁proof	-9692
▁urging	-9693
▁vacation	-9694
dam	-9695
weather	-9696
▁Oak	-9697
▁rot	-9698
▁Helen	-9699
cot	-9700
▁Rafael	-9701
▁employed	-9702
▁collabor	-9703
odge	-9704
▁Hamas	-9705
eta	-9706
▁pets	-9707
▁profits	-9708
▁fo	-9709
▁Croat	-9710
▁wanting	-9711
▁Gonz	-9712
ometimes	-9713
▁assaulting	-9714
▁mol	-9715
storm	-9716
kg	-9717
ograph	-9718
▁Affairs	-9719
▁storage	-9720
Im	-9721
▁cler	-9722
ili	-9723
cill	-9724
▁Lut	-9725
▁Bishop	-9726
▁classroom	-9727
▁hook	-9728
▁oxygen	-9729
▁samples	-9730
▁midnight	-9731
grade	-9732
rena	-9733
▁Pardew	-9734
Ar	-9735
▁pip	-9736
▁Islands	-9737
▁Expl	-9738
▁Rosberg	-9739
▁polls	-9740
▁Norway	-9741
▁intimid	-9742
▁asleep	-9743
▁storms	-9744
▁Samantha	-9745
▁Treasury	-9746
▁entreprene	-9747
▁autopsy	-9748
RC	-9749
uzz	-9750
▁Your	-9751
▁highway	-9752
▁Festival	-9753
▁revealing	-9754
▁Ec	-9755
▁Alexis	-9756
▁Hollande	-9757
▁stabbing	-9758
▁Australians	-9759
▁guess	-9760
▁competing	-9761
▁Gray	-9762
▁dealt	-9763
▁Ins	-9764
▁Ted	-9765
▁protective	-9766
▁Valencia	-9767
%.	-9768
▁eval	-9769
▁Joy	-9770
▁intr	-9771
oral	-9772
▁analyst	-9773
▁examined	-9774
▁Inspector	-9775
mun	-9776
▁enemy	-9777
▁feeding	-9778
▁Kath	-9779
▁revenue	-9780
▁Kingdom	-9781
▁que	-9782
▁aftermath	-9783
liest	-9784
▁element	-9785
▁isolated	-9786
face	-9787
▁Bed	-9788
▁Awards	-9789
▁shadow	-9790
▁Benj	-9791
▁Kings	-9792
onso	-9793
▁Carib	-9794
▁Diana	-9795
▁implic	-9796
▁cliff	-9797
▁blocks	-9798
▁shouting	-9799
▁Wisconsin	-9800
▁nort	-9801
▁Follow	-9802
hettino	-9803
▁furious	-9804
▁astronaut	-9805
▁Fe	-9806
▁attacker	-9807
▁producing	-9808
▁diagnosis	-9809
▁dise	-9810
▁smiling	-9811
▁intensive	-9812
▁meanwhile	-9813
sen	-9814
▁intens	-9815
▁anymore	-9816
onto	-9817
▁swept	-9818
▁Pellegrini	-9819
▁mud	-9820
▁Rebec	-9821
▁explosive	-9822
▁Caroline	-9823
▁unidentified	-9824
GA	-9825
▁Perez	-9826
▁Scene	-9827
▁surgeon	-9828
aro	-9829
▁Hop	-9830
icate	-9831
▁Develop	-9832
▁installed	-9833
▁robot	-9834
▁Somerset	-9835
▁interven	-9836
▁overcome	-9837
▁remembered	-9838
▁Vladimir	-9839
agne	-9840
▁Ark	-9841
▁overs	-9842
▁destruction	-9843
ighting	-9844
▁penalties	-9845
ucr	-9846
▁enthusi	-9847
▁instance	-9848
▁triggered	-9849
▁uncertain	-9850
▁impression	-9851
▁misconduct	-9852
ussia	-9853
cons	-9854
▁Said	-9855
▁severely	-9856
▁Ric	-9857
▁Sel	-9858
▁dece	-9859
finals	-9860
▁120	-9861
▁Ped	-9862
▁Nearly	-9863
▁Nicole	-9864
▁ease	-9865
uments	-9866
▁ordinary	-9867
ographic	-9868
▁Catherine	-9869
▁9/	-9870
▁snap	-9871
▁newborn	-9872
▁explosives	-9873
embly	-9874
▁Nine	-9875
resent	-9876
▁Prest	-9877
▁Lampard	-9878
▁facial	-9879
ectives	-9880
▁lengthy	-9881
▁pledged	-9882
▁corporate	-9883
▁underground	-9884
▁Owen	-9885
▁bread	-9886
▁Cancer	-9887
▁intervention	-9888
▁Dick	-9889
▁Roc	-9890
anges	-9891
▁$8	-9892
▁Gi	-9893
stairs	-9894
▁Rebecca	-9895
▁outstanding	-9896
▁watches	-9897
lock	-9898
▁Tories	-9899
▁lasted	-9900
▁savings	-9901
hol	-9902
▁Alb	-9903
riages	-9904
bow	-9905
▁Castle	-9906
▁Lauren	-9907
▁suing	-9908
bul	-9909
▁Cosby	-9910
▁tumour	-9911
ci	-9912
onde	-9913
▁scrut	-9914
▁underc	-9915
▁tornado	-9916
▁Governor	-9917
▁fixed	-9918
▁print	-9919
▁infant	-9920
▁fastest	-9921
▁Nav	-9922
▁screening	-9923
▁pole	-9924
▁refugees	-9925
▁hip	-9926
▁mph	-9927
▁Nevada	-9928
ubb	-9929
▁jumping	-9930
▁trading	-9931
amel	-9932
giving	-9933
▁signal	-9934
▁athlete	-9935
▁Ca	-9936
inea	-9937
eway	-9938
▁anch	-9939
▁pride	-9940
dles	-9941
high	-9942
14	-9943
▁Pier	-9944
▁arguing	-9945
▁association	-9946
tons	-9947
▁globe	-9948
▁wooden	-9949
▁Embassy	-9950
ouces	-9951
▁Labor	-9952
▁difficulties	-9953
inely	-9954
uese	-9955
▁36,	-9956
▁2014,	-9957
▁moder	-9958
▁theme	-9959
unning	-9960
▁coma	-9961
iang	-9962
▁Brooks	-9963
▁uploaded	-9964
▁improving	-9965
▁coat	-9966
GB	-9967
▁overd	-9968
▁Angela	-9969
▁cake	-9970
irds	-9971
▁sne	-9972
▁whilst	-9973
▁boun	-9974
endment	-9975
▁Cass	-9976
▁Adrian	-9977
▁frustrated	-9978
▁serv	-9979
gans	-9980
▁Orland	-9981
▁liver	-9982
▁rifle	-9983
▁fortun	-9984
▁Current	-9985
▁forest	-9986
▁stressed	-9987
▁core	-9988
▁farmers	-9989
▁awaiting	-9990
alking	-9991
▁balls	-9992
▁covers	-9993
▁1-1	-9994
▁Nasa	-9995
▁42,	-9996
▁Bobby	-9997
▁Online	-9998
▁legacy	-9999
▁bride	-10000
▁exploded	-10001
▁launching	-10002
nan	-10003
wear	-10004
▁Toronto	-10005
▁Caribbean	-10006
comm	-10007
▁spy	-10008
▁methods	-10009
▁Brussels	-10010
▁indictment	-10011
▁Shan	-10012
▁soph	-10013
▁tips	-10014
▁desert	-10015
▁Portuguese	-10016
▁Mohamed	-10017
▁bol	-10018
▁expenses	-10019
▁valuable	-10020
acker	-10021
▁fate	-10022
▁tablet	-10023
▁gathering	-10024
mart	-10025
▁campaigns	-10026
▁proposals	-10027
▁Associated	-10028
▁representatives	-10029
ali	-10030
▁Herald	-10031
▁theres	-10032
▁stim	-10033
▁resignation	-10034
▁ho	-10035
knapp	-10036
▁scul	-10037
▁Stamford	-10038
naev	-10039
▁Chen	-10040
fish	-10041
▁Aguero	-10042
▁joked	-10043
▁volunteer	-10044
▁CDC	-10045
▁literally	-10046
17	-10047
iveness	-10048
▁indicate	-10049
raged	-10050
▁orange	-10051
▁interior	-10052
▁movements	-10053
▁Maj	-10054
▁Peru	-10055
▁Redknapp	-10056
▁apologise	-10057
owski	-10058
▁Above	-10059
▁ranked	-10060
▁Protection	-10061
▁Czech	-10062
▁bloody	-10063
▁Mall	-10064
▁termin	-10065
▁colours	-10066
▁Entertainment	-10067
iti	-10068
▁Po	-10069
▁caring	-10070
cedented	-10071
oval	-10072
▁gate	-10073
ecraft	-10074
▁cleaning	-10075
▁66	-10076
▁GM	-10077
▁comedian	-10078
linary	-10079
▁Control	-10080
▁Tsarnaev	-10081
iverse	-10082
▁Valent	-10083
▁meteor	-10084
liminary	-10085
▁prevented	-10086
▁unacceptable	-10087
100	-10088
omed	-10089
▁1950	-10090
▁Conf	-10091
▁Gates	-10092
▁finance	-10093
▁Cruz	-10094
▁snapped	-10095
▁kilometers	-10096
grat	-10097
▁wrest	-10098
▁Glouces	-10099
▁random	-10100
▁optim	-10101
▁stops	-10102
acco	-10103
▁lapt	-10104
▁stopping	-10105
▁cheek	-10106
▁wishes	-10107
▁arrives	-10108
▁conversations	-10109
▁addiction	-10110
▁Cape	-10111
▁Lamb	-10112
▁stupid	-10113
▁Brun	-10114
▁weekly	-10115
stream	-10116
▁Right	-10117
▁wider	-10118
▁Emily	-10119
▁dropping	-10120
▁offender	-10121
▁isnt	-10122
will	-10123
▁38,	-10124
▁Members	-10125
▁52	-10126
ipper	-10127
▁riot	-10128
▁operated	-10129
lie	-10130
▁hopefully	-10131
▁Chair	-10132
▁16.	-10133
▁sin	-10134
▁undergoing	-10135
▁damaging	-10136
▁invasion	-10137
▁incor	-10138
▁Toy	-10139
omers	-10140
▁careful	-10141
▁disappointing	-10142
▁Han	-10143
adget	-10144
▁tourism	-10145
▁Cu	-10146
▁1999	-10147
▁Yard	-10148
▁creation	-10149
▁Residents	-10150
▁Animal	-10151
▁RAF	-10152
▁brands	-10153
▁urban	-10154
▁assessment	-10155
fits	-10156
isle	-10157
lined	-10158
▁violation	-10159
▁fer	-10160
▁rapidly	-10161
▁Todd	-10162
▁islands	-10163
▁Kit	-10164
▁tas	-10165
▁hacking	-10166
▁handcuff	-10167
▁terrified	-10168
▁tower	-10169
▁Science	-10170
▁stagger	-10171
profit	-10172
▁fields	-10173
▁jewell	-10174
▁troubled	-10175
▁whistle	-10176
▁forecast	-10177
zh	-10178
aning	-10179
▁Bradford	-10180
▁Alf	-10181
▁resear	-10182
▁Belgian	-10183
▁Senator	-10184
▁laughing	-10185
▁watchdog	-10186
▁iRep	-10187
50,000	-10188
▁emphas	-10189
▁sessions	-10190
▁diseases	-10191
▁climbing	-10192
▁NYPD	-10193
▁undert	-10194
CNN	-10195
▁descri	-10196
▁Seb	-10197
▁boots	-10198
▁Luk	-10199
▁elements	-10200
▁prisoner	-10201
▁Poc	-10202
▁slipped	-10203
▁Light	-10204
▁ax	-10205
othy	-10206
ively	-10207
▁cycle	-10208
▁widow	-10209
overnment	-10210
ropical	-10211
▁tactics	-10212
▁trio	-10213
▁Soviet	-10214
▁substitute	-10215
▁Veter	-10216
▁contam	-10217
▁Campaign	-10218
▁chemotherapy	-10219
▁starring	-10220
▁deliberately	-10221
▁shootings	-10222
atri	-10223
▁runway	-10224
▁recognition	-10225
addy	-10226
▁duties	-10227
▁everyday	-10228
▁Next	-10229
▁Benjamin	-10230
▁Kirk	-10231
▁prest	-10232
ura	-10233
▁recip	-10234
▁engage	-10235
▁Orlando	-10236
di	-10237
kel	-10238
uten	-10239
▁ranks	-10240
▁briefly	-10241
asha	-10242
Assad	-10243
ateur	-10244
▁syndrome	-10245
▁Argentine	-10246
▁43,	-10247
istent	-10248
▁treas	-10249
▁Nat	-10250
ambers	-10251
▁Ur	-10252
▁congressional	-10253
▁Saint	-10254
▁aired	-10255
▁cheese	-10256
ao	-10257
▁phil	-10258
threat	-10259
imm	-10260
▁Senior	-10261
▁consent	-10262
aki	-10263
agen	-10264
▁medals	-10265
alo	-10266
▁wages	-10267
▁prompting	-10268
▁Il	-10269
▁Airways	-10270
▁40-	-10271
▁congrat	-10272
▁initiative	-10273
▁vanished	-10274
hur	-10275
▁MH	-10276
▁challenged	-10277
▁conclusion	-10278
▁MI	-10279
▁shall	-10280
▁deadline	-10281
▁soul	-10282
▁Econom	-10283
years	-10284
While	-10285
ourse	-10286
▁Global	-10287
▁cin	-10288
▁agenda	-10289
▁trials	-10290
▁77	-10291
▁Samar	-10292
▁37,	-10293
opping	-10294
▁Celebr	-10295
PS	-10296
▁Grace	-10297
▁explanation	-10298
ario	-10299
▁cord	-10300
▁recre	-10301
▁promising	-10302
▁NSA	-10303
▁endang	-10304
▁seemingly	-10305
▁Champ	-10306
▁Operation	-10307
▁reop	-10308
▁Spr	-10309
▁limits	-10310
▁ideal	-10311
▁generations	-10312
LS	-10313
▁tablets	-10314
▁Torres	-10315
▁Opinion	-10316
▁erupted	-10317
▁realize	-10318
▁pure	-10319
▁romantic	-10320
▁Palmer	-10321
▁transition	-10322
oping	-10323
▁yard	-10324
▁conven	-10325
aph	-10326
nesty	-10327
▁turb	-10328
▁4,000	-10329
emetery	-10330
▁labour	-10331
▁Support	-10332
▁promises	-10333
▁celebrations	-10334
▁Kas	-10335
olute	-10336
▁Eight	-10337
▁longest	-10338
▁unnamed	-10339
▁meters	-10340
▁Vietnam	-10341
▁displayed	-10342
screen	-10343
▁grant	-10344
▁actors	-10345
inh	-10346
▁solic	-10347
▁cyber	-10348
▁tissue	-10349
▁differences	-10350
isan	-10351
▁Liberal	-10352
▁carrier	-10353
ahu	-10354
▁motorcy	-10355
▁judgment	-10356
▁Columbia	-10357
▁institutions	-10358
▁Tiger	-10359
▁Forces	-10360
▁genuine	-10361
▁bombings	-10362
▁Witnesses	-10363
▁consistent	-10364
▁musical	-10365
lett	-10366
des	-10367
▁Ye	-10368
▁Sat	-10369
▁poster	-10370
▁Galaxy	-10371
▁eligible	-10372
▁lun	-10373
▁Karen	-10374
through	-10375
▁raping	-10376
▁applications	-10377
itar	-10378
aders	-10379
▁glasses	-10380
▁Thai	-10381
dro	-10382
zes	-10383
▁sued	-10384
▁expects	-10385
▁trainer	-10386
orey	-10387
▁Arn	-10388
▁panic	-10389
▁handful	-10390
idav	-10391
▁Haiti	-10392
▁button	-10393
▁Harrison	-10394
▁divorced	-10395
▁Daw	-10396
osexual	-10397
▁exha	-10398
▁dresses	-10399
▁fingers	-10400
▁horrible	-10401
▁responding	-10402
▁Var	-10403
▁Drug	-10404
▁category	-10405
▁lobby	-10406
▁consecutive	-10407
▁Investigation	-10408
▁highlights	-10409
▁discussions	-10410
▁Thats	-10411
▁adapt	-10412
▁landscape	-10413
▁Lev	-10414
actions	-10415
▁Dennis	-10416
▁Farage	-10417
▁petrol	-10418
▁45,	-10419
▁defeated	-10420
▁salt	-10421
▁Na	-10422
▁Fall	-10423
▁Kurdish	-10424
▁30,000	-10425
▁gru	-10426
▁desperately	-10427
rad	-10428
▁39,	-10429
▁persp	-10430
▁massacre	-10431
▁promoting	-10432
▁operator	-10433
▁Game	-10434
▁Gunners	-10435
▁extremists	-10436
47	-10437
avig	-10438
lain	-10439
▁repeat	-10440
▁cooking	-10441
▁engineering	-10442
▁1998	-10443
▁parade	-10444
▁Independent	-10445
▁aston	-10446
▁Liberia	-10447
▁apologized	-10448
▁50,	-10449
ambling	-10450
▁72	-10451
▁Arena	-10452
▁listening	-10453
▁Happy	-10454
▁cable	-10455
▁talented	-10456
▁Parents	-10457
▁relation	-10458
▁McM	-10459
▁Brid	-10460
▁answered	-10461
▁Wals	-10462
▁41,	-10463
▁inher	-10464
▁converted	-10465
▁Abdul	-10466
▁anxiety	-10467
▁Sturridge	-10468
▁examination	-10469
▁forth	-10470
▁Freedom	-10471
▁forensic	-10472
▁FOR	-10473
▁Shi	-10474
▁Masters	-10475
▁affidav	-10476
▁Community	-10477
▁Bath	-10478
▁stake	-10479
▁reserved	-10480
▁Singh	-10481
▁volunt	-10482
▁spots	-10483
acare	-10484
piece	-10485
▁selfie	-10486
▁Jews	-10487
▁Dream	-10488
▁staggering	-10489
▁Inn	-10490
▁gal	-10491
arded	-10492
▁statistics	-10493
▁mail	-10494
▁Samuel	-10495
▁taxpayer	-10496
35	-10497
astian	-10498
▁Gabri	-10499
▁Ryder	-10500
▁Energy	-10501
▁nightmare	-10502
.)	-10503
▁ash	-10504
orset	-10505
▁Holder	-10506
▁calories	-10507
▁deterior	-10508
▁underwater	-10509
HO	-10510
mir	-10511
bes	-10512
▁Swedish	-10513
▁cheaper	-10514
▁employers	-10515
▁Kr	-10516
▁Cow	-10517
▁submitted	-10518
▁gard	-10519
▁loose	-10520
▁pod	-10521
licit	-10522
▁Suff	-10523
▁openly	-10524
eff	-10525
ika	-10526
▁Poll	-10527
▁buyers	-10528
▁mentally	-10529
▁Prison	-10530
▁Lucas	-10531
▁qualify	-10532
▁Ko	-10533
▁cease	-10534
ementia	-10535
▁shower	-10536
▁subsequently	-10537
▁ID	-10538
▁$10	-10539
azed	-10540
▁illustr	-10541
▁giants	-10542
▁consumption	-10543
▁44,	-10544
▁awful	-10545
▁cops	-10546
▁Europa	-10547
▁Foster	-10548
▁Obs	-10549
▁fulf	-10550
▁Bernard	-10551
▁appealed	-10552
leans	-10553
gement	-10554
▁situations	-10555
▁Els	-10556
▁gentle	-10557
▁deficit	-10558
▁sponsors	-10559
▁Ath	-10560
▁elabor	-10561
▁rehabil	-10562
▁spirits	-10563
ieves	-10564
▁9,	-10565
onies	-10566
▁Spani	-10567
▁recognised	-10568
▁trem	-10569
▁mall	-10570
▁choices	-10571
▁tracked	-10572
vo	-10573
▁Ku	-10574
yang	-10575
▁Sex	-10576
▁2005.	-10577
▁Henderson	-10578
▁gross	-10579
▁Almost	-10580
▁Claire	-10581
▁festive	-10582
▁46,	-10583
▁Toure	-10584
▁Alonso	-10585
▁Barnes	-10586
▁Robertson	-10587
▁sav	-10588
▁opener	-10589
▁33-	-10590
▁scientist	-10591
▁Hass	-10592
▁junior	-10593
▁avoided	-10594
▁experim	-10595
▁terrifying	-10596
▁DJ	-10597
▁mo	-10598
▁honey	-10599
▁32-	-10600
▁dump	-10601
▁ultimate	-10602
▁Hus	-10603
▁abusing	-10604
▁dangers	-10605
▁supports	-10606
amental	-10607
▁currency	-10608
▁speeding	-10609
▁Bes	-10610
▁fever	-10611
▁butter	-10612
▁losses	-10613
avi	-10614
▁FC	-10615
Just	-10616
uers	-10617
▁Barn	-10618
▁indecent	-10619
▁executives	-10620
▁harsh	-10621
▁Heathrow	-10622
▁creatures	-10623
▁Bieber	-10624
▁Orleans	-10625
75	-10626
itate	-10627
▁Larry	-10628
▁connect	-10629
▁paedoph	-10630
▁subjected	-10631
▁Arthur	-10632
idi	-10633
iege	-10634
▁lip	-10635
▁firearms	-10636
enna	-10637
▁slim	-10638
▁Mayweather	-10639
▁racism	-10640
annon	-10641
▁strain	-10642
▁presents	-10643
▁15.	-10644
▁Billy	-10645
▁Delhi	-10646
▁privile	-10647
▁relaxed	-10648
▁accusing	-10649
▁fatally	-10650
kick	-10651
▁Lan	-10652
▁Field	-10653
▁orbit	-10654
▁lap	-10655
▁mask	-10656
▁whale	-10657
▁arranged	-10658
▁organized	-10659
▁Stephan	-10660
intendent	-10661
▁Baby	-10662
▁opens	-10663
▁Front	-10664
▁ripped	-10665
▁Way	-10666
▁flee	-10667
▁Leader	-10668
▁attrib	-10669
endar	-10670
▁Lebanon	-10671
▁jewellery	-10672
aired	-10673
▁donate	-10674
daughter	-10675
▁reunited	-10676
▁violated	-10677
▁attackers	-10678
▁recognise	-10679
yer	-10680
▁percentage	-10681
raught	-10682
▁2005,	-10683
▁Alexand	-10684
▁electrical	-10685
▁publication	-10686
▁54	-10687
▁rubb	-10688
▁Armed	-10689
rawl	-10690
▁seiz	-10691
▁Elect	-10692
▁flooded	-10693
▁seas	-10694
▁Ahmad	-10695
▁motivated	-10696
▁techniques	-10697
▁Base	-10698
▁Yan	-10699
comfort	-10700
▁header	-10701
▁Bloomberg	-10702
▁Nik	-10703
▁hij	-10704
sized	-10705
▁franch	-10706
fund	-10707
▁Sot	-10708
▁organs	-10709
▁closure	-10710
ullivan	-10711
enh	-10712
▁TH	-10713
▁god	-10714
▁comeback	-10715
anor	-10716
von	-10717
shine	-10718
▁unpre	-10719
▁airstri	-10720
▁Guardian	-10721
▁Keane	-10722
▁acres	-10723
▁Tai	-10724
▁downtown	-10725
▁phenomen	-10726
ifting	-10727
▁funded	-10728
▁qualified	-10729
▁grandchildren	-10730
▁vessels	-10731
▁hostages	-10732
▁searches	-10733
EE	-10734
ultural	-10735
▁demonstrators	-10736
OLL	-10737
lus	-10738
13	-10739
▁les	-10740
rition	-10741
▁Brady	-10742
▁acceler	-10743
▁pointing	-10744
insula	-10745
making	-10746
▁warns	-10747
▁Stevens	-10748
▁artific	-10749
▁unaware	-10750
idance	-10751
▁backl	-10752
▁dramatically	-10753
▁tons	-10754
▁march	-10755
▁nursing	-10756
▁Gay	-10757
▁preliminary	-10758
▁Zh	-10759
▁touching	-10760
▁Leone	-10761
▁Country	-10762
▁weighing	-10763
▁dominated	-10764
▁unprecedented	-10765
▁Resp	-10766
▁kicking	-10767
▁estimate	-10768
apolis	-10769
▁files	-10770
rov	-10771
itol	-10772
▁steel	-10773
▁sculpt	-10774
▁Fulham	-10775
▁speeds	-10776
▁radiation	-10777
fa	-10778
ouses	-10779
▁basement	-10780
▁Palin	-10781
▁senator	-10782
▁stripped	-10783
RS	-10784
▁Imp	-10785
▁Death	-10786
▁appealing	-10787
▁historical	-10788
▁13.	-10789
▁unt	-10790
▁Dead	-10791
▁depth	-10792
▁releg	-10793
neath	-10794
affe	-10795
▁biological	-10796
▁Joshua	-10797
▁shouted	-10798
rien	-10799
▁18.	-10800
broken	-10801
▁Battle	-10802
▁perpet	-10803
▁closest	-10804
▁comprehens	-10805
▁67	-10806
▁III	-10807
▁span	-10808
▁donor	-10809
bus	-10810
idd	-10811
▁Libyan	-10812
▁screens	-10813
▁domin	-10814
▁sealed	-10815
hend	-10816
▁Nicholas	-10817
▁pornography	-10818
▁4-	-10819
▁disciplinary	-10820
▁foss	-10821
▁wreckage	-10822
▁Blues	-10823
▁tracking	-10824
▁obser	-10825
▁fabric	-10826
▁climbed	-10827
▁seal	-10828
▁Abbey	-10829
▁Weather	-10830
fect	-10831
ht	-10832
agle	-10833
▁lorry	-10834
▁Saints	-10835
▁Peace	-10836
▁Harvard	-10837
▁detective	-10838
umm	-10839
▁Hud	-10840
▁croc	-10841
▁theyre	-10842
▁tipped	-10843
▁graphic	-10844
▁spacecraft	-10845
fordshire	-10846
▁comparison	-10847
▁Aber	-10848
▁Information	-10849
respons	-10850
▁deport	-10851
▁confidential	-10852
▁inner	-10853
▁forgotten	-10854
▁disturbing	-10855
▁Hitler	-10856
▁formally	-10857
▁lethal	-10858
▁Critics	-10859
▁crackdown	-10860
▁automatically	-10861
ortunate	-10862
▁50-	-10863
enter	-10864
▁Obamacare	-10865
▁IV	-10866
▁aunt	-10867
▁Kenn	-10868
▁rises	-10869
▁fleeing	-10870
▁47,	-10871
atural	-10872
▁strengthen	-10873
olded	-10874
▁dementia	-10875
▁700	-10876
▁hed	-10877
▁Click	-10878
▁6.5	-10879
olo	-10880
▁slept	-10881
▁Guinea	-10882
gies	-10883
rated	-10884
▁Julian	-10885
▁edition	-10886
▁removing	-10887
Sp	-10888
▁affidavit	-10889
▁Richardson	-10890
yon	-10891
▁highlighted	-10892
▁14.	-10893
▁deleg	-10894
▁spotlight	-10895
match	-10896
▁Farm	-10897
▁reasonable	-10898
▁gotten	-10899
▁doubled	-10900
▁TM	-10901
ohan	-10902
▁Pep	-10903
▁Line	-10904
▁flex	-10905
▁Orange	-10906
▁clinical	-10907
▁hailed	-10908
aka	-10909
▁64	-10910
▁Mitt	-10911
▁bron	-10912
▁lists	-10913
▁communicate	-10914
▁handgun	-10915
▁expectations	-10916
▁furniture	-10917
▁Carroll	-10918
▁gallery	-10919
▁haz	-10920
umbled	-10921
▁recognize	-10922
▁ET	-10923
▁Lin	-10924
▁Report	-10925
▁regardless	-10926
▁coinc	-10927
mine	-10928
▁$100	-10929
istory	-10930
▁Bennett	-10931
▁freezing	-10932
▁mountains	-10933
CH	-10934
ste	-10935
▁Rogers	-10936
▁solve	-10937
▁Louise	-10938
▁dign	-10939
▁battled	-10940
▁coaches	-10941
▁attractive	-10942
iper	-10943
ifford	-10944
▁Serie	-10945
▁Detectives	-10946
ception	-10947
▁tunnel	-10948
▁Marie	-10949
▁cargo	-10950
▁grief	-10951
..	-10952
hner	-10953
ilia	-10954
▁recognized	-10955
▁Wool	-10956
▁Natal	-10957
▁Perth	-10958
ERE	-10959
▁contracts	-10960
▁bullets	-10961
▁ratings	-10962
▁portrait	-10963
▁Ches	-10964
▁barr	-10965
▁hardly	-10966
iped	-10967
▁mirror	-10968
▁Colin	-10969
▁Thatcher	-10970
▁governing	-10971
▁brace	-10972
▁Fo	-10973
utt	-10974
inee	-10975
▁diving	-10976
▁2015.	-10977
▁rating	-10978
▁resolve	-10979
▁complicated	-10980
▁31-	-10981
moon	-10982
▁Cer	-10983
▁whis	-10984
timore	-10985
government	-10986
iler	-10987
▁residential	-10988
▁canceled	-10989
▁emerging	-10990
▁Cho	-10991
▁rely	-10992
▁Peterson	-10993
OWN	-10994
▁Ghana	-10995
▁fines	-10996
▁proven	-10997
▁continent	-10998
▁surviving	-10999
▁explaining	-11000
placed	-11001
▁Transportation	-11002
▁Hung	-11003
aha	-11004
▁Berry	-11005
▁handled	-11006
▁Polish	-11007
stitutes	-11008
▁newspapers	-11009
four	-11010
uccess	-11011
▁Tyler	-11012
pol	-11013
rupted	-11014
▁dining	-11015
ibilities	-11016
▁supporter	-11017
▁hospitalized	-11018
▁sheet	-11019
▁participate	-11020
▁Teh	-11021
▁narr	-11022
▁slip	-11023
ante	-11024
rawn	-11025
▁creature	-11026
▁relevant	-11027
ablo	-11028
▁urge	-11029
ication	-11030
▁library	-11031
▁5-	-11032
▁jets	-11033
▁78	-11034
▁Esp	-11035
▁vet	-11036
▁organis	-11037
ds	-11038
▁Ele	-11039
▁vom	-11040
▁thri	-11041
▁Chall	-11042
mod	-11043
▁prestigious	-11044
▁hood	-11045
▁pupil	-11046
▁guarantee	-11047
▁underneath	-11048
▁Trip	-11049
▁aspir	-11050
▁boxing	-11051
outheast	-11052
▁Jerry	-11053
▁runner	-11054
▁satisfied	-11055
Bay	-11056
▁Schum	-11057
▁abusive	-11058
▁Cro	-11059
▁Andrea	-11060
▁Opp	-11061
ensed	-11062
▁$500	-11063
▁draft	-11064
▁praise	-11065
▁ads	-11066
doing	-11067
yes	-11068
▁rab	-11069
▁frustration	-11070
bye	-11071
▁restore	-11072
ormal	-11073
atching	-11074
▁substantial	-11075
95	-11076
igration	-11077
▁borders	-11078
▁terminal	-11079
ephew	-11080
▁shake	-11081
▁existence	-11082
▁networking	-11083
oga	-11084
rieve	-11085
selling	-11086
▁charging	-11087
▁Award	-11088
▁competitions	-11089
▁Neville	-11090
▁tribunal	-11091
▁chemicals	-11092
▁commissioner	-11093
iah	-11094
▁Welbeck	-11095
▁caption	-11096
▁guidance	-11097
▁Blackpool	-11098
walk	-11099
▁craft	-11100
▁reluct	-11101
▁famously	-11102
▁unnecess	-11103
▁phr	-11104
▁Dise	-11105
▁gadget	-11106
▁Baltimore	-11107
▁disability	-11108
▁2.5	-11109
▁suits	-11110
▁Middleton	-11111
▁signature	-11112
▁basically	-11113
▁Such	-11114
▁Dak	-11115
▁evil	-11116
Be	-11117
▁Mason	-11118
▁Without	-11119
▁Age	-11120
▁Casey	-11121
▁Hunter	-11122
icting	-11123
▁motive	-11124
▁somehow	-11125
▁starred	-11126
▁Hind	-11127
▁Thames	-11128
▁rolling	-11129
▁presidency	-11130
adhafi	-11131
▁Music	-11132
▁update	-11133
stru	-11134
▁unlaw	-11135
▁coastal	-11136
▁reducing	-11137
folk	-11138
power	-11139
▁battles	-11140
▁confused	-11141
▁underwear	-11142
una	-11143
▁vaccine	-11144
▁appreciate	-11145
astro	-11146
believ	-11147
▁queen	-11148
▁govern	-11149
▁Melissa	-11150
▁extremist	-11151
▁Ant	-11152
▁Eti	-11153
▁gesture	-11154
▁respectively	-11155
uce	-11156
iere	-11157
▁fare	-11158
▁eager	-11159
▁lesson	-11160
▁risen	-11161
▁Got	-11162
▁pants	-11163
ometown	-11164
▁constitu	-11165
▁demonstrations	-11166
▁Lancaster	-11167
▁naturally	-11168
700	-11169
▁removal	-11170
▁indication	-11171
ikes	-11172
▁Camb	-11173
▁texts	-11174
▁gunshot	-11175
▁Imm	-11176
▁Merkel	-11177
▁chronic	-11178
▁(4	-11179
ommy	-11180
▁Rou	-11181
▁Chad	-11182
ugs	-11183
▁snake	-11184
▁endured	-11185
▁printed	-11186
▁introduce	-11187
▁DOWN	-11188
▁1,500	-11189
▁depos	-11190
▁Fashion	-11191
▁Federation	-11192
▁necessarily	-11193
▁Kel	-11194
▁respected	-11195
▁subsequent	-11196
itement	-11197
▁drones	-11198
vere	-11199
▁Cre	-11200
▁Cairo	-11201
▁recession	-11202
▁punch	-11203
▁wings	-11204
▁commonly	-11205
▁promotion	-11206
▁Shah	-11207
▁Patri	-11208
▁pizza	-11209
osa	-11210
vity	-11211
▁Wigan	-11212
▁vegetables	-11213
▁Bear	-11214
▁Susp	-11215
▁Boris	-11216
ducted	-11217
▁Prim	-11218
▁sink	-11219
▁Durham	-11220
▁filing	-11221
▁200,000	-11222
▁57	-11223
▁Cand	-11224
▁Richards	-11225
▁coaching	-11226
▁undercover	-11227
▁fights	-11228
▁Manager	-11229
▁ast	-11230
▁Maine	-11231
▁bust	-11232
▁conceded	-11233
▁commem	-11234
▁finals	-11235
fers	-11236
▁demol	-11237
▁Dorset	-11238
▁revenge	-11239
ampa	-11240
haul	-11241
▁pel	-11242
▁Priv	-11243
Neill	-11244
▁motorists	-11245
▁travellers	-11246
▁billionaire	-11247
▁prosecuting	-11248
▁Never	-11249
▁explicit	-11250
orters	-11251
▁grade	-11252
elta	-11253
▁cared	-11254
▁Boehner	-11255
▁analysts	-11256
▁Karl	-11257
▁RSP	-11258
▁Garden	-11259
▁Speaker	-11260
oting	-11261
▁haul	-11262
▁stranded	-11263
▁instructions	-11264
▁CL	-11265
▁mate	-11266
▁fairly	-11267
▁helmet	-11268
▁mosque	-11269
▁retain	-11270
▁floating	-11271
heless	-11272
▁weighs	-11273
threatening	-11274
▁relating	-11275
▁2004,	-11276
▁collecting	-11277
isp	-11278
▁Pay	-11279
ulting	-11280
▁statue	-11281
▁patterns	-11282
cm	-11283
▁Ep	-11284
▁Mans	-11285
▁partly	-11286
▁equally	-11287
▁nowhere	-11288
▁Interior	-11289
osc	-11290
▁dolph	-11291
▁professionals	-11292
▁Bald	-11293
▁Wils	-11294
▁Alv	-11295
▁ate	-11296
▁2004.	-11297
▁mortgage	-11298
▁insisting	-11299
▁dies	-11300
▁Austria	-11301
▁Reds	-11302
▁lion	-11303
▁charities	-11304
▁Sold	-11305
parents	-11306
iao	-11307
aman	-11308
▁raw	-11309
▁semif	-11310
▁bomber	-11311
▁golden	-11312
▁academic	-11313
▁Rest	-11314
ippers	-11315
▁balloon	-11316
▁leather	-11317
▁institution	-11318
Why	-11319
eating	-11320
▁parks	-11321
▁banking	-11322
▁rubbish	-11323
▁embarrassing	-11324
oples	-11325
▁thigh	-11326
feed	-11327
▁struggles	-11328
▁sufficient	-11329
▁epid	-11330
▁tong	-11331
▁waist	-11332
ulent	-11333
▁halt	-11334
▁portion	-11335
▁x	-11336
eter	-11337
▁SCR	-11338
▁Full	-11339
ignment	-11340
▁Division	-11341
▁Christine	-11342
0,000.	-11343
▁anyway	-11344
▁unrest	-11345
▁dated	-11346
▁navig	-11347
▁Preston	-11348
▁transported	-11349
▁Staffordshire	-11350
▁ske	-11351
▁beds	-11352
▁neglig	-11353
▁Jeffrey	-11354
▁marathon	-11355
▁polar	-11356
▁Aj	-11357
▁Liam	-11358
▁Wildlife	-11359
amic	-11360
▁Alice	-11361
▁Assistant	-11362
asp	-11363
jud	-11364
▁Cold	-11365
▁encl	-11366
▁phase	-11367
▁Border	-11368
▁dollar	-11369
▁unlike	-11370
▁academy	-11371
▁Ext	-11372
▁violations	-11373
▁psychological	-11374
adi	-11375
▁48,	-11376
being	-11377
▁marine	-11378
▁nephew	-11379
▁difficulty	-11380
▁ridiculous	-11381
▁spare	-11382
▁hometown	-11383
say	-11384
▁Norwich	-11385
ylan	-11386
ousand	-11387
▁virtual	-11388
▁engineers	-11389
▁accurate	-11390
▁regarded	-11391
▁classified	-11392
▁53	-11393
inct	-11394
iates	-11395
▁exceed	-11396
sein	-11397
▁clar	-11398
▁Gene	-11399
▁Sharp	-11400
▁Capitol	-11401
▁infections	-11402
oker	-11403
▁Tax	-11404
▁Lock	-11405
▁Salv	-11406
▁squee	-11407
▁gown	-11408
itches	-11409
▁retailers	-11410
▁revelations	-11411
rac	-11412
▁ok	-11413
iola	-11414
▁McCar	-11415
rera	-11416
▁17.	-11417
▁Adeb	-11418
▁drun	-11419
lining	-11420
▁Banks	-11421
▁fleet	-11422
▁elephant	-11423
orton	-11424
▁yacht	-11425
▁SCROLL	-11426
▁autumn	-11427
▁beaches	-11428
▁alleges	-11429
▁trailer	-11430
Mar	-11431
tail	-11432
▁Jama	-11433
▁radar	-11434
▁fierce	-11435
▁spaces	-11436
▁Hurricane	-11437
▁endors	-11438
▁campaigners	-11439
▁Hispan	-11440
▁Stra	-11441
▁heels	-11442
▁calendar	-11443
▁Fans	-11444
▁HERE	-11445
inding	-11446
▁perspective	-11447
EC	-11448
▁explore	-11449
▁theater	-11450
▁emotions	-11451
hedral	-11452
▁manip	-11453
▁schoolgirl	-11454
▁shooter	-11455
▁arguments	-11456
▁producers	-11457
▁Moss	-11458
▁divers	-11459
▁trucks	-11460
▁Ast	-11461
▁sophistic	-11462
▁beside	-11463
▁raises	-11464
▁Using	-11465
▁jokes	-11466
▁cycling	-11467
▁fundraising	-11468
▁Phillip	-11469
▁divided	-11470
▁Pa	-11471
▁Hans	-11472
▁ferry	-11473
western	-11474
▁abducted	-11475
dest	-11476
▁McN	-11477
▁arts	-11478
casters	-11479
aines	-11480
▁wheels	-11481
▁62	-11482
▁63	-11483
nings	-11484
cillor	-11485
▁Ramsey	-11486
▁scrutiny	-11487
▁announcing	-11488
▁Alz	-11489
▁Warner	-11490
▁signals	-11491
▁teammate	-11492
▁prescription	-11493
lu	-11494
agu	-11495
hal	-11496
ingu	-11497
▁www	-11498
mission	-11499
▁Norfolk	-11500
comfortable	-11501
▁Gas	-11502
assion	-11503
▁Tib	-11504
steroid	-11505
▁engines	-11506
▁Dian	-11507
▁Sophie	-11508
▁Stanley	-11509
▁190	-11510
▁Glass	-11511
▁urgent	-11512
▁20.	-11513
▁Bever	-11514
▁boarding	-11515
▁Pochettino	-11516
▁Hayes	-11517
▁Lions	-11518
▁antib	-11519
▁loaded	-11520
▁bedrooms	-11521
▁Lanka	-11522
▁stance	-11523
▁fundamental	-11524
mons	-11525
▁Assad	-11526
▁Raj	-11527
ensus	-11528
▁aide	-11529
▁carpet	-11530
▁virtually	-11531
oday	-11532
udes	-11533
igers	-11534
scale	-11535
▁1997	-11536
▁bump	-11537
▁menu	-11538
otal	-11539
▁192	-11540
▁Maybe	-11541
▁deciding	-11542
▁cigarette	-11543
▁Potter	-11544
▁spends	-11545
▁railway	-11546
▁Arkansas	-11547
▁Morrison	-11548
▁washed	-11549
▁fiancee	-11550
▁preparation	-11551
▁Linda	-11552
▁missions	-11553
BO	-11554
▁overweight	-11555
Re	-11556
▁elaborate	-11557
ori	-11558
pret	-11559
▁Homeland	-11560
▁missiles	-11561
▁spreading	-11562
▁Christians	-11563
▁allegation	-11564
▁49,	-11565
▁Writ	-11566
▁quant	-11567
▁conducting	-11568
rice	-11569
hurst	-11570
▁Budd	-11571
▁Lucy	-11572
▁jeans	-11573
▁perce	-11574
▁universities	-11575
▁demonstration	-11576
mont	-11577
▁Eri	-11578
▁Chairman	-11579
▁Executive	-11580
▁Equ	-11581
child	-11582
▁Event	-11583
▁Pap	-11584
▁Military	-11585
▁deputies	-11586
▁gangs	-11587
However	-11588
▁refuse	-11589
▁Tob	-11590
▁discharged	-11591
▁horm	-11592
▁tooth	-11593
▁helicopters	-11594
rus	-11595
▁Nash	-11596
▁creates	-11597
▁improvement	-11598
▁lane	-11599
ancial	-11600
▁warming	-11601
▁Ecu	-11602
▁liberal	-11603
▁smartphones	-11604
▁Thanksgiving	-11605
sl	-11606
▁unions	-11607
▁Prevention	-11608
▁Buff	-11609
▁acid	-11610
▁Corp	-11611
▁leak	-11612
▁stored	-11613
▁Perhaps	-11614
▁estranged	-11615
itious	-11616
▁certific	-11617
▁weve	-11618
▁neglect	-11619
alez	-11620
▁unhappy	-11621
Not	-11622
▁Jar	-11623
▁pleading	-11624
▁centuries	-11625
▁58	-11626
▁Reed	-11627
▁Tehran	-11628
▁Ministers	-11629
▁proportion	-11630
▁Rory	-11631
▁mistaken	-11632
emies	-11633
▁longtime	-11634
erie	-11635
urred	-11636
▁Coroner	-11637
▁Highway	-11638
▁behead	-11639
▁condol	-11640
▁Alzheim	-11641
izer	-11642
▁Lang	-11643
▁restored	-11644
amine	-11645
munition	-11646
▁stability	-11647
▁context	-11648
-20	-11649
▁constitutional	-11650
▁dyn	-11651
▁Jacob	-11652
izon	-11653
ricted	-11654
▁trace	-11655
▁Abdullah	-11656
▁cigarettes	-11657
▁description	-11658
▁Were	-11659
▁superb	-11660
▁thanked	-11661
▁purposes	-11662
doch	-11663
▁airpl	-11664
▁Anti	-11665
▁dirty	-11666
▁subjects	-11667
▁Own	-11668
you	-11669
▁PR	-11670
▁Coleman	-11671
▁Wi	-11672
▁Cuban	-11673
▁depend	-11674
▁exception	-11675
▁visa	-11676
▁1996	-11677
licted	-11678
▁51	-11679
▁Mes	-11680
▁barrier	-11681
▁delivering	-11682
▁readers	-11683
▁Everyone	-11684
▁unfortunate	-11685
▁py	-11686
abad	-11687
▁Julia	-11688
▁expans	-11689
▁accidents	-11690
▁suggestion	-11691
▁beef	-11692
▁dock	-11693
▁Arctic	-11694
▁bankrupt	-11695
▁preventing	-11696
avez	-11697
that	-11698
▁Sale	-11699
▁sharks	-11700
▁belonging	-11701
▁Ug	-11702
▁flav	-11703
▁Latin	-11704
▁invent	-11705
▁Nigerian	-11706
▁deserves	-11707
▁frequent	-11708
▁juven	-11709
▁Indeed	-11710
▁Lux	-11711
▁TSA	-11712
▁math	-11713
▁Again	-11714
▁Thank	-11715
▁commissioned	-11716
▁DC	-11717
▁Until	-11718
▁costing	-11719
▁95	-11720
▁Hoff	-11721
▁examine	-11722
▁checking	-11723
▁Lenn	-11724
▁Spaniard	-11725
▁requirements	-11726
atab	-11727
vet	-11728
▁wrist	-11729
▁detected	-11730
▁legitimate	-11731
onder	-11732
tenance	-11733
▁Palestinians	-11734
▁76	-11735
Even	-11736
▁persons	-11737
▁temporarily	-11738
▁cure	-11739
ocated	-11740
▁obese	-11741
▁Barca	-11742
▁accommodation	-11743
▁fixture	-11744
▁ammunition	-11745
▁Organization	-11746
▁Rig	-11747
▁Denmark	-11748
▁Marathon	-11749
▁AS	-11750
ghai	-11751
▁conservation	-11752
▁Ki	-11753
▁jaw	-11754
▁Zimb	-11755
▁Patrol	-11756
▁receives	-11757
ework	-11758
▁Robb	-11759
▁Within	-11760
▁copies	-11761
▁Pie	-11762
▁flags	-11763
▁drunken	-11764
▁Slo	-11765
▁displays	-11766
spec	-11767
▁Criminal	-11768
▁belonged	-11769
▁structures	-11770
lon	-11771
▁Webb	-11772
▁Motor	-11773
▁Gadhafi	-11774
▁landmark	-11775
▁stranger	-11776
▁loans	-11777
▁scare	-11778
▁IP	-11779
▁52,	-11780
▁kinds	-11781
▁lightning	-11782
ims	-11783
▁swift	-11784
gain	-11785
▁syn	-11786
elect	-11787
▁bodily	-11788
▁History	-11789
cal	-11790
word	-11791
▁hugely	-11792
▁indicted	-11793
▁excessive	-11794
▁swing	-11795
▁latter	-11796
▁fathers	-11797
ozy	-11798
▁73	-11799
abwe	-11800
▁Capt	-11801
▁68	-11802
▁Vik	-11803
▁euros	-11804
▁aviation	-11805
▁researcher	-11806
hop	-11807
▁vit	-11808
ubble	-11809
▁Stri	-11810
▁serves	-11811
▁Prize	-11812
▁pharm	-11813
▁swall	-11814
iva	-11815
▁(6	-11816
ewhat	-11817
▁tube	-11818
▁decre	-11819
▁ninth	-11820
▁Norman	-11821
▁stormed	-11822
▁Bali	-11823
▁Dist	-11824
▁crashing	-11825
▁Si	-11826
▁Yah	-11827
agles	-11828
stead	-11829
▁lesb	-11830
▁Weekly	-11831
▁pedest	-11832
▁bronze	-11833
▁transformed	-11834
▁Mom	-11835
▁lined	-11836
▁Diamond	-11837
▁Heather	-11838
▁monarch	-11839
▁overturned	-11840
inity	-11841
▁Development	-11842
▁Murdoch	-11843
inge	-11844
▁desp	-11845
ologies	-11846
▁Reagan	-11847
▁donation	-11848
▁expression	-11849
OT	-11850
▁99	-11851
iscal	-11852
▁Stef	-11853
▁boom	-11854
▁enable	-11855
▁Disease	-11856
▁cruelty	-11857
▁Management	-11858
IDS	-11859
zai	-11860
sun	-11861
▁tub	-11862
▁Mountain	-11863
▁artificial	-11864
▁phenomenon	-11865
▁Constitution	-11866
▁advis	-11867
▁grandson	-11868
▁extension	-11869
▁Naz	-11870
▁Jail	-11871
▁minds	-11872
▁Harvey	-11873
▁versions	-11874
▁Chavez	-11875
▁fisher	-11876
▁useful	-11877
▁publicity	-11878
▁Championships	-11879
▁blew	-11880
▁Britt	-11881
▁habits	-11882
achers	-11883
▁immune	-11884
▁circuit	-11885
▁Through	-11886
▁broadcaster	-11887
▁frag	-11888
▁hire	-11889
▁inev	-11890
▁Sunni	-11891
▁Cant	-11892
▁Cav	-11893
▁voices	-11894
▁billions	-11895
▁franchise	-11896
▁instantly	-11897
▁Pick	-11898
▁contracted	-11899
▁gren	-11900
thouse	-11901
▁moral	-11902
▁discussing	-11903
▁complaining	-11904
▁fool	-11905
▁Corps	-11906
ghazi	-11907
emouth	-11908
▁approaching	-11909
▁nominated	-11910
▁Zimbabwe	-11911
▁convince	-11912
▁Kard	-11913
▁51,	-11914
umper	-11915
▁Marco	-11916
▁prescrib	-11917
▁Gir	-11918
▁9/11	-11919
▁Rail	-11920
▁pione	-11921
eration	-11922
▁absolute	-11923
▁infamous	-11924
▁testify	-11925
gi	-11926
▁Gat	-11927
▁Anyone	-11928
▁chiefs	-11929
▁Ecuador	-11930
▁greeted	-11931
▁Sebastian	-11932
▁pensioner	-11933
▁reduction	-11934
Oh	-11935
▁democratic	-11936
inted	-11937
lass	-11938
▁Magn	-11939
▁wash	-11940
▁heated	-11941
▁raided	-11942
▁worrying	-11943
▁commented	-11944
▁pave	-11945
▁breathe	-11946
▁Fig	-11947
▁Beth	-11948
▁Antar	-11949
▁ownership	-11950
pit	-11951
▁burial	-11952
▁casualties	-11953
▁Prop	-11954
▁Middles	-11955
▁Shanghai	-11956
▁releasing	-11957
▁paintings	-11958
▁crocod	-11959
▁Pul	-11960
Do	-11961
▁attraction	-11962
ohn	-11963
▁Icel	-11964
▁Firef	-11965
▁costume	-11966
▁membership	-11967
idy	-11968
▁Kane	-11969
▁prost	-11970
▁revers	-11971
illas	-11972
▁Hag	-11973
▁interrog	-11974
▁underway	-11975
uthors	-11976
▁lavish	-11977
▁ceiling	-11978
▁completing	-11979
Or	-11980
▁Golf	-11981
▁pills	-11982
▁siege	-11983
▁uncon	-11984
▁crushed	-11985
▁shield	-11986
▁acceptable	-11987
▁Cohen	-11988
▁permit	-11989
▁heritage	-11990
▁neighboring	-11991
▁parliamentary	-11992
uro	-11993
angel	-11994
▁obsc	-11995
▁Pyong	-11996
▁Action	-11997
▁devoted	-11998
▁unsuccess	-11999
▁backs	-12000
▁raids	-12001
▁households	-12002
▁Intelligence	-12003
ICK	-12004
ean	-12005
otes	-12006
rary	-12007
▁focusing	-12008
▁contribute	-12009
cr	-12010
▁Dylan	-12011
▁politically	-12012
▁nerve	-12013
▁Benghazi	-12014
good	-12015
entry	-12016
▁Harper	-12017
▁Nicolas	-12018
▁contribution	-12019
▁Cox	-12020
adesh	-12021
elesc	-12022
▁prey	-12023
▁renov	-12024
▁spill	-12025
heastern	-12026
▁bout	-12027
▁feedback	-12028
sic	-12029
▁Trade	-12030
▁40,000	-12031
▁Kardash	-12032
asting	-12033
▁healthcare	-12034
keys	-12035
▁Stephanie	-12036
olan	-12037
▁Croatia	-12038
▁observed	-12039
▁34-	-12040
▁disputed	-12041
▁Clay	-12042
▁Claim	-12043
▁hosting	-12044
▁Wilshere	-12045
▁punished	-12046
▁shoulders	-12047
Any	-12048
gically	-12049
▁Reading	-12050
▁embrace	-12051
▁administer	-12052
▁Match	-12053
▁lungs	-12054
▁topped	-12055
▁Curt	-12056
▁pile	-12057
▁excuse	-12058
▁assaults	-12059
▁leaf	-12060
usalem	-12061
▁resume	-12062
▁legendary	-12063
▁Kal	-12064
▁Rud	-12065
▁RSPCA	-12066
▁Taiwan	-12067
▁triple	-12068
▁premature	-12069
rose	-12070
▁slaughter	-12071
▁teammates	-12072
SE	-12073
▁mug	-12074
▁500,000	-12075
▁whales	-12076
▁Program	-12077
ulum	-12078
▁6,000	-12079
▁Ramos	-12080
umbling	-12081
rique	-12082
▁eBay	-12083
▁compon	-12084
iop	-12085
Today	-12086
▁Express	-12087
▁ears	-12088
aganda	-12089
▁Tampa	-12090
▁rings	-12091
▁Sharon	-12092
▁cartoon	-12093
▁investigator	-12094
fts	-12095
▁BP	-12096
▁valued	-12097
▁Venezuela	-12098
▁(5	-12099
utenant	-12100
▁sample	-12101
▁hungry	-12102
▁associate	-12103
Ob	-12104
▁tone	-12105
▁Delta	-12106
▁McLaren	-12107
▁viewing	-12108
▁generated	-12109
▁sensation	-12110
rane	-12111
▁opted	-12112
▁promoted	-12113
weg	-12114
opes	-12115
▁audio	-12116
▁eaten	-12117
▁Hudson	-12118
▁blonde	-12119
▁Pictures	-12120
▁thousand	-12121
▁villages	-12122
gone	-12123
▁Portland	-12124
▁Sergeant	-12125
▁complications	-12126
▁erupt	-12127
▁smooth	-12128
▁shotgun	-12129
▁formation	-12130
▁Franklin	-12131
onel	-12132
oween	-12133
ATED	-12134
▁plain	-12135
▁deserved	-12136
▁switched	-12137
▁pollution	-12138
▁PSG	-12139
▁aerial	-12140
▁Jerusalem	-12141
▁Pyongyang	-12142
▁FAA	-12143
▁spo	-12144
▁Run	-12145
▁1994	-12146
▁archae	-12147
▁asteroid	-12148
lit	-12149
▁bats	-12150
▁universe	-12151
emark	-12152
deme	-12153
stock	-12154
▁Mors	-12155
▁trash	-12156
▁Marshall	-12157
▁demonstrate	-12158
has	-12159
▁Bosn	-12160
▁Victorian	-12161
▁secretly	-12162
oub	-12163
▁pray	-12164
▁humanity	-12165
▁embarrassed	-12166
▁ingredients	-12167
race	-12168
▁mart	-12169
▁publ	-12170
▁committing	-12171
▁Lis	-12172
itans	-12173
▁sweat	-12174
▁Iceland	-12175
mal	-12176
▁£2	-12177
▁TMZ	-12178
▁generous	-12179
▁Blackburn	-12180
▁--	-12181
▁Past	-12182
▁firearm	-12183
▁prosecuted	-12184
▁shoe	-12185
icians	-12186
▁Athlet	-12187
▁Bundes	-12188
▁twist	-12189
▁drives	-12190
ealous	-12191
▁inaug	-12192
▁breasts	-12193
▁muscles	-12194
▁prince	-12195
▁beliefs	-12196
visor	-12197
▁wears	-12198
▁fet	-12199
▁hill	-12200
▁click	-12201
aran	-12202
▁scam	-12203
rieving	-12204
mith	-12205
▁stir	-12206
▁Jackie	-12207
▁Marines	-12208
▁Pil	-12209
▁sew	-12210
aments	-12211
▁Netany	-12212
▁Englands	-12213
Gen	-12214
cony	-12215
▁Thor	-12216
▁Walsh	-12217
▁periods	-12218
roe	-12219
▁Blake	-12220
▁Mills	-12221
aternity	-12222
▁Tunis	-12223
▁prayer	-12224
▁photography	-12225
▁MS	-12226
abouts	-12227
▁Girls	-12228
▁circle	-12229
▁inspector	-12230
hentic	-12231
▁cosmet	-12232
▁Coalition	-12233
iy	-12234
▁tap	-12235
▁2001,	-12236
▁commemor	-12237
heem	-12238
▁gunmen	-12239
▁imprisonment	-12240
▁Mey	-12241
▁nude	-12242
ternal	-12243
▁planets	-12244
▁relieved	-12245
▁reverse	-12246
▁adoption	-12247
▁somewhat	-12248
▁Technology	-12249
▁Scar	-12250
▁35-	-12251
▁Ice	-12252
▁gig	-12253
▁chased	-12254
▁laptop	-12255
▁Manning	-12256
▁unpaid	-12257
boat	-12258
▁Cit	-12259
▁Brew	-12260
▁confrontation	-12261
Then	-12262
▁inmate	-12263
▁assumed	-12264
▁prepares	-12265
▁policeman	-12266
▁IT	-12267
▁efficient	-12268
▁friendship	-12269
loe	-12270
▁91	-12271
▁Gw	-12272
▁Crow	-12273
▁*	-12274
sted	-12275
ressing	-12276
▁ranging	-12277
▁elephants	-12278
▁experiencing	-12279
pack	-12280
▁puppy	-12281
▁enjoys	-12282
elligent	-12283
▁Gonzalez	-12284
▁Halloween	-12285
arest	-12286
▁Theresa	-12287
▁BMW	-12288
opard	-12289
▁staged	-12290
▁orph	-12291
▁apologize	-12292
▁strangers	-12293
▁maintenance	-12294
▁Glenn	-12295
▁Tibet	-12296
▁Jenkins	-12297
▁sod	-12298
▁wand	-12299
▁Wells	-12300
▁rented	-12301
▁Command	-12302
▁thrilled	-12303
▁balcony	-12304
▁uncomfortable	-12305
ista	-12306
▁Hob	-12307
▁McCarthy	-12308
▁Netanyahu	-12309
▁speaker	-12310
antan	-12311
▁icon	-12312
▁Moroc	-12313
▁excitement	-12314
▁distribution	-12315
▁addresses	-12316
▁6-3	-12317
▁refugee	-12318
▁measured	-12319
▁nomination	-12320
▁rehabilitation	-12321
aria	-12322
▁reserve	-12323
▁reviews	-12324
▁suburban	-12325
▁monitored	-12326
rina	-12327
team	-12328
▁19.	-12329
▁PGA	-12330
▁Horn	-12331
▁Corre	-12332
▁emissions	-12333
▁innocence	-12334
liga	-12335
▁Half	-12336
▁woods	-12337
▁Etihad	-12338
▁mysterious	-12339
▁Haram	-12340
▁Nation	-12341
▁FDA	-12342
▁recy	-12343
▁Esc	-12344
▁Liz	-12345
▁rapper	-12346
ji	-12347
▁sends	-12348
▁reject	-12349
▁silent	-12350
oway	-12351
▁lod	-12352
▁Rica	-12353
▁Take	-12354
escrib	-12355
▁Living	-12356
▁barrel	-12357
▁tongue	-12358
▁peoples	-12359
▁countryside	-12360
▁plum	-12361
▁sadd	-12362
▁2003.	-12363
▁Bened	-12364
▁donors	-12365
▁attendance	-12366
▁DV	-12367
▁thieves	-12368
▁demonstrated	-12369
▁Laz	-12370
▁Sark	-12371
▁bicy	-12372
dahl	-12373
isha	-12374
▁merely	-12375
▁Allardy	-12376
ifications	-12377
empt	-12378
▁rage	-12379
▁fu	-12380
onte	-12381
author	-12382
mid	-12383
▁Burg	-12384
▁Vick	-12385
▁Rab	-12386
▁safer	-12387
▁serial	-12388
nie	-12389
▁Beaut	-12390
▁Felipe	-12391
▁Target	-12392
▁appoint	-12393
▁sophisticated	-12394
about	-12395
▁rumours	-12396
▁Financial	-12397
amas	-12398
▁impose	-12399
believable	-12400
ifies	-12401
beaten	-12402
▁Design	-12403
▁pledge	-12404
▁ov	-12405
nell	-12406
▁iReport	-12407
▁reckless	-12408
▁Bundesliga	-12409
▁grandparents	-12410
▁chains	-12411
▁Andrews	-12412
bn	-12413
hor	-12414
▁Somali	-12415
▁priest	-12416
▁amateur	-12417
▁Left	-12418
▁keys	-12419
▁citizenship	-12420
▁prostitution	-12421
▁chasing	-12422
ieu	-12423
▁Alger	-12424
▁titled	-12425
Her	-12426
▁inch	-12427
▁endangered	-12428
gie	-12429
▁Mub	-12430
rawling	-12431
▁stairs	-12432
▁Rah	-12433
▁homosexual	-12434
po	-12435
uration	-12436
▁remorse	-12437
▁maker	-12438
▁makers	-12439
▁Neither	-12440
▁echo	-12441
▁blown	-12442
▁@@	-12443
▁annoy	-12444
upt	-12445
▁Son	-12446
▁Omar	-12447
▁thief	-12448
▁shaking	-12449
aab	-12450
enk	-12451
rae	-12452
▁Unfortunately	-12453
▁horn	-12454
▁postp	-12455
▁Summer	-12456
▁outlets	-12457
▁System	-12458
▁washing	-12459
▁Dra	-12460
pot	-12461
▁Ru	-12462
▁ancest	-12463
▁monthly	-12464
▁equality	-12465
▁determination	-12466
▁manufacturers	-12467
▁deck	-12468
▁remem	-12469
▁Represent	-12470
▁entrepreneur	-12471
▁1995	-12472
▁Students	-12473
▁astonishing	-12474
uma	-12475
hers	-12476
▁meets	-12477
▁Kob	-12478
▁Garner	-12479
luded	-12480
▁councils	-12481
▁achievement	-12482
▁unnecessary	-12483
prise	-12484
▁Sullivan	-12485
▁Bryan	-12486
▁consideration	-12487
▁Easter	-12488
▁sacrif	-12489
▁timing	-12490
lects	-12491
otype	-12492
▁Bourn	-12493
▁Concer	-12494
▁Pearson	-12495
▁happiness	-12496
▁understands	-12497
19	-12498
there	-12499
▁scrap	-12500
▁centers	-12501
▁inspire	-12502
▁Hazard	-12503
▁routes	-12504
▁sheep	-12505
▁AN	-12506
iffs	-12507
▁horrified	-12508
▁partially	-12509
▁inspection	-12510
aby	-12511
▁UPD	-12512
▁sid	-12513
ships	-12514
▁rend	-12515
founder	-12516
▁Suffolk	-12517
▁preferred	-12518
▁privately	-12519
▁Pitts	-12520
▁Shane	-12521
▁misdeme	-12522
bid	-12523
▁53,	-12524
▁Ellis	-12525
resident	-12526
▁Pas	-12527
▁Engine	-12528
▁rubber	-12529
▁shirts	-12530
▁condemn	-12531
▁decent	-12532
play	-12533
▁Kaz	-12534
▁tob	-12535
grand	-12536
▁Merc	-12537
▁Trump	-12538
▁foster	-12539
▁grocer	-12540
▁designers	-12541
▁Indonesian	-12542
mat	-12543
▁CLICK	-12544
▁Sochi	-12545
▁gloves	-12546
▁notified	-12547
sers	-12548
apper	-12549
▁Ancel	-12550
▁programmes	-12551
isive	-12552
▁Point	-12553
▁anchor	-12554
oft	-12555
▁marriages	-12556
olks	-12557
bands	-12558
uming	-12559
▁UKIP	-12560
▁Search	-12561
▁handing	-12562
▁15,000	-12563
▁Allardyce	-12564
▁poisoning	-12565
▁Craw	-12566
▁Hook	-12567
▁modest	-12568
▁Boko	-12569
▁shorts	-12570
girlfriend	-12571
▁developers	-12572
▁mild	-12573
iffer	-12574
▁Teen	-12575
▁Bangl	-12576
▁Close	-12577
▁differently	-12578
▁instrum	-12579
▁unfortunately	-12580
▁Malaysian	-12581
Yes	-12582
▁Along	-12583
▁drought	-12584
▁premium	-12585
▁recommendations	-12586
▁2003,	-12587
▁delight	-12588
▁deceased	-12589
▁precious	-12590
habi	-12591
health	-12592
▁blasted	-12593
▁nicknamed	-12594
zo	-12595
▁Cov	-12596
Con	-12597
uced	-12598
▁60,000	-12599
):	-12600
▁Guy	-12601
▁Dawn	-12602
▁Market	-12603
▁Looking	-12604
▁convert	-12605
▁centres	-12606
▁fals	-12607
▁Reports	-12608
▁Doz	-12609
▁chann	-12610
▁plunged	-12611
▁choosing	-12612
iago	-12613
offs	-12614
▁180	-12615
▁hub	-12616
▁Joan	-12617
▁Much	-12618
▁datab	-12619
▁gradu	-12620
▁stepping	-12621
▁restricted	-12622
▁BT	-12623
shaw	-12624
▁Ozil	-12625
▁coal	-12626
▁ignore	-12627
▁supportive	-12628
AN	-12629
rot	-12630
sson	-12631
▁Falk	-12632
zi	-12633
▁guitar	-12634
▁UPDATED	-12635
▁inflation	-12636
turn	-12637
▁Novak	-12638
▁burden	-12639
▁manufacturer	-12640
16	-12641
Don	-12642
▁isolation	-12643
wegian	-12644
▁affecting	-12645
▁Lim	-12646
▁Vett	-12647
▁Eddie	-12648
▁shipping	-12649
err	-12650
▁bold	-12651
▁cave	-12652
▁jumps	-12653
▁Dakota	-12654
▁Raheem	-12655
▁Village	-12656
arak	-12657
▁HS	-12658
▁Emp	-12659
▁scri	-12660
▁hacked	-12661
▁Rain	-12662
▁prank	-12663
omething	-12664
▁condolences	-12665
▁Gran	-12666
ottage	-12667
backs	-12668
▁Carlo	-12669
▁dealer	-12670
▁passionate	-12671
onial	-12672
▁Film	-12673
▁Kens	-12674
▁Catal	-12675
▁poured	-12676
▁killers	-12677
▁separat	-12678
▁gene	-12679
▁premier	-12680
▁Aviation	-12681
▁believing	-12682
aned	-12683
▁Sha	-12684
▁shy	-12685
▁cage	-12686
▁scary	-12687
▁volley	-12688
▁Born	-12689
anches	-12690
▁Rugby	-12691
▁laser	-12692
▁Romania	-12693
▁miracle	-12694
▁trousers	-12695
▁origin	-12696
▁volcano	-12697
▁Chambers	-12698
▁lighting	-12699
▁distraught	-12700
From	-12701
▁deton	-12702
FP	-12703
▁recalls	-12704
▁gut	-12705
▁merc	-12706
▁adjust	-12707
▁catching	-12708
▁reviewed	-12709
omic	-12710
quez	-12711
▁Fif	-12712
▁tanks	-12713
▁homeown	-12714
▁reacted	-12715
▁transportation	-12716
▁Amber	-12717
husband	-12718
▁Mersey	-12719
▁gardens	-12720
▁Bournemouth	-12721
apova	-12722
▁dele	-12723
▁chamber	-12724
▁protein	-12725
▁expanded	-12726
▁survivor	-12727
▁depending	-12728
▁departments	-12729
▁arrangements	-12730
kok	-12731
see	-12732
▁Kiev	-12733
▁refund	-12734
▁Bergdahl	-12735
owder	-12736
▁champagne	-12737
▁lied	-12738
▁mourn	-12739
zan	-12740
▁54,	-12741
▁Wang	-12742
oppers	-12743
▁Change	-12744
▁Please	-12745
▁sensors	-12746
▁Dhabi	-12747
▁Ports	-12748
▁blanket	-12749
▁tobacco	-12750
▁u	-12751
▁tropical	-12752
▁Ancelotti	-12753
▁fitting	-12754
▁Fun	-12755
▁Rut	-12756
ophob	-12757
▁mour	-12758
▁Ivory	-12759
▁travelers	-12760
▁Workers	-12761
▁manufacturing	-12762
▁Mahm	-12763
▁provision	-12764
▁theatre	-12765
En	-12766
ige	-12767
emia	-12768
fair	-12769
▁Bot	-12770
▁Sharapova	-12771
▁psychiatric	-12772
▁Jobs	-12773
▁Inside	-12774
lav	-12775
▁cried	-12776
iffe	-12777
▁whereabouts	-12778
▁Boxing	-12779
▁banning	-12780
▁disrupt	-12781
▁Francois	-12782
▁Colombian	-12783
eded	-12784
ranean	-12785
▁Woman	-12786
▁palace	-12787
▁cabinet	-12788
▁earnings	-12789
antanamo	-12790
▁predecess	-12791
▁comprehensive	-12792
▁Hugh	-12793
ounded	-12794
▁agric	-12795
▁evolution	-12796
▁Vi	-12797
uter	-12798
▁Nobel	-12799
▁bonus	-12800
▁Natalie	-12801
▁VA	-12802
vious	-12803
manuel	-12804
Everyone	-12805
▁updates	-12806
▁Chi	-12807
ucked	-12808
▁Mang	-12809
▁wars	-12810
▁memor	-12811
▁fractured	-12812
▁Ta	-12813
▁navy	-12814
▁outdoor	-12815
▁Hat	-12816
▁Viol	-12817
▁arra	-12818
▁rall	-12819
▁Bashar	-12820
▁trusted	-12821
awi	-12822
vas	-12823
▁Bil	-12824
▁Kle	-12825
▁quake	-12826
▁Arrest	-12827
IM	-12828
▁$9	-12829
erts	-12830
▁Len	-12831
▁tsun	-12832
▁6-2	-12833
▁expense	-12834
▁hardest	-12835
▁Frenchman	-12836
▁advocates	-12837
▁clouds	-12838
▁authentic	-12839
▁administrative	-12840
hard	-12841
▁dent	-12842
▁300,000	-12843
▁resolved	-12844
▁wrongdoing	-12845
hole	-12846
▁Flet	-12847
▁peer	-12848
BL	-12849
gro	-12850
▁km	-12851
▁Blas	-12852
powered	-12853
▁considerable	-12854
▁utter	-12855
ulus	-12856
unity	-12857
▁Salt	-12858
▁allege	-12859
▁Katherine	-12860
▁defenders	-12861
By	-12862
iggins	-12863
ishers	-12864
▁clues	-12865
▁goodbye	-12866
▁Guantanamo	-12867
▁trademark	-12868
hift	-12869
teen	-12870
▁Place	-12871
Because	-12872
▁errors	-12873
▁connections	-12874
▁Wr	-12875
▁posters	-12876
▁Coul	-12877
▁alien	-12878
▁successive	-12879
▁Orig	-12880
▁unarmed	-12881
▁59	-12882
▁advocate	-12883
▁Bangkok	-12884
▁engaging	-12885
▁judicial	-12886
▁specially	-12887
▁organisations	-12888
lay	-12889
ract	-12890
yers	-12891
▁Wend	-12892
riculum	-12893
working	-12894
▁assisted	-12895
acles	-12896
▁gates	-12897
▁Kenneth	-12898
▁identification	-12899
▁fiscal	-12900
▁hackers	-12901
▁childrens	-12902
▁moderate	-12903
▁airstrikes	-12904
▁Vettel	-12905
▁credited	-12906
iri	-12907
itudes	-12908
▁Sally	-12909
▁exped	-12910
▁tremend	-12911
▁Hussein	-12912
▁Wallace	-12913
terrorism	-12914
▁backlash	-12915
▁equipped	-12916
▁Hem	-12917
▁Unit	-12918
▁Foley	-12919
▁Indust	-12920
▁ruined	-12921
▁WW	-12922
Shab	-12923
▁Cour	-12924
▁drowned	-12925
▁reaches	-12926
IL	-12927
▁Iron	-12928
▁stones	-12929
▁Rolling	-12930
▁Conservatives	-12931
▁dug	-12932
▁Hand	-12933
▁Jake	-12934
aughed	-12935
▁Paulo	-12936
▁Winds	-12937
▁retreat	-12938
usc	-12939
▁epic	-12940
▁merch	-12941
▁ensuring	-12942
▁integrity	-12943
▁unemployed	-12944
▁cooperation	-12945
urious	-12946
▁glory	-12947
▁extradition	-12948
▁influential	-12949
▁nic	-12950
stanbul	-12951
▁adventure	-12952
▁glamorous	-12953
▁Pel	-12954
▁Math	-12955
▁grid	-12956
▁visual	-12957
rise	-12958
▁Move	-12959
▁bullied	-12960
▁competitors	-12961
▁Final	-12962
▁directors	-12963
net	-12964
▁ly	-12965
proof	-12966
▁humil	-12967
▁Patric	-12968
▁subway	-12969
▁matching	-12970
▁discipline	-12971
ugly	-12972
▁4-0	-12973
▁Beh	-12974
▁cam	-12975
▁Eden	-12976
▁travels	-12977
string	-12978
▁stere	-12979
▁cemetery	-12980
▁practical	-12981
▁Ka	-12982
▁lasting	-12983
▁Kardashian	-12984
aku	-12985
▁Sac	-12986
▁gam	-12987
otion	-12988
▁unbeaten	-12989
▁graduated	-12990
quet	-12991
▁lump	-12992
▁Istanbul	-12993
▁rh	-12994
▁floods	-12995
▁renowned	-12996
▁ladies	-12997
▁Amnesty	-12998
rics	-12999
▁neut	-13000
▁generate	-13001
▁reminder	-13002
▁authors	-13003
▁69	-13004
enge	-13005
▁Appeal	-13006
▁clever	-13007
▁dialogue	-13008
▁breakdown	-13009
▁peers	-13010
▁comply	-13011
▁musician	-13012
▁Muham	-13013
▁autom	-13014
▁northwest	-13015
east	-13016
ells	-13017
▁Cart	-13018
▁Grey	-13019
▁floors	-13020
▁Fast	-13021
anmar	-13022
▁Element	-13023
plus	-13024
▁havent	-13025
▁Madison	-13026
▁epidemic	-13027
▁campaigning	-13028
▁74	-13029
▁Song	-13030
▁Schumacher	-13031
ollah	-13032
▁Sara	-13033
▁Borussia	-13034
▁employer	-13035
▁breakthrough	-13036
▁Gibson	-13037
avan	-13038
▁Fat	-13039
▁matched	-13040
shore	-13041
▁Reyn	-13042
▁cinema	-13043
▁laughed	-13044
▁Cheshire	-13045
▁examples	-13046
ahn	-13047
▁Montana	-13048
▁placing	-13049
▁Norwegian	-13050
▁northeast	-13051
ripp	-13052
▁130	-13053
▁55,	-13054
hester	-13055
▁debts	-13056
▁Myanmar	-13057
▁Raymond	-13058
▁$100,000	-13059
▁Portsmouth	-13060
▁suggestions	-13061
▁Hut	-13062
bishop	-13063
uggage	-13064
▁propaganda	-13065
New	-13066
▁2-	-13067
▁Jun	-13068
intage	-13069
▁lottery	-13070
▁venture	-13071
▁displaced	-13072
listed	-13073
▁weird	-13074
▁Maid	-13075
rising	-13076
▁Logan	-13077
▁aspects	-13078
▁pursuit	-13079
▁IRS	-13080
▁pir	-13081
▁Nico	-13082
cut	-13083
▁Dia	-13084
▁assured	-13085
heart	-13086
spoken	-13087
▁destro	-13088
▁submit	-13089
▁Timothy	-13090
▁86	-13091
▁Bin	-13092
▁noting	-13093
friendly	-13094
IT	-13095
ilies	-13096
inness	-13097
▁Brandon	-13098
qual	-13099
▁acquitted	-13100
▁permanently	-13101
mand	-13102
▁Mend	-13103
▁slide	-13104
chester	-13105
▁retailer	-13106
▁contractor	-13107
mel	-13108
▁scenario	-13109
speed	-13110
ervatory	-13111
▁adequ	-13112
▁cater	-13113
▁possessing	-13114
▁Cambod	-13115
▁intimate	-13116
▁insurgents	-13117
▁concentration	-13118
▁Lie	-13119
▁pad	-13120
▁2001.	-13121
▁cours	-13122
shaped	-13123
▁Liberty	-13124
ushes	-13125
▁Passengers	-13126
May	-13127
htag	-13128
▁Jol	-13129
▁landl	-13130
▁deported	-13131
▁3-2	-13132
▁Storm	-13133
▁steep	-13134
▁6-4	-13135
▁Carr	-13136
▁Mumb	-13137
▁vocal	-13138
▁hashtag	-13139
▁presidents	-13140
▁photographers	-13141
▁breed	-13142
▁pistol	-13143
▁plates	-13144
▁Fletcher	-13145
▁internation	-13146
▁disappointment	-13147
cat	-13148
▁scholar	-13149
▁passage	-13150
Let	-13151
gart	-13152
▁spree	-13153
▁immigrant	-13154
efin	-13155
▁rit	-13156
▁Dame	-13157
▁stroll	-13158
▁Winston	-13159
alle	-13160
▁1992	-13161
▁comet	-13162
▁sells	-13163
▁resistance	-13164
PA	-13165
amped	-13166
▁Paula	-13167
▁Meh	-13168
▁Congo	-13169
▁Fried	-13170
▁Yahoo	-13171
▁Travis	-13172
acer	-13173
▁Set	-13174
▁injuring	-13175
▁suitable	-13176
▁myth	-13177
▁Kabul	-13178
▁Mubarak	-13179
▁surgeons	-13180
iors	-13181
▁None	-13182
▁boxer	-13183
▁derby	-13184
▁Dozens	-13185
▁Toyota	-13186
CO	-13187
kill	-13188
▁essentially	-13189
Ex	-13190
sur	-13191
▁seeks	-13192
▁Walter	-13193
▁sou	-13194
Brien	-13195
▁decorated	-13196
range	-13197
▁Danish	-13198
▁labelled	-13199
▁Photographer	-13200
inis	-13201
quer	-13202
stage	-13203
▁Adela	-13204
▁magic	-13205
▁robbed	-13206
▁$20	-13207
kward	-13208
▁provoc	-13209
▁principle	-13210
great	-13211
▁chips	-13212
▁inspectors	-13213
▁Body	-13214
▁rang	-13215
▁comic	-13216
▁femin	-13217
▁joins	-13218
▁applaud	-13219
vol	-13220
▁AM	-13221
otta	-13222
▁140	-13223
▁Osama	-13224
▁renewed	-13225
▁Benedict	-13226
▁Merseyside	-13227
▁cro	-13228
ctuary	-13229
vereign	-13230
▁quarters	-13231
▁unlawful	-13232
▁Conference	-13233
rob	-13234
▁Heritage	-13235
▁makeshift	-13236
gom	-13237
▁rans	-13238
▁Chester	-13239
▁admission	-13240
▁Isa	-13241
▁Iss	-13242
▁overhaul	-13243
▁Kensington	-13244
▁Gem	-13245
▁buses	-13246
▁Taking	-13247
▁Zucker	-13248
▁dealers	-13249
onga	-13250
▁Hague	-13251
▁Lawson	-13252
▁submar	-13253
Br	-13254
holders	-13255
jection	-13256
▁Kam	-13257
▁vicious	-13258
▁Hey	-13259
▁Joel	-13260
normal	-13261
▁occurs	-13262
▁affordable	-13263
▁spectators	-13264
▁30.	-13265
▁Palm	-13266
▁Break	-13267
▁certificate	-13268
only	-13269
▁por	-13270
▁aller	-13271
▁medics	-13272
▁cardiac	-13273
▁escorted	-13274
▁distributed	-13275
▁intelligent	-13276
US	-13277
▁Glen	-13278
▁toss	-13279
cation	-13280
▁absent	-13281
▁doubts	-13282
▁juvenile	-13283
▁Mik	-13284
throp	-13285
enberg	-13286
▁Number	-13287
▁hunger	-13288
raud	-13289
▁Gregory	-13290
▁tsunami	-13291
▁pursuing	-13292
▁detainees	-13293
▁workplace	-13294
▁dive	-13295
▁pays	-13296
▁farmer	-13297
▁philos	-13298
▁Enrique	-13299
▁Shiite	-13300
▁fossil	-13301
▁Adelaide	-13302
▁paedophile	-13303
alymp	-13304
▁channels	-13305
EL	-13306
▁da	-13307
markets	-13308
▁bruises	-13309
▁harmful	-13310
▁relegation	-13311
▁Tas	-13312
▁Hert	-13313
▁adap	-13314
▁folks	-13315
▁lifting	-13316
▁inquiries	-13317
▁rider	-13318
▁coffin	-13319
▁dispos	-13320
▁insight	-13321
▁ultra	-13322
inded	-13323
▁lips	-13324
▁Fu	-13325
▁2020	-13326
▁Shin	-13327
▁Further	-13328
▁Jet	-13329
pound	-13330
▁Tommy	-13331
▁cyclist	-13332
▁sailing	-13333
drop	-13334
▁Curtis	-13335
▁Lindsay	-13336
▁Montgom	-13337
▁compassion	-13338
▁36-	-13339
▁tiger	-13340
▁accompany	-13341
▁confusion	-13342
▁shes	-13343
▁tire	-13344
▁Given	-13345
▁embark	-13346
fig	-13347
▁Berks	-13348
▁lovers	-13349
▁blocking	-13350
itter	-13351
▁21.	-13352
▁fib	-13353
▁grip	-13354
▁pipe	-13355
▁threaten	-13356
bek	-13357
▁luggage	-13358
uri	-13359
deep	-13360
▁fluid	-13361
▁careers	-13362
▁reflects	-13363
▁logo	-13364
▁Pieters	-13365
▁Sid	-13366
▁Page	-13367
▁Finally	-13368
she	-13369
ammy	-13370
▁Firefighters	-13371
▁Eug	-13372
▁Come	-13373
▁volume	-13374
▁instant	-13375
▁Griffith	-13376
▁flies	-13377
iterranean	-13378
▁cere	-13379
▁Sarkozy	-13380
▁improvements	-13381
otton	-13382
▁valid	-13383
▁bucket	-13384
▁richest	-13385
▁qualifier	-13386
▁reactions	-13387
▁Elementary	-13388
fi	-13389
aste	-13390
trick	-13391
▁Dark	-13392
▁maps	-13393
▁outfits	-13394
▁rebuild	-13395
▁thunder	-13396
fted	-13397
▁tribal	-13398
▁Sometimes	-13399
▁contaminated	-13400
▁pros	-13401
▁knees	-13402
▁Santos	-13403
oyle	-13404
▁males	-13405
▁Dawson	-13406
▁singles	-13407
▁expansion	-13408
▁sovereign	-13409
▁spiritual	-13410
▁magistrates	-13411
EP	-13412
porary	-13413
▁shelves	-13414
▁outraged	-13415
▁maintains	-13416
▁perceived	-13417
▁fox	-13418
▁Sheikh	-13419
▁sympathy	-13420
▁tortured	-13421
▁Amendment	-13422
▁56,	-13423
ozone	-13424
▁wives	-13425
▁Histor	-13426
▁Brotherhood	-13427
onnie	-13428
▁Rosie	-13429
▁intrud	-13430
▁assassination	-13431
usky	-13432
▁destinations	-13433
▁ballot	-13434
▁Pic	-13435
▁rubble	-13436
",	-13437
umin	-13438
▁Dew	-13439
▁Fish	-13440
▁patch	-13441
▁skies	-13442
▁collided	-13443
▁surfaced	-13444
▁tributes	-13445
▁fireworks	-13446
Most	-13447
▁1993	-13448
▁Geoff	-13449
▁strongest	-13450
eption	-13451
▁Kenyan	-13452
ications	-13453
▁preserve	-13454
▁Mata	-13455
▁dancer	-13456
▁indicates	-13457
gender	-13458
ourage	-13459
▁identical	-13460
▁bands	-13461
85	-13462
▁Rih	-13463
atoes	-13464
▁deer	-13465
ucrative	-13466
▁realistic	-13467
▁reflected	-13468
▁thus	-13469
▁Early	-13470
rin	-13471
▁Unlike	-13472
▁ambitious	-13473
▁appalling	-13474
▁Eventually	-13475
LC	-13476
eled	-13477
▁Adv	-13478
▁Assembly	-13479
▁particles	-13480
▁Mediterranean	-13481
▁Dim	-13482
▁Main	-13483
▁chip	-13484
▁Years	-13485
▁withdrawn	-13486
].	-13487
engu	-13488
▁GPS	-13489
anting	-13490
▁Worth	-13491
▁Whether	-13492
▁Controvers	-13493
▁consistently	-13494
▁developments	-13495
after	-13496
▁Lennon	-13497
▁proving	-13498
▁racially	-13499
▁upstairs	-13500
wind	-13501
▁Belf	-13502
▁pope	-13503
▁brains	-13504
▁emerge	-13505
▁reserv	-13506
▁pleasure	-13507
▁Blood	-13508
▁deeper	-13509
aton	-13510
ogen	-13511
▁Jill	-13512
▁culp	-13513
▁advances	-13514
▁traumatic	-13515
▁Jesse	-13516
▁Private	-13517
▁exchanged	-13518
▁granddaughter	-13519
Me	-13520
▁Lynn	-13521
▁Rams	-13522
▁AP	-13523
acent	-13524
eston	-13525
▁Smart	-13526
▁Blatter	-13527
▁boarded	-13528
▁lucrative	-13529
▁guilt	-13530
▁Nep	-13531
rowing	-13532
▁tension	-13533
▁operators	-13534
▁tale	-13535
▁Study	-13536
sterdam	-13537
▁exists	-13538
▁populations	-13539
▁Sao	-13540
▁flaw	-13541
▁negotiate	-13542
2,000	-13543
iations	-13544
▁recl	-13545
▁knives	-13546
▁Records	-13547
▁stuffed	-13548
▁compromise	-13549
▁traditionally	-13550
amps	-13551
oser	-13552
ammar	-13553
▁Doug	-13554
▁argues	-13555
▁Ambulance	-13556
otted	-13557
flight	-13558
▁roots	-13559
leading	-13560
ffic	-13561
▁25.	-13562
▁Pod	-13563
berto	-13564
overs	-13565
▁ditch	-13566
▁Blasio	-13567
▁requiring	-13568
▁unbelievable	-13569
nut	-13570
▁poly	-13571
▁Bahrain	-13572
▁pressed	-13573
▁replacing	-13574
rained	-13575
▁Johan	-13576
▁Ethiop	-13577
▁Serena	-13578
▁strategic	-13579
▁disgusting	-13580
.50	-13581
reated	-13582
▁Wilts	-13583
▁Mumbai	-13584
▁Germans	-13585
▁Worces	-13586
▁Cameroon	-13587
▁secondary	-13588
▁regulation	-13589
▁tougher	-13590
▁Dod	-13591
▁Ashton	-13592
▁preced	-13593
▁Da	-13594
▁Seoul	-13595
▁solutions	-13596
▁overwhelmed	-13597
▁-.	-13598
▁Ton	-13599
▁bip	-13600
▁Ground	-13601
▁elector	-13602
leen	-13603
fried	-13604
erek	-13605
game	-13606
▁panels	-13607
▁premises	-13608
marks	-13609
▁developer	-13610
got	-13611
▁sue	-13612
impse	-13613
ulted	-13614
▁battered	-13615
▁Superintendent	-13616
oto	-13617
fare	-13618
▁Din	-13619
▁Drog	-13620
▁enemies	-13621
bled	-13622
▁Cah	-13623
▁Kro	-13624
▁topp	-13625
▁Which	-13626
▁Hondur	-13627
hunt	-13628
nest	-13629
oped	-13630
acting	-13631
▁Hammond	-13632
▁cheating	-13633
▁61	-13634
▁Sak	-13635
▁Plus	-13636
▁occupied	-13637
▁sunshine	-13638
▁Wa	-13639
▁Rihanna	-13640
▁mounted	-13641
▁southwest	-13642
▁Revolution	-13643
orie	-13644
▁Isab	-13645
▁borr	-13646
▁mole	-13647
▁Standards	-13648
▁phrase	-13649
▁Berkshire	-13650
▁nest	-13651
▁dimin	-13652
▁jewel	-13653
▁spine	-13654
▁Consum	-13655
▁educational	-13656
▁|	-13657
asant	-13658
▁drum	-13659
▁8,000	-13660
▁aisle	-13661
▁Sev	-13662
parts	-13663
▁Carney	-13664
▁joking	-13665
▁injection	-13666
atile	-13667
section	-13668
▁Madele	-13669
▁stating	-13670
▁documented	-13671
ET	-13672
sky	-13673
▁Bag	-13674
▁dre	-13675
aires	-13676
▁Self	-13677
▁Butler	-13678
▁belongings	-13679
uba	-13680
ozni	-13681
▁Have	-13682
▁sizes	-13683
▁Brig	-13684
▁buzz	-13685
▁filling	-13686
▁Immigration	-13687
▁outp	-13688
▁Fisher	-13689
▁assume	-13690
▁interim	-13691
▁Superior	-13692
▁Amsterdam	-13693
▁shattered	-13694
far	-13695
▁BA	-13696
coon	-13697
itic	-13698
▁2002,	-13699
▁Bible	-13700
▁steady	-13701
▁glimpse	-13702
kee	-13703
▁gradually	-13704
ronics	-13705
▁tables	-13706
▁respects	-13707
▁instructor	-13708
▁Prior	-13709
▁punching	-13710
▁surveyed	-13711
▁reviewing	-13712
▁Small	-13713
▁abduction	-13714
▁astronauts	-13715
jad	-13716
▁Ply	-13717
▁Fitz	-13718
▁Coron	-13719
▁Nixon	-13720
▁powered	-13721
▁Paralymp	-13722
arn	-13723
▁Mak	-13724
▁sung	-13725
▁Lance	-13726
▁sorts	-13727
▁Survey	-13728
▁treats	-13729
▁gaining	-13730
coni	-13731
▁160	-13732
▁Floyd	-13733
▁flats	-13734
▁Sporting	-13735
▁gambling	-13736
▁modelling	-13737
abi	-13738
omer	-13739
seen	-13740
▁rope	-13741
▁suic	-13742
rehend	-13743
▁Megan	-13744
▁mast	-13745
▁okay	-13746
▁revol	-13747
▁Mirror	-13748
▁Sandra	-13749
▁princess	-13750
via	-13751
▁Johnny	-13752
▁escort	-13753
▁plummet	-13754
▁revelation	-13755
▁buyer	-13756
▁Javier	-13757
▁cartel	-13758
▁resemb	-13759
▁romance	-13760
▁critically	-13761
bage	-13762
▁22.	-13763
▁sob	-13764
▁skill	-13765
▁females	-13766
▁operates	-13767
24	-13768
igen	-13769
phoon	-13770
▁amput	-13771
▁Miranda	-13772
Fi	-13773
▁Monica	-13774
▁ESP	-13775
▁Giggs	-13776
▁repro	-13777
▁smuggling	-13778
▁Suz	-13779
▁pund	-13780
▁draws	-13781
guards	-13782
▁Blanc	-13783
▁episodes	-13784
);	-13785
▁limbs	-13786
igation	-13787
▁Dublin	-13788
▁Ana	-13789
▁gonna	-13790
▁WA	-13791
▁intervene	-13792
18	-13793
▁Baron	-13794
▁pastor	-13795
▁Valentine	-13796
▁undergone	-13797
▁distinctive	-13798
Well	-13799
itime	-13800
▁topic	-13801
65	-13802
▁Claims	-13803
▁Twenty	-13804
▁surely	-13805
▁primarily	-13806
▁Wozni	-13807
▁array	-13808
▁flower	-13809
▁Springs	-13810
uis	-13811
▁vary	-13812
▁ranking	-13813
▁Alliance	-13814
▁mandatory	-13815
uns	-13816
caution	-13817
▁Mohamm	-13818
▁Standard	-13819
▁Cad	-13820
▁Holy	-13821
▁stays	-13822
▁medium	-13823
▁bidding	-13824
feld	-13825
▁Pam	-13826
▁Luiz	-13827
▁euro	-13828
size	-13829
cting	-13830
itzer	-13831
▁Hero	-13832
▁barred	-13833
▁paralys	-13834
▁runners	-13835
▁hurricane	-13836
▁Ips	-13837
▁Lor	-13838
▁Band	-13839
brough	-13840
▁absor	-13841
▁rescuers	-13842
▁Christina	-13843
etsk	-13844
▁sup	-13845
▁Moon	-13846
▁soap	-13847
▁Bangladesh	-13848
wart	-13849
inces	-13850
▁hiring	-13851
▁motorb	-13852
▁counterparts	-13853
NS	-13854
hell	-13855
▁Mug	-13856
inked	-13857
▁bunch	-13858
▁dignity	-13859
▁premiere	-13860
kind	-13861
tech	-13862
claimed	-13863
▁artwork	-13864
▁deleted	-13865
▁finances	-13866
▁Constable	-13867
icio	-13868
unes	-13869
▁Dug	-13870
party	-13871
▁Isle	-13872
▁Province	-13873
▁masc	-13874
▁plug	-13875
▁Chuck	-13876
iciency	-13877
▁shutdown	-13878
ulu	-13879
▁fict	-13880
▁solo	-13881
▁Janet	-13882
▁Wiltshire	-13883
▁anonymity	-13884
omo	-13885
▁wra	-13886
arming	-13887
change	-13888
▁1,200	-13889
▁convoy	-13890
▁examiner	-13891
▁Forbes	-13892
▁heroes	-13893
▁sweeping	-13894
▁ally	-13895
▁buff	-13896
▁2002.	-13897
▁Aberde	-13898
▁prisons	-13899
▁Challenge	-13900
fly	-13901
▁45-	-13902
▁tours	-13903
▁Record	-13904
▁Sutton	-13905
▁courses	-13906
▁lesbian	-13907
▁contents	-13908
erals	-13909
unders	-13910
▁tasks	-13911
▁bang	-13912
▁2,500	-13913
▁brows	-13914
▁Corporation	-13915
▁5.5	-13916
▁Too	-13917
▁Money	-13918
▁Plymouth	-13919
▁knocking	-13920
▁exceptional	-13921
▁Drag	-13922
▁Fell	-13923
▁umb	-13924
▁rankings	-13925
▁Bud	-13926
▁irre	-13927
▁reluctant	-13928
▁Pin	-13929
▁hik	-13930
▁nod	-13931
white	-13932
▁dirt	-13933
▁Series	-13934
▁chapter	-13935
psy	-13936
▁duck	-13937
▁Drogba	-13938
▁tu	-13939
leys	-13940
▁Kend	-13941
alid	-13942
verts	-13943
▁melt	-13944
ancies	-13945
▁whenever	-13946
five	-13947
taking	-13948
running	-13949
▁Mission	-13950
▁victories	-13951
▁vic	-13952
▁prompt	-13953
▁consumed	-13954
▁optimistic	-13955
▁neighbourhood	-13956
▁Norm	-13957
▁scans	-13958
▁produces	-13959
▁motorcycle	-13960
▁identifying	-13961
▁introduction	-13962
▁Bak	-13963
erable	-13964
▁robots	-13965
▁Between	-13966
▁greatly	-13967
▁350	-13968
▁Mach	-13969
▁Honda	-13970
▁Cesc	-13971
▁Brent	-13972
▁Brits	-13973
▁tattoos	-13974
hit	-13975
▁Side	-13976
braska	-13977
▁Berlus	-13978
▁bargain	-13979
▁strangled	-13980
▁mock	-13981
▁Creek	-13982
▁Starb	-13983
▁fails	-13984
▁credits	-13985
▁Churchill	-13986
▁principles	-13987
▁Pipp	-13988
▁cockpit	-13989
▁Pittsburgh	-13990
ascus	-13991
▁Joint	-13992
▁Lords	-13993
▁accord	-13994
▁Griffin	-13995
▁affection	-13996
▁altercation	-13997
▁anticipated	-13998
▁incent	-13999
▁crashes	-14000
▁database	-14001
▁troubles	-14002
▁explosions	-14003
goers	-14004
▁ware	-14005
▁handbag	-14006
▁container	-14007
▁quarterback	-14008
▁Bryant	-14009
▁firmly	-14010
▁assigned	-14011
▁persuade	-14012
▁Celebrity	-14013
▁exercises	-14014
hot	-14015
urbs	-14016
▁grat	-14017
▁Election	-14018
▁Madeleine	-14019
▁Sug	-14020
▁Carn	-14021
▁Kier	-14022
▁Diane	-14023
▁amongst	-14024
▁disgrace	-14025
▁countless	-14026
Of	-14027
▁UC	-14028
ocial	-14029
▁layer	-14030
▁freeze	-14031
▁sheets	-14032
▁indefin	-14033
▁violating	-14034
▁Thom	-14035
▁Yaya	-14036
▁pond	-14037
▁Youth	-14038
▁sidew	-14039
onymous	-14040
▁misdemeanor	-14041
▁Tol	-14042
▁rated	-14043
▁Jur	-14044
▁Poy	-14045
ounge	-14046
▁Deep	-14047
▁Nicola	-14048
▁Peninsula	-14049
3,000	-14050
▁brush	-14051
▁gunfire	-14052
▁Hispanic	-14053
eli	-14054
iox	-14055
essa	-14056
▁spared	-14057
attering	-14058
▁Patricia	-14059
▁Button	-14060
▁actively	-14061
▁saddened	-14062
▁Shaun	-14063
▁linger	-14064
▁purple	-14065
▁nursery	-14066
▁nonprofit	-14067
▁accountable	-14068
aho	-14069
▁Jak	-14070
pired	-14071
▁Batt	-14072
▁Getting	-14073
▁Damascus	-14074
▁Kil	-14075
▁Mol	-14076
▁Chloe	-14077
▁pirates	-14078
▁approaches	-14079
dem	-14080
pless	-14081
▁smash	-14082
▁banner	-14083
▁netted	-14084
▁Shortly	-14085
▁overdose	-14086
▁Guardiola	-14087
▁ESPN	-14088
▁Princ	-14089
▁Walmart	-14090
▁vomiting	-14091
▁corporation	-14092
World	-14093
eness	-14094
▁Bird	-14095
umbria	-14096
▁drops	-14097
▁25,000	-14098
▁hazard	-14099
urches	-14100
▁hyper	-14101
▁Greene	-14102
▁insects	-14103
written	-14104
▁abandon	-14105
▁superstar	-14106
boys	-14107
▁Danger	-14108
▁parach	-14109
▁sooner	-14110
▁Herrera	-14111
▁disgu	-14112
▁riders	-14113
▁Sources	-14114
▁airplane	-14115
▁fingerpr	-14116
controlled	-14117
▁$1,	-14118
hamed	-14119
▁auto	-14120
▁ghost	-14121
-10	-14122
▁Beyon	-14123
▁squir	-14124
▁wished	-14125
rate	-14126
▁Singer	-14127
▁regain	-14128
▁frightened	-14129
▁supermarkets	-14130
Ad	-14131
RI	-14132
gue	-14133
▁Room	-14134
▁Donetsk	-14135
▁surgeries	-14136
seek	-14137
▁Cob	-14138
steps	-14139
▁brick	-14140
▁coins	-14141
▁drain	-14142
hearted	-14143
▁dictator	-14144
▁illnesses	-14145
▁participating	-14146
▁Hassan	-14147
gor	-14148
▁gre	-14149
▁Surv	-14150
▁fert	-14151
▁kilomet	-14152
▁packages	-14153
▁restrain	-14154
▁providers	-14155
anim	-14156
6,000	-14157
▁powder	-14158
▁awkward	-14159
ainted	-14160
▁bearing	-14161
▁briefing	-14162
▁Kid	-14163
▁Gove	-14164
▁List	-14165
▁Claud	-14166
▁approve	-14167
uddy	-14168
8,000	-14169
▁disclosed	-14170
▁Pete	-14171
▁ugly	-14172
▁Derek	-14173
itating	-14174
▁Beverly	-14175
▁Footage	-14176
▁Nebraska	-14177
▁expanding	-14178
▁err	-14179
etary	-14180
▁owed	-14181
▁Swift	-14182
▁Shield	-14183
▁happier	-14184
▁sounded	-14185
▁abd	-14186
▁intend	-14187
▁skiing	-14188
▁confisc	-14189
▁narrowly	-14190
stop	-14191
▁Dunn	-14192
▁lions	-14193
▁sticks	-14194
▁999	-14195
▁Mali	-14196
handed	-14197
iotics	-14198
▁Riley	-14199
▁Century	-14200
▁wrongly	-14201
▁Richmond	-14202
hr	-14203
ASH	-14204
too	-14205
▁1.2	-14206
▁recruitment	-14207
▁iOS	-14208
▁eldest	-14209
reatment	-14210
▁sufferers	-14211
▁authorized	-14212
▁evacuation	-14213
▁discovering	-14214
▁establishment	-14215
▁addict	-14216
▁crowded	-14217
▁Champion	-14218
ungle	-14219
▁incl	-14220
▁Communist	-14221
▁accidental	-14222
▁maid	-14223
▁tonnes	-14224
▁secrets	-14225
▁Lot	-14226
▁flesh	-14227
▁proceeds	-14228
▁2-2	-14229
ollar	-14230
▁Less	-14231
▁quarant	-14232
▁brutally	-14233
▁countrys	-14234
▁57,	-14235
▁sect	-14236
▁farms	-14237
▁aspect	-14238
▁locate	-14239
▁booking	-14240
▁visitor	-14241
▁Et	-14242
backed	-14243
ieties	-14244
▁Titan	-14245
▁griev	-14246
▁Couple	-14247
▁poorly	-14248
▁sights	-14249
usterity	-14250
▁Kick	-14251
▁stark	-14252
▁throne	-14253
▁Oakland	-14254
▁breeding	-14255
▁Berlusconi	-14256
▁Zuckerberg	-14257
▁Jas	-14258
ooting	-14259
▁tremendous	-14260
eves	-14261
▁Ral	-14262
▁shook	-14263
▁surrog	-14264
▁defined	-14265
▁sustainable	-14266
▁butt	-14267
▁Patriots	-14268
esa	-14269
from	-14270
▁disclose	-14271
▁formerly	-14272
bone	-14273
▁Lohan	-14274
▁suite	-14275
▁shaken	-14276
▁diversity	-14277
▁Sue	-14278
▁bay	-14279
▁Users	-14280
▁invested	-14281
▁imprisoned	-14282
▁conservatives	-14283
▁Redd	-14284
olding	-14285
▁purse	-14286
▁Factor	-14287
ropriately	-14288
▁Wes	-14289
pherd	-14290
▁Rush	-14291
▁urine	-14292
▁wardro	-14293
21	-14294
ems	-14295
ocaust	-14296
▁Metro	-14297
▁Bulger	-14298
▁jealous	-14299
▁Gloucestershire	-14300
▁Bi	-14301
▁DVD	-14302
▁Lall	-14303
▁naval	-14304
▁Serbia	-14305
▁Vo	-14306
▁Ecc	-14307
hetor	-14308
▁Cricket	-14309
▁ashamed	-14310
▁Building	-14311
▁Mohammad	-14312
▁Ze	-14313
rock	-14314
▁26.	-14315
lease	-14316
▁helm	-14317
▁Gabriel	-14318
▁apartments	-14319
erse	-14320
▁Fellow	-14321
▁Hilton	-14322
▁biting	-14323
▁Tah	-14324
▁tan	-14325
thirds	-14326
elescope	-14327
▁$10,000	-14328
andy	-14329
▁Fut	-14330
▁Heb	-14331
▁Dems	-14332
▁Huss	-14333
▁Arnold	-14334
▁McCart	-14335
▁Centers	-14336
▁acquired	-14337
▁24.	-14338
ovich	-14339
▁plag	-14340
azines	-14341
▁bitten	-14342
▁Windsor	-14343
▁Alzheimer	-14344
▁conventional	-14345
▁Coventry	-14346
eries	-14347
▁sketch	-14348
▁captive	-14349
▁nominee	-14350
▁rockets	-14351
▁recruited	-14352
▁Convention	-14353
▁(7	-14354
▁Thorn	-14355
▁casino	-14356
▁anxious	-14357
▁worries	-14358
▁embarrassment	-14359
▁Wade	-14360
▁drank	-14361
▁Clarks	-14362
boyfriend	-14363
▁costumes	-14364
ieg	-14365
▁42-	-14366
▁Daley	-14367
▁successor	-14368
▁expressing	-14369
OU	-14370
▁71	-14371
eria	-14372
raham	-14373
urbed	-14374
▁hind	-14375
▁steam	-14376
▁Cheryl	-14377
▁Starbucks	-14378
▁load	-14379
▁Pietersen	-14380
▁prescribed	-14381
▁Dom	-14382
▁Hugo	-14383
respect	-14384
▁aiming	-14385
▁cattle	-14386
▁mainstream	-14387
▁technologies	-14388
sub	-14389
▁Tech	-14390
▁portrayed	-14391
▁councillor	-14392
▁''	-14393
▁Say	-14394
uffle	-14395
▁Boys	-14396
▁rice	-14397
▁eleg	-14398
ickers	-14399
▁depressed	-14400
▁concerning	-14401
su	-14402
esy	-14403
▁Mul	-14404
▁mun	-14405
orent	-14406
▁oral	-14407
▁Pacqu	-14408
▁diverse	-14409
▁backyard	-14410
▁110	-14411
▁Lynch	-14412
▁Towns	-14413
▁momentum	-14414
▁shortage	-14415
▁captivity	-14416
▁philosoph	-14417
conf	-14418
▁Hammers	-14419
▁Sandusky	-14420
eats	-14421
▁Tray	-14422
▁autism	-14423
▁Circuit	-14424
▁fortnight	-14425
▁1989	-14426
▁2016.	-14427
▁Tracy	-14428
▁Gilbert	-14429
▁weekends	-14430
▁Ot	-14431
▁Debor	-14432
▁raced	-14433
▁Robben	-14434
▁Primary	-14435
▁Families	-14436
arency	-14437
▁Customs	-14438
▁compiled	-14439
Qaeda	-14440
bourg	-14441
Shabaab	-14442
▁branches	-14443
organ	-14444
owler	-14445
▁Jade	-14446
▁gains	-14447
isk	-14448
▁grieving	-14449
▁instructed	-14450
rews	-14451
ration	-14452
▁consol	-14453
▁marking	-14454
▁controlling	-14455
▁7,000	-14456
▁mining	-14457
▁consciousness	-14458
airy	-14459
▁dorm	-14460
▁sheer	-14461
▁rhetor	-14462
▁subsid	-14463
▁collective	-14464
49	-14465
lamm	-14466
▁Occ	-14467
▁calf	-14468
▁beard	-14469
▁sweep	-14470
▁oppose	-14471
▁rampage	-14472
▁retal	-14473
▁permitted	-14474
card	-14475
▁Alt	-14476
▁Ces	-14477
▁engulf	-14478
▁Beyonce	-14479
▁accessible	-14480
▁Hertfordshire	-14481
▁Rigby	-14482
▁robust	-14483
▁driveway	-14484
▁et	-14485
▁Terror	-14486
▁jersey	-14487
▁signings	-14488
▁Elsewhere	-14489
▁fond	-14490
▁arson	-14491
▁famed	-14492
▁Steenk	-14493
forcement	-14494
▁Protesters	-14495
▁Wo	-14496
iona	-14497
▁Bren	-14498
▁Model	-14499
▁Muhammad	-14500
hey	-14501
oppy	-14502
arity	-14503
▁Help	-14504
▁Must	-14505
lookers	-14506
▁trends	-14507
▁Gardner	-14508
▁crowned	-14509
▁lighter	-14510
▁breached	-14511
▁roadside	-14512
▁dismissal	-14513
▁Olivia	-14514
vine	-14515
▁Currently	-14516
▁routinely	-14517
4,000	-14518
▁1930	-14519
▁Lily	-14520
▁bans	-14521
▁corre	-14522
▁cleaner	-14523
▁playground	-14524
▁exclusively	-14525
sa	-14526
▁Cut	-14527
▁junk	-14528
▁pier	-14529
▁acknowledge	-14530
never	-14531
▁screamed	-14532
▁organizers	-14533
▁hanged	-14534
▁Mauricio	-14535
▁examining	-14536
▁bush	-14537
inator	-14538
▁Burton	-14539
▁implications	-14540
ICE	-14541
mort	-14542
sign	-14543
▁Psych	-14544
▁Cahill	-14545
▁magazines	-14546
▁nationals	-14547
▁observers	-14548
TC	-14549
▁Hew	-14550
▁veto	-14551
▁Stars	-14552
undering	-14553
▁Reporter	-14554
▁crocodile	-14555
ollen	-14556
▁Finn	-14557
▁Chase	-14558
▁quietly	-14559
▁Ivanovic	-14560
dep	-14561
▁Pret	-14562
▁Kenny	-14563
▁occasionally	-14564
▁Ny	-14565
iosity	-14566
▁hamstring	-14567
▁58,	-14568
▁60-	-14569
▁Lah	-14570
inhua	-14571
▁Radamel	-14572
▁Mann	-14573
▁leap	-14574
ellect	-14575
▁Blind	-14576
▁vintage	-14577
▁securing	-14578
TM	-14579
expl	-14580
closed	-14581
▁hydro	-14582
▁repay	-14583
▁compatri	-14584
▁fortunate	-14585
▁favourites	-14586
▁CS	-14587
▁60,	-14588
astrophic	-14589
Fr	-14590
▁Lag	-14591
▁Sign	-14592
▁murderer	-14593
▁frustrating	-14594
▁correspondent	-14595
etti	-14596
tree	-14597
▁pap	-14598
▁AIDS	-14599
ussion	-14600
▁chairs	-14601
▁reminded	-14602
▁caut	-14603
▁notor	-14604
▁stair	-14605
▁Neighbours	-14606
▁3.5	-14607
▁Roth	-14608
andals	-14609
▁Kirst	-14610
▁chart	-14611
▁bicycle	-14612
▁boasted	-14613
▁withdrawal	-14614
▁THE	-14615
▁lon	-14616
chard	-14617
▁Reynolds	-14618
▁pressing	-14619
▁tide	-14620
ateral	-14621
▁nasty	-14622
▁patri	-14623
▁penis	-14624
▁Newton	-14625
▁perpetr	-14626
▁suburbs	-14627
▁Previous	-14628
▁homeland	-14629
▁6-1	-14630
ellar	-14631
▁halfway	-14632
▁capabilities	-14633
skirts	-14634
▁Idaho	-14635
▁creator	-14636
▁precaution	-14637
▁championships	-14638
▁Dyn	-14639
▁Shir	-14640
▁Lallana	-14641
▁hearings	-14642
try	-14643
aney	-14644
▁Ajax	-14645
▁Init	-14646
▁haun	-14647
▁genes	-14648
▁overc	-14649
▁rides	-14650
▁Deborah	-14651
▁Archbishop	-14652
▁27.	-14653
▁Lav	-14654
▁Earl	-14655
▁Employ	-14656
▁Reuters	-14657
▁37-	-14658
▁ber	-14659
▁sofa	-14660
▁Gross	-14661
▁orient	-14662
▁spinal	-14663
▁Chapman	-14664
▁interpre	-14665
▁contractors	-14666
▁Middlesbrough	-14667
▁360	-14668
▁Aer	-14669
▁hus	-14670
▁angle	-14671
▁firefighter	-14672
23	-14673
inj	-14674
isms	-14675
▁fancy	-14676
▁Tragedy	-14677
▁motivation	-14678
▁USS	-14679
▁Alison	-14680
▁destroying	-14681
▁deportation	-14682
oran	-14683
▁cute	-14684
keepers	-14685
▁Making	-14686
▁Xinhua	-14687
▁pavement	-14688
▁Northampton	-14689
Once	-14690
achi	-14691
▁Napoli	-14692
▁Rivers	-14693
frey	-14694
▁$2.	-14695
▁1991	-14696
▁weakness	-14697
▁AA	-14698
▁implemented	-14699
▁Bh	-14700
human	-14701
funded	-14702
▁Johns	-14703
▁fetch	-14704
▁exploring	-14705
▁Montgomery	-14706
▁Hack	-14707
▁Prom	-14708
▁spider	-14709
▁Hopkins	-14710
▁Delaware	-14711
▁Magazine	-14712
▁incorpor	-14713
▁pipeline	-14714
▁colourful	-14715
colm	-14716
▁sank	-14717
▁unle	-14718
▁dental	-14719
▁empire	-14720
▁temple	-14721
▁ordering	-14722
▁uniforms	-14723
EG	-14724
▁8-	-14725
▁Tat	-14726
▁Popular	-14727
▁benefic	-14728
▁audiences	-14729
▁barrister	-14730
▁Scots	-14731
▁Koeman	-14732
▁Shadow	-14733
▁regrets	-14734
▁launches	-14735
OL	-14736
ayor	-14737
▁womb	-14738
▁Pedro	-14739
▁tense	-14740
▁replica	-14741
▁Russians	-14742
pa	-14743
vez	-14744
▁AD	-14745
▁Natural	-14746
▁sticking	-14747
▁tweeting	-14748
▁healthier	-14749
anie	-14750
▁900	-14751
▁bowl	-14752
▁dishes	-14753
▁Fed	-14754
▁masks	-14755
Pro	-14756
space	-14757
▁Benz	-14758
▁Wendy	-14759
▁betray	-14760
▁gunned	-14761
acki	-14762
▁Tab	-14763
▁radi	-14764
▁sore	-14765
▁Medicine	-14766
▁Fraser	-14767
▁Pacquiao	-14768
▁bankruptcy	-14769
▁processing	-14770
▁mutual	-14771
BE	-14772
kar	-14773
voy	-14774
utor	-14775
▁resting	-14776
▁Discovery	-14777
hero	-14778
▁cher	-14779
▁tune	-14780
▁blunt	-14781
▁senators	-14782
▁tackling	-14783
▁equaliser	-14784
▁Phel	-14785
▁dash	-14786
▁lens	-14787
▁warr	-14788
▁Luther	-14789
▁financially	-14790
asia	-14791
▁Ruth	-14792
▁Romanian	-14793
▁Fernandez	-14794
acious	-14795
▁grace	-14796
▁earliest	-14797
lia	-14798
▁82	-14799
▁amp	-14800
neider	-14801
▁Being	-14802
▁Steenkamp	-14803
▁addressing	-14804
▁innovation	-14805
▁nickname	-14806
▁responses	-14807
OC	-14808
▁Airbus	-14809
▁Guinness	-14810
▁educated	-14811
▁companion	-14812
▁Cond	-14813
▁Clare	-14814
▁Janeiro	-14815
OM	-14816
gs	-14817
▁Bolt	-14818
▁Geneva	-14819
▁Player	-14820
▁remembers	-14821
▁Ambassador	-14822
▁executions	-14823
▁Pant	-14824
▁troop	-14825
▁contrad	-14826
GM	-14827
casts	-14828
▁sperm	-14829
▁outskirts	-14830
adequ	-14831
leigh	-14832
▁Luck	-14833
▁Remy	-14834
▁Third	-14835
▁cough	-14836
▁laying	-14837
▁Scholes	-14838
▁interpret	-14839
▁participation	-14840
haw	-14841
aters	-14842
omous	-14843
▁Conc	-14844
▁Bulgar	-14845
Although	-14846
eem	-14847
▁Tribune	-14848
▁fantasy	-14849
▁WHO	-14850
prising	-14851
▁plight	-14852
▁declare	-14853
▁underage	-14854
uka	-14855
▁flour	-14856
ificent	-14857
▁sparking	-14858
did	-14859
▁Globe	-14860
▁surre	-14861
Americans	-14862
▁Samaritans	-14863
▁Cara	-14864
▁Nair	-14865
▁Calder	-14866
▁Ibrahimovic	-14867
vit	-14868
▁cens	-14869
▁Clear	-14870
▁soared	-14871
▁monster	-14872
▁Economic	-14873
▁eurozone	-14874
▁Ander	-14875
▁landsl	-14876
▁Assange	-14877
▁enhance	-14878
▁pockets	-14879
▁yield	-14880
▁antibiotics	-14881
bot	-14882
▁Marks	-14883
▁denying	-14884
▁23.	-14885
▁Pippa	-14886
▁Attack	-14887
▁Says	-14888
▁Quinn	-14889
▁Malcolm	-14890
▁broader	-14891
▁Review	-14892
▁doubles	-14893
▁profound	-14894
▁disruption	-14895
cap	-14896
▁$50	-14897
▁GPs	-14898
▁Ler	-14899
▁Describ	-14900
▁attributed	-14901
oug	-14902
▁kicks	-14903
▁250,000	-14904
▁bonuses	-14905
▁processes	-14906
▁directions	-14907
EAL	-14908
▁frank	-14909
keeping	-14910
▁youths	-14911
▁barriers	-14912
▁ambitions	-14913
▁foreigners	-14914
▁publishing	-14915
▁fascinating	-14916
▁Om	-14917
▁Soon	-14918
▁refuses	-14919
▁innovative	-14920
▁IM	-14921
▁Belle	-14922
▁advisers	-14923
▁mainland	-14924
▁prosthetic	-14925
aley	-14926
▁4-1	-14927
▁59,	-14928
▁2000,	-14929
▁Marcos	-14930
▁Athletic	-14931
▁Oprah	-14932
▁Estate	-14933
▁Similar	-14934
▁Together	-14935
▁invented	-14936
▁PU	-14937
world	-14938
graded	-14939
▁castle	-14940
▁rumors	-14941
▁unborn	-14942
▁praying	-14943
▁88	-14944
▁Thr	-14945
Sem	-14946
▁mim	-14947
▁sexy	-14948
▁aides	-14949
▁imper	-14950
▁kills	-14951
▁organic	-14952
bull	-14953
▁Vald	-14954
▁mice	-14955
▁ribs	-14956
▁taun	-14957
▁Accused	-14958
▁slashed	-14959
▁confession	-14960
▁CPR	-14961
storey	-14962
▁lodged	-14963
▁depends	-14964
IR	-14965
▁dil	-14966
shots	-14967
▁bell	-14968
▁drown	-14969
feeding	-14970
▁Marcel	-14971
[...]
