<pad>	0
<unk>	0
<s>	0
</s>	0
▁t	-0
he	-1
▁a	-2
in	-3
er	-4
▁the	-5
▁s	-6
on	-7
re	-8
▁w	-9
en	-10
at	-11
▁c	-12
or	-13
▁b	-14
is	-15
an	-16
▁f	-17
▁o	-18
it	-19
ed	-20
ar	-21
▁h	-22
▁p	-23
es	-24
▁to	-25
▁in	-26
▁.	-27
nd	-28
ou	-29
ing	-30
as	-31
al	-32
▁d	-33
▁m	-34
▁of	-35
ic	-36
▁and	-37
▁,	-38
le	-39
om	-40
il	-41
▁th	-42
id	-43
ion	-44
▁T	-45
▁'	-46
▁n	-47
ent	-48
▁be	-49
ve	-50
▁re	-51
▁l	-52
▁he	-53
▁S	-54
st	-55
ot	-56
ay	-57
ut	-58
ly	-59
ol	-60
▁e	-61
▁g	-62
▁A	-63
▁on	-64
▁M	-65
ac	-66
ad	-67
am	-68
im	-69
▁C	-70
▁for	-71
ro	-72
ter	-73
▁I	-74
ur	-75
ig	-76
▁was	-77
el	-78
ir	-79
ver	-80
et	-81
▁st	-82
ow	-83
▁B	-84
▁The	-85
▁is	-86
se	-87
▁that	-88
▁u	-89
▁wh	-90
ith	-91
ce	-92
▁-	-93
▁H	-94
▁with	-95
ec	-96
ate	-97
▁at	-98
ill	-99
ri	-100
ld	-101
▁P	-102
▁as	-103
▁y	-104
▁it	-105
▁W	-106
▁an	-107
ra	-108
▁his	-109
ear	-110
ation	-111
ers	-112
ul	-113
her	-114
▁ha	-115
ch	-116
and	-117
▁con	-118
ge	-119
▁al	-120
▁D	-121
ke	-122
igh	-123
▁L	-124
th	-125
▁fr	-126
▁"	-127
ts	-128
▁R	-129
▁F	-130
▁1	-131
ore	-132
▁sa	-133
pp	-134
us	-135
est	-136
if	-137
▁2	-138
▁have	-139
▁de	-140
▁r	-141
▁N	-142
▁from	-143
▁has	-144
op	-145
our	-146
▁G	-147
un	-148
ain	-149
▁by	-150
▁v	-151
▁her	-152
res	-153
▁are	-154
od	-155
▁ch	-156
▁su	-157
ct	-158
▁said	-159
▁ex	-160
ment	-161
▁sh	-162
end	-163
▁J	-164
▁com	-165
os	-166
00	-167
ab	-168
ess	-169
▁E	-170
ard	-171
ould	-172
ew	-173
▁not	-174
ist	-175
▁af	-176
ive	-177
ight	-178
ort	-179
▁pro	-180
art	-181
▁we	-182
qu	-183
▁le	-184
em	-185
▁who	-186
oun	-187
▁se	-188
ice	-189
▁O	-190
ere	-191
ack	-192
ast	-193
▁had	-194
ity	-195
um	-196
all	-197
gh	-198
ust	-199
▁after	-200
▁whe	-201
oc	-202
▁sp	-203
▁j	-204
ag	-205
▁pl	-206
▁she	-207
ome	-208
▁year	-209
ant	-210
▁were	-211
▁been	-212
ud	-213
▁U	-214
ide	-215
rou	-216
ies	-217
ure	-218
▁ab	-219
ell	-220
▁they	-221
▁but	-222
▁their	-223
▁or	-224
▁un	-225
ok	-226
ak	-227
ich	-228
▁K	-229
out	-230
▁:	-231
ost	-232
▁out	-233
ect	-234
▁will	-235
▁off	-236
iv	-237
are	-238
ire	-239
▁this	-240
▁do	-241
ial	-242
ap	-243
▁wor	-244
▁k	-245
ine	-246
▁go	-247
day	-248
ie	-249
ff	-250
▁cl	-251
▁ad	-252
ous	-253
ry	-254
▁up	-255
ber	-256
ia	-257
one	-258
ime	-259
▁ac	-260
ace	-261
▁ag	-262
▁pr	-263
ict	-264
▁He	-265
au	-266
▁en	-267
▁int	-268
ally	-269
age	-270
ong	-271
ans	-272
mer	-273
▁which	-274
pl	-275
per	-276
▁St	-277
ub	-278
ue	-279
▁one	-280
▁Ch	-281
ord	-282
ish	-283
▁ne	-284
▁tw	-285
own	-286
▁when	-287
ose	-288
▁dis	-289
▁ar	-290
▁(	-291
▁man	-292
ile	-293
ence	-294
pt	-295
▁can	-296
ake	-297
ary	-298
▁him	-299
▁In	-300
▁im	-301
ike	-302
▁over	-303
▁pe	-304
ian	-305
ip	-306
ays	-307
og	-308
ite	-309
▁sc	-310
ree	-311
ass	-312
▁It	-313
▁Th	-314
▁more	-315
ail	-316
▁about	-317
▁all	-318
ise	-319
▁inc	-320
ame	-321
▁cont	-322
ild	-323
act	-324
ru	-325
▁would	-326
oll	-327
ions	-328
iz	-329
▁me	-330
ople	-331
old	-332
ond	-333
ident	-334
▁res	-335
ind	-336
ount	-337
av	-338
▁20	-339
ep	-340
▁you	-341
▁rep	-342
▁pol	-343
▁two	-344
ook	-345
ign	-346
▁so	-347
ound	-348
▁rec	-349
ress	-350
ne	-351
▁3	-352
▁people	-353
▁V	-354
other	-355
ick	-356
ren	-357
able	-358
▁att	-359
▁app	-360
ated	-361
ther	-362
▁comp	-363
ark	-364
▁per	-365
man	-366
▁than	-367
▁Mr	-368
▁into	-369
ase	-370
oy	-371
▁te	-372
▁like	-373
very	-374
▁acc	-375
ek	-376
▁time	-377
ib	-378
ach	-379
ance	-380
▁tr	-381
▁them	-382
▁pre	-383
▁bec	-384
▁ev	-385
aw	-386
ors	-387
▁Y	-388
ath	-389
▁could	-390
▁its	-391
▁years	-392
ood	-393
▁us	-394
rit	-395
fore	-396
ife	-397
so	-398
▁part	-399
▁ro	-400
ations	-401
nder	-402
ily	-403
ang	-404
▁work	-405
oin	-406
iss	-407
wn	-408
ft	-409
anc	-410
ens	-411
▁But	-412
amp	-413
ough	-414
▁no	-415
▁down	-416
▁201	-417
▁qu	-418
▁bl	-419
ward	-420
hed	-421
ause	-422
▁des	-423
▁new	-424
▁fl	-425
ob	-426
land	-427
▁before	-428
▁also	-429
▁my	-430
uc	-431
▁again	-432
▁mon	-433
ool	-434
urn	-435
▁She	-436
ious	-437
▁fam	-438
▁some	-439
▁being	-440
▁there	-441
▁4	-442
round	-443
ove	-444
ade	-445
▁week	-446
▁inv	-447
ater	-448
▁Un	-449
▁19	-450
▁home	-451
▁get	-452
▁fir	-453
der	-454
▁last	-455
▁tra	-456
ult	-457
▁child	-458
000	-459
ov	-460
ical	-461
▁any	-462
vel	-463
orm	-464
▁inter	-465
ink	-466
▁car	-467
▁am	-468
▁police	-469
▁just	-470
▁Al	-471
▁back	-472
▁sec	-473
ings	-474
ory	-475
▁play	-476
over	-477
▁what	-478
reat	-479
ock	-480
▁offic	-481
ons	-482
▁state	-483
uring	-484
▁kn	-485
▁New	-486
ition	-487
▁did	-488
,000	-489
▁5	-490
▁act	-491
▁An	-492
oot	-493
▁other	-494
ash	-495
▁ser	-496
▁dec	-497
ied	-498
und	-499
▁ph	-500
▁)	-501
▁three	-502
iver	-503
▁under	-504
ited	-505
▁told	-506
ince	-507
mit	-508
▁month	-509
▁We	-510
ters	-511
ning	-512
▁say	-513
enc	-514
▁where	-515
▁imp	-516
▁wom	-517
ather	-518
▁br	-519
lic	-520
ton	-521
als	-522
▁supp	-523
rough	-524
we	-525
▁exp	-526
lud	-527
▁because	-528
▁200	-529
illion	-530
ates	-531
▁char	-532
.'	-533
▁show	-534
▁cr	-535
▁if	-536
▁pres	-537
▁Le	-538
▁first	-539
▁sur	-540
rib	-541
▁bet	-542
ged	-543
▁family	-544
▁ra	-545
ourt	-546
▁cent	-547
ph	-548
▁ear	-549
▁fe	-550
▁count	-551
▁against	-552
fer	-553
▁report	-554
ful	-555
▁while	-556
ier	-557
▁ass	-558
son	-559
up	-560
lect	-561
▁how	-562
riend	-563
▁during	-564
▁Fr	-565
ouse	-566
ont	-567
air	-568
▁6	-569
▁rem	-570
ss	-571
ents	-572
▁cons	-573
ital	-574
atch	-575
ize	-576
elf	-577
▁look	-578
▁def	-579
▁now	-580
red	-581
▁bel	-582
oss	-583
▁ind	-584
ix	-585
▁min	-586
▁our	-587
ues	-588
▁found	-589
ting	-590
▁add	-591
▁Sc	-592
▁day	-593
▁And	-594
▁em	-595
ork	-596
ublic	-597
▁call	-598
te	-599
▁ter	-600
ty	-601
ble	-602
▁fin	-603
▁through	-604
▁world	-605
ities	-606
▁Mar	-607
▁ret	-608
irl	-609
hen	-610
ational	-611
pe	-612
ted	-613
chool	-614
▁includ	-615
alk	-616
▁take	-617
▁ins	-618
aim	-619
ved	-620
oh	-621
ank	-622
▁life	-623
sh	-624
▁lead	-625
▁Af	-626
▁Wh	-627
row	-628
cc	-629
▁team	-630
▁comm	-631
▁reg	-632
imes	-633
ug	-634
led	-635
iel	-636
ah	-637
▁Ar	-638
▁alle	-639
ured	-640
▁$	-641
outh	-642
,"	-643
ner	-644
ments	-645
les	-646
▁four	-647
ger	-648
▁every	-649
augh	-650
▁They	-651
▁children	-652
ual	-653
ute	-654
▁Brit	-655
oth	-656
way	-657
▁former	-658
▁disc	-659
▁hel	-660
▁inf	-661
▁tri	-662
▁end	-663
▁make	-664
ason	-665
▁says	-666
▁rel	-667
▁near	-668
bs	-669
ern	-670
att	-671
▁around	-672
▁En	-673
▁only	-674
ody	-675
ling	-676
▁law	-677
iew	-678
osp	-679
▁claim	-680
▁co	-681
ck	-682
▁since	-683
erson	-684
iate	-685
▁De	-686
▁hand	-687
ven	-688
▁gr	-689
hes	-690
roup	-691
▁stud	-692
▁then	-693
▁death	-694
az	-695
ures	-696
meric	-697
▁Sp	-698
▁vide	-699
aking	-700
▁left	-701
▁need	-702
vern	-703
ale	-704
▁pass	-705
ange	-706
▁most	-707
uch	-708
▁should	-709
▁mem	-710
▁head	-711
▁conc	-712
▁7	-713
▁sm	-714
▁way	-715
ating	-716
▁Sh	-717
▁invest	-718
ene	-719
▁attack	-720
ving	-721
ric	-722
med	-723
uth	-724
▁see	-725
▁cap	-726
▁Americ	-727
▁may	-728
orn	-729
ull	-730
▁mother	-731
ney	-732
year	-733
▁help	-734
ave	-735
tain	-736
▁many	-737
▁kill	-738
▁Pol	-739
▁med	-740
▁pict	-741
▁well	-742
▁own	-743
get	-744
▁govern	-745
▁want	-746
▁friend	-747
▁school	-748
ollow	-749
▁win	-750
ists	-751
aren	-752
any	-753
▁bu	-754
▁gu	-755
▁court	-756
▁bre	-757
▁set	-758
ister	-759
▁made	-760
▁Re	-761
▁This	-762
▁bo	-763
▁ke	-764
▁sl	-765
▁mil	-766
,'	-767
ames	-768
▁United	-769
▁dep	-770
ott	-771
▁10	-772
▁resp	-773
▁ent	-774
ween	-775
▁conf	-776
▁video	-777
▁night	-778
ster	-779
▁plan	-780
▁those	-781
hel	-782
▁sign	-783
▁war	-784
▁group	-785
▁Se	-786
▁che	-787
alth	-788
eth	-789
du	-790
ives	-791
ral	-792
ury	-793
."	-794
uss	-795
orts	-796
▁start	-797
▁right	-798
ley	-799
min	-800
▁still	-801
▁between	-802
io	-803
▁even	-804
ady	-805
ative	-806
ounce	-807
ret	-808
▁country	-809
gan	-810
urs	-811
▁num	-812
ross	-813
ours	-814
▁long	-815
ness	-816
▁Br	-817
▁Eng	-818
ospital	-819
ms	-820
▁sub	-821
▁Cl	-822
▁ext	-823
▁order	-824
▁dri	-825
▁official	-826
▁belie	-827
orth	-828
ote	-829
tic	-830
▁At	-831
tern	-832
ina	-833
rug	-834
▁follow	-835
▁think	-836
ision	-837
▁run	-838
▁public	-839
▁post	-840
ax	-841
▁vict	-842
xt	-843
▁girl	-844
ama	-845
▁op	-846
irect	-847
▁such	-848
▁care	-849
The	-850
ced	-851
▁five	-852
▁exper	-853
side	-854
▁know	-855
ased	-856
olog	-857
▁contr	-858
rest	-859
▁Is	-860
▁loc	-861
ison	-862
▁place	-863
ower	-864
uthor	-865
ular	-866
▁Chr	-867
▁investig	-868
ording	-869
▁8	-870
oney	-871
br	-872
▁old	-873
▁col	-874
▁very	-875
rem	-876
ulate	-877
▁Mon	-878
▁government	-879
▁air	-880
▁women	-881
wards	-882
▁good	-883
▁days	-884
▁phot	-885
▁As	-886
ently	-887
▁your	-888
ants	-889
▁person	-890
▁Police	-891
▁sy	-892
ple	-893
▁eff	-894
gr	-895
▁som	-896
▁another	-897
▁prot	-898
▁Lond	-899
▁leg	-900
▁mar	-901
▁months	-902
ves	-903
▁beh	-904
▁inj	-905
▁real	-906
ared	-907
ague	-908
ins	-909
▁today	-910
▁high	-911
▁though	-912
ham	-913
▁Pr	-914
▁9	-915
▁London	-916
▁Q	-917
ages	-918
▁hit	-919
ivers	-920
▁Mc	-921
iday	-922
▁vis	-923
NN	-924
▁far	-925
ets	-926
ech	-927
▁Z	-928
ible	-929
▁bus	-930
used	-931
bers	-932
ges	-933
▁foot	-934
ann	-935
▁tell	-936
▁million	-937
▁str	-938
▁men	-939
hip	-940
ield	-941
ient	-942
ex	-943
ected	-944
vice	-945
line	-946
▁too	-947
▁direct	-948
atur	-949
ines	-950
aff	-951
▁CNN	-952
▁happ	-953
▁case	-954
ics	-955
▁dif	-956
▁sk	-957
▁fore	-958
uro	-959
▁inst	-960
iam	-961
▁ve	-962
▁poin	-963
▁early	-964
▁top	-965
quire	-966
vers	-967
ll	-968
▁rest	-969
nes	-970
▁trans	-971
▁Bar	-972
alf	-973
▁sent	-974
▁six	-975
by	-976
▁ref	-977
▁dist	-978
self	-979
▁find	-980
ices	-981
▁York	-982
ised	-983
▁fire	-984
▁Joh	-985
ener	-986
▁unt	-987
▁woman	-988
oung	-989
▁fil	-990
▁house	-991
▁both	-992
app	-993
ights	-994
▁second	-995
▁much	-996
▁ask	-997
▁read	-998
▁game	-999
▁dem	-1000
▁Car	-1001
its	-1002
ually	-1003
▁camp	-1004
▁cou	-1005
ider	-1006
▁Ob	-1007
ides	-1008
▁cle	-1009
okes	-1010
▁admit	-1011
use	-1012
▁equ	-1013
aj	-1014
▁Aust	-1015
▁John	-1016
▁father	-1017
uck	-1018
▁does	-1019
▁ca	-1020
▁det	-1021
ction	-1022
▁South	-1023
ility	-1024
ution	-1025
▁these	-1026
usp	-1027
▁Dav	-1028
▁rele	-1029
▁Wor	-1030
▁boy	-1031
▁sex	-1032
▁number	-1033
▁wife	-1034
▁Com	-1035
pr	-1036
ened	-1037
rown	-1038
ency	-1039
enn	-1040
aughter	-1041
ik	-1042
▁Tw	-1043
ony	-1044
▁arrest	-1045
▁star	-1046
▁season	-1047
▁dr	-1048
crib	-1049
▁spe	-1050
▁come	-1051
iet	-1052
ys	-1053
▁For	-1054
▁wr	-1055
unc	-1056
▁There	-1057
▁prev	-1058
▁support	-1059
▁spec	-1060
▁club	-1061
▁tak	-1062
▁Bl	-1063
▁hospital	-1064
▁aff	-1065
▁cond	-1066
ience	-1067
▁World	-1068
▁pop	-1069
▁news	-1070
▁On	-1071
▁gl	-1072
ball	-1073
▁12	-1074
▁away	-1075
ane	-1076
rew	-1077
▁ob	-1078
▁going	-1079
▁cur	-1080
▁put	-1081
most	-1082
ump	-1083
▁iss	-1084
tle	-1085
▁England	-1086
ense	-1087
▁author	-1088
▁15	-1089
idence	-1090
▁son	-1091
ands	-1092
▁miss	-1093
▁spokes	-1094
▁adv	-1095
port	-1096
▁turn	-1097
▁sw	-1098
ific	-1099
▁Sund	-1100
▁next	-1101
▁really	-1102
▁Christ	-1103
▁pat	-1104
to	-1105
▁expl	-1106
▁hop	-1107
▁train	-1108
▁used	-1109
▁susp	-1110
▁contin	-1111
▁sever	-1112
mber	-1113
▁Euro	-1114
▁prov	-1115
▁body	-1116
▁del	-1117
▁Obama	-1118
▁stri	-1119
▁use	-1120
▁enj	-1121
▁young	-1122
▁cor	-1123
▁move	-1124
ones	-1125
ager	-1126
▁deal	-1127
▁Be	-1128
sec	-1129
▁Ro	-1130
▁side	-1131
▁money	-1132
▁victim	-1133
▁Sunday	-1134
cl	-1135
▁Sy	-1136
ject	-1137
ces	-1138
▁rece	-1139
▁?	-1140
▁mod	-1141
amer	-1142
▁appear	-1143
artment	-1144
▁City	-1145
rop	-1146
▁fac	-1147
▁try	-1148
▁face	-1149
▁One	-1150
▁never	-1151
▁Austral	-1152
roll	-1153
▁ann	-1154
▁Monday	-1155
com	-1156
▁lot	-1157
oke	-1158
▁record	-1159
▁reported	-1160
▁including	-1161
▁suff	-1162
iness	-1163
▁mur	-1164
▁par	-1165
rain	-1166
▁milit	-1167
▁later	-1168
▁president	-1169
▁British	-1170
pped	-1171
▁health	-1172
▁West	-1173
urity	-1174
▁took	-1175
ploy	-1176
▁company	-1177
▁hours	-1178
▁paren	-1179
▁return	-1180
els	-1181
▁aver	-1182
cess	-1183
uesday	-1184
▁called	-1185
▁oper	-1186
▁Tuesday	-1187
▁est	-1188
▁until	-1189
ele	-1190
▁Pres	-1191
▁according	-1192
riv	-1193
▁elect	-1194
lish	-1195
ify	-1196
ird	-1197
cer	-1198
iving	-1199
ially	-1200
ered	-1201
▁When	-1202
▁18	-1203
▁give	-1204
▁without	-1205
▁Ger	-1206
ats	-1207
ever	-1208
view	-1209
iversity	-1210
con	-1211
▁hold	-1212
▁Friday	-1213
thing	-1214
imate	-1215
▁daughter	-1216
▁sim	-1217
ush	-1218
▁pay	-1219
▁League	-1220
▁Har	-1221
▁hum	-1222
▁UK	-1223
▁ago	-1224
▁opp	-1225
▁few	-1226
▁perf	-1227
▁proble	-1228
▁times	-1229
▁statement	-1230
▁Wed	-1231
esc	-1232
gest	-1233
▁don	-1234
ention	-1235
ror	-1236
aturday	-1237
▁prom	-1238
▁mark	-1239
udge	-1240
ism	-1241
▁incident	-1242
▁allow	-1243
▁half	-1244
iol	-1245
▁build	-1246
▁city	-1247
▁Cup	-1248
▁drug	-1249
cept	-1250
▁sit	-1251
▁soc	-1252
▁Saturday	-1253
▁mid	-1254
osed	-1255
▁water	-1256
▁Min	-1257
anche	-1258
▁May	-1259
▁front	-1260
▁Miss	-1261
▁remain	-1262
▁murder	-1263
▁added	-1264
▁job	-1265
▁President	-1266
arm	-1267
▁commun	-1268
ogra	-1269
▁let	-1270
nesday	-1271
▁30	-1272
▁11	-1273
utes	-1274
▁Wednesday	-1275
▁His	-1276
stem	-1277
▁prof	-1278
▁sn	-1279
▁along	-1280
atic	-1281
rent	-1282
▁Ph	-1283
▁lit	-1284
▁each	-1285
pite	-1286
▁area	-1287
▁Pe	-1288
▁across	-1289
▁name	-1290
aign	-1291
▁poss	-1292
▁Ad	-1293
▁big	-1294
▁Europe	-1295
band	-1296
▁coun	-1297
▁officials	-1298
▁walk	-1299
▁couple	-1300
▁outside	-1301
▁David	-1302
ready	-1303
ait	-1304
▁Her	-1305
atter	-1306
eal	-1307
▁polit	-1308
▁mov	-1309
▁break	-1310
▁invol	-1311
▁seen	-1312
ief	-1313
▁If	-1314
ior	-1315
inal	-1316
▁consider	-1317
▁bro	-1318
▁alleged	-1319
raw	-1320
ried	-1321
ething	-1322
▁Ind	-1323
ably	-1324
▁hard	-1325
▁American	-1326
▁Ms	-1327
ned	-1328
ursday	-1329
▁taken	-1330
duc	-1331
▁Thursday	-1332
▁shot	-1333
ember	-1334
▁differ	-1335
▁late	-1336
une	-1337
▁already	-1338
We	-1339
▁pos	-1340
gin	-1341
▁Col	-1342
▁That	-1343
▁got	-1344
▁Fl	-1345
▁You	-1346
▁parents	-1347
gy	-1348
▁Co	-1349
▁system	-1350
▁friends	-1351
▁hear	-1352
▁weeks	-1353
▁Russ	-1354
▁test	-1355
▁went	-1356
▁meet	-1357
▁Will	-1358
amed	-1359
▁prison	-1360
▁something	-1361
▁open	-1362
▁Su	-1363
▁sum	-1364
▁members	-1365
▁inform	-1366
▁cover	-1367
▁intern	-1368
▁mor	-1369
▁local	-1370
▁campaign	-1371
▁2012	-1372
▁Am	-1373
▁same	-1374
▁yet	-1375
▁Rep	-1376
▁bar	-1377
velop	-1378
▁bab	-1379
▁quest	-1380
ten	-1381
▁died	-1382
▁hus	-1383
▁stand	-1384
▁North	-1385
oon	-1386
▁came	-1387
istr	-1388
▁conv	-1389
▁Pro	-1390
▁After	-1391
▁Ge	-1392
enal	-1393
▁Scroll	-1394
ived	-1395
▁Court	-1396
ester	-1397
▁cost	-1398
▁artic	-1399
ways	-1400
book	-1401
▁business	-1402
▁Ab	-1403
ald	-1404
▁behind	-1405
reet	-1406
▁ut	-1407
ales	-1408
▁199	-1409
▁press	-1410
aid	-1411
▁treat	-1412
ajor	-1413
▁viol	-1414
▁gun	-1415
▁How	-1416
ither	-1417
▁ris	-1418
▁less	-1419
anchester	-1420
▁evidence	-1421
reen	-1422
▁fail	-1423
▁keep	-1424
▁power	-1425
▁best	-1426
ards	-1427
▁lar	-1428
▁All	-1429
▁Manchester	-1430
▁feel	-1431
▁Mich	-1432
▁view	-1433
ature	-1434
ael	-1435
▁comple	-1436
▁design	-1437
ai	-1438
▁16	-1439
▁husband	-1440
▁saf	-1441
que	-1442
ection	-1443
▁shoot	-1444
▁Mrs	-1445
▁pot	-1446
▁players	-1447
▁dead	-1448
▁reve	-1449
▁spokesman	-1450
▁past	-1451
▁officers	-1452
▁fact	-1453
▁25	-1454
▁occ	-1455
▁net	-1456
BC	-1457
▁mom	-1458
▁talk	-1459
▁er	-1460
▁bes	-1461
▁describ	-1462
▁least	-1463
aul	-1464
ries	-1465
eng	-1466
▁rese	-1467
ession	-1468
▁travel	-1469
It	-1470
ians	-1471
▁ap	-1472
▁cust	-1473
▁av	-1474
▁visit	-1475
▁killed	-1476
▁dog	-1477
less	-1478
▁whether	-1479
▁proper	-1480
▁room	-1481
ler	-1482
▁fight	-1483
wise	-1484
▁ed	-1485
▁Jan	-1486
▁security	-1487
earch	-1488
▁event	-1489
ically	-1490
be	-1491
▁military	-1492
▁mess	-1493
str	-1494
▁incre	-1495
oor	-1496
▁seem	-1497
▁met	-1498
▁following	-1499
ects	-1500
▁cre	-1501
▁might	-1502
ators	-1503
▁init	-1504
my	-1505
ided	-1506
ev	-1507
▁able	-1508
ending	-1509
▁require	-1510
▁Face	-1511
▁point	-1512
ective	-1513
▁media	-1514
▁final	-1515
▁Sec	-1516
go	-1517
▁Gr	-1518
▁form	-1519
▁Tr	-1520
▁clear	-1521
▁Dr	-1522
▁Ser	-1523
head	-1524
▁Afric	-1525
▁gener	-1526
▁develop	-1527
▁eng	-1528
▁several	-1529
ium	-1530
▁Off	-1531
dle	-1532
stand	-1533
▁match	-1534
itter	-1535
ington	-1536
▁food	-1537
▁employ	-1538
▁University	-1539
▁Facebook	-1540
ert	-1541
af	-1542
▁ground	-1543
▁hist	-1544
gram	-1545
million	-1546
▁minutes	-1547
ished	-1548
▁14	-1549
▁investigation	-1550
ault	-1551
▁staff	-1552
ator	-1553
▁level	-1554
istan	-1555
▁cele	-1556
▁crit	-1557
iven	-1558
▁el	-1559
▁goal	-1560
▁must	-1561
ases	-1562
urch	-1563
▁live	-1564
▁party	-1565
▁pictured	-1566
▁himself	-1567
oe	-1568
▁major	-1569
▁book	-1570
▁Dep	-1571
cher	-1572
▁enjoin	-1573
aster	-1574
▁tax	-1575
▁reveal	-1576
▁list	-1577
▁hom	-1578
▁deb	-1579
ceed	-1580
▁No	-1581
▁close	-1582
ended	-1583
▁morning	-1584
▁nt	-1585
ued	-1586
▁Cal	-1587
sea	-1588
▁love	-1589
▁discover	-1590
▁13	-1591
▁believe	-1592
▁authorities	-1593
isc	-1594
▁2011	-1595
▁bed	-1596
▁previous	-1597
▁ple	-1598
empt	-1599
▁succ	-1600
▁Ju	-1601
▁resear	-1602
▁Man	-1603
▁House	-1604
▁pain	-1605
ille	-1606
ering	-1607
▁Britain	-1608
▁decision	-1609
▁fun	-1610
▁gra	-1611
▁current	-1612
lier	-1613
▁threat	-1614
▁among	-1615
▁free	-1616
▁thought	-1617
▁phone	-1618
▁include	-1619
conom	-1620
ized	-1621
duct	-1622
▁appro	-1623
ogn	-1624
▁concern	-1625
ti	-1626
▁tot	-1627
▁const	-1628
▁17	-1629
▁heart	-1630
▁Ed	-1631
omb	-1632
▁charges	-1633
▁suppose	-1634
▁dev	-1635
▁become	-1636
ford	-1637
▁pron	-1638
room	-1639
▁things	-1640
ops	-1641
ole	-1642
ox	-1643
▁short	-1644
ampions	-1645
▁allege	-1646
▁film	-1647
▁hon	-1648
▁pract	-1649
▁experience	-1650
▁imm	-1651
▁di	-1652
▁eight	-1653
▁Count	-1654
ances	-1655
▁fall	-1656
▁information	-1657
itness	-1658
▁football	-1659
▁great	-1660
par	-1661
▁seven	-1662
▁German	-1663
▁land	-1664
▁claims	-1665
▁organ	-1666
nt	-1667
▁likewise	-1668
▁50	-1669
ential	-1670
▁aw	-1671
ified	-1672
▁program	-1673
uary	-1674
▁success	-1675
acy	-1676
▁tech	-1677
▁sold	-1678
▁Par	-1679
▁doct	-1680
▁result	-1681
▁Cent	-1682
▁ri	-1683
▁join	-1684
▁site	-1685
▁present	-1686
work	-1687
▁service	-1688
▁commit	-1689
erve	-1690
▁Gu	-1691
place	-1692
idge	-1693
▁always	-1694
▁Geor	-1695
▁sing	-1696
▁ey	-1697
eb	-1698
▁lo	-1699
▁100	-1700
▁compl	-1701
▁having	-1702
▁control	-1703
▁equally	-1704
▁super	-1705
ology	-1706
▁fund	-1707
▁States	-1708
▁War	-1709
cil	-1710
▁US	-1711
▁Michael	-1712
▁Con	-1713
unciate	-1714
inc	-1715
miss	-1716
▁anim	-1717
▁dam	-1718
▁leave	-1719
▁besides	-1720
▁saying	-1721
▁emer	-1722
ighb	-1723
▁El	-1724
▁fut	-1725
ung	-1726
▁cut	-1727
▁exec	-1728
▁low	-1729
sp	-1730
irth	-1731
▁others	-1732
ruct	-1733
▁fig	-1734
pool	-1735
▁econom	-1736
▁hot	-1737
ising	-1738
▁risk	-1739
▁baby	-1740
▁William	-1741
ences	-1742
urg	-1743
▁arri	-1744
▁Park	-1745
▁watch	-1746
here	-1747
▁full	-1748
secut	-1749
▁here	-1750
esterday	-1751
ched	-1752
▁sug	-1753
ape	-1754
▁National	-1755
▁road	-1756
▁pronounce	-1757
▁Sw	-1758
▁manager	-1759
▁kid	-1760
ze	-1761
▁exc	-1762
▁why	-1763
▁celebr	-1764
▁cer	-1765
mp	-1766
▁little	-1767
▁brother	-1768
▁articulate	-1769
ream	-1770
▁known	-1771
fic	-1772
▁line	-1773
▁study	-1774
▁asked	-1775
▁tre	-1776
▁trial	-1777
aly	-1778
▁lear	-1779
▁age	-1780
gress	-1781
▁stay	-1782
eral	-1783
akes	-1784
▁class	-1785
▁jail	-1786
▁webs	-1787
▁rul	-1788
▁future	-1789
ograph	-1790
▁main	-1791
▁enunciate	-1792
ests	-1793
▁cour	-1794
▁Ir	-1795
▁sol	-1796
▁relations	-1797
unch	-1798
ask	-1799
▁fans	-1800
▁grow	-1801
▁wind	-1802
▁mot	-1803
▁enounce	-1804
▁terror	-1805
▁charge	-1806
▁ident	-1807
▁host	-1808
ender	-1809
ocr	-1810
▁interview	-1811
▁given	-1812
▁officer	-1813
▁Ham	-1814
▁ball	-1815
▁process	-1816
▁change	-1817
▁check	-1818
unt	-1819
friend	-1820
ef	-1821
▁squ	-1822
▁Chel	-1823
ona	-1824
▁January	-1825
▁enc	-1826
▁picture	-1827
▁la	-1828
ana	-1829
▁art	-1830
ds	-1831
ourn	-1832
▁24	-1833
▁nec	-1834
▁human	-1835
▁2010	-1836
int	-1837
▁office	-1838
▁Pal	-1839
▁bring	-1840
▁light	-1841
though	-1842
▁account	-1843
▁import	-1844
▁scene	-1845
▁stop	-1846
▁China	-1847
▁sure	-1848
orney	-1849
▁partic	-1850
▁search	-1851
▁County	-1852
lam	-1853
▁den	-1854
ored	-1855
▁birth	-1856
▁State	-1857
▁Char	-1858
▁judge	-1859
den	-1860
of	-1861
ption	-1862
hic	-1863
▁40	-1864
cent	-1865
irt	-1866
aper	-1867
ray	-1868
let	-1869
▁different	-1870
irc	-1871
▁techn	-1872
▁polic	-1873
▁Ang	-1874
lin	-1875
▁compet	-1876
▁Twitter	-1877
▁ide	-1878
▁2013	-1879
▁Liver	-1880
right	-1881
▁Syri	-1882
▁grand	-1883
▁deter	-1884
▁dou	-1885
▁action	-1886
agn	-1887
shire	-1888
▁small	-1889
▁Sm	-1890
ming	-1891
itch	-1892
sel	-1893
itions	-1894
▁inside	-1895
uty	-1896
▁despite	-1897
▁ill	-1898
ients	-1899
▁Sept	-1900
▁arrested	-1901
▁teen	-1902
▁attempt	-1903
▁Liverpool	-1904
▁town	-1905
gu	-1906
▁Or	-1907
erv	-1908
▁allegedly	-1909
ired	-1910
▁won	-1911
▁fur	-1912
▁ver	-1913
▁neighb	-1914
ipp	-1915
▁non	-1916
▁heard	-1917
icate	-1918
▁Australia	-1919
▁working	-1920
▁shows	-1921
raz	-1922
▁taking	-1923
▁fell	-1924
▁TV	-1925
▁using	-1926
attle	-1927
▁third	-1928
▁player	-1929
lex	-1930
▁Republic	-1931
bert	-1932
ained	-1933
ocu	-1934
▁Paul	-1935
▁thing	-1936
▁coll	-1937
inate	-1938
▁round	-1939
▁within	-1940
▁earlier	-1941
▁blood	-1942
▁Dem	-1943
igr	-1944
▁started	-1945
▁eas	-1946
aur	-1947
ee	-1948
▁expect	-1949
▁Department	-1950
▁vehic	-1951
▁released	-1952
▁begin	-1953
▁tar	-1954
anger	-1955
▁due	-1956
▁convict	-1957
uff	-1958
▁September	-1959
▁spot	-1960
▁sour	-1961
▁prop	-1962
▁Prem	-1963
▁Ne	-1964
▁issue	-1965
▁Chelsea	-1966
ety	-1967
▁community	-1968
▁News	-1969
▁James	-1970
▁Mad	-1971
▁Mart	-1972
▁activ	-1973
▁Ira	-1974
▁chance	-1975
▁ty	-1976
▁lost	-1977
▁ever	-1978
antly	-1979
▁training	-1980
duce	-1981
aced	-1982
▁website	-1983
▁mus	-1984
'.	-1985
▁strik	-1986
iforn	-1987
▁carry	-1988
▁21	-1989
▁yesterday	-1990
wh	-1991
▁Intern	-1992
▁Gl	-1993
▁making	-1994
▁almost	-1995
itate	-1996
▁Mor	-1997
▁chang	-1998
▁My	-1999
▁Californ	-2000
▁Jack	-2001
▁park	-2002
▁black	-2003
ars	-2004
▁interest	-2005
▁wear	-2006
▁camer	-2007
▁pub	-2008
▁lives	-2009
▁bank	-2010
hing	-2011
acher	-2012
ails	-2013
▁Air	-2014
▁priv	-2015
reg	-2016
▁red	-2017
gency	-2018
▁obs	-2019
▁Ste	-2020
▁political	-2021
.5	-2022
▁role	-2023
▁Ex	-2024
▁June	-2025
▁Aug	-2026
iation	-2027
▁someone	-2028
▁wanted	-2029
▁comment	-2030
iff	-2031
▁bene	-2032
▁Me	-2033
▁summer	-2034
▁Pl	-2035
ches	-2036
▁hope	-2037
cember	-2038
▁saw	-2039
▁store	-2040
aged	-2041
yle	-2042
▁condition	-2043
▁California	-2044
ressed	-2045
reed	-2046
ease	-2047
▁December	-2048
▁students	-2049
ding	-2050
uries	-2051
vert	-2052
▁question	-2053
▁kind	-2054
raft	-2055
▁Oct	-2056
ories	-2057
▁reports	-2058
▁Sam	-2059
▁22	-2060
▁assault	-2061
▁Premier	-2062
▁victims	-2063
▁produc	-2064
orters	-2065
▁mean	-2066
▁cause	-2067
▁docu	-2068
mediate	-2069
uit	-2070
▁exact	-2071
ule	-2072
▁Mil	-2073
▁surv	-2074
▁Roy	-2075
▁contrib	-2076
▁August	-2077
erry	-2078
▁series	-2079
▁Nove	-2080
▁better	-2081
uge	-2082
▁assist	-2083
▁trust	-2084
▁relationship	-2085
rap	-2086
ilar	-2087
▁White	-2088
me	-2089
▁mis	-2090
▁target	-2091
iber	-2092
▁history	-2093
▁moment	-2094
ills	-2095
▁wait	-2096
▁custom	-2097
ober	-2098
▁story	-2099
elt	-2100
ino	-2101
ift	-2102
▁tour	-2103
▁treatment	-2104
time	-2105
▁quick	-2106
sw	-2107
vey	-2108
opp	-2109
▁miles	-2110
▁orig	-2111
▁potential	-2112
▁November	-2113
▁large	-2114
pril	-2115
▁Wash	-2116
0,000	-2117
▁America	-2118
▁chall	-2119
oo	-2120
▁continue	-2121
▁198	-2122
▁cancer	-2123
ively	-2124
ivid	-2125
▁Iraq	-2126
▁Just	-2127
▁Can	-2128
▁leaders	-2129
▁trying	-2130
▁tit	-2131
▁director	-2132
▁April	-2133
▁pair	-2134
▁March	-2135
ortun	-2136
▁With	-2137
▁While	-2138
▁Ars	-2139
▁i	-2140
▁Minister	-2141
▁July	-2142
cast	-2143
▁draw	-2144
▁Des	-2145
▁leader	-2146
▁self	-2147
sy	-2148
bed	-2149
▁claimed	-2150
▁fav	-2151
for	-2152
▁capt	-2153
▁October	-2154
retary	-2155
▁online	-2156
▁Some	-2157
▁problem	-2158
▁rights	-2159
▁Cr	-2160
▁total	-2161
▁Washington	-2162
uation	-2163
▁serious	-2164
▁project	-2165
rag	-2166
▁Em	-2167
▁likely	-2168
▁Kore	-2169
▁anything	-2170
▁games	-2171
▁What	-2172
ousands	-2173
▁revealed	-2174
▁building	-2175
reme	-2176
▁famil	-2177
ata	-2178
▁hol	-2179
ying	-2180
order	-2181
▁immediate	-2182
▁European	-2183
vices	-2184
▁step	-2185
▁unc	-2186
▁Ass	-2187
uel	-2188
▁Sen	-2189
▁;	-2190
cel	-2191
unk	-2192
read	-2193
ality	-2194
▁image	-2195
ults	-2196
ract	-2197
▁looking	-2198
▁cho	-2199
▁course	-2200
▁Go	-2201
▁stra	-2202
▁lim	-2203
▁trip	-2204
ply	-2205
field	-2206
selves	-2207
▁held	-2208
oman	-2209
▁resident	-2210
eat	-2211
▁collect	-2212
mas	-2213
▁once	-2214
▁termin	-2215
ination	-2216
▁hor	-2217
▁contract	-2218
ional	-2219
▁hands	-2220
hern	-2221
avy	-2222
▁bit	-2223
▁nothing	-2224
▁App	-2225
▁drink	-2226
▁release	-2227
▁2009	-2228
ots	-2229
Th	-2230
▁accident	-2231
▁circ	-2232
▁property	-2233
ference	-2234
▁force	-2235
▁flight	-2236
▁Res	-2237
▁station	-2238
▁nation	-2239
ida	-2240
ades	-2241
▁nearly	-2242
▁whose	-2243
▁23	-2244
▁countries	-2245
oved	-2246
gether	-2247
▁together	-2248
▁Bro	-2249
▁subst	-2250
▁demand	-2251
▁However	-2252
▁special	-2253
▁disp	-2254
▁Angel	-2255
ring	-2256
▁bad	-2257
rid	-2258
▁Phil	-2259
▁began	-2260
▁recent	-2261
iers	-2262
▁chief	-2263
▁wrote	-2264
mon	-2265
etime	-2266
lo	-2267
▁rear	-2268
▁problems	-2269
▁career	-2270
▁girls	-2271
▁often	-2272
▁Mark	-2273
▁nine	-2274
ume	-2275
fully	-2276
ournal	-2277
eared	-2278
▁accused	-2279
▁member	-2280
▁colle	-2281
resent	-2282
▁lawy	-2283
▁confir	-2284
atory	-2285
▁market	-2286
▁vol	-2287
▁val	-2288
▁witness	-2289
▁Sch	-2290
ston	-2291
▁0	-2292
▁cal	-2293
▁tele	-2294
▁driver	-2295
▁strong	-2296
sey	-2297
ghan	-2298
▁Acc	-2299
▁race	-2300
aces	-2301
▁entire	-2302
ivil	-2303
▁complete	-2304
▁execut	-2305
▁!	-2306
▁dest	-2307
▁Champions	-2308
▁estab	-2309
▁tem	-2310
▁injuries	-2311
▁weekend	-2312
▁crash	-2313
▁writ	-2314
▁social	-2315
ery	-2316
▁insp	-2317
▁East	-2318
▁Rich	-2319
▁var	-2320
▁expected	-2321
ament	-2322
▁France	-2323
ening	-2324
▁neg	-2325
▁reach	-2326
ensive	-2327
▁esc	-2328
▁Pat	-2329
▁fear	-2330
sc	-2331
▁tro	-2332
▁Dan	-2333
▁Christmas	-2334
▁Lab	-2335
▁plans	-2336
yn	-2337
▁plane	-2338
▁trad	-2339
▁Alex	-2340
▁charged	-2341
▁contact	-2342
▁conn	-2343
inger	-2344
ulation	-2345
ruck	-2346
kn	-2347
▁became	-2348
▁Ear	-2349
▁Que	-2350
▁link	-2351
rael	-2352
▁Islam	-2353
ope	-2354
▁lab	-2355
wood	-2356
ij	-2357
▁Med	-2358
while	-2359
▁research	-2360
▁centre	-2361
▁abuse	-2362
▁board	-2363
rench	-2364
▁ahead	-2365
▁Two	-2366
▁suggest	-2367
▁Mid	-2368
undred	-2369
▁challen	-2370
like	-2371
▁Mail	-2372
quest	-2373
▁position	-2374
aily	-2375
▁comments	-2376
aving	-2377
▁bear	-2378
▁safety	-2379
▁Lu	-2380
ead	-2381
umb	-2382
▁enough	-2383
ips	-2384
▁accept	-2385
▁26	-2386
▁crim	-2387
aps	-2388
▁Israel	-2389
ett	-2390
▁recogn	-2391
▁Braz	-2392
▁gen	-2393
▁student	-2394
▁violence	-2395
▁cases	-2396
▁beat	-2397
▁pick	-2398
▁forward	-2399
▁Camer	-2400
▁Feb	-2401
▁rad	-2402
exic	-2403
▁straight	-2404
▁Rob	-2405
▁Cor	-2406
ky	-2407
▁prob	-2408
bit	-2409
▁families	-2410
▁further	-2411
ners	-2412
▁happened	-2413
▁X	-2414
EO	-2415
iety	-2416
▁Flor	-2417
▁tried	-2418
▁didn	-2419
▁access	-2420
▁Afghan	-2421
▁crime	-2422
▁George	-2423
▁respons	-2424
▁div	-2425
▁Red	-2426
▁track	-2427
▁rather	-2428
▁thousands	-2429
▁pri	-2430
▁international	-2431
▁ten	-2432
▁sentence	-2433
▁laws	-2434
vision	-2435
▁[	-2436
▁Brazil	-2437
onald	-2438
▁injury	-2439
ounced	-2440
▁aut	-2441
▁individ	-2442
▁bid	-2443
▁anyone	-2444
▁adj	-2445
ruary	-2446
▁disapp	-2447
▁living	-2448
▁McC	-2449
body	-2450
lim	-2451
▁bomb	-2452
▁harm	-2453
▁hearing	-2454
▁Mexic	-2455
▁done	-2456
off	-2457
▁February	-2458
▁workers	-2459
▁27	-2460
oard	-2461
▁2008	-2462
▁getting	-2463
▁sound	-2464
ocked	-2465
▁sal	-2466
rage	-2467
ministr	-2468
▁King	-2469
▁received	-2470
orman	-2471
▁Mal	-2472
▁Arsenal	-2473
▁conclud	-2474
mission	-2475
▁spent	-2476
▁Wil	-2477
▁sell	-2478
itute	-2479
▁comes	-2480
▁Hospital	-2481
▁photo	-2482
▁attorney	-2483
▁themselves	-2484
▁doing	-2485
▁impro	-2486
▁agree	-2487
▁attacks	-2488
▁points	-2489
▁provide	-2490
▁forces	-2491
▁Africa	-2492
▁message	-2493
▁Inst	-2494
▁believed	-2495
▁La	-2496
▁images	-2497
ks	-2498
overn	-2499
▁bott	-2500
▁vot	-2501
▁weap	-2502
iron	-2503
▁critic	-2504
▁boss	-2505
▁simply	-2506
▁Ben	-2507
▁gain	-2508
ibility	-2509
▁San	-2510
▁increase	-2511
▁Mus	-2512
▁Brown	-2513
ron	-2514
▁cred	-2515
▁everything	-2516
▁exam	-2517
▁Thom	-2518
▁wed	-2519
▁van	-2520
▁infl	-2521
aker	-2522
▁suit	-2523
▁Smith	-2524
▁School	-2525
▁page	-2526
▁mass	-2527
ached	-2528
▁28	-2529
▁reason	-2530
▁Hol	-2531
▁Mur	-2532
▁Florida	-2533
▁scar	-2534
rog	-2535
▁Australian	-2536
▁patients	-2537
ara	-2538
▁rock	-2539
ese	-2540
▁meas	-2541
▁coach	-2542
ging	-2543
▁ain	-2544
▁space	-2545
▁BBC	-2546
▁address	-2547
▁prosecut	-2548
rugg	-2549
▁Lou	-2550
▁personal	-2551
▁popular	-2552
oring	-2553
▁2014	-2554
▁Fer	-2555
ficult	-2556
▁described	-2557
▁immediately	-2558
ilt	-2559
),	-2560
oint	-2561
▁national	-2562
▁involved	-2563
▁hither	-2564
▁Its	-2565
oid	-2566
▁desire	-2567
atives	-2568
▁avail	-2569
▁benef	-2570
ode	-2571
riage	-2572
▁hour	-2573
▁sister	-2574
itive	-2575
ude	-2576
-1	-2577
▁represent	-2578
▁played	-2579
play	-2580
uate	-2581
▁Jer	-2582
▁z	-2583
▁possible	-2584
▁Ber	-2585
▁drugs	-2586
▁capital	-2587
▁door	-2588
▁surger	-2589
▁difficult	-2590
ows	-2591
▁protect	-2592
▁led	-2593
▁percent	-2594
▁fly	-2595
ural	-2596
▁bill	-2597
with	-2598
He	-2599
ederal	-2600
▁billion	-2601
▁important	-2602
▁separ	-2603
▁victory	-2604
▁shooting	-2605
urt	-2606
▁sle	-2607
▁gave	-2608
ately	-2609
▁idea	-2610
gn	-2611
▁damage	-2612
key	-2613
▁strugg	-2614
▁firm	-2615
▁Day	-2616
▁services	-2617
▁More	-2618
▁speed	-2619
resh	-2620
▁goals	-2621
▁base	-2622
▁learn	-2623
▁loss	-2624
▁necess	-2625
▁situation	-2626
▁box	-2627
onn	-2628
▁understand	-2629
iod	-2630
▁French	-2631
▁mater	-2632
uted	-2633
arr	-2634
▁mat	-2635
▁Ke	-2636
▁unf	-2637
▁areas	-2638
icated	-2639
cise	-2640
▁establish	-2641
▁amount	-2642
ously	-2643
▁complain	-2644
chers	-2645
▁model	-2646
▁197	-2647
▁To	-2648
▁seek	-2649
▁dress	-2650
▁pictures	-2651
▁admitted	-2652
▁wrong	-2653
▁legal	-2654
ought	-2655
ilty	-2656
engers	-2657
▁cell	-2658
▁hotel	-2659
▁Scot	-2660
▁owner	-2661
▁civil	-2662
ancy	-2663
esp	-2664
▁ban	-2665
▁doctors	-2666
atures	-2667
▁Do	-2668
▁Union	-2669
▁indust	-2670
▁cross	-2671
urb	-2672
▁Democr	-2673
▁crow	-2674
▁Tex	-2675
▁High	-2676
lymp	-2677
the	-2678
▁street	-2679
▁danger	-2680
▁Te	-2681
hood	-2682
▁practice	-2683
▁defeat	-2684
▁MP	-2685
▁card	-2686
▁So	-2687
▁photograph	-2688
▁anti	-2689
▁pack	-2690
▁English	-2691
co	-2692
back	-2693
▁sen	-2694
▁teacher	-2695
▁music	-2696
▁pressure	-2697
▁har	-2698
ola	-2699
▁penal	-2700
▁Govern	-2701
▁alleg	-2702
▁Pak	-2703
▁turned	-2704
▁attend	-2705
▁sat	-2706
▁Olymp	-2707
amb	-2708
▁abs	-2709
▁£	-2710
▁Royal	-2711
▁chair	-2712
▁playing	-2713
▁dom	-2714
por	-2715
▁mag	-2716
aught	-2717
▁soon	-2718
mine	-2719
▁Iran	-2720
▁International	-2721
▁camera	-2722
▁Syria	-2723
▁accom	-2724
▁everyone	-2725
rought	-2726
▁matter	-2727
▁touch	-2728
▁vehicle	-2729
▁answ	-2730
undreds	-2731
▁rob	-2732
▁meeting	-2733
▁period	-2734
▁rac	-2735
▁occur	-2736
▁letter	-2737
ival	-2738
▁Prime	-2739
rie	-2740
▁feet	-2741
▁policy	-2742
▁title	-2743
mark	-2744
▁finally	-2745
▁Russia	-2746
▁south	-2747
▁contain	-2748
▁forth	-2749
▁behav	-2750
▁aid	-2751
▁vote	-2752
aded	-2753
▁pil	-2754
▁surgery	-2755
▁educ	-2756
▁initi	-2757
▁respond	-2758
▁white	-2759
acter	-2760
▁Coun	-2761
ris	-2762
rey	-2763
▁guilty	-2764
▁60	-2765
▁agency	-2766
IS	-2767
▁conduct	-2768
▁storm	-2769
▁resc	-2770
▁groups	-2771
▁cand	-2772
▁appeared	-2773
▁bul	-2774
▁enjoy	-2775
▁photos	-2776
▁Russian	-2777
▁Offic	-2778
▁Cameron	-2779
▁defend	-2780
▁Not	-2781
▁pred	-2782
▁key	-2783
▁receive	-2784
▁emb	-2785
▁Pakistan	-2786
▁issues	-2787
▁fat	-2788
▁brain	-2789
▁opportun	-2790
▁users	-2791
▁Germany	-2792
reak	-2793
▁drive	-2794
▁Texas	-2795
▁ste	-2796
▁twe	-2797
▁certain	-2798
▁network	-2799
▁else	-2800
▁weight	-2801
▁Martin	-2802
▁battle	-2803
▁1,	-2804
▁bea	-2805
mar	-2806
▁honest	-2807
ularly	-2808
icide	-2809
▁north	-2810
▁intimate	-2811
▁surpr	-2812
ca	-2813
▁range	-2814
▁forced	-2815
▁Madrid	-2816
left	-2817
rict	-2818
lands	-2819
fort	-2820
▁thither	-2821
▁29	-2822
sequ	-2823
▁quar	-2824
vent	-2825
▁buy	-2826
▁stage	-2827
bor	-2828
▁wide	-2829
30	-2830
▁Vict	-2831
▁Street	-2832
▁suc	-2833
▁Rod	-2834
▁alone	-2835
▁data	-2836
▁norm	-2837
▁aim	-2838
▁succeed	-2839
▁Cong	-2840
▁bur	-2841
ander	-2842
▁broad	-2843
▁Williams	-2844
▁Tra	-2845
▁effect	-2846
▁doub	-2847
▁Sim	-2848
▁foc	-2849
▁Black	-2850
▁mult	-2851
▁compan	-2852
▁comb	-2853
▁caused	-2854
▁hair	-2855
▁mind	-2856
▁According	-2857
▁block	-2858
ounds	-2859
▁performan	-2860
attling	-2861
▁Franc	-2862
▁ele	-2863
tee	-2864
ma	-2865
▁disease	-2866
▁homes	-2867
▁medical	-2868
▁field	-2869
▁amb	-2870
▁esp	-2871
▁remains	-2872
▁refer	-2873
apan	-2874
▁IS	-2875
▁Americans	-2876
▁fit	-2877
enced	-2878
▁above	-2879
eck	-2880
▁safe	-2881
▁coming	-2882
form	-2883
erate	-2884
▁crew	-2885
▁region	-2886
▁price	-2887
▁hig	-2888
▁cit	-2889
▁bag	-2890
▁involve	-2891
well	-2892
itution	-2893
rovers	-2894
▁suffered	-2895
ises	-2896
▁35	-2897
▁material	-2898
▁worked	-2899
▁dro	-2900
▁sexual	-2901
oul	-2902
▁offer	-2903
ica	-2904
ram	-2905
▁posted	-2906
ada	-2907
**	-2908
▁pet	-2909
heless	-2910
▁scient	-2911
▁term	-2912
ined	-2913
ictured	-2914
yan	-2915
▁cru	-2916
using	-2917
▁Japan	-2918
▁Che	-2919
▁decided	-2920
berg	-2921
▁Bay	-2922
osing	-2923
▁Val	-2924
▁lif	-2925
▁Op	-2926
oph	-2927
itional	-2928
▁killing	-2929
▁exh	-2930
▁Secretary	-2931
▁striker	-2932
onse	-2933
▁figure	-2934
▁drop	-2935
▁Uk	-2936
▁strike	-2937
▁Tom	-2938
enger	-2939
▁showed	-2940
iant	-2941
▁score	-2942
▁util	-2943
ingly	-2944
mb	-2945
▁stat	-2946
▁holiday	-2947
ample	-2948
▁2007	-2949
ID	-2950
overy	-2951
ees	-2952
▁Bel	-2953
▁vill	-2954
▁election	-2955
▁although	-2956
▁announced	-2957
▁similar	-2958
yl	-2959
▁journal	-2960
▁minute	-2961
▁Despite	-2962
away	-2963
▁driving	-2964
▁huge	-2965
▁whole	-2966
▁Scott	-2967
▁Prince	-2968
emy	-2969
,.	-2970
▁currently	-2971
▁creat	-2972
▁date	-2973
▁cult	-2974
ibly	-2975
▁Je	-2976
▁immigr	-2977
▁$1	-2978
▁Clin	-2979
▁depart	-2980
gal	-2981
▁ens	-2982
▁operation	-2983
▁recently	-2984
▁Sir	-2985
istic	-2986
rab	-2987
▁however	-2988
▁passengers	-2989
▁Port	-2990
▁encoun	-2991
pton	-2992
▁port	-2993
▁reportedly	-2994
▁perform	-2995
▁erst	-2996
▁secret	-2997
▁create	-2998
▁floor	-2999
▁partner	-3000
▁signific	-3001
▁extra	-3002
▁table	-3003
▁serve	-3004
▁und	-3005
olf	-3006
▁administr	-3007
▁minister	-3008
▁mist	-3009
▁Real	-3010
▁residents	-3011
▁Rom	-3012
▁iP	-3013
▁Mer	-3014
ki	-3015
▁Richard	-3016
▁marriage	-3017
▁worth	-3018
▁cars	-3019
▁lat	-3020
▁Per	-3021
▁Afghanistan	-3022
▁discovered	-3023
▁means	-3024
▁impact	-3025
▁react	-3026
▁missing	-3027
▁thus	-3028
▁source	-3029
▁suffer	-3030
▁fem	-3031
down	-3032
viron	-3033
▁Labour	-3034
itor	-3035
iding	-3036
▁towards	-3037
▁calls	-3038
▁speak	-3039
irst	-3040
▁prep	-3041
essor	-3042
▁Council	-3043
ho	-3044
▁customers	-3045
▁Tur	-3046
iger	-3047
▁fresh	-3048
▁executive	-3049
▁sense	-3050
▁conditions	-3051
TV	-3052
▁produce	-3053
▁response	-3054
▁comput	-3055
▁jump	-3056
▁reb	-3057
▁appeal	-3058
▁technology	-3059
▁older	-3060
▁deliver	-3061
ashion	-3062
▁Los	-3063
▁Part	-3064
▁squad	-3065
▁196	-3066
▁These	-3067
▁By	-3068
▁attention	-3069
▁based	-3070
epend	-3071
20	-3072
▁pers	-3073
▁actually	-3074
ari	-3075
▁save	-3076
▁deep	-3077
▁details	-3078
▁herself	-3079
ization	-3080
▁failed	-3081
▁enter	-3082
▁happen	-3083
come	-3084
▁cat	-3085
▁fix	-3086
▁Office	-3087
ny	-3088
▁traff	-3089
rim	-3090
lit	-3091
iously	-3092
▁clean	-3093
▁emergency	-3094
▁allegations	-3095
ergy	-3096
▁Health	-3097
▁sun	-3098
▁paid	-3099
ashed	-3100
▁looked	-3101
ini	-3102
force	-3103
▁determine	-3104
riff	-3105
iece	-3106
▁phys	-3107
▁African	-3108
de	-3109
▁running	-3110
▁Another	-3111
onstr	-3112
roy	-3113
▁named	-3114
▁restaur	-3115
ado	-3116
▁newsp	-3117
▁conference	-3118
▁poll	-3119
rupt	-3120
▁Chris	-3121
▁moved	-3122
▁trou	-3123
▁eye	-3124
▁discuss	-3125
▁ship	-3126
▁pan	-3127
eed	-3128
▁gold	-3129
▁Jose	-3130
▁Im	-3131
ograp	-3132
ugh	-3133
▁prim	-3134
▁trib	-3135
imb	-3136
▁fle	-3137
▁Apple	-3138
ogle	-3139
▁wat	-3140
ability	-3141
yc	-3142
▁controvers	-3143
▁*	-3144
▁happy	-3145
▁Mel	-3146
▁Spain	-3147
▁knew	-3148
▁kids	-3149
▁terminal	-3150
▁sport	-3151
▁private	-3152
▁catch	-3153
▁states	-3154
▁31	-3155
▁1.	-3156
▁Louis	-3157
▁Author	-3158
▁brought	-3159
▁ord	-3160
▁felt	-3161
▁Scotland	-3162
▁Last	-3163
▁ur	-3164
▁encounter	-3165
rol	-3166
▁average	-3167
50	-3168
▁makes	-3169
▁uns	-3170
▁Peter	-3171
▁gas	-3172
adium	-3173
▁aftern	-3174
▁People	-3175
▁vir	-3176
▁suspect	-3177
▁council	-3178
ohol	-3179
▁captain	-3180
▁kick	-3181
▁lawyer	-3182
▁champ	-3183
▁cash	-3184
▁Daily	-3185
▁latest	-3186
▁directly	-3187
asons	-3188
ellig	-3189
uses	-3190
oms	-3191
▁ille	-3192
▁vers	-3193
▁India	-3194
cohol	-3195
▁tick	-3196
▁lack	-3197
▁Comm	-3198
▁pur	-3199
ux	-3200
▁Span	-3201
▁animals	-3202
▁wall	-3203
▁afternoon	-3204
▁profession	-3205
▁Muslim	-3206
▁results	-3207
▁Cap	-3208
▁Kh	-3209
▁events	-3210
▁Def	-3211
enty	-3212
▁Johnson	-3213
▁conce	-3214
▁Tod	-3215
night	-3216
▁size	-3217
▁wedding	-3218
ps	-3219
▁advert	-3220
▁rattling	-3221
▁girlfriend	-3222
▁Mic	-3223
▁words	-3224
unched	-3225
orry	-3226
▁brand	-3227
gent	-3228
▁Wales	-3229
ront	-3230
ils	-3231
▁rise	-3232
▁Cle	-3233
▁recover	-3234
▁progress	-3235
rect	-3236
▁skin	-3237
▁nearby	-3238
This	-3239
gg	-3240
▁bod	-3241
▁Google	-3242
▁cann	-3243
ension	-3244
▁hundreds	-3245
▁either	-3246
▁snow	-3247
▁companies	-3248
▁pret	-3249
▁Jones	-3250
▁finish	-3251
▁Angeles	-3252
▁animal	-3253
▁Now	-3254
▁po	-3255
▁spend	-3256
cial	-3257
▁proceed	-3258
HS	-3259
▁border	-3260
▁opt	-3261
dney	-3262
▁jury	-3263
▁rev	-3264
▁leaving	-3265
▁boys	-3266
▁grant	-3267
astic	-3268
illa	-3269
▁Bal	-3270
▁Clinton	-3271
ground	-3272
aves	-3273
▁surf	-3274
ya	-3275
▁rout	-3276
▁weather	-3277
ledge	-3278
uk	-3279
▁shock	-3280
▁sil	-3281
▁extreme	-3282
▁Sydney	-3283
airs	-3284
▁scarce	-3285
change	-3286
craft	-3287
vironment	-3288
▁deg	-3289
▁candid	-3290
▁pregn	-3291
▁mill	-3292
▁32	-3293
▁share	-3294
▁pul	-3295
iful	-3296
▁mere	-3297
▁Congress	-3298
▁engine	-3299
▁demonstr	-3300
▁Cam	-3301
▁footage	-3302
▁injured	-3303
▁apply	-3304
▁needs	-3305
pictured	-3306
▁sens	-3307
▁Law	-3308
▁aud	-3309
▁Van	-3310
▁burn	-3311
oud	-3312
▁allowed	-3313
▁wild	-3314
▁Mexico	-3315
▁Kim	-3316
▁arrived	-3317
▁review	-3318
▁Hill	-3319
lished	-3320
▁married	-3321
▁Sal	-3322
▁figures	-3323
▁rap	-3324
▁parts	-3325
▁Korea	-3326
▁needed	-3327
▁questions	-3328
▁prevent	-3329
▁swe	-3330
▁born	-3331
▁quite	-3332
▁mob	-3333
▁evening	-3334
alled	-3335
▁wants	-3336
▁Jackson	-3337
▁die	-3338
▁Som	-3339
▁Qu	-3340
iled	-3341
▁Center	-3342
ken	-3343
▁glob	-3344
▁coast	-3345
▁beginning	-3346
na	-3347
itc	-3348
hold	-3349
duction	-3350
ples	-3351
rian	-3352
▁challenge	-3353
▁charity	-3354
▁acquire	-3355
▁doctor	-3356
▁attract	-3357
▁federal	-3358
▁dig	-3359
light	-3360
▁troops	-3361
▁motor	-3362
annel	-3363
▁Crown	-3364
▁crowd	-3365
▁launch	-3366
▁Wood	-3367
▁energy	-3368
osition	-3369
▁single	-3370
▁performance	-3371
▁onto	-3372
▁Government	-3373
▁transfer	-3374
▁Matt	-3375
▁schools	-3376
▁alcohol	-3377
▁industry	-3378
▁peace	-3379
iles	-3380
lor	-3381
▁Robert	-3382
otten	-3383
men	-3384
▁presently	-3385
▁describe	-3386
ains	-3387
▁confirmed	-3388
▁gone	-3389
▁penalty	-3390
▁arm	-3391
▁Barcel	-3392
▁cris	-3393
▁returned	-3394
arent	-3395
▁sust	-3396
▁Step	-3397
▁item	-3398
standing	-3399
▁Judge	-3400
ique	-3401
▁inn	-3402
ushed	-3403
SA	-3404
▁observe	-3405
▁hous	-3406
▁lose	-3407
▁oil	-3408
▁various	-3409
itz	-3410
aed	-3411
▁rate	-3412
▁eyes	-3413
▁opening	-3414
▁concluding	-3415
▁Assoc	-3416
▁bas	-3417
▁common	-3418
▁Italy	-3419
▁caught	-3420
▁Thomas	-3421
▁consum	-3422
▁During	-3423
▁temper	-3424
▁airport	-3425
▁%	-3426
▁Barcelona	-3427
▁center	-3428
▁Many	-3429
▁helped	-3430
eated	-3431
▁Lib	-3432
▁screen	-3433
▁Nor	-3434
▁hy	-3435
olution	-3436
iated	-3437
▁din	-3438
▁Mary	-3439
▁substant	-3440
▁looks	-3441
▁comfort	-3442
▁Andrew	-3443
vest	-3444
▁meant	-3445
▁Att	-3446
ires	-3447
▁Times	-3448
▁send	-3449
eper	-3450
▁soldiers	-3451
▁Gar	-3452
▁effort	-3453
▁Green	-3454
van	-3455
pm	-3456
▁feed	-3457
▁diss	-3458
▁citiz	-3459
▁FA	-3460
oper	-3461
▁tear	-3462
▁Sa	-3463
▁Ital	-3464
▁Carol	-3465
▁merely	-3466
▁individual	-3467
▁bare	-3468
▁Fore	-3469
inese	-3470
rif	-3471
isters	-3472
▁ant	-3473
ielder	-3474
lear	-3475
rate	-3476
▁sleep	-3477
▁Paris	-3478
▁document	-3479
▁Queen	-3480
▁Mos	-3481
▁fighting	-3482
ighters	-3483
▁Bill	-3484
▁concerns	-3485
ication	-3486
▁ice	-3487
▁adop	-3488
▁fellow	-3489
▁unex	-3490
▁push	-3491
On	-3492
▁hero	-3493
▁severe	-3494
▁vac	-3495
▁television	-3496
lant	-3497
clus	-3498
▁Sur	-3499
▁2006	-3500
▁Det	-3501
▁Republican	-3502
tt	-3503
▁vo	-3504
▁sole	-3505
ube	-3506
▁Lee	-3507
▁ep	-3508
▁stock	-3509
▁tweet	-3510
▁stre	-3511
▁Act	-3512
ellow	-3513
▁heavy	-3514
▁speech	-3515
▁credit	-3516
▁opportunity	-3517
▁repl	-3518
fielder	-3519
▁insist	-3520
▁aircraft	-3521
inary	-3522
▁der	-3523
▁regard	-3524
anda	-3525
▁rules	-3526
▁sched	-3527
▁newspaper	-3528
▁criminal	-3529
▁character	-3530
ago	-3531
▁costs	-3532
▁lik	-3533
500	-3534
istry	-3535
▁experts	-3536
bour	-3537
bal	-3538
uce	-3539
ental	-3540
▁weapons	-3541
▁Mill	-3542
sex	-3543
▁manage	-3544
▁Daniel	-3545
▁fre	-3546
za	-3547
oming	-3548
▁efforts	-3549
▁90	-3550
▁spir	-3551
▁Mod	-3552
rival	-3553
▁expend	-3554
▁hang	-3555
▁Ash	-3556
▁NHS	-3557
▁available	-3558
▁financ	-3559
▁quarter	-3560
woman	-3561
liam	-3562
▁Sand	-3563
▁wearing	-3564
▁changes	-3565
▁cry	-3566
▁fra	-3567
hand	-3568
▁Super	-3569
▁shop	-3570
▁raise	-3571
▁remember	-3572
eneral	-3573
etimes	-3574
▁spread	-3575
',	-3576
▁45	-3577
▁exist	-3578
sych	-3579
▁dogs	-3580
▁Far	-3581
ih	-3582
▁instead	-3583
▁typ	-3584
▁apartment	-3585
ropri	-3586
▁Mo	-3587
orthern	-3588
▁diagn	-3589
▁arrive	-3590
▁fashion	-3591
▁Hall	-3592
quir	-3593
▁exit	-3594
oes	-3595
▁fish	-3596
▁erstwhile	-3597
▁gang	-3598
▁Camp	-3599
▁competition	-3600
▁champion	-3601
▁ready	-3602
▁Of	-3603
▁mach	-3604
▁owners	-3605
▁foremost	-3606
liament	-3607
▁&	-3608
▁Vir	-3609
▁suicide	-3610
▁extend	-3611
mate	-3612
▁advance	-3613
aine	-3614
▁kept	-3615
▁longer	-3616
▁senior	-3617
▁mount	-3618
ographer	-3619
IDEO	-3620
▁select	-3621
▁VIDEO	-3622
▁messages	-3623
▁novel	-3624
▁Chinese	-3625
▁exactly	-3626
▁award	-3627
wide	-3628
▁subs	-3629
▁deaths	-3630
▁throw	-3631
▁separate	-3632
▁sale	-3633
▁row	-3634
▁united	-3635
▁Charl	-3636
▁qual	-3637
▁economy	-3638
▁decl	-3639
▁terms	-3640
▁levels	-3641
▁Victor	-3642
▁Ba	-3643
▁custody	-3644
▁pun	-3645
rick	-3646
▁created	-3647
owers	-3648
▁answer	-3649
▁documents	-3650
ruction	-3651
▁aged	-3652
▁unlike	-3653
▁style	-3654
▁Inter	-3655
▁display	-3656
▁Ros	-3657
▁Ev	-3658
▁bodies	-3659
▁lay	-3660
▁airl	-3661
▁leading	-3662
▁approach	-3663
▁Both	-3664
ns	-3665
anks	-3666
ulf	-3667
▁seat	-3668
▁reck	-3669
▁obtain	-3670
▁Justice	-3671
▁ring	-3672
set	-3673
ounts	-3674
▁general	-3675
▁teams	-3676
▁remark	-3677
▁33	-3678
▁chem	-3679
▁Lord	-3680
▁Mag	-3681
▁church	-3682
▁female	-3683
▁lowest	-3684
▁explos	-3685
ites	-3686
▁survey	-3687
eless	-3688
BI	-3689
iar	-3690
▁ISIS	-3691
edy	-3692
orter	-3693
estern	-3694
andal	-3695
zz	-3696
▁tourn	-3697
▁Old	-3698
▁request	-3699
11	-3700
▁midfielder	-3701
chie	-3702
aging	-3703
▁espec	-3704
▁crisis	-3705
akers	-3706
antage	-3707
▁render	-3708
▁rain	-3709
hab	-3710
▁intellig	-3711
▁sea	-3712
elling	-3713
dy	-3714
▁paper	-3715
lt	-3716
ams	-3717
gypt	-3718
▁example	-3719
▁fan	-3720
▁Army	-3721
▁ess	-3722
▁illegal	-3723
▁carried	-3724
▁rare	-3725
iple	-3726
▁winner	-3727
▁Earth	-3728
▁Harry	-3729
▁actions	-3730
▁movie	-3731
▁rape	-3732
▁Argent	-3733
▁significant	-3734
arden	-3735
che	-3736
▁streets	-3737
00,000	-3738
▁foreign	-3739
▁Eb	-3740
▁Italian	-3741
▁trade	-3742
▁36	-3743
▁Egypt	-3744
▁70	-3745
iting	-3746
▁doz	-3747
▁ren	-3748
▁Under	-3749
rief	-3750
▁launched	-3751
▁throughout	-3752
▁influ	-3753
isl	-3754
▁prove	-3755
▁God	-3756
▁fast	-3757
▁Ga	-3758
▁alongside	-3759
▁settle	-3760
▁appearance	-3761
▁assoc	-3762
rel	-3763
ilities	-3764
▁Spe	-3765
▁jobs	-3766
▁reporters	-3767
▁virt	-3768
▁education	-3769
▁Service	-3770
▁takes	-3771
azine	-3772
FA	-3773
▁doll	-3774
pper	-3775
▁bra	-3776
▁normal	-3777
▁league	-3778
▁previously	-3779
cy	-3780
aches	-3781
▁truck	-3782
▁announce	-3783
opping	-3784
▁thr	-3785
▁notice	-3786
▁swim	-3787
▁gar	-3788
▁Spanish	-3789
▁quickly	-3790
▁bail	-3791
▁impart	-3792
▁continued	-3793
▁clos	-3794
▁cop	-3795
itt	-3796
▁warned	-3797
▁faces	-3798
ression	-3799
omen	-3800
▁flood	-3801
▁Arab	-3802
inson	-3803
▁jud	-3804
fl	-3805
▁unitedly	-3806
▁exclus	-3807
▁cerem	-3808
▁fill	-3809
▁Lew	-3810
phone	-3811
▁mission	-3812
ildren	-3813
▁Islamic	-3814
osh	-3815
▁refused	-3816
▁General	-3817
▁wound	-3818
▁giving	-3819
going	-3820
▁spending	-3821
▁purch	-3822
▁Sn	-3823
uish	-3824
▁numbers	-3825
▁millions	-3826
ani	-3827
▁Atlant	-3828
elly	-3829
▁believes	-3830
iana	-3831
▁Gall	-3832
orial	-3833
▁entirely	-3834
▁works	-3835
▁80	-3836
▁middle	-3837
▁successful	-3838
▁Soc	-3839
▁Tal	-3840
▁justice	-3841
▁included	-3842
▁defense	-3843
▁double	-3844
▁supporters	-3845
▁Although	-3846
ernand	-3847
▁convicted	-3848
▁Sar	-3849
▁Post	-3850
▁Dar	-3851
▁Sun	-3852
▁scored	-3853
▁administration	-3854
utiful	-3855
ties	-3856
▁utmost	-3857
ero	-3858
▁computer	-3859
ez	-3860
▁independ	-3861
▁original	-3862
▁poor	-3863
certain	-3864
▁counter	-3865
ector	-3866
▁stars	-3867
▁Ronald	-3868
▁Jim	-3869
▁rule	-3870
▁sports	-3871
know	-3872
▁prem	-3873
asc	-3874
▁habit	-3875
▁dream	-3876
▁Hum	-3877
▁environment	-3878
▁sales	-3879
▁teenager	-3880
▁wish	-3881
icit	-3882
▁population	-3883
▁depend	-3884
imately	-3885
▁Fam	-3886
▁wel	-3887
▁products	-3888
▁fine	-3889
▁endure	-3890
▁nom	-3891
▁champions	-3892
▁FBI	-3893
▁device	-3894
▁benefits	-3895
▁desc	-3896
▁Met	-3897
▁cast	-3898
▁Today	-3899
▁itself	-3900
▁department	-3901
▁restaurant	-3902
▁34	-3903
▁neighbor	-3904
ka	-3905
▁apparent	-3906
▁piece	-3907
▁Frank	-3908
▁Bur	-3909
▁youth	-3910
▁traffic	-3911
▁Den	-3912
castle	-3913
There	-3914
▁prior	-3915
▁Virgin	-3916
▁estim	-3917
They	-3918
▁opin	-3919
▁records	-3920
▁sem	-3921
▁Every	-3922
▁fair	-3923
opped	-3924
▁bud	-3925
▁natur	-3926
▁exer	-3927
▁Ol	-3928
▁respect	-3929
▁intro	-3930
▁decades	-3931
where	-3932
▁advantage	-3933
anch	-3934
▁emot	-3935
▁Net	-3936
▁sout	-3937
▁rescue	-3938
fact	-3939
▁instantly	-3940
icious	-3941
ourney	-3942
▁Prof	-3943
▁Three	-3944
▁Since	-3945
▁shortly	-3946
▁Sant	-3947
resp	-3948
▁fourth	-3949
roud	-3950
▁bedroom	-3951
▁ensure	-3952
▁encou	-3953
▁denied	-3954
▁farm	-3955
▁circum	-3956
▁enforce	-3957
▁island	-3958
ications	-3959
▁mouth	-3960
▁capable	-3961
▁protest	-3962
▁contributed	-3963
▁societ	-3964
▁shut	-3965
▁Newcastle	-3966
▁window	-3967
▁stick	-3968
ville	-3969
▁completely	-3970
▁pilot	-3971
ighted	-3972
▁behavi	-3973
▁2005	-3974
▁investigators	-3975
▁scientists	-3976
agers	-3977
pro	-3978
▁favour	-3979
▁occas	-3980
▁]	-3981
▁stab	-3982
iance	-3983
▁debate	-3984
▁repeated	-3985
▁Commission	-3986
▁supply	-3987
▁maintain	-3988
▁bird	-3989
▁boyfriend	-3990
hest	-3991
▁Security	-3992
▁Senate	-3993
▁Good	-3994
ym	-3995
ares	-3996
mates	-3997
▁majority	-3998
ipe	-3999
▁psych	-4000
▁song	-4001
▁Chief	-4002
angu	-4003
▁Kenn	-4004
▁biggest	-4005
▁bal	-4006
▁argu	-4007
▁pen	-4008
▁dangerous	-4009
▁beach	-4010
▁lived	-4011
bridge	-4012
▁Jul	-4013
▁confront	-4014
▁Bush	-4015
olve	-4016
▁joined	-4017
▁Cons	-4018
worth	-4019
▁internet	-4020
▁achie	-4021
▁subsequ	-4022
inent	-4023
▁prompt	-4024
▁development	-4025
ano	-4026
aug	-4027
ropriate	-4028
▁Joe	-4029
▁ang	-4030
▁smart	-4031
▁Gold	-4032
▁whom	-4033
▁detect	-4034
igan	-4035
inho	-4036
▁Jon	-4037
▁telling	-4038
utch	-4039
▁histor	-4040
▁Tay	-4041
▁word	-4042
▁probably	-4043
▁arr	-4044
▁wond	-4045
▁chairman	-4046
▁Del	-4047
▁built	-4048
▁veter	-4049
▁Rad	-4050
ipped	-4051
▁perfect	-4052
▁Grand	-4053
ien	-4054
▁apolog	-4055
aze	-4056
jects	-4057
▁tournament	-4058
▁tight	-4059
pet	-4060
▁especially	-4061
▁researchers	-4062
▁Ve	-4063
▁flag	-4064
▁professional	-4065
▁Wat	-4066
▁boat	-4067
▁reasons	-4068
▁Ever	-4069
ampton	-4070
▁conceive	-4071
hew	-4072
AT	-4073
▁compens	-4074
▁transport	-4075
▁acknow	-4076
iling	-4077
▁ended	-4078
▁expert	-4079
iring	-4080
▁utter	-4081
▁Star	-4082
▁names	-4083
▁village	-4084
ede	-4085
aked	-4086
▁raw	-4087
▁grad	-4088
▁pitch	-4089
▁engage	-4090
▁Authorities	-4091
▁Open	-4092
▁raised	-4093
▁straightaway	-4094
▁items	-4095
unte	-4096
▁betimes	-4097
▁Rober	-4098
▁winning	-4099
▁collection	-4100
▁myself	-4101
▁Palace	-4102
▁Ebola	-4103
▁blue	-4104
ador	-4105
▁thank	-4106
▁shown	-4107
gers	-4108
utin	-4109
▁sustain	-4110
nel	-4111
▁journey	-4112
▁eventually	-4113
-0	-4114
▁Georg	-4115
▁improve	-4116
▁surround	-4117
NA	-4118
useum	-4119
▁birthday	-4120
▁Their	-4121
rogate	-4122
board	-4123
▁Moh	-4124
▁avoid	-4125
▁Barack	-4126
▁convers	-4127
kins	-4128
▁Mont	-4129
mond	-4130
▁stopped	-4131
▁Jo	-4132
▁Kar	-4133
▁reckon	-4134
▁secure	-4135
.4	-4136
▁choice	-4137
▁lic	-4138
▁Party	-4139
▁glass	-4140
asts	-4141
▁spokeswoman	-4142
▁roll	-4143
▁century	-4144
vis	-4145
▁minor	-4146
▁pose	-4147
la	-4148
▁suffering	-4149
▁Christian	-4150
▁societal	-4151
▁loan	-4152
▁doesn	-4153
).	-4154
▁Nick	-4155
▁Middle	-4156
▁product	-4157
▁twice	-4158
▁register	-4159
▁remove	-4160
▁signs	-4161
▁followed	-4162
urance	-4163
▁offered	-4164
▁Tim	-4165
▁magazine	-4166
▁counts	-4167
▁Murray	-4168
▁Other	-4169
▁pal	-4170
▁armed	-4171
▁Former	-4172
aring	-4173
▁talks	-4174
▁band	-4175
▁Steve	-4176
▁ordered	-4177
Online	-4178
▁employees	-4179
▁River	-4180
▁First	-4181
▁altern	-4182
▁correct	-4183
▁concerned	-4184
▁treated	-4185
▁particip	-4186
▁bath	-4187
▁scr	-4188
▁Cost	-4189
▁Bob	-4190
▁Sl	-4191
▁function	-4192
▁Year	-4193
▁dark	-4194
▁Holl	-4195
ovic	-4196
▁Ari	-4197
▁financial	-4198
▁spoke	-4199
▁initially	-4200
▁crack	-4201
▁Charles	-4202
▁Win	-4203
▁Nic	-4204
▁broke	-4205
▁kne	-4206
▁passed	-4207
▁disting	-4208
▁reform	-4209
▁cogn	-4210
▁ult	-4211
▁guard	-4212
▁bi	-4213
▁defender	-4214
▁behaviour	-4215
▁beautiful	-4216
▁opened	-4217
▁favor	-4218
oston	-4219
asing	-4220
▁worker	-4221
uct	-4222
▁Bir	-4223
▁appears	-4224
rieve	-4225
orrow	-4226
▁Ty	-4227
▁Cont	-4228
atively	-4229
eder	-4230
▁fort	-4231
▁Mass	-4232
▁entr	-4233
▁Ryan	-4234
▁presidential	-4235
▁domest	-4236
▁cook	-4237
▁harmon	-4238
▁signed	-4239
▁Brad	-4240
▁value	-4241
▁EU	-4242
▁below	-4243
ading	-4244
iced	-4245
▁Holly	-4246
▁version	-4247
▁lux	-4248
▁Wal	-4249
ula	-4250
▁Gra	-4251
▁pull	-4252
eds	-4253
▁respective	-4254
▁Sil	-4255
ucky	-4256
▁Ire	-4257
▁unb	-4258
▁Invest	-4259
▁crimes	-4260
▁plant	-4261
▁hopes	-4262
▁plenty	-4263
▁patient	-4264
▁Hen	-4265
arez	-4266
▁extremely	-4267
▁Stud	-4268
▁belong	-4269
▁Group	-4270
▁secern	-4271
esters	-4272
do	-4273
▁clot	-4274
▁survive	-4275
▁places	-4276
▁soft	-4277
▁published	-4278
▁quality	-4279
▁easy	-4280
yond	-4281
▁arms	-4282
▁withd	-4283
▁Shar	-4284
▁1,000	-4285
▁Boston	-4286
▁Web	-4287
▁sometime	-4288
▁backwards	-4289
▁scandal	-4290
angers	-4291
▁actor	-4292
▁Association	-4293
▁slow	-4294
▁particularly	-4295
▁bottom	-4296
cious	-4297
▁showing	-4298
▁Church	-4299
igg	-4300
▁arch	-4301
▁ceremony	-4302
ission	-4303
▁Os	-4304
▁specific	-4305
▁Our	-4306
▁Gaal	-4307
▁verbal	-4308
raine	-4309
▁ways	-4310
▁sad	-4311
▁neck	-4312
▁ran	-4313
▁2004	-4314
▁mer	-4315
▁therefore	-4316
▁stim	-4317
▁jailed	-4318
▁affect	-4319
She	-4320
▁MailOnline	-4321
istrict	-4322
bury	-4323
ship	-4324
ological	-4325
▁fraud	-4326
lig	-4327
▁Most	-4328
▁ability	-4329
▁postulate	-4330
house	-4331
▁university	-4332
▁clubs	-4333
nce	-4334
▁precise	-4335
▁via	-4336
▁rearward	-4337
▁unable	-4338
val	-4339
▁forthwith	-4340
▁necessitate	-4341
▁Ken	-4342
▁Coast	-4343
▁wasn	-4344
▁central	-4345
▁operations	-4346
▁prosecutors	-4347
▁sometimes	-4348
.2	-4349
▁agreed	-4350
▁citizens	-4351
elled	-4352
▁text	-4353
▁Jord	-4354
▁wood	-4355
▁opposition	-4356
▁Fire	-4357
▁relig	-4358
▁District	-4359
▁assure	-4360
char	-4361
▁pounds	-4362
▁Island	-4363
▁Bre	-4364
▁removed	-4365
▁prices	-4366
▁Taylor	-4367
▁volunte	-4368
▁Ram	-4369
▁shel	-4370
▁37	-4371
▁tests	-4372
▁eat	-4373
▁Jersey	-4374
▁distinguish	-4375
iment	-4376
▁Hel	-4377
arian	-4378
▁Chic	-4379
▁ones	-4380
reng	-4381
▁purs	-4382
▁sentenced	-4383
▁note	-4384
arily	-4385
iser	-4386
▁ir	-4387
▁identified	-4388
▁seconds	-4389
see	-4390
▁Kent	-4391
▁goes	-4392
uction	-4393
rom	-4394
▁college	-4395
▁freed	-4396
pts	-4397
▁legisl	-4398
▁designed	-4399
▁bought	-4400
In	-4401
inated	-4402
▁west	-4403
ottenham	-4404
▁Mac	-4405
▁exchange	-4406
ennis	-4407
▁east	-4408
▁cab	-4409
▁views	-4410
▁nigh	-4411
ayne	-4412
▁rough	-4413
▁Dis	-4414
▁Di	-4415
▁fel	-4416
lyn	-4417
▁experi	-4418
▁Home	-4419
▁Brook	-4420
▁budget	-4421
ena	-4422
anned	-4423
▁Tor	-4424
▁barely	-4425
▁yield	-4426
▁male	-4427
▁Fin	-4428
▁princ	-4429
▁cro	-4430
▁pup	-4431
▁changed	-4432
▁Syrian	-4433
▁Oh	-4434
▁mans	-4435
▁growing	-4436
▁visual	-4437
▁backward	-4438
▁photographer	-4439
▁Tottenham	-4440
ae	-4441
▁pool	-4442
▁hurt	-4443
aith	-4444
▁sick	-4445
omm	-4446
▁multiple	-4447
cean	-4448
ustr	-4449
▁type	-4450
phy	-4451
▁matches	-4452
▁Colle	-4453
▁initiative	-4454
angled	-4455
▁feature	-4456
▁Bank	-4457
▁immigration	-4458
▁Kn	-4459
▁feeling	-4460
▁Tony	-4461
▁issued	-4462
▁langu	-4463
▁legs	-4464
▁proced	-4465
▁prefer	-4466
lict	-4467
▁reality	-4468
▁lots	-4469
.1	-4470
▁Rec	-4471
class	-4472
▁intelligence	-4473
▁Penn	-4474
▁focus	-4475
ugg	-4476
▁impl	-4477
▁iPh	-4478
▁seems	-4479
▁recall	-4480
▁Mess	-4481
▁decade	-4482
ateg	-4483
You	-4484
▁calling	-4485
▁san	-4486
▁doubt	-4487
▁hal	-4488
▁exhib	-4489
▁responsibility	-4490
aeda	-4491
rier	-4492
▁predict	-4493
pre	-4494
▁meth	-4495
▁Hot	-4496
▁attacked	-4497
▁spark	-4498
▁broken	-4499
▁Stephen	-4500
▁surve	-4501
ilton	-4502
olute	-4503
pled	-4504
ota	-4505
▁Ter	-4506
▁politic	-4507
▁emerged	-4508
▁managed	-4509
▁cannot	-4510
▁arg	-4511
▁estate	-4512
▁ath	-4513
▁radio	-4514
▁Trans	-4515
ads	-4516
▁Wilson	-4517
▁resign	-4518
licop	-4519
▁Wall	-4520
▁eld	-4521
▁imag	-4522
▁helicop	-4523
▁virtually	-4524
azz	-4525
▁terrorist	-4526
▁stom	-4527
▁warning	-4528
▁considered	-4529
▁indeed	-4530
▁Sports	-4531
ayers	-4532
apt	-4533
▁pulled	-4534
▁Ireland	-4535
▁controversial	-4536
▁district	-4537
rad	-4538
gedy	-4539
▁Wel	-4540
▁growth	-4541
agues	-4542
dom	-4543
▁connect	-4544
▁true	-4545
▁Down	-4546
▁famous	-4547
▁planning	-4548
▁escape	-4549
▁38	-4550
▁Don	-4551
anny	-4552
▁afterwards	-4553
▁earn	-4554
▁onetime	-4555
▁meaning	-4556
▁Kev	-4557
▁Fox	-4558
▁Mike	-4559
▁Pet	-4560
▁II	-4561
look	-4562
▁vehicles	-4563
oned	-4564
▁Foot	-4565
ondam	-4566
▁quondam	-4567
▁stress	-4568
▁sav	-4569
▁drivers	-4570
▁beyond	-4571
▁easily	-4572
▁resist	-4573
▁rearwards	-4574
▁degree	-4575
▁traditional	-4576
▁clin	-4577
onic	-4578
▁ic	-4579
▁Pri	-4580
▁subject	-4581
▁ride	-4582
▁determin	-4583
rison	-4584
▁surface	-4585
▁tum	-4586
▁moving	-4587
▁42	-4588
▁activity	-4589
▁Republicans	-4590
▁Prosecut	-4591
▁cities	-4592
▁Gre	-4593
▁economic	-4594
▁global	-4595
apped	-4596
pping	-4597
▁dont	-4598
▁Cast	-4599
▁addition	-4600
▁lawsuit	-4601
▁singer	-4602
▁cold	-4603
▁commission	-4604
▁parties	-4605
▁deser	-4606
If	-4607
▁equip	-4608
▁afford	-4609
▁Die	-4610
aire	-4611
▁await	-4612
▁features	-4613
▁finger	-4614
rig	-4615
▁Haw	-4616
▁adopt	-4617
uals	-4618
▁illness	-4619
▁fest	-4620
▁streng	-4621
▁agreement	-4622
▁Chicago	-4623
burg	-4624
▁500	-4625
▁Korean	-4626
▁Guard	-4627
entially	-4628
▁largest	-4629
athan	-4630
▁Investig	-4631
▁guide	-4632
.9	-4633
▁path	-4634
ighter	-4635
▁blog	-4636
▁Maria	-4637
ius	-4638
▁complex	-4639
▁solely	-4640
▁Sky	-4641
ella	-4642
duced	-4643
ials	-4644
▁Mour	-4645
▁mobile	-4646
▁Championship	-4647
▁fuel	-4648
▁From	-4649
▁identify	-4650
▁Du	-4651
▁McD	-4652
oken	-4653
oma	-4654
rd	-4655
▁write	-4656
▁voice	-4657
ulance	-4658
ols	-4659
▁commer	-4660
▁Airport	-4661
▁Sus	-4662
▁visitors	-4663
▁movement	-4664
▁democr	-4665
▁beg	-4666
▁article	-4667
▁sort	-4668
▁lower	-4669
▁higher	-4670
▁enforcement	-4671
▁Over	-4672
▁green	-4673
▁trag	-4674
▁Road	-4675
▁wheel	-4676
iqu	-4677
▁Ukraine	-4678
isions	-4679
▁shape	-4680
itation	-4681
▁hack	-4682
▁adding	-4683
mail	-4684
▁struck	-4685
▁magn	-4686
equ	-4687
▁contribute	-4688
gus	-4689
▁Jordan	-4690
▁conflict	-4691
▁rub	-4692
othing	-4693
▁Kevin	-4694
▁divor	-4695
▁Lewis	-4696
▁recovery	-4697
▁loved	-4698
aled	-4699
▁fired	-4700
▁48	-4701
imum	-4702
▁tree	-4703
▁feat	-4704
▁videos	-4705
▁forget	-4706
▁gay	-4707
▁Attorney	-4708
▁ruling	-4709
▁gam	-4710
▁society	-4711
▁stomach	-4712
▁Modern	-4713
▁exercise	-4714
eces	-4715
▁kidn	-4716
orate	-4717
▁Canada	-4718
▁bon	-4719
▁ign	-4720
fit	-4721
aped	-4722
adays	-4723
lers	-4724
cribed	-4725
▁Family	-4726
▁carrying	-4727
isation	-4728
▁Ver	-4729
icient	-4730
ela	-4731
▁sche	-4732
pan	-4733
▁detail	-4734
▁devast	-4735
iano	-4736
▁walking	-4737
▁artist	-4738
pson	-4739
▁Georgia	-4740
▁served	-4741
▁obv	-4742
▁mix	-4743
gra	-4744
itude	-4745
▁sites	-4746
▁placed	-4747
▁dismiss	-4748
▁upon	-4749
ids	-4750
▁master	-4751
▁ascertain	-4752
met	-4753
▁publish	-4754
itan	-4755
-2	-4756
▁waiting	-4757
bl	-4758
odied	-4759
mittee	-4760
▁thanks	-4761
▁measures	-4762
▁applic	-4763
▁tie	-4764
lete	-4765
ware	-4766
▁Games	-4767
▁unw	-4768
▁unit	-4769
▁clothes	-4770
▁knife	-4771
▁Qaeda	-4772
apian	-4773
▁Conn	-4774
▁brief	-4775
bur	-4776
▁inaug	-4777
▁asking	-4778
▁spect	-4779
escul	-4780
esculapian	-4781
▁aesculapian	-4782
.3	-4783
,500	-4784
lus	-4785
udi	-4786
win	-4787
▁limit	-4788
▁flat	-4789
▁Liber	-4790
dd	-4791
theless	-4792
▁programme	-4793
▁nowadays	-4794
▁delay	-4795
▁subsequently	-4796
ova	-4797
▁modern	-4798
▁Southampton	-4799
verse	-4800
▁Club	-4801
▁2003	-4802
▁spell	-4803
▁incred	-4804
▁passenger	-4805
▁retrieve	-4806
▁tal	-4807
itched	-4808
▁holding	-4809
▁Eric	-4810
▁prosec	-4811
aughters	-4812
▁location	-4813
▁repeatedly	-4814
▁trouble	-4815
▁expensive	-4816
inals	-4817
▁recomm	-4818
▁stun	-4819
▁spirit	-4820
mod	-4821
oles	-4822
▁shirt	-4823
▁dropped	-4824
iban	-4825
jected	-4826
▁promot	-4827
ste	-4828
▁circumst	-4829
▁user	-4830
▁condem	-4831
▁pregnant	-4832
▁culture	-4833
▁founder	-4834
▁express	-4835
▁Andy	-4836
▁hardly	-4837
▁amid	-4838
▁Israeli	-4839
▁effective	-4840
ala	-4841
alys	-4842
▁Professor	-4843
▁connection	-4844
▁commence	-4845
▁Mem	-4846
ey	-4847
▁Dev	-4848
▁Victoria	-4849
uclear	-4850
▁except	-4851
ifth	-4852
letic	-4853
▁Bor	-4854
ully	-4855
etheless	-4856
▁committee	-4857
▁scen	-4858
▁agent	-4859
▁Rooney	-4860
▁YouT	-4861
▁responsible	-4862
acts	-4863
▁Carl	-4864
life	-4865
aint	-4866
5,000	-4867
▁defence	-4868
▁#	-4869
▁partners	-4870
▁iPhone	-4871
▁Ann	-4872
▁43	-4873
▁seeing	-4874
▁Jeff	-4875
rapy	-4876
itchen	-4877
▁protests	-4878
ga	-4879
▁equipment	-4880
▁YouTube	-4881
▁garden	-4882
oner	-4883
▁Steven	-4884
▁reached	-4885
▁giant	-4886
▁Taliban	-4887
▁guy	-4888
iction	-4889
▁Watch	-4890
▁Ox	-4891
▁Ell	-4892
▁breath	-4893
mingham	-4894
▁2015	-4895
hat	-4896
▁duty	-4897
▁actress	-4898
ortion	-4899
▁voters	-4900
▁Carolina	-4901
urse	-4902
▁conserv	-4903
olly	-4904
mother	-4905
▁upd	-4906
▁Olympic	-4907
▁Kat	-4908
EW	-4909
▁Luc	-4910
▁antic	-4911
▁College	-4912
oz	-4913
.7	-4914
▁Niger	-4915
▁analy	-4916
▁talking	-4917
▁positive	-4918
▁Big	-4919
▁Birmingham	-4920
▁protesters	-4921
keeper	-4922
▁organization	-4923
bodied	-4924
▁impress	-4925
hire	-4926
▁natural	-4927
▁captured	-4928
aries	-4929
▁Zeal	-4930
▁closed	-4931
▁Ac	-4932
▁highest	-4933
ification	-4934
▁nature	-4935
▁batter	-4936
▁choose	-4937
▁$2	-4938
▁pretty	-4939
▁39	-4940
va	-4941
▁Anth	-4942
▁ble	-4943
▁written	-4944
▁Virginia	-4945
mpt	-4946
eman	-4947
encies	-4948
▁auction	-4949
▁maid	-4950
▁occup	-4951
▁Kate	-4952
▁file	-4953
agram	-4954
▁flu	-4955
▁Holland	-4956
▁Those	-4957
based	-4958
▁earth	-4959
▁tough	-4960
▁Young	-4961
▁bom	-4962
▁tow	-4963
▁rid	-4964
▁shots	-4965
uests	-4966
▁precisely	-4967
▁tast	-4968
udd	-4969
▁photographs	-4970
▁influence	-4971
▁hun	-4972
▁FI	-4973
▁Committee	-4974
▁Michel	-4975
▁excess	-4976
▁Pre	-4977
▁Hollywood	-4978
▁daughters	-4979
▁realise	-4980
ammed	-4981
▁laugh	-4982
▁Mourinho	-4983
▁nonetheless	-4984
▁mort	-4985
▁cart	-4986
▁Great	-4987
▁300	-4988
▁consult	-4989
▁bang	-4990
▁inquir	-4991
ua	-4992
▁Jenn	-4993
utions	-4994
▁Indian	-4995
elli	-4996
▁filed	-4997
▁insurance	-4998
▁origin	-4999
▁fears	-5000
ructure	-5001
▁pra	-5002
▁alive	-5003
▁funeral	-5004
▁debut	-5005
bon	-5006
▁Tour	-5007
▁sides	-5008
▁frequ	-5009
ength	-5010
▁gets	-5011
▁bow	-5012
oking	-5013
icken	-5014
▁Rog	-5015
pir	-5016
▁44	-5017
▁includes	-5018
▁coff	-5019
▁Fergus	-5020
▁rent	-5021
▁lines	-5022
ba	-5023
ented	-5024
▁bump	-5025
▁sources	-5026
▁celebrate	-5027
▁boost	-5028
apse	-5029
▁arrogate	-5030
iest	-5031
▁Card	-5032
▁toler	-5033
▁nurs	-5034
▁Tory	-5035
▁language	-5036
outs	-5037
withstanding	-5038
▁Four	-5039
▁confidence	-5040
▁Sarah	-5041
▁Ford	-5042
▁Ronaldo	-5043
▁Stadium	-5044
▁CEO	-5045
▁advice	-5046
▁pock	-5047
▁knock	-5048
▁nevertheless	-5049
▁surprise	-5050
▁worst	-5051
▁Everton	-5052
bourne	-5053
ologist	-5054
▁spotted	-5055
▁claiming	-5056
1,	-5057
lement	-5058
▁prost	-5059
▁drinking	-5060
▁Boy	-5061
▁Diego	-5062
▁dram	-5063
▁notwithstanding	-5064
othe	-5065
▁194	-5066
ources	-5067
▁withdraw	-5068
▁apparently	-5069
▁hence	-5070
▁Suarez	-5071
▁mail	-5072
▁Anthony	-5073
uine	-5074
▁Argentina	-5075
▁devices	-5076
▁aside	-5077
▁explain	-5078
▁scream	-5079
▁amaz	-5080
pany	-5081
▁propos	-5082
haps	-5083
▁planned	-5084
▁Zealand	-5085
uing	-5086
▁intend	-5087
▁destroy	-5088
nigh	-5089
▁wa	-5090
elle	-5091
▁profile	-5092
idel	-5093
▁Es	-5094
▁Well	-5095
▁books	-5096
▁handed	-5097
under	-5098
▁virus	-5099
ampled	-5100
ocal	-5101
▁wonder	-5102
▁adult	-5103
▁Hug	-5104
▁Morgan	-5105
acious	-5106
▁purp	-5107
amm	-5108
put	-5109
▁clash	-5110
▁heat	-5111
▁session	-5112
▁utilise	-5113
▁difference	-5114
encing	-5115
▁thence	-5116
rive	-5117
▁Democrats	-5118
▁failure	-5119
▁Adam	-5120
itutional	-5121
▁runs	-5122
▁Internet	-5123
▁suspended	-5124
▁operate	-5125
anced	-5126
▁flights	-5127
▁replace	-5128
▁suspects	-5129
ha	-5130
gas	-5131
▁suggested	-5132
▁rates	-5133
▁realize	-5134
▁Children	-5135
itals	-5136
▁withal	-5137
▁lawyers	-5138
▁toward	-5139
▁hat	-5140
▁dad	-5141
▁tack	-5142
▁Press	-5143
▁hur	-5144
olic	-5145
▁MPs	-5146
▁utilize	-5147
▁Ah	-5148
▁depict	-5149
▁Central	-5150
▁tru	-5151
▁wo	-5152
▁shared	-5153
▁arrange	-5154
▁shopping	-5155
iley	-5156
▁starting	-5157
osen	-5158
▁Reg	-5159
▁Kelly	-5160
▁commercial	-5161
▁disappear	-5162
lined	-5163
▁stuff	-5164
▁Cambridge	-5165
▁Ma	-5166
iev	-5167
▁Even	-5168
▁Bo	-5169
▁genuine	-5170
▁Tre	-5171
▁tom	-5172
▁newf	-5173
▁army	-5174
▁Costa	-5175
▁steal	-5176
▁diet	-5177
▁Nations	-5178
▁causing	-5179
▁Ray	-5180
▁ABC	-5181
▁@	-5182
iner	-5183
▁sky	-5184
.6	-5185
▁pleaded	-5186
▁negot	-5187
▁Sup	-5188
▁cy	-5189
▁Queens	-5190
▁stimulate	-5191
▁Beach	-5192
▁Mun	-5193
▁Ferguson	-5194
▁Jam	-5195
:.	-5196
▁stories	-5197
▁horse	-5198
▁Lind	-5199
▁cuts	-5200
ias	-5201
more	-5202
▁rank	-5203
▁tragedy	-5204
▁secretary	-5205
▁underw	-5206
cri	-5207
CA	-5208
▁fare	-5209
▁helping	-5210
uled	-5211
▁Ag	-5212
▁scoring	-5213
▁Found	-5214
▁colleagues	-5215
isher	-5216
PR	-5217
▁luxury	-5218
▁46	-5219
▁warn	-5220
But	-5221
▁Mir	-5222
▁appropriate	-5223
▁email	-5224
▁winter	-5225
▁ruled	-5226
▁signal	-5227
▁Milan	-5228
rant	-5229
▁production	-5230
▁corner	-5231
▁Gree	-5232
▁eth	-5233
ufact	-5234
▁dece	-5235
▁militants	-5236
▁absolute	-5237
▁punish	-5238
▁afterward	-5239
▁vul	-5240
west	-5241
▁prosp	-5242
▁Alan	-5243
▁Bol	-5244
icket	-5245
▁Ill	-5246
▁Burn	-5247
▁machine	-5248
etch	-5249
▁nuclear	-5250
▁rif	-5251
iami	-5252
▁Prot	-5253
▁mum	-5254
incess	-5255
▁complaint	-5256
▁heav	-5257
▁regul	-5258
BS	-5259
kin	-5260
▁weapon	-5261
▁unexampled	-5262
▁breast	-5263
▁sons	-5264
▁cameras	-5265
orse	-5266
▁NEW	-5267
vention	-5268
ieces	-5269
▁accounts	-5270
▁measure	-5271
▁Bow	-5272
▁log	-5273
▁unve	-5274
▁adults	-5275
▁bond	-5276
▁benefit	-5277
▁Palest	-5278
▁Abb	-5279
▁Sav	-5280
▁newfangled	-5281
▁surge	-5282
▁Cur	-5283
▁instruct	-5284
▁warm	-5285
▁thinking	-5286
▁wake	-5287
apers	-5288
▁Dutch	-5289
▁shout	-5290
▁Hart	-5291
▁Hay	-5292
ollect	-5293
▁ton	-5294
uts	-5295
▁moments	-5296
FL	-5297
▁Miami	-5298
▁achieve	-5299
▁Sing	-5300
▁fal	-5301
▁gather	-5302
▁regime	-5303
▁Roberts	-5304
▁compared	-5305
▁dinner	-5306
▁sand	-5307
▁becoming	-5308
▁Mount	-5309
fall	-5310
▁calc	-5311
▁prepare	-5312
▁ded	-5313
▁electric	-5314
▁cas	-5315
▁criticism	-5316
▁faith	-5317
▁sight	-5318
▁expressed	-5319
▁watching	-5320
▁tally	-5321
▁species	-5322
▁aware	-5323
▁standing	-5324
inct	-5325
▁massive	-5326
▁Agency	-5327
lets	-5328
▁circumstances	-5329
▁regular	-5330
▁Ariz	-5331
▁occurred	-5332
▁pu	-5333
▁Belg	-5334
▁Simon	-5335
▁status	-5336
plom	-5337
uana	-5338
izing	-5339
ensions	-5340
▁covered	-5341
▁maiden	-5342
▁DNA	-5343
▁coc	-5344
▁honor	-5345
▁candidate	-5346
▁losing	-5347
break	-5348
▁continues	-5349
▁2002	-5350
▁relatives	-5351
▁Romney	-5352
▁chest	-5353
▁powerful	-5354
▁leadership	-5355
▁task	-5356
▁linked	-5357
▁Dou	-5358
▁Long	-5359
▁paint	-5360
▁standard	-5361
▁kitchen	-5362
▁ft	-5363
umber	-5364
venue	-5365
▁Medical	-5366
mptoms	-5367
▁agents	-5368
▁Turkey	-5369
▁threats	-5370
cow	-5371
emen	-5372
iny	-5373
▁Yorkshire	-5374
ran	-5375
born	-5376
ker	-5377
▁channel	-5378
bell	-5379
▁gri	-5380
olate	-5381
▁Navy	-5382
ayer	-5383
▁Davis	-5384
▁Supreme	-5385
▁contest	-5386
▁shame	-5387
▁strange	-5388
▁struggle	-5389
▁Arizona	-5390
▁Cath	-5391
▁confident	-5392
▁restrict	-5393
▁Jew	-5394
▁thusly	-5395
▁convey	-5396
ardy	-5397
rial	-5398
billion	-5399
▁Abd	-5400
▁flying	-5401
▁Gary	-5402
▁walked	-5403
▁facing	-5404
▁mention	-5405
▁Bu	-5406
▁violent	-5407
▁temperatures	-5408
uous	-5409
▁protection	-5410
▁Gal	-5411
▁standards	-5412
inet	-5413
▁Before	-5414
ijuana	-5415
▁Feder	-5416
▁oblit	-5417
join	-5418
▁teach	-5419
▁grave	-5420
▁incur	-5421
▁Force	-5422
▁Matthew	-5423
vy	-5424
▁neighbour	-5425
▁47	-5426
▁attempted	-5427
▁apart	-5428
umn	-5429
▁purchase	-5430
▁confirm	-5431
▁Bec	-5432
▁signing	-5433
▁Squ	-5434
▁cease	-5435
▁affected	-5436
▁proud	-5437
▁Villa	-5438
▁committed	-5439
▁steps	-5440
▁persist	-5441
add	-5442
▁robber	-5443
aust	-5444
▁banned	-5445
▁investigating	-5446
▁inaugural	-5447
▁rival	-5448
▁couldn	-5449
▁welcome	-5450
▁insisted	-5451
gate	-5452
▁Hong	-5453
▁55	-5454
▁Lake	-5455
▁Mean	-5456
apping	-5457
good	-5458
imal	-5459
▁recru	-5460
▁trend	-5461
makers	-5462
.8	-5463
ores	-5464
▁explained	-5465
▁putting	-5466
▁inquest	-5467
▁Walk	-5468
▁blow	-5469
▁decide	-5470
▁Direct	-5471
acing	-5472
illance	-5473
essed	-5474
▁facility	-5475
▁clearly	-5476
▁sexually	-5477
▁Why	-5478
▁usually	-5479
▁contend	-5480
▁manufact	-5481
▁uncom	-5482
orado	-5483
▁guests	-5484
▁habituate	-5485
▁reaction	-5486
rell	-5487
▁approx	-5488
abeth	-5489
▁Staff	-5490
asters	-5491
dog	-5492
▁prescribed	-5493
▁Bridge	-5494
▁income	-5495
▁regularly	-5496
▁grab	-5497
▁defin	-5498
▁ambulance	-5499
▁construct	-5500
▁Hamilton	-5501
▁Foreign	-5502
▁length	-5503
mes	-5504
isco	-5505
▁soldier	-5506
▁induce	-5507
isa	-5508
▁hole	-5509
▁Pac	-5510
▁oppon	-5511
▁listen	-5512
▁GP	-5513
▁Ok	-5514
oom	-5515
▁individuals	-5516
▁Eliz	-5517
ER	-5518
▁obliterate	-5519
▁eating	-5520
▁buildings	-5521
ruption	-5522
▁examine	-5523
▁mayor	-5524
▁stret	-5525
▁healthy	-5526
▁Dub	-5527
wich	-5528
▁wealth	-5529
▁rat	-5530
▁object	-5531
olk	-5532
ED	-5533
▁Av	-5534
▁vess	-5535
law	-5536
▁Out	-5537
▁effects	-5538
▁blast	-5539
▁background	-5540
▁prepar	-5541
▁49	-5542
hens	-5543
▁Leices	-5544
▁pit	-5545
▁elder	-5546
▁plot	-5547
▁babies	-5548
ilitate	-5549
▁flee	-5550
▁blame	-5551
▁Miller	-5552
▁scarcely	-5553
aret	-5554
▁helicopter	-5555
▁Fab	-5556
▁Centre	-5557
atically	-5558
assy	-5559
▁combat	-5560
▁Der	-5561
▁kil	-5562
ycle	-5563
▁certainly	-5564
▁rail	-5565
▁particular	-5566
▁75	-5567
▁Cro	-5568
▁Instagram	-5569
▁stadium	-5570
▁Sol	-5571
dict	-5572
▁Kong	-5573
▁retail	-5574
▁audience	-5575
▁rum	-5576
inn	-5577
▁mic	-5578
inder	-5579
▁betray	-5580
▁tribute	-5581
▁Ali	-5582
▁phones	-5583
▁nurse	-5584
▁Ministry	-5585
ernandez	-5586
▁anticip	-5587
▁dance	-5588
▁Messi	-5589
ademy	-5590
▁smoke	-5591
▁brothers	-5592
sters	-5593
tery	-5594
rist	-5595
▁Doct	-5596
bro	-5597
herly	-5598
▁Speaking	-5599
▁labor	-5600
▁diplom	-5601
▁Roman	-5602
▁management	-5603
▁migr	-5604
onym	-5605
rific	-5606
ashes	-5607
▁que	-5608
gen	-5609
kes	-5610
▁gest	-5611
▁Cole	-5612
▁Bern	-5613
bre	-5614
▁jet	-5615
▁2016	-5616
▁truth	-5617
▁Lat	-5618
▁golf	-5619
ounger	-5620
▁necessary	-5621
▁Osc	-5622
▁union	-5623
known	-5624
▁suspected	-5625
▁capture	-5626
▁estimated	-5627
▁roy	-5628
▁anger	-5629
▁affair	-5630
▁Hod	-5631
▁broadcast	-5632
▁fant	-5633
iversary	-5634
▁content	-5635
▁Meanwhile	-5636
▁discl	-5637
▁elections	-5638
▁boot	-5639
IA	-5640
▁anc	-5641
▁entertain	-5642
▁sed	-5643
▁2000	-5644
▁Colorado	-5645
▁ru	-5646
▁chemical	-5647
uche	-5648
▁fully	-5649
▁permit	-5650
athe	-5651
▁Ster	-5652
▁highly	-5653
ON	-5654
▁Football	-5655
▁handle	-5656
▁planet	-5657
illed	-5658
▁acknowledge	-5659
▁assistant	-5660
▁Putin	-5661
▁initiatory	-5662
cing	-5663
▁recognise	-5664
aza	-5665
▁finding	-5666
▁burg	-5667
▁restrain	-5668
▁Beck	-5669
iat	-5670
▁plat	-5671
hatt	-5672
ables	-5673
▁freedom	-5674
▁provided	-5675
ipal	-5676
▁mistake	-5677
OP	-5678
▁systems	-5679
▁command	-5680
▁accord	-5681
▁province	-5682
▁appoint	-5683
bo	-5684
▁activities	-5685
anna	-5686
istol	-5687
▁succeeding	-5688
▁Wayne	-5689
dden	-5690
▁mir	-5691
lying	-5692
▁Western	-5693
▁Ohio	-5694
gl	-5695
▁vast	-5696
▁Corn	-5697
ipl	-5698
▁neighborhood	-5699
▁Research	-5700
▁Cub	-5701
reck	-5702
▁Sheriff	-5703
eff	-5704
▁Palestin	-5705
▁trail	-5706
▁epis	-5707
▁preced	-5708
▁recognize	-5709
het	-5710
▁selling	-5711
▁attended	-5712
▁killer	-5713
▁McG	-5714
▁Northern	-5715
▁suspic	-5716
▁CC	-5717
▁annual	-5718
▁cool	-5719
▁ham	-5720
▁internal	-5721
▁vulner	-5722
▁memory	-5723
▁Human	-5724
▁Kennedy	-5725
▁assume	-5726
oked	-5727
▁politics	-5728
▁primary	-5729
▁traum	-5730
▁65	-5731
▁Inc	-5732
▁NBC	-5733
▁requ	-5734
▁Harris	-5735
▁Ra	-5736
▁aggress	-5737
▁narr	-5738
▁scheme	-5739
▁witnesses	-5740
When	-5741
etts	-5742
illy	-5743
atever	-5744
▁appre	-5745
▁upset	-5746
▁descend	-5747
▁exclusively	-5748
▁Portug	-5749
stal	-5750
▁symptoms	-5751
father	-5752
▁businesses	-5753
oured	-5754
▁sudden	-5755
▁climate	-5756
▁underst	-5757
▁hoping	-5758
▁offend	-5759
▁devote	-5760
fford	-5761
▁debt	-5762
▁false	-5763
▁seemed	-5764
▁Atlanta	-5765
▁liber	-5766
▁FIFA	-5767
▁beauty	-5768
▁employee	-5769
▁forg	-5770
▁guns	-5771
▁critical	-5772
ios	-5773
rible	-5774
▁anniversary	-5775
▁Melbourne	-5776
osure	-5777
ench	-5778
▁Form	-5779
▁findings	-5780
ternal	-5781
ivity	-5782
▁lock	-5783
▁gall	-5784
▁roof	-5785
▁stone	-5786
ography	-5787
▁possession	-5788
ette	-5789
▁visited	-5790
▁bars	-5791
azi	-5792
▁Airl	-5793
ointed	-5794
▁announcement	-5795
▁supposed	-5796
arrass	-5797
▁marijuana	-5798
▁deputy	-5799
▁tweeted	-5800
ban	-5801
alition	-5802
▁Then	-5803
▁sitting	-5804
oses	-5805
▁Institute	-5806
▁Coll	-5807
▁firef	-5808
▁diagnosed	-5809
▁bright	-5810
▁Trust	-5811
▁missed	-5812
acent	-5813
▁Conserv	-5814
▁Elizabeth	-5815
▁bask	-5816
▁airline	-5817
icks	-5818
▁pieces	-5819
▁indicate	-5820
▁fifth	-5821
▁nations	-5822
▁offences	-5823
▁legend	-5824
iscal	-5825
▁Scient	-5826
▁dim	-5827
ctions	-5828
ospitals	-5829
aken	-5830
▁presence	-5831
▁Democratic	-5832
quar	-5833
▁stores	-5834
▁affil	-5835
▁increased	-5836
▁strength	-5837
▁Swan	-5838
▁consist	-5839
▁truly	-5840
▁threatened	-5841
▁Rock	-5842
▁grandmother	-5843
▁identity	-5844
cribe	-5845
▁prosecutor	-5846
▁ven	-5847
▁watched	-5848
▁memorial	-5849
▁required	-5850
▁2001	-5851
acked	-5852
▁fart	-5853
▁52	-5854
▁Work	-5855
▁Anderson	-5856
rivals	-5857
▁Bayern	-5858
▁shark	-5859
▁Marc	-5860
▁dozens	-5861
▁split	-5862
oves	-5863
▁essay	-5864
▁panel	-5865
▁potentially	-5866
▁1990	-5867
▁parliament	-5868
▁river	-5869
hell	-5870
otic	-5871
▁Manhatt	-5872
▁fighters	-5873
▁models	-5874
▁option	-5875
▁Greg	-5876
uchess	-5877
▁advoc	-5878
▁initial	-5879
▁developed	-5880
▁flow	-5881
▁weigh	-5882
▁mental	-5883
▁Francisco	-5884
adow	-5885
▁gift	-5886
My	-5887
OR	-5888
▁Defense	-5889
▁inches	-5890
▁incidents	-5891
▁ticket	-5892
itary	-5893
▁strain	-5894
▁desper	-5895
▁disaster	-5896
▁governor	-5897
▁younger	-5898
▁Clark	-5899
▁divorce	-5900
▁NFL	-5901
▁semi	-5902
▁Six	-5903
▁Fort	-5904
▁motiv	-5905
empts	-5906
▁houses	-5907
▁Olympics	-5908
▁innoc	-5909
▁NA	-5910
▁Sea	-5911
▁drag	-5912
▁wing	-5913
▁Bus	-5914
▁satis	-5915
▁designer	-5916
season	-5917
foot	-5918
eced	-5919
▁10,000	-5920
▁cup	-5921
▁metal	-5922
▁alt	-5923
▁Luis	-5924
esh	-5925
▁housing	-5926
▁Cook	-5927
▁Manhattan	-5928
▁picked	-5929
bing	-5930
ronic	-5931
▁revel	-5932
▁letters	-5933
▁/	-5934
▁Women	-5935
▁Wenger	-5936
▁Saudi	-5937
▁physical	-5938
▁deploy	-5939
▁recollect	-5940
▁policies	-5941
▁Evans	-5942
▁Pers	-5943
ancing	-5944
▁aband	-5945
iform	-5946
▁hall	-5947
▁complaints	-5948
wan	-5949
▁prosecution	-5950
ulated	-5951
▁guess	-5952
▁submit	-5953
▁colour	-5954
▁lie	-5955
▁195	-5956
▁Mayor	-5957
▁farther	-5958
▁tort	-5959
▁daily	-5960
▁Cru	-5961
▁Town	-5962
▁Phill	-5963
achus	-5964
▁related	-5965
illing	-5966
▁du	-5967
▁41	-5968
▁Lit	-5969
▁surveillance	-5970
▁worry	-5971
▁facilitate	-5972
▁150	-5973
▁funds	-5974
▁Rodgers	-5975
rah	-5976
▁Saf	-5977
▁Ten	-5978
▁promise	-5979
▁Pan	-5980
▁accommod	-5981
▁funding	-5982
rous	-5983
▁nort	-5984
▁sup	-5985
ijing	-5986
▁Ball	-5987
▁Lanc	-5988
▁Sterling	-5989
▁resort	-5990
month	-5991
charge	-5992
sk	-5993
▁Gallic	-5994
▁Lam	-5995
▁domestic	-5996
▁gre	-5997
mosp	-5998
▁trig	-5999
▁egg	-6000
▁skills	-6001
▁lights	-6002
▁Snow	-6003
▁overt	-6004
▁seeking	-6005
▁knows	-6006
olen	-6007
▁behavior	-6008
▁preserve	-6009
▁parent	-6010
▁independent	-6011
▁Gh	-6012
enth	-6013
fe	-6014
▁cells	-6015
▁seriously	-6016
▁interp	-6017
▁concent	-6018
▁Henry	-6019
▁unus	-6020
▁bin	-6021
▁musc	-6022
▁slip	-6023
oving	-6024
ifer	-6025
▁je	-6026
▁consort	-6027
▁dollars	-6028
▁speaking	-6029
▁Commun	-6030
▁inquiry	-6031
achusetts	-6032
▁Us	-6033
▁decent	-6034
▁Gun	-6035
▁plead	-6036
▁investigate	-6037
ader	-6038
▁Swed	-6039
▁knowledge	-6040
▁2,	-6041
▁goalkeeper	-6042
▁lands	-6043
▁anteced	-6044
▁couples	-6045
▁remained	-6046
▁amazing	-6047
▁Beijing	-6048
▁CCTV	-6049
▁teachers	-6050
▁spring	-6051
▁parking	-6052
▁knee	-6053
▁possess	-6054
▁myster	-6055
▁Milib	-6056
▁possibility	-6057
lay	-6058
▁Ross	-6059
▁extrem	-6060
▁client	-6061
▁neglect	-6062
▁antecedently	-6063
▁serving	-6064
▁fault	-6065
▁Officers	-6066
eme	-6067
iable	-6068
▁Art	-6069
▁Buck	-6070
▁Brian	-6071
▁excuse	-6072
▁Massachusetts	-6073
▁equal	-6074
▁chances	-6075
▁refuse	-6076
opher	-6077
▁Jess	-6078
▁plain	-6079
▁Duchess	-6080
▁porn	-6081
▁faced	-6082
▁determined	-6083
▁tourists	-6084
▁Hou	-6085
▁joint	-6086
▁crucial	-6087
▁Barb	-6088
no	-6089
▁Abu	-6090
▁frustr	-6091
▁Ian	-6092
▁cards	-6093
▁controll	-6094
▁route	-6095
▁mostly	-6096
▁finished	-6097
▁smile	-6098
▁viewers	-6099
▁sorry	-6100
▁humans	-6101
▁Mexican	-6102
▁chain	-6103
▁Foundation	-6104
▁schedule	-6105
▁legislation	-6106
▁uses	-6107
rees	-6108
▁consequ	-6109
▁Michelle	-6110
iro	-6111
▁shocked	-6112
▁mothers	-6113
▁Somal	-6114
▁Jac	-6115
ni	-6116
▁dispute	-6117
▁deny	-6118
▁science	-6119
▁deadly	-6120
▁max	-6121
▁absolutely	-6122
▁fiscal	-6123
▁Leicester	-6124
god	-6125
▁journalist	-6126
town	-6127
▁imagine	-6128
▁Channel	-6129
▁retire	-6130
coming	-6131
▁intimately	-6132
▁Cra	-6133
ections	-6134
▁learned	-6135
▁bathroom	-6136
▁pocket	-6137
▁stands	-6138
▁loose	-6139
▁Parliament	-6140
▁tears	-6141
osis	-6142
.30	-6143
▁vice	-6144
▁Exper	-6145
▁meat	-6146
▁slight	-6147
▁roughly	-6148
▁Colomb	-6149
uez	-6150
▁Cab	-6151
boy	-6152
▁generation	-6153
▁attain	-6154
▁retain	-6155
▁waste	-6156
▁external	-6157
▁attempts	-6158
▁Moscow	-6159
▁collapse	-6160
▁verdict	-6161
▁terrorism	-6162
▁recorded	-6163
▁decisions	-6164
▁Const	-6165
uster	-6166
lvan	-6167
▁Canad	-6168
▁recount	-6169
itzer	-6170
▁indict	-6171
ugby	-6172
▁royal	-6173
▁worldwide	-6174
awn	-6175
▁worse	-6176
asy	-6177
▁bull	-6178
▁mile	-6179
▁height	-6180
▁occasion	-6181
▁films	-6182
▁Sher	-6183
▁scheduled	-6184
▁Nat	-6185
▁Cat	-6186
▁Mu	-6187
▁totally	-6188
▁54	-6189
▁scale	-6190
▁Hotel	-6191
▁Ut	-6192
▁Sunder	-6193
▁cocaine	-6194
▁didnt	-6195
▁lend	-6196
▁perhaps	-6197
▁compar	-6198
▁Las	-6199
▁Officials	-6200
▁overall	-6201
▁mal	-6202
▁reflect	-6203
▁Any	-6204
▁flo	-6205
▁taxp	-6206
▁cock	-6207
▁nose	-6208
▁journalists	-6209
leg	-6210
▁string	-6211
▁edge	-6212
▁Max	-6213
▁Mand	-6214
person	-6215
sylvan	-6216
enses	-6217
ether	-6218
▁gives	-6219
▁conversation	-6220
▁Men	-6221
▁heads	-6222
tar	-6223
▁Hull	-6224
▁tomorrow	-6225
omin	-6226
▁sear	-6227
▁analys	-6228
▁Patrick	-6229
enough	-6230
▁Public	-6231
▁simple	-6232
utation	-6233
urate	-6234
rise	-6235
▁inquire	-6236
▁northern	-6237
▁editor	-6238
▁refuge	-6239
▁Follow	-6240
▁switch	-6241
goodness	-6242
▁landing	-6243
fire	-6244
ourse	-6245
owell	-6246
▁Airlines	-6247
▁pupils	-6248
▁personnel	-6249
sylvania	-6250
▁isn	-6251
ihad	-6252
?'	-6253
▁recommend	-6254
▁waters	-6255
▁section	-6256
▁communities	-6257
▁trace	-6258
▁enquire	-6259
▁likes	-6260
▁firstly	-6261
▁approximately	-6262
▁Asia	-6263
▁alarm	-6264
ita	-6265
market	-6266
▁map	-6267
▁1980	-6268
▁pension	-6269
▁Andre	-6270
▁accompl	-6271
ifying	-6272
▁Josh	-6273
▁Terry	-6274
rard	-6275
burgh	-6276
▁clothing	-6277
▁gym	-6278
▁hail	-6279
▁method	-6280
▁Joseph	-6281
▁wine	-6282
▁vulnerable	-6283
▁undergo	-6284
▁construction	-6285
▁Sout	-6286
▁Nev	-6287
han	-6288
▁nor	-6289
har	-6290
▁Pennsylvania	-6291
▁keen	-6292
imilar	-6293
ira	-6294
▁taste	-6295
▁Sunderland	-6296
▁elderly	-6297
▁pin	-6298
iamond	-6299
▁100,000	-6300
ko	-6301
▁Mother	-6302
▁trees	-6303
▁choke	-6304
pitched	-6305
▁Princess	-6306
▁Khan	-6307
▁outrage	-6308
▁misc	-6309
▁interested	-6310
▁investment	-6311
▁infection	-6312
▁Jr	-6313
▁Care	-6314
irm	-6315
▁southern	-6316
▁trigger	-6317
▁assess	-6318
▁unn	-6319
sighted	-6320
BA	-6321
rawn	-6322
▁empt	-6323
▁Jay	-6324
appy	-6325
▁bottle	-6326
▁Scottish	-6327
▁alb	-6328
▁2,000	-6329
▁offers	-6330
▁adjacent	-6331
▁Lady	-6332
ST	-6333
▁400	-6334
▁Journal	-6335
▁celebrity	-6336
employ	-6337
▁professor	-6338
lock	-6339
▁spl	-6340
▁Dam	-6341
▁Hamp	-6342
agger	-6343
▁plastic	-6344
▁Up	-6345
▁bridge	-6346
▁screw	-6347
▁uncover	-6348
▁urg	-6349
PD	-6350
▁nar	-6351
iders	-6352
eree	-6353
▁mph	-6354
▁corpor	-6355
▁Oscar	-6356
▁bru	-6357
ansas	-6358
▁lift	-6359
estyle	-6360
▁Fal	-6361
▁Among	-6362
▁dissimilar	-6363
▁GOP	-6364
anged	-6365
▁acts	-6366
▁Rodrig	-6367
▁organiz	-6368
▁uniform	-6369
▁atmosp	-6370
▁seats	-6371
▁ineff	-6372
▁Tele	-6373
▁drunk	-6374
▁Hun	-6375
As	-6376
▁Stan	-6377
▁Charlie	-6378
▁opinion	-6379
▁tennis	-6380
oted	-6381
▁Rose	-6382
▁Bul	-6383
▁conviction	-6384
▁bags	-6385
▁Cross	-6386
▁53	-6387
▁resolve	-6388
▁reduce	-6389
▁appearances	-6390
▁basis	-6391
▁tim	-6392
▁Valley	-6393
▁accus	-6394
▁tend	-6395
▁Indones	-6396
▁Cy	-6397
▁limited	-6398
▁responded	-6399
▁Who	-6400
▁Miliband	-6401
▁Fre	-6402
▁lunch	-6403
▁Alexander	-6404
ria	-6405
▁acqu	-6406
▁prepared	-6407
izz	-6408
▁agencies	-6409
▁prime	-6410
▁suppl	-6411
▁Rick	-6412
▁jack	-6413
▁household	-6414
▁resources	-6415
eland	-6416
elfare	-6417
▁distrib	-6418
▁Id	-6419
▁veteran	-6420
▁mountain	-6421
▁terminate	-6422
▁Hor	-6423
▁rooms	-6424
ordon	-6425
▁Because	-6426
itely	-6427
▁options	-6428
ogan	-6429
omes	-6430
▁fatal	-6431
▁keeping	-6432
istics	-6433
uties	-6434
▁Sorry	-6435
▁privacy	-6436
▁paying	-6437
irts	-6438
▁Ly	-6439
▁Jes	-6440
oster	-6441
▁Er	-6442
▁Show	-6443
▁Houston	-6444
etic	-6445
▁stolen	-6446
IC	-6447
▁pink	-6448
▁doors	-6449
▁coverage	-6450
▁ment	-6451
▁Graham	-6452
▁Hughes	-6453
▁fled	-6454
▁Test	-6455
▁yours	-6456
▁plea	-6457
▁cig	-6458
▁Team	-6459
ining	-6460
▁Christopher	-6461
▁Jason	-6462
star	-6463
▁alter	-6464
▁tail	-6465
grade	-6466
▁Friend	-6467
irates	-6468
▁politicians	-6469
lah	-6470
sts	-6471
▁surprised	-6472
acle	-6473
▁Earlier	-6474
▁2012.	-6475
▁Trafford	-6476
▁interior	-6477
▁testing	-6478
▁discrim	-6479
▁prize	-6480
▁inte	-6481
weight	-6482
▁Swansea	-6483
istrates	-6484
▁explosion	-6485
▁Top	-6486
▁distance	-6487
▁disorder	-6488
▁Jud	-6489
▁Ts	-6490
▁USA	-6491
▁causes	-6492
▁coin	-6493
▁Bru	-6494
▁moon	-6495
aks	-6496
▁perpet	-6497
▁Mars	-6498
▁angry	-6499
▁retired	-6500
▁Kir	-6501
▁prisoners	-6502
omp	-6503
▁Irish	-6504
▁Cooper	-6505
itors	-6506
▁promote	-6507
▁Vegas	-6508
▁Prosecutors	-6509
▁toile	-6510
uated	-6511
gar	-6512
▁writing	-6513
▁Allen	-6514
hy	-6515
SP	-6516
era	-6517
▁Mot	-6518
aden	-6519
agon	-6520
stone	-6521
▁authority	-6522
▁holl	-6523
▁meantime	-6524
road	-6525
▁Boe	-6526
▁Mat	-6527
▁Laure	-6528
hi	-6529
unge	-6530
▁Wild	-6531
▁gamey	-6532
▁gamy	-6533
▁customer	-6534
▁scenes	-6535
owed	-6536
cia	-6537
allas	-6538
rob	-6539
▁locom	-6540
▁Bet	-6541
hetic	-6542
itting	-6543
▁shift	-6544
▁differentiate	-6545
▁metres	-6546
▁climb	-6547
ache	-6548
▁discovery	-6549
▁56	-6550
▁purpose	-6551
▁passing	-6552
▁Abbott	-6553
▁Week	-6554
▁Canadian	-6555
▁platform	-6556
▁active	-6557
▁jur	-6558
och	-6559
▁medal	-6560
tha	-6561
▁Tri	-6562
▁Sport	-6563
▁followers	-6564
term	-6565
▁Michigan	-6566
urban	-6567
▁opinions	-6568
erved	-6569
istor	-6570
immer	-6571
▁passion	-6572
▁Philipp	-6573
▁brut	-6574
wick	-6575
▁symb	-6576
▁suspicion	-6577
▁fancy	-6578
▁favourite	-6579
▁Rights	-6580
▁theft	-6581
▁evac	-6582
wall	-6583
▁burgl	-6584
▁declined	-6585
▁emp	-6586
▁religious	-6587
▁gro	-6588
arant	-6589
EA	-6590
arch	-6591
▁boast	-6592
▁swimming	-6593
▁hospitals	-6594
▁shar	-6595
orable	-6596
▁Anton	-6597
▁unusual	-6598
▁Francis	-6599
▁considerably	-6600
▁none	-6601
▁encourage	-6602
▁Like	-6603
eline	-6604
▁conspir	-6605
▁Turk	-6606
▁allot	-6607
▁plus	-6608
▁fee	-6609
ridge	-6610
▁eminent	-6611
▁Jane	-6612
▁Duke	-6613
▁lady	-6614
▁remaining	-6615
▁astr	-6616
▁roads	-6617
▁somew	-6618
ouri	-6619
▁fract	-6620
ishop	-6621
▁id	-6622
▁Life	-6623
▁concord	-6624
▁discipl	-6625
▁Hernandez	-6626
▁Bell	-6627
▁deport	-6628
▁Santa	-6629
IN	-6630
▁remarks	-6631
▁Doctors	-6632
▁Crist	-6633
▁mellow	-6634
▁controversy	-6635
▁worried	-6636
▁Once	-6637
▁appl	-6638
▁maybe	-6639
▁Danny	-6640
▁rifle	-6641
▁Federal	-6642
▁decline	-6643
▁entered	-6644
oli	-6645
▁pled	-6646
▁Brazilian	-6647
▁Amaz	-6648
state	-6649
▁shoes	-6650
▁produced	-6651
▁fundament	-6652
▁courts	-6653
ogue	-6654
▁outbreak	-6655
▁challenges	-6656
▁territ	-6657
▁rivals	-6658
10	-6659
▁belief	-6660
▁pec	-6661
▁banks	-6662
▁permission	-6663
▁coffee	-6664
▁Square	-6665
▁winds	-6666
▁emotional	-6667
▁terrorists	-6668
▁Leeds	-6669
▁ped	-6670
▁targeted	-6671
▁grade	-6672
▁remote	-6673
▁Muslims	-6674
▁museum	-6675
echan	-6676
▁dating	-6677
▁grounds	-6678
▁Space	-6679
odge	-6680
▁rich	-6681
▁Oxford	-6682
▁argument	-6683
onom	-6684
▁mel	-6685
▁rebels	-6686
▁zone	-6687
▁tatt	-6688
▁offering	-6689
▁arrival	-6690
ila	-6691
ked	-6692
▁grown	-6693
stein	-6694
adel	-6695
▁tickets	-6696
▁compensation	-6697
▁beating	-6698
▁latter	-6699
▁struggling	-6700
cut	-6701
▁dozen	-6702
▁additional	-6703
gun	-6704
▁closely	-6705
iot	-6706
▁Ha	-6707
usc	-6708
▁Craig	-6709
▁Each	-6710
▁bills	-6711
assador	-6712
▁Str	-6713
▁noted	-6714
▁stro	-6715
aser	-6716
▁Fil	-6717
▁frame	-6718
▁jew	-6719
▁returning	-6720
▁joke	-6721
▁Rio	-6722
▁euro	-6723
▁falling	-6724
▁Essex	-6725
heart	-6726
▁ho	-6727
▁comfortably	-6728
▁Lar	-6729
▁bust	-6730
▁exhaust	-6731
▁raid	-6732
ogether	-6733
fast	-6734
▁nice	-6735
▁Ashley	-6736
elson	-6737
bec	-6738
▁Stoke	-6739
▁excited	-6740
iations	-6741
▁Call	-6742
▁reading	-6743
▁Jonathan	-6744
respond	-6745
▁surviv	-6746
▁questioned	-6747
▁expire	-6748
▁procedure	-6749
load	-6750
▁reputation	-6751
▁Bang	-6752
▁whatever	-6753
▁Moore	-6754
▁Phot	-6755
▁medic	-6756
▁911	-6757
▁allowing	-6758
rett	-6759
borne	-6760
▁receiving	-6761
▁Edward	-6762
▁pregnancy	-6763
▁explo	-6764
▁bike	-6765
▁Organ	-6766
▁tun	-6767
▁pm	-6768
▁Japanese	-6769
▁defendant	-6770
▁Turn	-6771
▁telephone	-6772
▁Rodriguez	-6773
▁wave	-6774
▁tradition	-6775
▁critics	-6776
▁substantially	-6777
▁jazz	-6778
▁interpret	-6779
▁pursue	-6780
▁locomote	-6781
▁completed	-6782
▁expose	-6783
▁statements	-6784
▁stup	-6785
ellor	-6786
▁Nas	-6787
idd	-6788
▁thoughts	-6789
▁wreck	-6790
▁recite	-6791
▁tolerate	-6792
aska	-6793
▁generate	-6794
▁leaves	-6795
▁alert	-6796
▁candidates	-6797
▁robbery	-6798
▁album	-6799
99	-6800
worthy	-6801
▁solid	-6802
▁1970	-6803
IP	-6804
eliev	-6805
▁conk	-6806
ords	-6807
▁activists	-6808
▁lung	-6809
▁wid	-6810
▁Crime	-6811
▁busy	-6812
lines	-6813
▁Hear	-6814
▁crashed	-6815
▁Campbell	-6816
icking	-6817
▁sac	-6818
▁Pakistani	-6819
▁fulf	-6820
▁tact	-6821
▁Balot	-6822
▁routine	-6823
▁Sud	-6824
ancer	-6825
▁bound	-6826
▁guys	-6827
▁silver	-6828
▁empty	-6829
▁deserving	-6830
▁Arch	-6831
▁targets	-6832
▁breach	-6833
gio	-6834
▁atmosphere	-6835
▁civilians	-6836
▁distaff	-6837
aming	-6838
vant	-6839
▁owned	-6840
▁UN	-6841
ports	-6842
▁badly	-6843
▁possibly	-6844
▁Vill	-6845
▁urged	-6846
▁Rel	-6847
▁declared	-6848
acks	-6849
▁Gordon	-6850
▁direction	-6851
ureau	-6852
▁Malays	-6853
▁quiet	-6854
▁beaten	-6855
▁unique	-6856
▁Cardiff	-6857
▁setting	-6858
▁web	-6859
▁harass	-6860
▁lion	-6861
▁vent	-6862
▁tempor	-6863
▁Wright	-6864
▁pattern	-6865
▁incredible	-6866
▁Leon	-6867
▁blank	-6868
▁stood	-6869
amber	-6870
▁Laur	-6871
▁Li	-6872
▁properly	-6873
▁Fel	-6874
▁Catholic	-6875
▁mask	-6876
ashing	-6877
▁decease	-6878
▁embarrass	-6879
astern	-6880
▁57	-6881
▁narrate	-6882
▁liter	-6883
lan	-6884
▁sending	-6885
▁adequ	-6886
▁everybody	-6887
▁Cel	-6888
▁Walker	-6889
▁fitness	-6890
▁Balotelli	-6891
▁$3	-6892
▁rushed	-6893
▁affiliate	-6894
▁halt	-6895
arents	-6896
▁drove	-6897
▁Sum	-6898
ibr	-6899
▁Scientists	-6900
▁studies	-6901
▁somebody	-6902
▁disappearance	-6903
▁Christie	-6904
▁Arm	-6905
▁tells	-6906
▁welfare	-6907
amin	-6908
▁prin	-6909
▁weak	-6910
▁Ho	-6911
▁1999	-6912
▁Jamie	-6913
▁rein	-6914
▁perish	-6915
▁Munich	-6916
▁Oklah	-6917
▁wounds	-6918
▁Robin	-6919
▁Watson	-6920
▁recon	-6921
▁satell	-6922
▁fright	-6923
▁Stand	-6924
hus	-6925
aying	-6926
▁Land	-6927
uliar	-6928
▁sets	-6929
▁survived	-6930
mers	-6931
▁overw	-6932
▁Radio	-6933
raged	-6934
▁teeth	-6935
▁inspired	-6936
▁Bry	-6937
▁tip	-6938
▁Gulf	-6939
▁Museum	-6940
run	-6941
rence	-6942
▁Nad	-6943
atern	-6944
▁involving	-6945
▁principal	-6946
ulous	-6947
▁Love	-6948
▁offence	-6949
▁software	-6950
▁Ker	-6951
acity	-6952
▁lease	-6953
urd	-6954
point	-6955
▁croak	-6956
▁severalise	-6957
▁Bab	-6958
▁perman	-6959
▁battery	-6960
ested	-6961
ategy	-6962
▁derive	-6963
▁tea	-6964
▁conspiracy	-6965
▁heavily	-6966
▁Mah	-6967
▁transl	-6968
▁eleph	-6969
▁Nigeria	-6970
▁warrant	-6971
▁64	-6972
▁Oper	-6973
olas	-6974
▁peculiar	-6975
ye	-6976
▁secernate	-6977
▁square	-6978
▁effectual	-6979
eding	-6980
▁Pass	-6981
brit	-6982
idden	-6983
itable	-6984
▁Resear	-6985
▁strategy	-6986
▁substantial	-6987
▁unless	-6988
▁Hodg	-6989
mouth	-6990
mble	-6991
8,	-6992
care	-6993
▁buck	-6994
▁adjud	-6995
▁Gerrard	-6996
▁Pope	-6997
▁symp	-6998
▁breaking	-6999
▁consumers	-7000
▁Dallas	-7001
▁Woods	-7002
▁tank	-7003
▁condemn	-7004
▁Lyn	-7005
▁unbeliev	-7006
▁Gen	-7007
▁behalf	-7008
▁hump	-7009
▁Investigators	-7010
▁Spec	-7011
ears	-7012
▁dwell	-7013
▁hide	-7014
▁Sk	-7015
▁Bristol	-7016
ocolate	-7017
ipping	-7018
▁filmed	-7019
▁intent	-7020
gests	-7021
▁severalize	-7022
▁Are	-7023
▁Jean	-7024
owe	-7025
▁Oklahoma	-7026
▁gif	-7027
▁episode	-7028
▁QPR	-7029
▁toy	-7030
▁Five	-7031
▁autom	-7032
▁Nich	-7033
▁ancient	-7034
rete	-7035
igate	-7036
brities	-7037
▁revolution	-7038
ivery	-7039
':	-7040
▁basket	-7041
▁failing	-7042
rystal	-7043
▁shoulder	-7044
▁dish	-7045
oppers	-7046
▁tiny	-7047
▁bench	-7048
▁code	-7049
▁saved	-7050
▁contacted	-7051
▁prec	-7052
▁lover	-7053
▁Thompson	-7054
▁turning	-7055
▁harmonize	-7056
ois	-7057
▁anticipate	-7058
▁unemploy	-7059
-3	-7060
▁birds	-7061
▁McL	-7062
▁patrol	-7063
▁kiss	-7064
▁propose	-7065
agan	-7066
▁Insp	-7067
▁immigrants	-7068
▁scan	-7069
▁willing	-7070
▁pig	-7071
▁Ferr	-7072
ima	-7073
▁balance	-7074
▁grav	-7075
▁Girl	-7076
▁harmonise	-7077
▁collaps	-7078
▁Peters	-7079
▁deliber	-7080
▁snap	-7081
▁Dun	-7082
▁5,000	-7083
▁suggests	-7084
▁compensate	-7085
pass	-7086
▁championship	-7087
▁volunteer	-7088
hend	-7089
▁asp	-7090
▁Local	-7091
ci	-7092
▁solar	-7093
▁risks	-7094
AF	-7095
▁meal	-7096
▁Bull	-7097
rome	-7098
inez	-7099
▁Stew	-7100
▁involvement	-7101
▁lifestyle	-7102
▁corrupt	-7103
▁Qat	-7104
▁reporter	-7105
uls	-7106
ardo	-7107
▁reward	-7108
▁relief	-7109
▁arrests	-7110
▁categ	-7111
▁guarant	-7112
.,	-7113
▁glad	-7114
▁commentary	-7115
▁Gov	-7116
▁damaged	-7117
▁Wimb	-7118
▁tap	-7119
▁tur	-7120
itchell	-7121
▁learning	-7122
▁furn	-7123
usion	-7124
▁relax	-7125
abled	-7126
phia	-7127
▁tag	-7128
▁intention	-7129
▁entrust	-7130
▁originally	-7131
esty	-7132
quarters	-7133
▁milk	-7134
ishing	-7135
▁Hunt	-7136
▁Services	-7137
▁spoken	-7138
▁corruption	-7139
▁mechan	-7140
▁regain	-7141
▁wouldn	-7142
▁assistance	-7143
▁Second	-7144
oration	-7145
That	-7146
▁proposal	-7147
▁Tai	-7148
▁Rh	-7149
▁Glob	-7150
▁sque	-7151
burn	-7152
▁digital	-7153
seas	-7154
▁interests	-7155
▁spons	-7156
▁51	-7157
▁AC	-7158
▁introduced	-7159
iac	-7160
uan	-7161
▁Director	-7162
▁vital	-7163
And	-7164
adelphia	-7165
▁Missouri	-7166
list	-7167
▁Gib	-7168
athon	-7169
▁rocket	-7170
antic	-7171
▁Let	-7172
▁batt	-7173
▁Nob	-7174
▁rig	-7175
▁execute	-7176
ancellor	-7177
▁fence	-7178
▁orders	-7179
ledon	-7180
▁democratic	-7181
▁reserve	-7182
▁CIA	-7183
▁Fair	-7184
mo	-7185
▁62	-7186
▁Pot	-7187
▁wounded	-7188
▁Bas	-7189
▁unknown	-7190
▁Aston	-7191
▁pushed	-7192
▁enjoyed	-7193
▁Hampshire	-7194
atherine	-7195
▁Instead	-7196
▁Philadelphia	-7197
▁yourself	-7198
▁Tech	-7199
▁solution	-7200
igned	-7201
achel	-7202
▁wins	-7203
ema	-7204
▁talent	-7205
▁apology	-7206
▁teenagers	-7207
▁probable	-7208
▁gap	-7209
▁institutional	-7210
wardly	-7211
▁2011.	-7212
▁Here	-7213
▁smugg	-7214
▁reun	-7215
▁transform	-7216
▁judges	-7217
iration	-7218
▁micro	-7219
▁contrive	-7220
▁spokesperson	-7221
▁planes	-7222
▁Time	-7223
▁strikes	-7224
water	-7225
▁documentary	-7226
ishes	-7227
▁lucky	-7228
▁dressed	-7229
▁Mitchell	-7230
▁programs	-7231
imp	-7232
▁nail	-7233
▁vacc	-7234
▁adjudicate	-7235
▁notes	-7236
▁allows	-7237
▁Yemen	-7238
▁unac	-7239
▁Common	-7240
▁anonym	-7241
▁Wimbledon	-7242
▁Mario	-7243
▁Jennifer	-7244
▁yellow	-7245
real	-7246
▁Marine	-7247
aya	-7248
erous	-7249
▁presenter	-7250
aron	-7251
anging	-7252
idelines	-7253
▁economical	-7254
▁Little	-7255
▁McDonald	-7256
IV	-7257
▁correspond	-7258
▁Turkish	-7259
▁calculate	-7260
▁consume	-7261
aun	-7262
▁campus	-7263
die	-7264
olved	-7265
▁feels	-7266
RA	-7267
▁larger	-7268
war	-7269
▁operating	-7270
▁Supp	-7271
▁specialist	-7272
▁Brooklyn	-7273
▁properties	-7274
▁lying	-7275
▁festival	-7276
▁67	-7277
▁Gab	-7278
areness	-7279
▁bringing	-7280
▁recovered	-7281
▁Rub	-7282
▁Researchers	-7283
▁petition	-7284
▁sheriff	-7285
asingly	-7286
▁NY	-7287
▁unfold	-7288
▁payments	-7289
▁Brend	-7290
alling	-7291
emic	-7292
▁Dave	-7293
▁destroyed	-7294
▁Hy	-7295
▁canc	-7296
▁bestow	-7297
olitan	-7298
▁expand	-7299
▁congress	-7300
▁bonk	-7301
▁rom	-7302
▁Justin	-7303
▁Martinez	-7304
▁yards	-7305
▁Whe	-7306
▁types	-7307
▁detain	-7308
▁unp	-7309
▁depression	-7310
▁Brom	-7311
nic	-7312
▁fuck	-7313
▁sink	-7314
▁lad	-7315
tiary	-7316
▁Perry	-7317
▁Hillary	-7318
▁tertiary	-7319
▁practically	-7320
ideo	-7321
iddle	-7322
▁scores	-7323
▁greater	-7324
▁Water	-7325
▁marry	-7326
▁Academy	-7327
▁facilities	-7328
▁crop	-7329
▁Atletic	-7330
▁Philip	-7331
▁Administr	-7332
▁pip	-7333
omic	-7334
greg	-7335
▁Brand	-7336
▁retiring	-7337
inations	-7338
▁Jessica	-7339
onna	-7340
anes	-7341
▁actual	-7342
▁tor	-7343
▁drinks	-7344
▁highlight	-7345
▁LA	-7346
▁Atletico	-7347
▁iconic	-7348
▁Atlantic	-7349
▁tex	-7350
▁acting	-7351
▁understood	-7352
isers	-7353
▁Yet	-7354
▁Transport	-7355
▁Pacific	-7356
▁neighbours	-7357
acking	-7358
▁recede	-7359
▁largely	-7360
▁advantageously	-7361
▁jihad	-7362
▁Hom	-7363
raid	-7364
▁mansion	-7365
lem	-7366
▁Palestinian	-7367
▁sparked	-7368
orous	-7369
▁Whit	-7370
▁structure	-7371
!'	-7372
▁Jeremy	-7373
▁Cop	-7374
ls	-7375
▁sequ	-7376
▁Brother	-7377
▁od	-7378
▁ocean	-7379
still	-7380
▁stream	-7381
▁Dj	-7382
▁Marsh	-7383
▁waves	-7384
▁escort	-7385
▁Ib	-7386
▁windows	-7387
▁grew	-7388
▁surrounding	-7389
▁Lt	-7390
▁Libya	-7391
▁rural	-7392
▁hunt	-7393
▁assay	-7394
lection	-7395
▁Food	-7396
▁punishment	-7397
▁referee	-7398
annah	-7399
▁strip	-7400
▁Raf	-7401
heast	-7402
▁dism	-7403
▁firms	-7404
▁eru	-7405
ora	-7406
▁Pear	-7407
▁bombing	-7408
▁cous	-7409
▁63	-7410
▁transmit	-7411
▁Portugal	-7412
ateful	-7413
▁vessel	-7414
▁travelling	-7415
▁Jimmy	-7416
enez	-7417
mann	-7418
maker	-7419
▁scre	-7420
▁Davies	-7421
▁Ocean	-7422
▁rehab	-7423
▁unexp	-7424
▁cant	-7425
▁tape	-7426
▁plays	-7427
▁Society	-7428
▁Stewart	-7429
▁coalition	-7430
▁tackle	-7431
▁Kl	-7432
▁Greece	-7433
essions	-7434
obs	-7435
orders	-7436
tell	-7437
ingham	-7438
▁59	-7439
▁Bruce	-7440
▁wreak	-7441
▁argued	-7442
▁providing	-7443
▁Gaza	-7444
ubs	-7445
▁bullet	-7446
aven	-7447
▁dump	-7448
▁sanctions	-7449
mad	-7450
▁Connect	-7451
12	-7452
▁Luke	-7453
▁Roger	-7454
▁sisters	-7455
▁brib	-7456
▁Wind	-7457
CC	-7458
▁holds	-7459
▁casual	-7460
ibl	-7461
▁pace	-7462
▁Amazon	-7463
▁ministers	-7464
▁experienced	-7465
▁oblig	-7466
▁Carter	-7467
▁testim	-7468
▁fees	-7469
▁Kerry	-7470
▁Hold	-7471
▁Neil	-7472
▁Experts	-7473
▁Belgium	-7474
▁noticed	-7475
▁Mohammed	-7476
uay	-7477
zen	-7478
▁Edin	-7479
vin	-7480
▁Lisa	-7481
▁CBS	-7482
▁walls	-7483
file	-7484
▁constitute	-7485
▁ongoing	-7486
▁stake	-7487
TA	-7488
inois	-7489
▁Glas	-7490
St	-7491
ais	-7492
▁minimum	-7493
▁ce	-7494
ologists	-7495
▁chat	-7496
▁spo	-7497
▁interact	-7498
▁diver	-7499
▁Fernand	-7500
▁quit	-7501
▁Yesterday	-7502
▁Lane	-7503
▁Has	-7504
▁print	-7505
▁crown	-7506
▁trick	-7507
▁temperature	-7508
▁Ow	-7509
▁Garcia	-7510
pa	-7511
▁flash	-7512
▁stuck	-7513
▁adequate	-7514
▁celebrities	-7515
bar	-7516
▁pump	-7517
▁wore	-7518
▁Rangers	-7519
▁AT	-7520
▁bombs	-7521
▁Stone	-7522
ja	-7523
dale	-7524
▁drama	-7525
▁driven	-7526
▁struggled	-7527
▁Columb	-7528
▁grandfather	-7529
acular	-7530
▁located	-7531
40	-7532
▁dry	-7533
200	-7534
▁discharge	-7535
▁vision	-7536
▁increasingly	-7537
▁Merced	-7538
▁Marg	-7539
▁threatening	-7540
▁unbelievable	-7541
▁Roll	-7542
▁Disney	-7543
▁firefighters	-7544
▁reject	-7545
▁earthqu	-7546
long	-7547
▁fruit	-7548
▁forever	-7549
▁stabbed	-7550
▁analysis	-7551
▁Ay	-7552
▁veget	-7553
▁distress	-7554
▁ju	-7555
▁fallen	-7556
ito	-7557
▁Seattle	-7558
▁changing	-7559
▁plants	-7560
oln	-7561
faced	-7562
▁Crystal	-7563
▁Russell	-7564
▁reass	-7565
ocks	-7566
▁Stu	-7567
▁Deputy	-7568
▁pleased	-7569
▁exhibit	-7570
anchez	-7571
▁Pen	-7572
▁Clar	-7573
▁grass	-7574
aco	-7575
aval	-7576
shot	-7577
odes	-7578
▁McI	-7579
▁beer	-7580
▁Officer	-7581
strong	-7582
▁Laura	-7583
▁fake	-7584
▁72	-7585
▁brill	-7586
▁burst	-7587
▁dub	-7588
▁constantly	-7589
▁execution	-7590
▁poison	-7591
▁demonstrate	-7592
▁ultimately	-7593
▁ok	-7594
irty	-7595
▁Broad	-7596
▁shelter	-7597
▁66	-7598
▁Moy	-7599
▁profit	-7600
▁Nig	-7601
▁era	-7602
hib	-7603
▁Rev	-7604
aus	-7605
▁nick	-7606
▁innov	-7607
▁monit	-7608
otherapy	-7609
What	-7610
ration	-7611
▁eastern	-7612
▁Clegg	-7613
▁Sanchez	-7614
cr	-7615
▁Az	-7616
▁Cos	-7617
▁Switzer	-7618
▁bone	-7619
iter	-7620
▁Illinois	-7621
▁widely	-7622
▁incor	-7623
orough	-7624
▁fer	-7625
gow	-7626
▁racing	-7627
▁PM	-7628
▁Only	-7629
icut	-7630
dad	-7631
▁clim	-7632
▁mate	-7633
▁NASA	-7634
▁clinic	-7635
▁creating	-7636
▁consequences	-7637
▁narrow	-7638
▁Friends	-7639
▁ski	-7640
▁honour	-7641
▁visiting	-7642
acters	-7643
▁accepted	-7644
▁performed	-7645
letes	-7646
▁recre	-7647
oyd	-7648
▁ge	-7649
▁smoking	-7650
▁awareness	-7651
▁tall	-7652
▁opportunities	-7653
▁posts	-7654
ros	-7655
▁Iraqi	-7656
▁bigger	-7657
▁unite	-7658
▁Major	-7659
▁unlikely	-7660
▁fighter	-7661
▁featured	-7662
▁papers	-7663
▁intended	-7664
▁abroad	-7665
▁king	-7666
▁3,000	-7667
▁2012,	-7668
▁radical	-7669
▁chef	-7670
▁childhood	-7671
▁tragic	-7672
allow	-7673
▁Lig	-7674
▁fiance	-7675
ici	-7676
▁imply	-7677
ighton	-7678
▁Read	-7679
▁Mercedes	-7680
▁shops	-7681
▁powers	-7682
ching	-7683
▁shore	-7684
▁Switzerland	-7685
▁hire	-7686
▁prominent	-7687
LL	-7688
▁Alab	-7689
▁joy	-7690
oche	-7691
▁sett	-7692
▁caps	-7693
▁ties	-7694
▁Educ	-7695
ders	-7696
▁verbalise	-7697
▁Hu	-7698
▁Deb	-7699
▁filled	-7700
▁verbalize	-7701
▁Gill	-7702
▁McK	-7703
yer	-7704
andy	-7705
▁alien	-7706
▁envision	-7707
▁undert	-7708
▁detectives	-7709
▁obviously	-7710
▁rejected	-7711
▁killings	-7712
▁Linc	-7713
▁formerly	-7714
▁priority	-7715
eller	-7716
▁isol	-7717
▁Dubai	-7718
▁understanding	-7719
80	-7720
ught	-7721
▁chocolate	-7722
▁oft	-7723
▁Commons	-7724
▁Zimmer	-7725
uddle	-7726
▁Sean	-7727
▁multi	-7728
▁rally	-7729
15	-7730
▁proved	-7731
istle	-7732
▁Utah	-7733
ossible	-7734
▁sentencing	-7735
▁advent	-7736
▁Exp	-7737
▁county	-7738
▁normally	-7739
minster	-7740
▁satisf	-7741
pate	-7742
▁taxi	-7743
▁Jen	-7744
▁sought	-7745
▁dramatic	-7746
▁locations	-7747
▁unman	-7748
▁commitment	-7749
▁Taiwan	-7750
▁sympath	-7751
▁thro	-7752
▁offensive	-7753
▁drone	-7754
▁tonight	-7755
▁complained	-7756
case	-7757
▁embr	-7758
▁beque	-7759
▁mos	-7760
▁characters	-7761
ffield	-7762
asure	-7763
overty	-7764
rified	-7765
▁ordeal	-7766
▁seed	-7767
▁rising	-7768
▁titles	-7769
▁application	-7770
▁3,	-7771
▁Dor	-7772
▁friendly	-7773
athered	-7774
▁hate	-7775
▁thrown	-7776
▁Connecticut	-7777
▁Father	-7778
▁historic	-7779
ortunately	-7780
▁blind	-7781
▁occasions	-7782
▁cos	-7783
▁mine	-7784
▁toilet	-7785
▁troub	-7786
▁murdered	-7787
▁creditworthy	-7788
▁votes	-7789
▁branch	-7790
▁tourist	-7791
gment	-7792
▁emph	-7793
DA	-7794
14	-7795
isp	-7796
▁Was	-7797
▁Hodgson	-7798
OW	-7799
obby	-7800
▁exclusive	-7801
nam	-7802
▁Sheffield	-7803
▁sweet	-7804
▁foretell	-7805
idays	-7806
▁Swiss	-7807
▁label	-7808
ooth	-7809
?"	-7810
▁moves	-7811
▁Ric	-7812
▁landed	-7813
▁governments	-7814
▁assert	-7815
▁Shaw	-7816
▁Glasgow	-7817
▁flowers	-7818
▁Nap	-7819
▁Social	-7820
▁NAT	-7821
▁delivery	-7822
▁bequeath	-7823
ras	-7824
headed	-7825
▁deeply	-7826
▁Ple	-7827
▁probe	-7828
▁Board	-7829
▁aboard	-7830
▁overwhel	-7831
▁tracks	-7832
▁teenage	-7833
eping	-7834
▁archit	-7835
▁immense	-7836
▁Juan	-7837
▁conducted	-7838
▁settlement	-7839
▁convert	-7840
uper	-7841
▁rush	-7842
▁imper	-7843
ailand	-7844
orses	-7845
▁celebrates	-7846
onz	-7847
▁dispatch	-7848
mun	-7849
sight	-7850
▁taxes	-7851
▁bik	-7852
▁Lincoln	-7853
▁goods	-7854
▁accuse	-7855
▁clients	-7856
ikh	-7857
▁blaze	-7858
chair	-7859
▁calm	-7860
▁ward	-7861
don	-7862
▁torn	-7863
oop	-7864
▁marks	-7865
▁Head	-7866
▁cere	-7867
▁dust	-7868
▁1997	-7869
▁Trib	-7870
vere	-7871
▁Aaron	-7872
lude	-7873
▁consec	-7874
▁Ward	-7875
vet	-7876
▁Heath	-7877
▁specially	-7878
▁Ale	-7879
▁fro	-7880
▁Howard	-7881
▁Though	-7882
▁afraid	-7883
▁Notting	-7884
▁Cas	-7885
▁Pent	-7886
▁Blair	-7887
▁Yes	-7888
▁Sudan	-7889
▁transpl	-7890
▁headquarters	-7891
isk	-7892
▁Thailand	-7893
earing	-7894
▁Power	-7895
▁package	-7896
▁Agu	-7897
▁Enter	-7898
▁proposed	-7899
▁Robinson	-7900
▁Alabama	-7901
▁probation	-7902
ibe	-7903
▁moderate	-7904
▁anx	-7905
▁entrance	-7906
▁ster	-7907
▁overly	-7908
▁conjoin	-7909
▁Dur	-7910
▁clip	-7911
▁abide	-7912
▁Ukrain	-7913
▁striking	-7914
▁mut	-7915
▁Leg	-7916
unction	-7917
▁cleared	-7918
▁cricket	-7919
▁innocent	-7920
▁terrible	-7921
▁labour	-7922
▁iPad	-7923
▁projects	-7924
part	-7925
▁sample	-7926
▁Nov	-7927
▁buying	-7928
▁ideas	-7929
▁wire	-7930
▁Lion	-7931
▁rapid	-7932
▁1998	-7933
▁outfit	-7934
▁Adams	-7935
▁color	-7936
▁Aff	-7937
▁fought	-7938
▁developing	-7939
▁exposed	-7940
▁visualise	-7941
▁abandoned	-7942
▁testimony	-7943
▁fundamental	-7944
semb	-7945
▁Hur	-7946
▁testify	-7947
▁forest	-7948
▁trem	-7949
▁20,000	-7950
▁closer	-7951
▁implement	-7952
▁praise	-7953
▁variety	-7954
▁Hawai	-7955
▁Stuart	-7956
▁publicly	-7957
▁conclus	-7958
▁Dunc	-7959
▁rugby	-7960
▁Derby	-7961
MA	-7962
▁sector	-7963
▁About	-7964
▁capacity	-7965
▁matters	-7966
anted	-7967
olph	-7968
▁Had	-7969
▁pound	-7970
▁ram	-7971
found	-7972
▁criminals	-7973
din	-7974
▁winners	-7975
gt	-7976
rane	-7977
onscious	-7978
▁guards	-7979
▁interesting	-7980
▁happens	-7981
▁sail	-7982
▁emails	-7983
▁distinct	-7984
▁cha	-7985
▁Emer	-7986
▁Also	-7987
▁delivered	-7988
iden	-7989
▁skull	-7990
▁summit	-7991
▁shell	-7992
▁Gil	-7993
▁Hal	-7994
▁unseason	-7995
▁dependable	-7996
▁Hend	-7997
▁dict	-7998
anim	-7999
▁spr	-8000
▁Tar	-8001
▁NATO	-8002
▁recruit	-8003
▁trophy	-8004
▁Resc	-8005
▁disclose	-8006
▁gunman	-8007
▁twist	-8008
▁ast	-8009
▁imprison	-8010
▁hug	-8011
▁uncon	-8012
acre	-8013
▁wee	-8014
▁blamed	-8015
▁carbon	-8016
▁disappeared	-8017
▁considering	-8018
lad	-8019
▁hoped	-8020
▁genuinely	-8021
▁Int	-8022
▁Celtic	-8023
▁trained	-8024
▁77	-8025
▁Tou	-8026
ami	-8027
▁193	-8028
▁insists	-8029
box	-8030
amedics	-8031
▁Federer	-8032
afe	-8033
▁Bos	-8034
▁athletes	-8035
▁Egyptian	-8036
▁Bond	-8037
▁concept	-8038
▁teens	-8039
▁update	-8040
▁gathered	-8041
▁Video	-8042
▁successfully	-8043
▁Southern	-8044
▁reply	-8045
▁headed	-8046
▁visualize	-8047
▁links	-8048
▁dismissed	-8049
▁1960	-8050
▁donate	-8051
▁numerous	-8052
urer	-8053
▁plunge	-8054
▁gender	-8055
▁Administration	-8056
intend	-8057
▁factor	-8058
▁exciting	-8059
ello	-8060
▁2013.	-8061
▁Duncan	-8062
rehens	-8063
itative	-8064
▁gate	-8065
▁compound	-8066
mat	-8067
▁skip	-8068
▁symbol	-8069
▁frequently	-8070
▁Cou	-8071
▁todd	-8072
▁regret	-8073
▁Play	-8074
▁happening	-8075
oyal	-8076
▁spiritual	-8077
▁degrees	-8078
▁independence	-8079
roit	-8080
▁Roma	-8081
▁ripe	-8082
▁Vinc	-8083
▁univers	-8084
mund	-8085
▁lone	-8086
▁garage	-8087
▁buried	-8088
▁pill	-8089
▁declare	-8090
borough	-8091
▁flames	-8092
▁basketball	-8093
rows	-8094
eals	-8095
▁ing	-8096
▁punch	-8097
bris	-8098
▁Cornwall	-8099
▁stages	-8100
▁Spurs	-8101
umm	-8102
▁earned	-8103
▁crews	-8104
▁entry	-8105
▁devastated	-8106
otte	-8107
onnell	-8108
▁Dec	-8109
▁Bart	-8110
▁alternatively	-8111
yard	-8112
▁satellite	-8113
▁regional	-8114
izar	-8115
▁heading	-8116
▁colleague	-8117
▁checks	-8118
guard	-8119
▁promised	-8120
▁factory	-8121
▁pee	-8122
▁liqu	-8123
▁Sgt	-8124
▁typically	-8125
▁collapsed	-8126
▁substitute	-8127
▁Susan	-8128
▁HM	-8129
▁luck	-8130
▁restaurants	-8131
▁Collins	-8132
arms	-8133
▁Chancellor	-8134
▁stayed	-8135
▁overseas	-8136
▁emerge	-8137
xy	-8138
▁Zimmerman	-8139
▁ec	-8140
▁Morris	-8141
▁kit	-8142
▁organisation	-8143
asion	-8144
▁coiff	-8145
▁chicken	-8146
heim	-8147
▁hyp	-8148
opard	-8149
▁movies	-8150
olds	-8151
▁enthus	-8152
▁smaller	-8153
▁communications	-8154
▁Amy	-8155
ghdad	-8156
▁altogether	-8157
▁Westminster	-8158
▁investigations	-8159
▁Stev	-8160
▁toll	-8161
bel	-8162
▁iron	-8163
▁horror	-8164
▁stunning	-8165
▁positions	-8166
▁severely	-8167
ricane	-8168
▁Chile	-8169
uer	-8170
▁85	-8171
▁copy	-8172
▁locked	-8173
▁58	-8174
▁staying	-8175
▁Emma	-8176
▁overnight	-8177
oral	-8178
roso	-8179
girl	-8180
▁integr	-8181
▁cheer	-8182
▁presented	-8183
▁depl	-8184
▁error	-8185
▁escaped	-8186
▁Back	-8187
▁sin	-8188
▁elsewhere	-8189
60	-8190
▁fundra	-8191
▁procedures	-8192
▁seized	-8193
▁Education	-8194
abet	-8195
▁CD	-8196
▁vig	-8197
▁Py	-8198
▁demands	-8199
▁Rome	-8200
70	-8201
▁Ll	-8202
▁pretend	-8203
▁Welsh	-8204
▁shed	-8205
▁fab	-8206
▁Edinburgh	-8207
▁Hills	-8208
▁medication	-8209
▁excessively	-8210
▁atomic	-8211
▁displ	-8212
esco	-8213
▁sugar	-8214
▁Business	-8215
▁environmental	-8216
▁focused	-8217
▁commander	-8218
▁haz	-8219
▁drawn	-8220
▁End	-8221
▁Urug	-8222
▁approval	-8223
▁motion	-8224
▁deem	-8225
▁affairs	-8226
▁250	-8227
orious	-8228
▁painting	-8229
▁materials	-8230
▁definitely	-8231
▁tested	-8232
▁Magistrates	-8233
▁accusations	-8234
phic	-8235
▁Queensland	-8236
▁Beckham	-8237
▁cert	-8238
ndrome	-8239
▁Burnley	-8240
izes	-8241
▁historical	-8242
abis	-8243
▁replaced	-8244
▁license	-8245
▁PC	-8246
▁collision	-8247
▁Thanks	-8248
related	-8249
▁Authority	-8250
SW	-8251
▁2011,	-8252
▁compete	-8253
▁deals	-8254
▁600	-8255
eor	-8256
mans	-8257
▁naked	-8258
▁volunteers	-8259
▁Amb	-8260
rical	-8261
▁hes	-8262
▁Detroit	-8263
▁originate	-8264
▁McIl	-8265
▁rebel	-8266
▁Brendan	-8267
called	-8268
▁bat	-8269
▁comed	-8270
▁palpate	-8271
▁Spring	-8272
▁tox	-8273
▁helps	-8274
▁Kay	-8275
▁Sams	-8276
▁counsel	-8277
▁monitor	-8278
▁Kath	-8279
▁continuing	-8280
ext	-8281
▁manner	-8282
▁Nottingham	-8283
▁Anne	-8284
▁occupy	-8285
▁Fe	-8286
▁cruise	-8287
▁Ukrainian	-8288
▁button	-8289
ctic	-8290
▁Safety	-8291
▁bacter	-8292
▁relationships	-8293
wear	-8294
▁meetings	-8295
itage	-8296
▁criticised	-8297
nag	-8298
▁cream	-8299
▁tied	-8300
▁1996	-8301
▁anybody	-8302
▁Kenya	-8303
▁mislay	-8304
caster	-8305
▁obst	-8306
regon	-8307
▁entit	-8308
▁ambassador	-8309
ument	-8310
▁oppose	-8311
▁alternative	-8312
roid	-8313
▁Gard	-8314
▁bosses	-8315
▁Uruguay	-8316
▁preceding	-8317
▁aster	-8318
▁native	-8319
oen	-8320
▁Barcl	-8321
▁Victim	-8322
▁subscribe	-8323
▁apps	-8324
▁tweets	-8325
▁Fall	-8326
▁WA	-8327
bu	-8328
▁meals	-8329
ato	-8330
week	-8331
▁studio	-8332
▁classes	-8333
umes	-8334
▁territory	-8335
olt	-8336
▁admits	-8337
▁Donald	-8338
▁stroke	-8339
▁misplace	-8340
▁Devon	-8341
▁superv	-8342
▁awarded	-8343
▁nut	-8344
▁cats	-8345
axy	-8346
▁acknowled	-8347
tw	-8348
▁viral	-8349
▁granted	-8350
▁Oregon	-8351
▁thin	-8352
▁elev	-8353
▁digest	-8354
rich	-8355
▁nickn	-8356
▁guest	-8357
▁disgr	-8358
▁Bailey	-8359
▁Leban	-8360
esterly	-8361
▁ske	-8362
▁realised	-8363
▁HIV	-8364
▁69	-8365
▁shares	-8366
▁Ry	-8367
▁backed	-8368
iants	-8369
▁Sony	-8370
▁listed	-8371
▁Commissioner	-8372
▁Manuel	-8373
▁Lo	-8374
▁horrific	-8375
▁shocking	-8376
▁speculation	-8377
▁cul	-8378
▁jumped	-8379
▁desperate	-8380
phones	-8381
▁raising	-8382
▁approached	-8383
▁migrants	-8384
▁seasons	-8385
▁hell	-8386
▁unsp	-8387
▁ITV	-8388
aver	-8389
▁cutting	-8390
▁poverty	-8391
▁impossible	-8392
uits	-8393
▁felony	-8394
▁celebration	-8395
▁conservative	-8396
▁Secret	-8397
▁starts	-8398
▁Arabia	-8399
▁writer	-8400
▁requests	-8401
▁sixth	-8402
▁opponents	-8403
▁Beat	-8404
▁Sandy	-8405
lessly	-8406
▁Snowden	-8407
▁reveals	-8408
▁Tam	-8409
▁Phillips	-8410
▁Detective	-8411
▁baff	-8412
▁50,000	-8413
▁racial	-8414
▁strateg	-8415
▁engaged	-8416
da	-8417
▁Child	-8418
▁detention	-8419
mind	-8420
▁Mack	-8421
▁err	-8422
▁stations	-8423
▁bew	-8424
▁attacking	-8425
▁Clarke	-8426
pes	-8427
▁fetch	-8428
▁Democrat	-8429
▁jaw	-8430
▁Rice	-8431
▁comfortable	-8432
▁bones	-8433
aling	-8434
▁officially	-8435
cont	-8436
▁increasing	-8437
Our	-8438
▁Bra	-8439
▁lean	-8440
▁Cuba	-8441
▁remind	-8442
ourage	-8443
ulations	-8444
▁maj	-8445
▁neither	-8446
▁licence	-8447
power	-8448
▁Fred	-8449
entive	-8450
▁coroner	-8451
ierce	-8452
bie	-8453
25	-8454
itis	-8455
Americ	-8456
▁absence	-8457
▁1.5	-8458
▁throat	-8459
venth	-8460
▁1994	-8461
sen	-8462
▁Mull	-8463
▁haven	-8464
▁mystery	-8465
▁reception	-8466
▁sch	-8467
▁impressive	-8468
***	-8469
▁Midlands	-8470
▁Amanda	-8471
▁charter	-8472
oty	-8473
▁consent	-8474
▁Maryland	-8475
▁leak	-8476
▁griev	-8477
▁northerly	-8478
▁please	-8479
▁nobody	-8480
cript	-8481
▁threw	-8482
▁Pelle	-8483
laughter	-8484
▁interviews	-8485
ucker	-8486
▁approved	-8487
▁Aut	-8488
▁reference	-8489
▁electricity	-8490
▁vern	-8491
▁producer	-8492
▁Flight	-8493
▁veterans	-8494
▁73	-8495
orage	-8496
▁grat	-8497
▁Samsung	-8498
king	-8499
▁spare	-8500
▁consecrate	-8501
▁conver	-8502
▁Emb	-8503
▁stem	-8504
▁artists	-8505
▁sharp	-8506
▁pilots	-8507
▁overlook	-8508
▁reporting	-8509
▁smartphone	-8510
▁attorneys	-8511
▁Reid	-8512
▁values	-8513
children	-8514
rait	-8515
▁maximum	-8516
▁See	-8517
▁Blue	-8518
▁Qatar	-8519
▁regulations	-8520
ulge	-8521
▁ministry	-8522
▁associate	-8523
▁cruel	-8524
▁celebrated	-8525
rained	-8526
▁ships	-8527
cott	-8528
▁Iranian	-8529
▁negative	-8530
▁advertising	-8531
abe	-8532
▁Hait	-8533
▁Forest	-8534
▁tattoo	-8535
▁twins	-8536
▁inmates	-8537
▁Bon	-8538
▁fasc	-8539
▁Medic	-8540
▁Baghdad	-8541
▁74	-8542
▁Eve	-8543
▁debris	-8544
▁Poland	-8545
▁safely	-8546
▁McIlroy	-8547
xual	-8548
▁visits	-8549
▁beneath	-8550
▁corro	-8551
▁Neighb	-8552
▁Osborne	-8553
▁chose	-8554
▁Nelson	-8555
▁rescued	-8556
▁leads	-8557
▁feared	-8558
angle	-8559
▁insure	-8560
▁civilian	-8561
graph	-8562
▁adm	-8563
▁outcome	-8564
▁retirement	-8565
▁Tennes	-8566
▁thinks	-8567
▁dimin	-8568
▁breathing	-8569
▁Asian	-8570
▁pointed	-8571
chi	-8572
▁Barbara	-8573
afi	-8574
isb	-8575
▁hitting	-8576
▁landsc	-8577
umph	-8578
▁experiences	-8579
▁Surrey	-8580
▁yes	-8581
▁Djok	-8582
▁Cristiano	-8583
▁accommodate	-8584
▁offices	-8585
17	-8586
orer	-8587
▁Hope	-8588
▁Somalia	-8589
▁trusted	-8590
▁Defence	-8591
▁fishing	-8592
▁concluded	-8593
anne	-8594
▁fert	-8595
▁blend	-8596
▁favorite	-8597
▁sees	-8598
ilst	-8599
▁ages	-8600
plus	-8601
onduct	-8602
▁hosts	-8603
▁computers	-8604
▁associated	-8605
▁noise	-8606
▁Austin	-8607
▁Bloom	-8608
▁organizations	-8609
▁contrast	-8610
▁proceedings	-8611
▁manslaughter	-8612
▁fantastic	-8613
eze	-8614
▁objects	-8615
▁Colombia	-8616
low	-8617
▁recording	-8618
▁Grant	-8619
▁theory	-8620
▁discourse	-8621
▁generally	-8622
▁lies	-8623
inge	-8624
▁Ret	-8625
▁dear	-8626
izarre	-8627
▁races	-8628
45	-8629
▁adds	-8630
▁brown	-8631
▁traverse	-8632
▁supplies	-8633
▁hidden	-8634
▁bribe	-8635
▁nurses	-8636
yo	-8637
rapped	-8638
▁wonderful	-8639
▁Moyes	-8640
▁ank	-8641
▁Castro	-8642
▁horses	-8643
▁uncle	-8644
aud	-8645
LA	-8646
▁supporting	-8647
▁discrimination	-8648
ums	-8649
▁behave	-8650
▁Special	-8651
▁clock	-8652
▁spray	-8653
▁posting	-8654
half	-8655
▁Pere	-8656
stri	-8657
▁Rem	-8658
▁midfield	-8659
▁brilliant	-8660
▁investigated	-8661
▁obvious	-8662
▁Britons	-8663
▁Witness	-8664
▁immature	-8665
▁flew	-8666
▁nominate	-8667
▁importance	-8668
▁newly	-8669
▁racist	-8670
▁Edwards	-8671
▁partnership	-8672
▁peak	-8673
▁referred	-8674
rifying	-8675
▁NBA	-8676
▁raped	-8677
▁reduced	-8678
oa	-8679
▁pupp	-8680
▁kidnapping	-8681
owa	-8682
wealth	-8683
idents	-8684
▁Djokovic	-8685
▁comedy	-8686
▁disturb	-8687
▁Britains	-8688
▁factors	-8689
▁km	-8690
▁representative	-8691
▁68	-8692
ycling	-8693
▁diamond	-8694
▁supermarket	-8695
.0	-8696
owned	-8697
▁Station	-8698
▁managers	-8699
▁abused	-8700
▁Indonesia	-8701
usal	-8702
▁denies	-8703
▁markets	-8704
uations	-8705
▁memories	-8706
ture	-8707
▁Captain	-8708
ropolitan	-8709
▁engineer	-8710
utt	-8711
▁1995	-8712
▁Bah	-8713
▁Eth	-8714
▁Following	-8715
▁Fund	-8716
▁reven	-8717
▁reign	-8718
▁plow	-8719
▁’	-8720
▁dread	-8721
▁rounds	-8722
▁Independ	-8723
▁searching	-8724
▁resolution	-8725
▁Best	-8726
▁inch	-8727
▁pending	-8728
▁Les	-8729
▁Po	-8730
▁espouse	-8731
OS	-8732
▁eggs	-8733
▁nights	-8734
▁mo	-8735
▁awards	-8736
▁citizen	-8737
inating	-8738
▁knocked	-8739
▁sharing	-8740
▁religion	-8741
▁Malaysia	-8742
▁networks	-8743
▁greatest	-8744
▁Book	-8745
▁Dougl	-8746
▁Antonio	-8747
▁flooding	-8748
▁EST	-8749
▁Ney	-8750
▁supported	-8751
emper	-8752
▁Free	-8753
▁Wolf	-8754
umble	-8755
▁Night	-8756
▁Crit	-8757
▁Box	-8758
▁unconscious	-8759
akh	-8760
▁torture	-8761
CR	-8762
ivalent	-8763
▁cannabis	-8764
▁unh	-8765
▁touc	-8766
▁bottles	-8767
gage	-8768
▁mini	-8769
semble	-8770
▁groom	-8771
▁advanced	-8772
▁surprising	-8773
▁dying	-8774
▁Murphy	-8775
▁Assad	-8776
▁holidays	-8777
▁Benn	-8778
▁voted	-8779
▁sleeping	-8780
ageable	-8781
▁stretch	-8782
▁ramp	-8783
▁defending	-8784
▁established	-8785
▁Darren	-8786
▁convin	-8787
▁locals	-8788
tim	-8789
▁Where	-8790
▁units	-8791
▁prompted	-8792
▁websites	-8793
▁Minnes	-8794
panied	-8795
▁Berlin	-8796
oni	-8797
▁Did	-8798
▁curren	-8799
▁Morning	-8800
▁Dick	-8801
▁Serge	-8802
▁Live	-8803
orge	-8804
▁Margaret	-8805
▁Ven	-8806
▁wholly	-8807
▁architect	-8808
bag	-8809
▁stepped	-8810
▁Krist	-8811
▁fold	-8812
▁glam	-8813
▁Microso	-8814
▁Hawaii	-8815
▁800	-8816
▁earthquake	-8817
▁gent	-8818
▁convinced	-8819
issa	-8820
ulture	-8821
▁Sussex	-8822
▁cloud	-8823
▁accompany	-8824
esity	-8825
▁Around	-8826
▁hundred	-8827
▁headlines	-8828
▁donations	-8829
▁wildlife	-8830
▁sam	-8831
▁aston	-8832
▁cycl	-8833
▁Griff	-8834
▁strict	-8835
▁winger	-8836
▁spectacular	-8837
▁negotiations	-8838
▁division	-8839
▁Nether	-8840
▁Tok	-8841
▁Jong	-8842
▁extent	-8843
▁unmanageable	-8844
▁Kyle	-8845
iller	-8846
▁Pentagon	-8847
▁exhibition	-8848
▁Knight	-8849
▁Tennessee	-8850
▁Neymar	-8851
▁genial	-8852
▁salary	-8853
▁pages	-8854
▁Minnesota	-8855
icy	-8856
▁otherwise	-8857
▁Class	-8858
▁thick	-8859
-4	-8860
▁lately	-8861
▁Emirates	-8862
▁easier	-8863
erable	-8864
▁Barclays	-8865
oos	-8866
unior	-8867
▁Lamp	-8868
▁Stock	-8869
▁Laden	-8870
gust	-8871
▁interchange	-8872
opsy	-8873
hearted	-8874
▁sealed	-8875
▁youthful	-8876
▁abortion	-8877
utter	-8878
▁prevail	-8879
enson	-8880
rast	-8881
ES	-8882
▁loyal	-8883
▁adopted	-8884
▁Kansas	-8885
▁trapped	-8886
▁Jesus	-8887
▁selection	-8888
▁Ivan	-8889
▁intr	-8890
▁Keith	-8891
▁kicked	-8892
▁physically	-8893
▁Lawrence	-8894
▁popularity	-8895
▁argue	-8896
▁Sweden	-8897
▁businessman	-8898
say	-8899
▁NSW	-8900
:30	-8901
▁Case	-8902
▁harassment	-8903
▁volc	-8904
▁youngster	-8905
▁industrial	-8906
▁Get	-8907
▁mates	-8908
▁suddenly	-8909
▁personally	-8910
▁Anfield	-8911
▁Your	-8912
threat	-8913
▁Nigel	-8914
ighth	-8915
▁shamed	-8916
▁comprom	-8917
▁restrictions	-8918
▁cousin	-8919
grav	-8920
▁therapy	-8921
▁Est	-8922
leton	-8923
▁Oliver	-8924
▁warnings	-8925
▁offenders	-8926
riers	-8927
▁Viet	-8928
▁fame	-8929
▁Others	-8930
rahim	-8931
▁solve	-8932
▁prospect	-8933
vard	-8934
▁Haz	-8935
▁Barry	-8936
▁neighbors	-8937
▁compose	-8938
All	-8939
800	-8940
▁facts	-8941
▁trains	-8942
▁detained	-8943
▁tens	-8944
▁cancel	-8945
uv	-8946
.-	-8947
▁Anna	-8948
▁unclear	-8949
▁2010.	-8950
▁seduce	-8951
▁Ferrari	-8952
▁Serb	-8953
▁residence	-8954
▁hits	-8955
▁follows	-8956
▁towns	-8957
▁joining	-8958
riminate	-8959
▁accepting	-8960
▁unveil	-8961
▁Sergio	-8962
▁smell	-8963
▁Alaska	-8964
▁scared	-8965
▁knowing	-8966
oir	-8967
▁Microsoft	-8968
▁footballer	-8969
▁Bad	-8970
ierra	-8971
bley	-8972
▁odd	-8973
▁unre	-8974
▁experiment	-8975
▁Ald	-8976
▁McCain	-8977
umed	-8978
▁graduate	-8979
osite	-8980
▁lawmakers	-8981
rets	-8982
▁aer	-8983
▁SU	-8984
▁amounts	-8985
▁mud	-8986
▁sentences	-8987
olar	-8988
▁songs	-8989
▁activist	-8990
▁turns	-8991
▁concert	-8992
▁toddler	-8993
▁survival	-8994
weet	-8995
▁chase	-8996
▁posed	-8997
ati	-8998
▁bite	-8999
iki	-9000
▁inspiration	-9001
▁Cher	-9002
▁theme	-9003
▁slam	-9004
▁Sportsmail	-9005
not	-9006
▁theat	-9007
▁Polit	-9008
▁mad	-9009
▁Civil	-9010
▁stamp	-9011
▁extended	-9012
▁gal	-9013
bits	-9014
▁Ahmed	-9015
idal	-9016
▁Formula	-9017
icted	-9018
▁Julie	-9019
▁Commonwealth	-9020
veland	-9021
▁upper	-9022
▁Louisiana	-9023
▁Chap	-9024
▁4,	-9025
abetes	-9026
▁sacrif	-9027
▁Row	-9028
▁trips	-9029
▁medicine	-9030
▁Wy	-9031
▁vs	-9032
▁teaching	-9033
eem	-9034
itarian	-9035
ylum	-9036
▁signify	-9037
▁Ive	-9038
▁Iowa	-9039
▁Mas	-9040
▁barr	-9041
▁pros	-9042
inte	-9043
olis	-9044
aware	-9045
▁Charlotte	-9046
▁western	-9047
▁marketing	-9048
▁spin	-9049
aga	-9050
▁desert	-9051
▁Bradley	-9052
usive	-9053
▁replied	-9054
▁Denver	-9055
iggs	-9056
each	-9057
▁Hundreds	-9058
▁fo	-9059
▁dial	-9060
▁mand	-9061
endum	-9062
▁elected	-9063
ahl	-9064
▁dealing	-9065
▁tremend	-9066
▁Wem	-9067
▁performances	-9068
acht	-9069
▁element	-9070
etta	-9071
▁Nadal	-9072
▁Warren	-9073
breaking	-9074
▁Ren	-9075
▁cater	-9076
▁inward	-9077
▁Netherlands	-9078
▁inspect	-9079
▁payment	-9080
▁persu	-9081
tr	-9082
▁Ap	-9083
▁Venez	-9084
▁taxpayers	-9085
▁erupt	-9086
▁defendants	-9087
▁install	-9088
▁Dean	-9089
▁insurg	-9090
▁answers	-9091
nsic	-9092
▁relie	-9093
▁collab	-9094
▁lav	-9095
▁assass	-9096
▁Conservative	-9097
▁Student	-9098
▁brave	-9099
apore	-9100
▁panic	-9101
▁Katie	-9102
▁attached	-9103
▁urge	-9104
▁Avenue	-9105
razy	-9106
▁Rachel	-9107
▁odds	-9108
step	-9109
▁Nazi	-9110
▁domesticated	-9111
mph	-9112
▁democracy	-9113
▁Dog	-9114
▁tender	-9115
math	-9116
▁informed	-9117
▁Cleveland	-9118
▁Ky	-9119
rable	-9120
chance	-9121
▁murders	-9122
▁Fernando	-9123
▁squeeze	-9124
▁perfectly	-9125
▁transplant	-9126
▁hotels	-9127
▁inhab	-9128
ww	-9129
▁2010,	-9130
▁freeze	-9131
▁subsist	-9132
▁guidelines	-9133
▁youngsters	-9134
▁preparing	-9135
▁employment	-9136
berry	-9137
ician	-9138
▁78	-9139
▁Wembley	-9140
▁heroin	-9141
▁reforms	-9142
▁Tro	-9143
▁Venezuel	-9144
▁Bud	-9145
▁jurors	-9146
▁sporting	-9147
▁appointment	-9148
▁baseball	-9149
▁explicate	-9150
fty	-9151
2,	-9152
At	-9153
lee	-9154
▁Fro	-9155
inos	-9156
▁constit	-9157
▁belt	-9158
▁Jewish	-9159
▁Disc	-9160
▁crowds	-9161
▁Armstrong	-9162
laim	-9163
▁Div	-9164
▁tool	-9165
▁rocks	-9166
▁Ban	-9167
▁departure	-9168
▁attempting	-9169
▁comply	-9170
▁repair	-9171
▁specifically	-9172
▁courage	-9173
▁Simpson	-9174
▁emotion	-9175
writ	-9176
▁Vlad	-9177
▁Brisb	-9178
▁forms	-9179
▁fortune	-9180
▁Fest	-9181
▁Lambert	-9182
▁lessons	-9183
▁extrad	-9184
amo	-9185
▁Arsene	-9186
▁Network	-9187
▁Hond	-9188
▁Downing	-9189
▁Key	-9190
▁inwards	-9191
eld	-9192
▁draft	-9193
▁Singapore	-9194
▁Lionel	-9195
▁rot	-9196
▁Brisbane	-9197
hour	-9198
▁Douglas	-9199
▁destination	-9200
▁closing	-9201
▁amend	-9202
▁tools	-9203
▁Persie	-9204
▁Golden	-9205
estone	-9206
▁Freed	-9207
▁impressed	-9208
▁opponent	-9209
▁Silver	-9210
▁liberal	-9211
▁feelings	-9212
urers	-9213
veral	-9214
▁Sierra	-9215
enance	-9216
▁Capital	-9217
▁finals	-9218
thy	-9219
▁riot	-9220
▁Ak	-9221
▁Cabinet	-9222
aux	-9223
▁guarantee	-9224
eded	-9225
▁enjoying	-9226
▁scientific	-9227
▁mold	-9228
▁delight	-9229
▁regions	-9230
▁Bale	-9231
▁talked	-9232
repre	-9233
▁Obam	-9234
▁Prix	-9235
▁authoritative	-9236
▁westerly	-9237
▁assign	-9238
▁fleet	-9239
▁ethnic	-9240
▁bug	-9241
▁impeach	-9242
ippi	-9243
utive	-9244
jo	-9245
▁provides	-9246
▁aimed	-9247
enda	-9248
▁greet	-9249
▁demol	-9250
zzle	-9251
▁gear	-9252
▁Seven	-9253
▁relate	-9254
▁Hus	-9255
iorate	-9256
▁uphold	-9257
▁divulge	-9258
▁phen	-9259
▁Treas	-9260
▁proof	-9261
abilities	-9262
▁survivors	-9263
▁chap	-9264
▁adjust	-9265
▁kidney	-9266
13	-9267
ception	-9268
ullah	-9269
▁fing	-9270
▁spotlight	-9271
▁Jav	-9272
▁Telegraph	-9273
▁Bark	-9274
▁Sab	-9275
▁cognize	-9276
▁rose	-9277
▁funny	-9278
▁psychiat	-9279
▁Bat	-9280
▁attitude	-9281
▁tragical	-9282
▁Biden	-9283
▁BM	-9284
▁Inf	-9285
▁Bowl	-9286
▁Bolton	-9287
rated	-9288
threatening	-9289
▁personality	-9290
▁suburb	-9291
reprene	-9292
▁referendum	-9293
▁Hard	-9294
▁Somers	-9295
▁Islamist	-9296
▁Tokyo	-9297
▁triumph	-9298
▁advise	-9299
▁loud	-9300
▁basic	-9301
▁opine	-9302
▁communication	-9303
iture	-9304
▁damages	-9305
li	-9306
▁cooper	-9307
400	-9308
aints	-9309
▁Bash	-9310
▁spy	-9311
▁obtained	-9312
uver	-9313
▁roles	-9314
▁missile	-9315
icked	-9316
▁Kurd	-9317
▁tiss	-9318
▁skill	-9319
▁indite	-9320
▁entertainment	-9321
▁ourselves	-9322
▁Pard	-9323
▁indec	-9324
▁pushing	-9325
▁elim	-9326
▁cognise	-9327
▁Soph	-9328
▁untested	-9329
▁designate	-9330
▁countenance	-9331
icts	-9332
▁yard	-9333
▁accomplish	-9334
bow	-9335
▁boom	-9336
otti	-9337
▁crossing	-9338
oria	-9339
▁cheek	-9340
▁crying	-9341
▁brag	-9342
▁30,000	-9343
jan	-9344
▁dash	-9345
▁Ukip	-9346
iblings	-9347
▁latterly	-9348
▁Monaco	-9349
▁Buckingham	-9350
▁suspension	-9351
cription	-9352
▁invited	-9353
▁mistakes	-9354
▁hunting	-9355
▁electronic	-9356
opez	-9357
▁Pop	-9358
▁modest	-9359
▁classic	-9360
▁Stafford	-9361
Ch	-9362
▁renew	-9363
▁Nathan	-9364
▁slightly	-9365
encer	-9366
▁hearts	-9367
▁outstanding	-9368
▁arriving	-9369
▁Gare	-9370
▁Ron	-9371
▁Brob	-9372
▁Stur	-9373
animous	-9374
col	-9375
▁vernal	-9376
▁Lancash	-9377
▁drown	-9378
▁replacement	-9379
utable	-9380
▁manoe	-9381
▁politician	-9382
dingnag	-9383
▁Brobdingnag	-9384
▁twin	-9385
▁PS	-9386
▁indic	-9387
▁doom	-9388
▁unwrap	-9389
▁Brobdingnagian	-9390
▁venue	-9391
▁Greater	-9392
▁describes	-9393
▁screaming	-9394
For	-9395
▁worlds	-9396
▁jacket	-9397
▁Thousands	-9398
▁fet	-9399
ventus	-9400
▁commem	-9401
▁surrounded	-9402
▁homeless	-9403
how	-9404
▁discussion	-9405
▁Tan	-9406
▁Cele	-9407
▁Powell	-9408
▁cheap	-9409
inion	-9410
▁secondly	-9411
▁View	-9412
▁lake	-9413
ockey	-9414
▁cope	-9415
izza	-9416
▁Dal	-9417
▁Carlos	-9418
▁Gro	-9419
idency	-9420
fts	-9421
▁laid	-9422
rastructure	-9423
▁Cust	-9424
▁plate	-9425
▁Crim	-9426
erted	-9427
▁Dale	-9428
▁decor	-9429
▁foods	-9430
▁ingest	-9431
▁keeper	-9432
dles	-9433
▁brutal	-9434
▁awful	-9435
eler	-9436
▁assail	-9437
encia	-9438
▁connected	-9439
ogitate	-9440
▁Turner	-9441
▁Project	-9442
▁convictions	-9443
▁libr	-9444
▁slay	-9445
▁minority	-9446
▁breakfast	-9447
▁supra	-9448
▁Lancashire	-9449
▁combination	-9450
▁zero	-9451
▁muscle	-9452
▁Mandela	-9453
▁flex	-9454
▁zoo	-9455
▁Lopez	-9456
▁formally	-9457
Ne	-9458
▁Ferdin	-9459
▁designs	-9460
▁untried	-9461
▁hasn	-9462
▁gifts	-9463
▁Emergency	-9464
▁southerly	-9465
▁swing	-9466
▁investors	-9467
▁asylum	-9468
▁permanent	-9469
beat	-9470
stan	-9471
▁begins	-9472
ilder	-9473
▁1993	-9474
▁Liga	-9475
▁Mississ	-9476
rowing	-9477
▁Pistor	-9478
cho	-9479
lbs	-9480
▁loves	-9481
plex	-9482
thur	-9483
▁Juventus	-9484
▁Android	-9485
car	-9486
▁testified	-9487
/11	-9488
▁cow	-9489
▁substance	-9490
def	-9491
ordinary	-9492
ivate	-9493
▁Winter	-9494
illo	-9495
▁Brighton	-9496
9,	-9497
▁assets	-9498
▁unseasoned	-9499
▁Metropolitan	-9500
mitted	-9501
▁Oz	-9502
▁myst	-9503
▁Baker	-9504
▁plump	-9505
▁cafe	-9506
uters	-9507
▁wage	-9508
▁bizarre	-9509
▁rip	-9510
EFA	-9511
▁relative	-9512
cao	-9513
▁incredibly	-9514
enny	-9515
▁ending	-9516
▁Maur	-9517
▁mood	-9518
RC	-9519
▁intim	-9520
▁disappoint	-9521
▁kilome	-9522
imir	-9523
▁eval	-9524
beck	-9525
vo	-9526
aunt	-9527
▁recalled	-9528
▁abduct	-9529
▁shadow	-9530
▁Parker	-9531
▁equivalent	-9532
▁Memorial	-9533
▁travelled	-9534
▁Hit	-9535
▁Chan	-9536
▁becomes	-9537
▁Sin	-9538
▁peculiarly	-9539
▁toxic	-9540
asp	-9541
had	-9542
▁tries	-9543
▁Eastern	-9544
▁Still	-9545
▁stated	-9546
▁demanded	-9547
▁lifetime	-9548
▁coat	-9549
▁QC	-9550
▁improved	-9551
▁disappointed	-9552
▁exceed	-9553
▁hyd	-9554
▁yell	-9555
▁passport	-9556
▁burns	-9557
asterly	-9558
▁participants	-9559
▁Ferdinand	-9560
fold	-9561
▁intense	-9562
▁instance	-9563
ING	-9564
ivan	-9565
▁Asked	-9566
▁bears	-9567
lights	-9568
▁dumb	-9569
▁silence	-9570
▁120	-9571
▁adviser	-9572
▁craft	-9573
▁enh	-9574
▁forecast	-9575
obile	-9576
▁hostage	-9577
▁robot	-9578
▁20-	-9579
▁Hon	-9580
brate	-9581
▁Mississippi	-9582
▁append	-9583
▁Zoo	-9584
▁hook	-9585
▁Media	-9586
▁scrutin	-9587
▁sty	-9588
icial	-9589
▁unveiled	-9590
▁Shel	-9591
▁foul	-9592
ione	-9593
▁enorm	-9594
▁invite	-9595
▁apprec	-9596
erves	-9597
▁appeals	-9598
▁gard	-9599
▁UEFA	-9600
▁soil	-9601
▁defended	-9602
▁ends	-9603
▁Indiana	-9604
▁oxy	-9605
▁Circ	-9606
▁machines	-9607
▁Stat	-9608
uscule	-9609
▁Rescue	-9610
6,	-9611
armed	-9612
▁obesity	-9613
▁Vice	-9614
▁inapp	-9615
▁61	-9616
anded	-9617
▁orbit	-9618
▁camps	-9619
▁Gareth	-9620
▁marked	-9621
▁practices	-9622
II	-9623
tershire	-9624
▁Pistorius	-9625
▁cabin	-9626
zy	-9627
▁hangdog	-9628
ules	-9629
▁Berg	-9630
▁homicide	-9631
deg	-9632
TS	-9633
wa	-9634
▁formed	-9635
▁hammer	-9636
▁chosen	-9637
▁gru	-9638
▁Everyone	-9639
▁diabetes	-9640
erm	-9641
▁voting	-9642
▁Lank	-9643
unal	-9644
▁aggressive	-9645
▁wheelchair	-9646
▁whistle	-9647
▁siblings	-9648
icitous	-9649
▁shoppers	-9650
▁instru	-9651
▁Pellegr	-9652
acey	-9653
▁Techn	-9654
▁airports	-9655
▁slim	-9656
▁ruin	-9657
igible	-9658
▁entail	-9659
▁sustained	-9660
▁boxes	-9661
▁allies	-9662
▁paed	-9663
onto	-9664
▁tensions	-9665
▁rib	-9666
▁egress	-9667
▁usual	-9668
▁20,	-9669
▁18-	-9670
▁Assist	-9671
▁stunt	-9672
▁explan	-9673
▁hiding	-9674
▁elab	-9675
▁relatively	-9676
▁Kentucky	-9677
▁burglary	-9678
▁demanding	-9679
▁Sri	-9680
minute	-9681
▁excite	-9682
▁rational	-9683
▁Boeing	-9684
▁affirm	-9685
▁unemployment	-9686
▁gentle	-9687
▁landmark	-9688
iences	-9689
▁premature	-9690
ques	-9691
▁Falcao	-9692
▁Ibrahim	-9693
▁OK	-9694
▁inh	-9695
andom	-9696
▁toys	-9697
▁paramedics	-9698
▁aggrav	-9699
▁suspicious	-9700
▁ence	-9701
▁monitoring	-9702
mart	-9703
▁handling	-9704
No	-9705
▁Domin	-9706
▁soccer	-9707
acon	-9708
▁enable	-9709
▁controlled	-9710
enging	-9711
▁Nancy	-9712
▁shamefaced	-9713
▁Tun	-9714
▁progn	-9715
▁advocate	-9716
▁nerv	-9717
600	-9718
▁duo	-9719
▁Mick	-9720
▁portray	-9721
▁performing	-9722
▁Hannah	-9723
▁contained	-9724
▁Heart	-9725
formation	-9726
▁Wol	-9727
amford	-9728
▁caut	-9729
▁delays	-9730
▁Pardew	-9731
▁column	-9732
onial	-9733
▁Sov	-9734
▁unexpected	-9735
▁firing	-9736
pread	-9737
▁okay	-9738
▁engagement	-9739
uz	-9740
▁conclude	-9741
▁hap	-9742
▁Pict	-9743
▁filming	-9744
▁apportion	-9745
▁obsc	-9746
attered	-9747
▁fires	-9748
▁recip	-9749
antha	-9750
▁embassy	-9751
▁advised	-9752
erg	-9753
▁$5	-9754
estic	-9755
▁ankle	-9756
adh	-9757
▁Cz	-9758
front	-9759
▁boats	-9760
▁pole	-9761
▁struct	-9762
centre	-9763
▁dates	-9764
idges	-9765
▁Holmes	-9766
▁nightcl	-9767
Rep	-9768
rep	-9769
pless	-9770
▁25,	-9771
ieber	-9772
▁grievous	-9773
▁Sub	-9774
▁Bou	-9775
▁humil	-9776
▁attending	-9777
ints	-9778
▁Bund	-9779
▁holes	-9780
abul	-9781
org	-9782
▁spill	-9783
▁consumer	-9784
▁airlines	-9785
anson	-9786
▁22,	-9787
mare	-9788
▁poses	-9789
▁Dort	-9790
▁Made	-9791
▁lodge	-9792
▁Albert	-9793
ixon	-9794
▁infrastructure	-9795
▁shr	-9796
▁pride	-9797
▁melt	-9798
ttes	-9799
▁parole	-9800
22	-9801
▁Tower	-9802
▁sounds	-9803
▁thorough	-9804
▁drew	-9805
▁Company	-9806
▁trafficking	-9807
▁Dortmund	-9808
▁4,000	-9809
▁couch	-9810
▁lasting	-9811
idespread	-9812
actor	-9813
▁aren	-9814
itated	-9815
oko	-9816
hall	-9817
▁estimate	-9818
base	-9819
▁treatments	-9820
rious	-9821
▁coord	-9822
▁essential	-9823
Every	-9824
rington	-9825
▁Oliv	-9826
▁concrete	-9827
▁elephant	-9828
▁explains	-9829
▁core	-9830
loaded	-9831
▁Bureau	-9832
▁belated	-9833
▁brook	-9834
So	-9835
just	-9836
▁Bent	-9837
▁spac	-9838
▁dedicated	-9839
▁Knox	-9840
▁explore	-9841
▁vacation	-9842
atican	-9843
isive	-9844
▁devastating	-9845
▁Fabreg	-9846
▁‘	-9847
▁foundation	-9848
▁Price	-9849
▁exposure	-9850
awa	-9851
oenix	-9852
▁2013,	-9853
▁Wars	-9854
▁Bron	-9855
▁clashes	-9856
▁19,	-9857
▁trauma	-9858
▁Entertain	-9859
AC	-9860
▁Prosecutor	-9861
▁Spencer	-9862
▁prayers	-9863
▁expectant	-9864
▁forrad	-9865
▁convention	-9866
▁Ref	-9867
▁assaulted	-9868
uten	-9869
▁emphas	-9870
eter	-9871
▁patron	-9872
▁Hamas	-9873
▁proport	-9874
▁consultant	-9875
▁incriminate	-9876
▁Fur	-9877
▁SUV	-9878
▁pall	-9879
▁Roberto	-9880
▁monument	-9881
bean	-9882
ulpt	-9883
▁repeat	-9884
▁chaos	-9885
▁Nicole	-9886
▁collected	-9887
▁Prov	-9888
▁Fabregas	-9889
▁Sut	-9890
▁Look	-9891
iques	-9892
▁Gonz	-9893
▁Savile	-9894
inter	-9895
▁Tesco	-9896
▁intens	-9897
▁opposite	-9898
esome	-9899
▁Oak	-9900
onsin	-9901
▁desk	-9902
▁bacteria	-9903
▁Environment	-9904
▁Ted	-9905
▁dressing	-9906
▁Rover	-9907
▁Vatican	-9908
▁Vincent	-9909
zing	-9910
▁stole	-9911
▁200,000	-9912
▁grabbed	-9913
fish	-9914
▁Ec	-9915
lington	-9916
▁burned	-9917
▁interviewed	-9918
isons	-9919
▁Helen	-9920
▁unpre	-9921
▁transp	-9922
sized	-9923
ilding	-9924
▁disgust	-9925
▁Silva	-9926
▁courtroom	-9927
wing	-9928
▁Croat	-9929
▁Phoenix	-9930
▁bless	-9931
▁furious	-9932
▁cra	-9933
ussels	-9934
ource	-9935
▁turb	-9936
▁ingred	-9937
▁storage	-9938
▁enemy	-9939
▁technique	-9940
▁profits	-9941
▁Philippines	-9942
▁hired	-9943
▁surely	-9944
leep	-9945
agle	-9946
▁cens	-9947
uman	-9948
isconsin	-9949
enter	-9950
▁dreams	-9951
▁mamm	-9952
▁Tsar	-9953
▁Add	-9954
▁delighted	-9955
▁Perez	-9956
▁Rafael	-9957
ucks	-9958
kinson	-9959
▁finance	-9960
▁18,	-9961
works	-9962
▁Iv	-9963
▁encl	-9964
▁acad	-9965
chosen	-9966
▁oxygen	-9967
▁Samantha	-9968
▁Bishop	-9969
▁midnight	-9970
▁prohib	-9971
▁observ	-9972
▁cler	-9973
▁writes	-9974
hot	-9975
▁anywhere	-9976
▁protective	-9977
▁entreprene	-9978
▁10-	-9979
▁fate	-9980
▁$4	-9981
▁cake	-9982
▁Theres	-9983
▁Travel	-9984
▁burning	-9985
▁reverse	-9986
▁criminate	-9987
▁Australians	-9988
▁pets	-9989
▁reconst	-9990
onia	-9991
▁Pit	-9992
▁Corpor	-9993
▁Conc	-9994
acc	-9995
hill	-9996
style	-9997
▁classroom	-9998
▁23,	-9999
▁Alexis	-10000
▁Affairs	-10001
▁vigil	-10002
▁infected	-10003
▁illeg	-10004
▁Norway	-10005
▁formal	-10006
▁Festival	-10007
▁misconduct	-10008
GA	-10009
▁highway	-10010
storm	-10011
▁Valencia	-10012
aro	-10013
▁Treasury	-10014
degree	-10015
host	-10016
▁21,	-10017
▁Rosberg	-10018
▁Alb	-10019
▁Joy	-10020
▁samples	-10021
▁gravid	-10022
▁discourage	-10023
cill	-10024
▁supervise	-10025
▁Sel	-10026
▁Islands	-10027
▁autopsy	-10028
▁overturn	-10029
udes	-10030
▁reaching	-10031
▁Gray	-10032
▁Diana	-10033
▁Wisconsin	-10034
▁polls	-10035
▁Hollande	-10036
iege	-10037
▁Elect	-10038
▁gained	-10039
▁Inspector	-10040
vic	-10041
▁hung	-10042
▁Rebec	-10043
▁infant	-10044
▁disrupt	-10045
▁15-	-10046
▁overcome	-10047
arettes	-10048
▁storms	-10049
FC	-10050
▁Ye	-10051
▁Kingdom	-10052
▁Kings	-10053
▁revenue	-10054
▁naturally	-10055
19	-10056
▁Benj	-10057
▁5,	-10058
▁Nine	-10059
▁instit	-10060
▁analyst	-10061
▁cyber	-10062
ttino	-10063
▁astrona	-10064
▁aftermath	-10065
▁fewer	-10066
▁searched	-10067
▁cliff	-10068
▁bullying	-10069
▁posit	-10070
▁Bed	-10071
▁Quest	-10072
▁deserve	-10073
▁diagnosis	-10074
▁scram	-10075
▁Several	-10076
▁destruction	-10077
▁Ark	-10078
idate	-10079
▁Awards	-10080
▁24,	-10081
▁mall	-10082
▁challenging	-10083
uccess	-10084
▁attacker	-10085
▁Caroline	-10086
▁intensive	-10087
skip	-10088
▁Nevada	-10089
▁surgeon	-10090
onso	-10091
▁Cancer	-10092
rena	-10093
▁wooden	-10094
▁Pellegrini	-10095
▁1992	-10096
▁tremendous	-10097
▁inhabit	-10098
▁anymore	-10099
eta	-10100
▁bread	-10101
▁Scene	-10102
▁hip	-10103
▁taught	-10104
▁Somerset	-10105
▁Carib	-10106
EN	-10107
▁Ful	-10108
▁Rebecca	-10109
▁registered	-10110
▁Gi	-10111
▁gestate	-10112
▁Catherine	-10113
▁dubbed	-10114
▁facial	-10115
▁ineffective	-10116
roc	-10117
▁acquit	-10118
▁riding	-10119
▁Vladimir	-10120
agne	-10121
▁escal	-10122
▁GM	-10123
▁intervention	-10124
▁Governor	-10125
▁penalties	-10126
▁Vis	-10127
▁tower	-10128
▁bunk	-10129
▁mould	-10130
▁Owen	-10131
▁Lampard	-10132
▁forwards	-10133
▁12-	-10134
▁explosives	-10135
thal	-10136
▁dise	-10137
▁agitate	-10138
▁stable	-10139
▁tablet	-10140
oons	-10141
▁Nav	-10142
▁enceinte	-10143
▁anch	-10144
▁smashed	-10145
▁lap	-10146
▁athlete	-10147
▁savings	-10148
▁impression	-10149
sembly	-10150
▁Stri	-10151
▁Lauren	-10152
▁Ur	-10153
▁Cosby	-10154
▁impose	-10155
▁privile	-10156
▁stupef	-10157
asty	-10158
▁widespread	-10159
▁Vol	-10160
amel	-10161
▁spite	-10162
▁Ped	-10163
▁tornado	-10164
ectives	-10165
▁sacrifice	-10166
▁6,	-10167
▁vicious	-10168
inth	-10169
▁Herald	-10170
▁Tories	-10171
▁checked	-10172
pat	-10173
lie	-10174
▁tumour	-10175
riages	-10176
inch	-10177
cover	-10178
▁Prest	-10179
▁prol	-10180
▁Labor	-10181
▁refugees	-10182
▁Na	-10183
▁association	-10184
▁30,	-10185
▁excell	-10186
unches	-10187
▁cite	-10188
▁grey	-10189
▁Cass	-10190
enna	-10191
▁Adrian	-10192
▁difficulties	-10193
▁CDC	-10194
▁hanging	-10195
▁commonly	-10196
▁literally	-10197
weather	-10198
1.	-10199
▁walks	-10200
▁26,	-10201
▁coma	-10202
▁globe	-10203
AR	-10204
▁undertake	-10205
▁Embassy	-10206
▁Lut	-10207
▁Brooks	-10208
▁Light	-10209
▁bride	-10210
▁Maj	-10211
▁balls	-10212
▁Low	-10213
ouces	-10214
▁overd	-10215
▁Bobby	-10216
inea	-10217
▁Develop	-10218
▁Castle	-10219
▁differently	-10220
owing	-10221
▁conscious	-10222
▁Angela	-10223
▁march	-10224
▁mature	-10225
▁actuate	-10226
▁youngest	-10227
▁Caribbean	-10228
▁liver	-10229
▁marvel	-10230
▁legit	-10231
▁Brun	-10232
ulent	-10233
▁legacy	-10234
▁temporary	-10235
▁extensive	-10236
▁Entertainment	-10237
Af	-10238
▁Orland	-10239
▁collar	-10240
▁enthusi	-10241
▁whilst	-10242
▁expenses	-10243
▁2009.	-10244
▁Shan	-10245
▁fabric	-10246
▁estimates	-10247
ico	-10248
▁Cruz	-10249
▁Nasa	-10250
▁ideal	-10251
▁puts	-10252
▁dement	-10253
gans	-10254
▁manif	-10255
▁dancing	-10256
▁Toronto	-10257
▁farmers	-10258
ali	-10259
▁Members	-10260
▁Brussels	-10261
▁caution	-10262
iang	-10263
▁Mohamed	-10264
▁disag	-10265
▁indictment	-10266
▁Chen	-10267
identified	-10268
walk	-10269
▁extraordinary	-10270
apes	-10271
aths	-10272
▁wer	-10273
▁ridic	-10274
▁stir	-10275
▁methods	-10276
▁scratch	-10277
▁controls	-10278
▁significantly	-10279
100	-10280
▁regarding	-10281
▁Valent	-10282
▁attracted	-10283
▁Stamford	-10284
▁resignation	-10285
zh	-10286
nan	-10287
▁Aguero	-10288
▁Operation	-10289
▁proposals	-10290
▁Glouces	-10291
▁representatives	-10292
▁massacre	-10293
▁Toy	-10294
▁traveling	-10295
▁Emily	-10296
ao	-10297
▁lect	-10298
▁comedian	-10299
▁Associated	-10300
knapp	-10301
▁Czech	-10302
naev	-10303
▁Protection	-10304
▁Sad	-10305
▁widow	-10306
▁celebrating	-10307
▁Game	-10308
▁Chair	-10309
ipper	-10310
▁Mall	-10311
iveness	-10312
▁meteor	-10313
▁gross	-10314
▁Soviet	-10315
▁lastly	-10316
▁Redknapp	-10317
▁Cape	-10318
▁combined	-10319
▁movements	-10320
▁familiar	-10321
To	-10322
▁Sent	-10323
▁cycle	-10324
▁urban	-10325
▁Control	-10326
▁Senator	-10327
▁offender	-10328
300	-10329
▁1950	-10330
▁assessment	-10331
▁examination	-10332
▁addiction	-10333
▁Tsarnaev	-10334
▁acted	-10335
▁tourism	-10336
▁Daw	-10337
▁desp	-10338
cedented	-10339
oval	-10340
▁partake	-10341
▁Near	-10342
▁felicitous	-10343
▁Gates	-10344
▁ax	-10345
▁inspire	-10346
▁hopefully	-10347
ecraft	-10348
▁blocks	-10349
liminary	-10350
▁kilometers	-10351
▁Il	-10352
▁sne	-10353
▁solitary	-10354
scale	-10355
▁lapt	-10356
▁conversations	-10357
acker	-10358
▁creation	-10359
ducing	-10360
giving	-10361
▁Lamb	-10362
▁Residents	-10363
omet	-10364
▁colours	-10365
▁invasion	-10366
anges	-10367
▁poster	-10368
acco	-10369
stairs	-10370
▁27,	-10371
▁throwing	-10372
▁introduce	-10373
▁recognition	-10374
▁breaks	-10375
▁parade	-10376
iti	-10377
▁inher	-10378
▁holler	-10379
▁Science	-10380
aults	-10381
▁2009,	-10382
▁sculpt	-10383
▁soul	-10384
▁2014.	-10385
▁drawing	-10386
▁praised	-10387
▁featuring	-10388
▁Alf	-10389
bey	-10390
▁retro	-10391
▁RAF	-10392
ews	-10393
▁violation	-10394
Le	-10395
cot	-10396
▁vit	-10397
▁containing	-10398
▁Opinion	-10399
▁2-1	-10400
ivic	-10401
iverse	-10402
▁detailed	-10403
othy	-10404
▁28,	-10405
▁specify	-10406
▁2.5	-10407
▁Yard	-10408
▁Bradford	-10409
▁MI	-10410
adget	-10411
▁smiles	-10412
▁boots	-10413
▁extract	-10414
▁stealing	-10415
▁Todd	-10416
▁NYPD	-10417
door	-10418
▁islands	-10419
▁ply	-10420
hem	-10421
ographed	-10422
▁liquid	-10423
▁9/11	-10424
▁selfie	-10425
▁Jail	-10426
▁24-	-10427
▁exch	-10428
▁entering	-10429
▁god	-10430
▁Belgian	-10431
▁stagger	-10432
▁prisoner	-10433
▁rebu	-10434
▁Seb	-10435
▁jewell	-10436
▁Plan	-10437
▁bankrupt	-10438
▁sessions	-10439
▁descri	-10440
omy	-10441
▁runway	-10442
▁Saint	-10443
eling	-10444
itar	-10445
▁crazy	-10446
▁95	-10447
▁diseases	-10448
▁watchdog	-10449
▁fields	-10450
▁prosper	-10451
▁requires	-10452
▁76	-10453
▁iRep	-10454
▁Grace	-10455
▁founded	-10456
▁elements	-10457
▁refund	-10458
▁mixed	-10459
▁MH	-10460
▁campaigns	-10461
3,	-10462
unning	-10463
▁Animal	-10464
▁Ener	-10465
▁tips	-10466
▁surre	-10467
▁packed	-10468
▁Farm	-10469
▁cheese	-10470
▁Han	-10471
▁squall	-10472
ta	-10473
▁Kirk	-10474
▁frag	-10475
▁brands	-10476
▁Luk	-10477
▁sits	-10478
▁wasnt	-10479
▁tactics	-10480
▁technical	-10481
atri	-10482
rawl	-10483
▁NSA	-10484
▁fined	-10485
▁hollo	-10486
▁resulted	-10487
seeing	-10488
▁militant	-10489
▁suggesting	-10490
▁Campaign	-10491
▁Benjamin	-10492
▁chemotherapy	-10493
▁curb	-10494
▁trio	-10495
handed	-10496
ayed	-10497
▁applied	-10498
▁Eight	-10499
▁Orlando	-10500
▁shootings	-10501
▁admon	-10502
▁stunned	-10503
▁duties	-10504
▁unfair	-10505
▁ease	-10506
▁dollar	-10507
▁existing	-10508
unes	-10509
▁Parents	-10510
▁trading	-10511
bi	-10512
▁syndrome	-10513
▁congressional	-10514
ura	-10515
▁nightclub	-10516
ifty	-10517
▁Tiger	-10518
▁Torres	-10519
▁tissue	-10520
▁shew	-10521
agement	-10522
▁Samar	-10523
▁500,000	-10524
▁cord	-10525
▁medals	-10526
▁disabled	-10527
isle	-10528
▁shower	-10529
▁1-0	-10530
▁Veter	-10531
▁keeps	-10532
aws	-10533
enz	-10534
▁Airways	-10535
▁Cu	-10536
asha	-10537
▁acknowledged	-10538
▁tab	-10539
owski	-10540
▁wages	-10541
aki	-10542
ussia	-10543
▁ID	-10544
▁Baby	-10545
bish	-10546
▁deadline	-10547
▁cardinal	-10548
▁conclusion	-10549
agen	-10550
▁Bes	-10551
▁pure	-10552
▁everyday	-10553
ambers	-10554
▁distract	-10555
▁Palmer	-10556
▁agenda	-10557
▁increases	-10558
date	-10559
▁fierce	-10560
kel	-10561
▁Bea	-10562
▁vex	-10563
▁cogitate	-10564
▁tent	-10565
▁trials	-10566
▁landscape	-10567
▁compare	-10568
▁seize	-10569
▁meters	-10570
▁oldest	-10571
▁judgment	-10572
▁Witnesses	-10573
▁Vietnam	-10574
dam	-10575
▁motorc	-10576
▁transition	-10577
▁recovering	-10578
▁reop	-10579
▁random	-10580
wart	-10581
▁foreb	-10582
▁jeopard	-10583
▁cerebrate	-10584
▁explanation	-10585
▁tire	-10586
▁worn	-10587
▁prote	-10588
▁carrier	-10589
▁700	-10590
▁anxiety	-10591
▁generations	-10592
ographic	-10593
▁waitress	-10594
▁hopeful	-10595
ride	-10596
arette	-10597
▁Freedom	-10598
oded	-10599
▁salt	-10600
▁merit	-10601
▁butter	-10602
▁Columbia	-10603
▁tablets	-10604
▁Drug	-10605
aph	-10606
lec	-10607
▁condemned	-10608
onder	-10609
rition	-10610
▁defy	-10611
empl	-10612
atile	-10613
▁grandchildren	-10614
▁Lev	-10615
▁ferment	-10616
▁tone	-10617
▁fever	-10618
▁sting	-10619
▁questioning	-10620
▁eligible	-10621
▁phil	-10622
▁celebrations	-10623
nesty	-10624
emetery	-10625
▁Short	-10626
▁actors	-10627
▁Larry	-10628
▁waited	-10629
▁differences	-10630
▁Sat	-10631
▁Galaxy	-10632
▁thats	-10633
9.	-10634
face	-10635
▁limits	-10636
American	-10637
▁nightmare	-10638
mons	-10639
▁brace	-10640
▁honey	-10641
▁grim	-10642
▁Harrison	-10643
▁manifest	-10644
arn	-10645
▁Forces	-10646
▁encouraged	-10647
resents	-10648
▁trainer	-10649
▁rapidly	-10650
▁screening	-10651
fits	-10652
icing	-10653
▁cable	-10654
▁covering	-10655
▁decre	-10656
▁witnessed	-10657
▁Karen	-10658
▁Support	-10659
▁handful	-10660
inh	-10661
ahu	-10662
▁Dream	-10663
▁bombings	-10664
▁returns	-10665
▁airstri	-10666
▁institutions	-10667
▁Without	-10668
▁Spr	-10669
▁depth	-10670
lar	-10671
▁glasses	-10672
▁unaccept	-10673
▁Expl	-10674
▁16-	-10675
▁Champ	-10676
▁volunt	-10677
▁Were	-10678
▁Dennis	-10679
▁Cow	-10680
alo	-10681
▁71	-10682
▁applications	-10683
▁tempt	-10684
▁contains	-10685
▁participate	-10686
▁Haiti	-10687
▁grateful	-10688
▁Taiwanese	-10689
▁Marie	-10690
▁Kurdish	-10691
▁diagnose	-10692
Wh	-10693
▁persp	-10694
▁cin	-10695
Is	-10696
▁racism	-10697
▁fingers	-10698
ophile	-10699
▁category	-10700
▁blocked	-10701
▁stronger	-10702
idav	-10703
▁Community	-10704
▁Econom	-10705
Pe	-10706
▁slowly	-10707
▁29,	-10708
osexual	-10709
▁Investigation	-10710
LS	-10711
▁Ku	-10712
▁Unt	-10713
▁finds	-10714
▁discussions	-10715
7,	-10716
▁Wals	-10717
▁inappropriate	-10718
last	-10719
enerate	-10720
ateur	-10721
▁Farage	-10722
▁Jews	-10723
▁petrol	-10724
▁wet	-10725
ushing	-10726
▁disgrace	-10727
obb	-10728
▁Singh	-10729
orld	-10730
▁Prison	-10731
wife	-10732
▁Shi	-10733
▁fool	-10734
▁prognost	-10735
▁extremists	-10736
▁Ins	-10737
▁operator	-10738
▁backing	-10739
▁17,	-10740
stream	-10741
▁Arena	-10742
▁mentally	-10743
▁Kas	-10744
▁evoke	-10745
▁wealthy	-10746
hur	-10747
▁Crow	-10748
▁exceptional	-10749
▁forensic	-10750
▁sensitive	-10751
aund	-10752
▁rever	-10753
▁golden	-10754
▁Gunners	-10755
▁Hass	-10756
▁Liberia	-10757
▁visible	-10758
An	-10759
▁McM	-10760
regard	-10761
▁Lucas	-10762
▁Sturridge	-10763
rust	-10764
indle	-10765
▁forb	-10766
▁saving	-10767
▁demo	-10768
▁Rou	-10769
▁seal	-10770
▁ultimate	-10771
top	-10772
▁relation	-10773
▁Abdul	-10774
▁forge	-10775
▁Ko	-10776
▁fluid	-10777
▁Report	-10778
▁Masters	-10779
▁Gabri	-10780
▁unspo	-10781
▁ineffect	-10782
▁pod	-10783
▁Lloyd	-10784
▁Energy	-10785
▁unprecedented	-10786
▁effectively	-10787
▁owns	-10788
▁opener	-10789
▁entitled	-10790
▁polite	-10791
▁engineering	-10792
▁ash	-10793
These	-10794
▁suspend	-10795
yers	-10796
▁lifted	-10797
cuff	-10798
▁affidav	-10799
▁dresses	-10800
▁miscar	-10801
▁hacking	-10802
▁represents	-10803
▁parked	-10804
▁cited	-10805
▁taxpayer	-10806
▁openly	-10807
▁buyers	-10808
oup	-10809
▁canv	-10810
▁frightened	-10811
▁FOR	-10812
acare	-10813
▁Foster	-10814
▁statistics	-10815
▁Ryder	-10816
▁constitu	-10817
▁expecting	-10818
▁FC	-10819
5.	-10820
▁Greek	-10821
▁Claire	-10822
▁Swedish	-10823
▁calories	-10824
▁qualifying	-10825
astian	-10826
▁incess	-10827
▁plug	-10828
▁consumption	-10829
▁99	-10830
▁employers	-10831
lain	-10832
▁vap	-10833
▁tardy	-10834
▁dyn	-10835
orset	-10836
▁mirror	-10837
▁Pictured	-10838
▁haul	-10839
▁Global	-10840
▁apologise	-10841
▁84	-10842
▁Poll	-10843
▁uncertain	-10844
▁resigned	-10845
▁Ca	-10846
leans	-10847
oping	-10848
▁shirts	-10849
▁transferred	-10850
elta	-10851
▁Exec	-10852
▁Online	-10853
▁appointed	-10854
▁importune	-10855
▁unidentified	-10856
PS	-10857
▁Billy	-10858
▁Bernard	-10859
aved	-10860
▁welcom	-10861
▁deficit	-10862
isput	-10863
▁Right	-10864
▁touched	-10865
▁Such	-10866
▁branded	-10867
16	-10868
▁1,500	-10869
▁ineffectual	-10870
Al	-10871
ika	-10872
▁cops	-10873
▁Europa	-10874
▁bitter	-10875
▁giants	-10876
▁2-0	-10877
▁seventh	-10878
▁Barnes	-10879
▁harness	-10880
▁Henderson	-10881
▁Samuel	-10882
lu	-10883
▁li	-10884
▁propag	-10885
▁spirits	-10886
▁butt	-10887
▁vowed	-10888
▁Alonso	-10889
▁TH	-10890
▁situations	-10891
▁summate	-10892
▁depos	-10893
▁intox	-10894
▁lobby	-10895
▁Spani	-10896
▁subsid	-10897
▁DJ	-10898
▁choices	-10899
▁82	-10900
▁admonish	-10901
▁currency	-10902
▁pledge	-10903
▁easterly	-10904
▁beam	-10905
▁calend	-10906
▁bleeding	-10907
amous	-10908
▁Toure	-10909
▁faster	-10910
▁puzzle	-10911
▁scientist	-10912
▁bub	-10913
▁spots	-10914
▁Base	-10915
▁Robertson	-10916
▁Front	-10917
▁Inn	-10918
▁sponsors	-10919
▁unrest	-10920
▁appearing	-10921
▁embrace	-10922
▁revenge	-10923
▁lip	-10924
osan	-10925
▁runner	-10926
▁dangers	-10927
yang	-10928
prise	-10929
▁Way	-10930
▁Arthur	-10931
▁doesnt	-10932
▁Heathrow	-10933
▁6.5	-10934
▁whale	-10935
▁Bieber	-10936
▁losses	-10937
▁Mayweather	-10938
▁Leader	-10939
▁indisput	-10940
▁Lan	-10941
unct	-10942
▁mol	-10943
▁delayed	-10944
▁pleas	-10945
▁displace	-10946
▁executives	-10947
▁painful	-10948
▁forebode	-10949
▁header	-10950
▁17-	-10951
▁Barn	-10952
▁creatures	-10953
uers	-10954
minate	-10955
▁Above	-10956
▁adapt	-10957
final	-10958
▁Celebr	-10959
▁firearms	-10960
▁na	-10961
▁Delhi	-10962
▁Orleans	-10963
▁undec	-10964
HO	-10965
▁Bath	-10966
▁backl	-10967
▁wrest	-10968
▁mainly	-10969
▁substantiate	-10970
▁Obs	-10971
▁prognosticate	-10972
▁toug	-10973
▁humble	-10974
▁cultural	-10975
onies	-10976
▁fatally	-10977
▁Ahmad	-10978
▁seiz	-10979
▁monish	-10980
▁Yan	-10981
▁Lebanon	-10982
▁Stephan	-10983
▁cigarettes	-10984
▁Field	-10985
▁Nik	-10986
tail	-10987
▁jer	-10988
shine	-10989
▁vary	-10990
▁pulling	-10991
▁benefic	-10992
▁attackers	-10993
▁Kr	-10994
igious	-10995
▁Independent	-10996
▁institute	-10997
▁suffice	-10998
intendent	-10999
▁Arn	-11000
▁recreate	-11001
▁percentage	-11002
ario	-11003
▁Alexand	-11004
▁sod	-11005
migr	-11006
▁Holder	-11007
▁sweep	-11008
▁publication	-11009
annon	-11010
▁Thank	-11011
▁ric	-11012
▁burden	-11013
▁insec	-11014
▁jewellery	-11015
▁comprehens	-11016
▁pronounced	-11017
▁acres	-11018
▁closure	-11019
▁Olympian	-11020
avi	-11021
▁seas	-11022
▁devolve	-11023
▁Bloomberg	-11024
▁competitive	-11025
▁dock	-11026
▁Thai	-11027
▁alike	-11028
uting	-11029
▁franch	-11030
▁gravel	-11031
▁indisputable	-11032
then	-11033
▁hood	-11034
▁techniques	-11035
▁comeback	-11036
▁25-	-11037
▁memor	-11038
▁Country	-11039
▁translate	-11040
▁Brady	-11041
▁40,000	-11042
▁Louise	-11043
▁Slov	-11044
ffer	-11045
aders	-11046
▁Guardian	-11047
▁Obamacare	-11048
▁Keane	-11049
▁Ath	-11050
▁dramatically	-11051
▁primal	-11052
eenth	-11053
▁divers	-11054
▁31,	-11055
▁organs	-11056
▁indicated	-11057
▁Zh	-11058
▁accidentally	-11059
▁cub	-11060
ieves	-11061
anor	-11062
ullivan	-11063
▁Fulham	-11064
▁phenomen	-11065
quer	-11066
▁preliminary	-11067
▁fitted	-11068
▁abne	-11069
▁steel	-11070
▁Stevens	-11071
▁edition	-11072
▁predicted	-11073
▁demonstrators	-11074
▁abnegate	-11075
****	-11076
▁portrait	-11077
▁downtown	-11078
▁hostages	-11079
▁intercept	-11080
▁qualif	-11081
▁vessels	-11082
▁tons	-11083
▁basement	-11084
▁Battle	-11085
▁Leone	-11086
▁sacked	-11087
▁underground	-11088
▁Palin	-11089
▁briefly	-11090
▁absent	-11091
insula	-11092
▁onwards	-11093
▁senator	-11094
idance	-11095
▁Var	-11096
▁Hitler	-11097
two	-11098
▁Joshua	-11099
▁frequent	-11100
▁radiation	-11101
▁scrap	-11102
OLL	-11103
zes	-11104
apolis	-11105
itol	-11106
affe	-11107
amine	-11108
▁Libyan	-11109
▁singing	-11110
▁disregard	-11111
▁Cai	-11112
▁pornography	-11113
▁matur	-11114
▁III	-11115
▁borrow	-11116
ded	-11117
▁30-	-11118
▁typical	-11119
▁donor	-11120
▁Orange	-11121
▁Weather	-11122
rien	-11123
▁x	-11124
▁somewhat	-11125
▁library	-11126
▁Blues	-11127
▁studying	-11128
▁Information	-11129
uable	-11130
▁unnamed	-11131
▁Nicholas	-11132
▁Peace	-11133
▁screens	-11134
ointing	-11135
neath	-11136
▁trash	-11137
ecess	-11138
▁Abbey	-11139
▁aunt	-11140
▁Saints	-11141
▁Hud	-11142
▁forcing	-11143
▁Detectives	-11144
fa	-11145
▁misd	-11146
▁remarkable	-11147
▁ordinary	-11148
▁protected	-11149
▁flav	-11150
▁bulge	-11151
▁fatig	-11152
▁Richardson	-11153
▁IV	-11154
▁Thames	-11155
▁Mom	-11156
▁Rand	-11157
olith	-11158
ouring	-11159
▁croc	-11160
RS	-11161
▁Ru	-11162
8.	-11163
▁rab	-11164
▁nervous	-11165
▁Loc	-11166
▁Mitt	-11167
▁wreckage	-11168
▁Aber	-11169
▁lorry	-11170
▁shorts	-11171
▁managing	-11172
▁Harvard	-11173
▁detective	-11174
▁TM	-11175
iper	-11176
▁motive	-11177
▁retreat	-11178
▁Lin	-11179
▁tong	-11180
olo	-11181
▁deck	-11182
▁hind	-11183
▁spacecraft	-11184
atural	-11185
▁posing	-11186
▁tunnel	-11187
▁diplomat	-11188
▁elite	-11189
▁comparison	-11190
▁Armed	-11191
▁Critics	-11192
▁grief	-11193
▁evince	-11194
▁clinical	-11195
active	-11196
▁crackdown	-11197
▁liken	-11198
▁Julian	-11199
▁gathering	-11200
etown	-11201
fordshire	-11202
▁Moslem	-11203
▁promising	-11204
von	-11205
▁Conf	-11206
▁Gay	-11207
▁Hop	-11208
▁Guinea	-11209
▁dementia	-11210
▁Please	-11211
▁16,	-11212
▁files	-11213
▁opposed	-11214
▁''	-11215
▁ET	-11216
▁Line	-11217
jud	-11218
umer	-11219
ouses	-11220
▁quant	-11221
▁harder	-11222
▁dat	-11223
aired	-11224
bound	-11225
▁protr	-11226
▁Carroll	-11227
▁fines	-11228
▁corporate	-11229
▁brings	-11230
▁handcuff	-11231
▁affidavit	-11232
▁attractive	-11233
▁continent	-11234
claim	-11235
▁19-	-11236
▁sheet	-11237
▁enormous	-11238
▁Argentine	-11239
▁tired	-11240
grand	-11241
▁onward	-11242
▁expectations	-11243
▁pupil	-11244
▁Bennett	-11245
▁Rogers	-11246
▁handgun	-11247
▁organis	-11248
▁strongly	-11249
▁furniture	-11250
▁manip	-11251
▁Colin	-11252
▁Formosan	-11253
▁admitting	-11254
▁hint	-11255
▁gallery	-11256
▁mountains	-11257
▁Pep	-11258
▁flown	-11259
raging	-11260
▁pile	-11261
People	-11262
▁announ	-11263
▁usable	-11264
▁foss	-11265
▁debar	-11266
▁steady	-11267
▁Serie	-11268
▁vocal	-11269
through	-11270
▁legion	-11271
▁Thatcher	-11272
▁Next	-11273
pple	-11274
▁Wool	-11275
▁discussed	-11276
una	-11277
ilia	-11278
▁useable	-11279
▁2008,	-11280
▁swallow	-11281
▁relevant	-11282
▁Perth	-11283
ifford	-11284
hr	-11285
▁cargo	-11286
▁cigarette	-11287
sons	-11288
5,	-11289
▁bullets	-11290
hner	-11291
▁15,000	-11292
▁ratings	-11293
▁Fo	-11294
▁speaks	-11295
▁trailer	-11296
▁Jerry	-11297
▁Natal	-11298
▁begun	-11299
ierre	-11300
▁networking	-11301
700	-11302
▁searches	-11303
▁bron	-11304
▁sooner	-11305
▁loving	-11306
▁Tyler	-11307
▁couldnt	-11308
▁residential	-11309
7.	-11310
▁ranks	-11311
▁Anyone	-11312
▁speeds	-11313
▁incorrect	-11314
inee	-11315
▁stabbing	-11316
▁Age	-11317
ohan	-11318
ambling	-11319
▁soph	-11320
▁phase	-11321
▁nursing	-11322
▁Polish	-11323
▁illegally	-11324
▁shine	-11325
▁contracts	-11326
▁phr	-11327
▁garner	-11328
▁Transportation	-11329
▁mock	-11330
▁caption	-11331
▁rubbish	-11332
▁snake	-11333
▁Peterson	-11334
timore	-11335
▁bury	-11336
▁booked	-11337
▁Berry	-11338
ante	-11339
yon	-11340
▁nav	-11341
▁twenty	-11342
▁Dominic	-11343
pin	-11344
▁vet	-11345
▁favorable	-11346
▁supporter	-11347
▁($	-11348
▁wishes	-11349
▁thrust	-11350
▁newspapers	-11351
aic	-11352
▁exerc	-11353
▁inner	-11354
▁dedicate	-11355
▁Music	-11356
iddling	-11357
iments	-11358
▁creature	-11359
▁advertise	-11360
▁idle	-11361
▁Andrea	-11362
ibilities	-11363
▁boxing	-11364
▁civic	-11365
▁rating	-11366
▁endorse	-11367
▁Current	-11368
▁mourn	-11369
OWN	-11370
▁coaches	-11371
▁gesture	-11372
▁Trip	-11373
▁jets	-11374
▁11,	-11375
▁Casey	-11376
▁relaxed	-11377
▁Eti	-11378
▁existence	-11379
▁Bear	-11380
▁contam	-11381
inqu	-11382
▁signature	-11383
▁adjoin	-11384
▁underneath	-11385
How	-11386
▁6,000	-11387
▁frustration	-11388
action	-11389
rolled	-11390
▁Until	-11391
▁nickname	-11392
▁damaging	-11393
▁separated	-11394
▁picking	-11395
▁recession	-11396
mir	-11397
▁Baltimore	-11398
▁fed	-11399
▁representing	-11400
▁cher	-11401
itutes	-11402
▁herald	-11403
▁incessantly	-11404
occ	-11405
▁ads	-11406
▁polar	-11407
▁ow	-11408
▁presidency	-11409
onny	-11410
vereign	-11411
▁blanket	-11412
aha	-11413
▁cure	-11414
olithic	-11415
▁viewed	-11416
▁represented	-11417
▁Neville	-11418
▁Welbeck	-11419
▁corrobor	-11420
▁referring	-11421
piece	-11422
▁queen	-11423
ilitation	-11424
▁79	-11425
▁Blackpool	-11426
▁chemicals	-11427
istory	-11428
▁passes	-11429
▁vaccine	-11430
▁promotion	-11431
▁nationwide	-11432
▁Through	-11433
▁commissioner	-11434
size	-11435
chant	-11436
▁convince	-11437
▁Teh	-11438
alle	-11439
▁Dak	-11440
▁Cho	-11441
emark	-11442
▁disability	-11443
▁Mason	-11444
▁feeding	-11445
▁guidance	-11446
erts	-11447
▁tribunal	-11448
▁competitions	-11449
iere	-11450
▁Melissa	-11451
▁gadget	-11452
▁crus	-11453
▁underwear	-11454
▁pave	-11455
▁vanish	-11456
▁neat	-11457
▁Hunter	-11458
▁accompanied	-11459
▁shake	-11460
▁reads	-11461
▁Middleton	-11462
▁Fle	-11463
▁Opp	-11464
▁deemed	-11465
sightful	-11466
▁notorious	-11467
▁Dise	-11468
uspicious	-11469
▁thigh	-11470
▁lovely	-11471
▁Chad	-11472
▁Having	-11473
iah	-11474
▁Cer	-11475
▁removal	-11476
oga	-11477
rum	-11478
▁perplex	-11479
▁sovereign	-11480
▁dign	-11481
▁Fashion	-11482
▁coastal	-11483
aka	-11484
▁treating	-11485
▁waist	-11486
▁nep	-11487
▁Award	-11488
▁unlaw	-11489
▁Boris	-11490
▁Shah	-11491
▁pants	-11492
▁conven	-11493
reek	-11494
adhafi	-11495
▁wings	-11496
▁2008.	-11497
▁Richards	-11498
▁load	-11499
respons	-11500
▁Death	-11501
▁lesson	-11502
obil	-11503
folk	-11504
▁Kel	-11505
▁portion	-11506
▁Wigan	-11507
▁Maine	-11508
▁equate	-11509
▁Durham	-11510
▁Lancaster	-11511
daughter	-11512
▁fiancee	-11513
▁demonstrations	-11514
▁sway	-11515
▁gunshot	-11516
▁underwent	-11517
▁Hind	-11518
▁Chall	-11519
▁nerve	-11520
▁Merkel	-11521
▁baffle	-11522
pher	-11523
▁cleaning	-11524
▁achieved	-11525
▁perpetually	-11526
▁aims	-11527
free	-11528
▁190	-11529
▁texts	-11530
▁indication	-11531
iginal	-11532
▁stool	-11533
▁drones	-11534
▁upcoming	-11535
▁Camb	-11536
▁pizza	-11537
▁billionaire	-11538
▁confessed	-11539
▁profound	-11540
▁Cairo	-11541
▁targeting	-11542
▁Federation	-11543
▁bewilder	-11544
uder	-11545
▁initiate	-11546
bye	-11547
▁pad	-11548
▁Poche	-11549
▁usher	-11550
4,	-11551
▁subsequent	-11552
▁Said	-11553
▁Trag	-11554
▁donated	-11555
▁amaze	-11556
▁redact	-11557
▁qualify	-11558
▁photographed	-11559
▁smash	-11560
▁vegetables	-11561
▁14-	-11562
onde	-11563
▁pluck	-11564
▁Mans	-11565
▁dil	-11566
▁DOWN	-11567
▁optim	-11568
▁Reds	-11569
nish	-11570
▁tooth	-11571
▁pic	-11572
▁Suff	-11573
▁Dy	-11574
▁Manager	-11575
▁helmet	-11576
▁seemingly	-11577
po	-11578
▁Dorset	-11579
▁mortgage	-11580
▁obser	-11581
igation	-11582
▁lane	-11583
▁marathon	-11584
▁wrapped	-11585
▁Alice	-11586
▁slap	-11587
▁fulfill	-11588
▁Bird	-11589
▁yacht	-11590
▁nowhere	-11591
▁traveled	-11592
▁travellers	-11593
▁Tax	-11594
▁Speaker	-11595
fect	-11596
▁Boehner	-11597
▁unacceptable	-11598
▁progressively	-11599
▁Alv	-11600
Neill	-11601
▁Patri	-11602
ampa	-11603
▁RSP	-11604
▁Lock	-11605
▁constant	-11606
▁endanger	-11607
▁psychological	-11608
▁motorists	-11609
▁complicated	-11610
▁Resp	-11611
▁Wi	-11612
▁mug	-11613
▁Aj	-11614
mith	-11615
▁crossed	-11616
▁shit	-11617
▁scare	-11618
▁analysts	-11619
▁bomber	-11620
▁dining	-11621
▁mosque	-11622
▁professionals	-11623
▁Staffordshire	-11624
dis	-11625
▁defensive	-11626
zone	-11627
▁Liam	-11628
▁aggravated	-11629
▁instructions	-11630
dling	-11631
▁ferry	-11632
▁yearly	-11633
▁IP	-11634
ht	-11635
▁breat	-11636
▁Liberal	-11637
▁dolph	-11638
zer	-11639
▁neglig	-11640
▁battling	-11641
▁patterns	-11642
▁epid	-11643
▁statue	-11644
▁cooking	-11645
ighed	-11646
▁Interior	-11647
ghai	-11648
mont	-11649
▁acid	-11650
▁interven	-11651
▁nephew	-11652
opper	-11653
▁Amer	-11654
▁Border	-11655
▁firmly	-11656
▁orange	-11657
▁Austria	-11658
▁studied	-11659
▁Ghana	-11660
▁leather	-11661
18	-11662
▁commute	-11663
▁repay	-11664
▁dragged	-11665
▁Dri	-11666
SE	-11667
▁decisive	-11668
▁Christine	-11669
iao	-11670
▁balloon	-11671
rov	-11672
lett	-11673
aping	-11674
▁charities	-11675
▁Brid	-11676
▁Jeffrey	-11677
osa	-11678
▁semif	-11679
▁downward	-11680
▁Blake	-11681
eyed	-11682
▁confine	-11683
▁Within	-11684
▁Norwich	-11685
▁Preston	-11686
gi	-11687
▁DC	-11688
aman	-11689
oples	-11690
▁corn	-11691
viously	-11692
▁Division	-11693
▁7,	-11694
▁rust	-11695
▁Wildlife	-11696
▁SCR	-11697
▁Hurricane	-11698
▁Jacob	-11699
▁Fans	-11700
▁replete	-11701
▁isolated	-11702
▁beds	-11703
▁exploit	-11704
▁unlo	-11705
▁Salv	-11706
▁academy	-11707
▁apologised	-11708
▁McN	-11709
▁Karl	-11710
▁Prim	-11711
▁realized	-11712
▁intemper	-11713
elligence	-11714
▁www	-11715
▁Gene	-11716
▁piss	-11717
ousand	-11718
▁parks	-11719
▁Ep	-11720
▁directed	-11721
▁difficulty	-11722
▁discipline	-11723
apper	-11724
▁violations	-11725
issions	-11726
▁Sometimes	-11727
▁Pa	-11728
▁Bald	-11729
▁peach	-11730
▁hometown	-11731
▁Persian	-11732
oric	-11733
▁shooter	-11734
plane	-11735
▁apprehend	-11736
▁engineers	-11737
rera	-11738
venture	-11739
▁83	-11740
▁wand	-11741
▁heels	-11742
▁radar	-11743
▁Capitol	-11744
oker	-11745
▁15,	-11746
▁Pay	-11747
▁theater	-11748
▁consecut	-11749
▁Jama	-11750
▁compass	-11751
▁86	-11752
▁22-	-11753
▁promises	-11754
▁Tem	-11755
▁Tob	-11756
▁Sophie	-11757
▁carpet	-11758
▁startle	-11759
▁Homeland	-11760
▁rage	-11761
▁Claim	-11762
▁Adeb	-11763
▁gown	-11764
▁retailers	-11765
▁infections	-11766
sein	-11767
▁autumn	-11768
▁diving	-11769
ylan	-11770
▁revelations	-11771
▁Glass	-11772
▁slammed	-11773
▁suits	-11774
▁stops	-11775
grat	-11776
▁spaces	-11777
adi	-11778
▁accurate	-11779
!"	-11780
iola	-11781
▁Hans	-11782
▁addressed	-11783
▁everywhere	-11784
▁schoolgirl	-11785
upp	-11786
ouds	-11787
▁utterly	-11788
made	-11789
▁Tib	-11790
▁cam	-11791
▁SCROLL	-11792
▁prince	-11793
orton	-11794
▁Potter	-11795
▁Sold	-11796
▁beaches	-11797
▁minuscule	-11798
▁beside	-11799
90	-11800
▁calendar	-11801
▁preca	-11802
▁producers	-11803
▁campaigners	-11804
▁Pap	-11805
▁arts	-11806
▁asleep	-11807
▁emotions	-11808
▁Phillip	-11809
▁perspective	-11810
▁recommended	-11811
▁outdo	-11812
▁2.	-11813
▁Gas	-11814
▁fox	-11815
▁Senior	-11816
▁borders	-11817
▁renowned	-11818
▁posture	-11819
held	-11820
▁Bot	-11821
ivided	-11822
▁prescription	-11823
Bay	-11824
▁banking	-11825
▁shif	-11826
▁constr	-11827
fortable	-11828
▁Stanley	-11829
▁trucks	-11830
▁Dian	-11831
hedral	-11832
▁Bever	-11833
hers	-11834
▁Again	-11835
▁arguments	-11836
▁Lucy	-11837
▁readers	-11838
ippers	-11839
▁teammate	-11840
▁exception	-11841
▁bedrooms	-11842
▁Warner	-11843
▁trim	-11844
▁flower	-11845
▁Gadhafi	-11846
▁Moss	-11847
▁Alz	-11848
4.	-11849
amic	-11850
orted	-11851
▁Ramsey	-11852
▁insult	-11853
EC	-11854
▁scrutiny	-11855
▁Christians	-11856
▁Raj	-11857
▁60,000	-11858
▁Jar	-11859
parents	-11860
▁Norfolk	-11861
aines	-11862
▁liked	-11863
casters	-11864
▁empath	-11865
▁Chairman	-11866
cillor	-11867
▁Lions	-11868
▁McCar	-11869
▁surrender	-11870
▁Nash	-11871
▁engines	-11872
▁88	-11873
▁rarely	-11874
▁Arkansas	-11875
▁invent	-11876
▁wanting	-11877
▁bend	-11878
▁Buff	-11879
▁forrader	-11880
▁Pochettino	-11881
atis	-11882
▁lets	-11883
▁Ast	-11884
▁aide	-11885
▁slump	-11886
▁involves	-11887
▁Hayes	-11888
▁antib	-11889
▁veracious	-11890
▁Military	-11891
itches	-11892
▁Linda	-11893
▁maker	-11894
▁1989	-11895
▁menu	-11896
▁welcomed	-11897
▁stance	-11898
▁Morrison	-11899
▁Eri	-11900
▁Lanka	-11901
erb	-11902
▁improvement	-11903
ptic	-11904
▁newborn	-11905
▁demonstration	-11906
▁scam	-11907
▁compromise	-11908
▁preparation	-11909
▁diplomatic	-11910
hap	-11911
▁Got	-11912
▁railway	-11913
▁Executive	-11914
▁leaked	-11915
igers	-11916
▁Clay	-11917
fied	-11918
▁watches	-11919
▁raging	-11920
▁missions	-11921
▁criticized	-11922
▁battles	-11923
▁Thanksgiving	-11924
▁expans	-11925
▁quoted	-11926
iating	-11927
ariably	-11928
▁allegation	-11929
▁peaceful	-11930
▁horm	-11931
▁frozen	-11932
▁purchased	-11933
▁secured	-11934
▁missiles	-11935
▁AS	-11936
▁jeans	-11937
▁Garden	-11938
▁Ecu	-11939
▁Anti	-11940
▁Assistant	-11941
▁Ministers	-11942
▁releg	-11943
▁painted	-11944
annes	-11945
▁numb	-11946
▁circuit	-11947
▁centuries	-11948
▁TSA	-11949
mented	-11950
▁anonymous	-11951
▁universities	-11952
onnie	-11953
▁sect	-11954
▁certific	-11955
▁gangs	-11956
▁Hispan	-11957
▁incite	-11958
▁adventure	-11959
▁prey	-11960
▁PR	-11961
minded	-11962
hurst	-11963
▁deputies	-11964
▁Lang	-11965
▁smartphones	-11966
▁arise	-11967
ortunate	-11968
▁invariably	-11969
▁hij	-11970
▁Scots	-11971
▁distinctive	-11972
▁helicopters	-11973
onese	-11974
▁Prevention	-11975
▁Rory	-11976
iler	-11977
▁unions	-11978
▁evident	-11979
▁ignored	-11980
▁23-	-11981
▁executed	-11982
▁falls	-11983
▁bung	-11984
▁mane	-11985
▁circle	-11986
▁deline	-11987
▁moral	-11988
▁Mes	-11989
▁citing	-11990
▁Highway	-11991
▁premier	-11992
▁Sale	-11993
▁stability	-11994
hol	-11995
haul	-11996
▁grandson	-11997
▁elaborate	-11998
▁Cuban	-11999
▁Julia	-12000
▁absor	-12001
▁longtime	-12002
▁proportion	-12003
turn	-12004
▁py	-12005
▁Naz	-12006
▁forc	-12007
▁punched	-12008
▁creative	-12009
▁playact	-12010
▁Abdullah	-12011
▁reserv	-12012
▁Happy	-12013
alez	-12014
▁condol	-12015
▁injure	-12016
▁context	-12017
▁Coroner	-12018
▁Alzheim	-12019
BO	-12020
▁14,	-12021
emies	-12022
▁visa	-12023
▁History	-12024
▁bind	-12025
oning	-12026
▁eighth	-12027
munition	-12028
profit	-12029
sit	-12030
▁Nipp	-12031
▁Cold	-12032
▁weren	-12033
▁Command	-12034
▁persons	-12035
▁fundraising	-12036
One	-12037
▁Tehran	-12038
▁description	-12039
▁intimid	-12040
elect	-12041
▁Lenn	-12042
▁jokes	-12043
▁purposes	-12044
▁Cov	-12045
▁earmark	-12046
▁extremist	-12047
izon	-12048
▁Coleman	-12049
▁discont	-12050
▁Webb	-12051
▁Pul	-12052
▁explosive	-12053
▁accidents	-12054
▁finishing	-12055
doch	-12056
▁ignore	-12057
▁presents	-12058
▁Hoff	-12059
▁barrier	-12060
▁suffers	-12061
Its	-12062
ociate	-12063
▁hazard	-12064
mand	-12065
▁ceiling	-12066
▁romantic	-12067
▁Hung	-12068
▁25,000	-12069
▁Denmark	-12070
▁subjects	-12071
▁temporarily	-12072
atched	-12073
▁deleg	-12074
fortunately	-12075
▁wheels	-12076
▁coaching	-12077
▁suggestion	-12078
▁Motor	-12079
▁wrist	-12080
entimes	-12081
▁Arctic	-12082
▁genetic	-12083
▁delineate	-12084
▁belike	-12085
▁uncommitted	-12086
abad	-12087
▁sharks	-12088
izer	-12089
▁Corp	-12090
▁wal	-12091
▁Reed	-12092
aternary	-12093
▁trademark	-12094
avez	-12095
▁tube	-12096
▁encouraging	-12097
GB	-12098
▁Barca	-12099
▁Robb	-12100
▁Palestinians	-12101
▁Hes	-12102
▁crap	-12103
▁Ug	-12104
▁settled	-12105
▁lightning	-12106
rice	-12107
▁21-	-12108
▁Wils	-12109
▁Spaniard	-12110
ript	-12111
▁fairly	-12112
▁requirements	-12113
bul	-12114
▁hosted	-12115
▁makers	-12116
▁Zimb	-12117
▁inev	-12118
▁1991	-12119
▁solo	-12120
▁Marathon	-12121
▁highlights	-12122
▁humanitarian	-12123
▁accommodation	-12124
aba	-12125
ighting	-12126
▁congrat	-12127
▁criticise	-12128
▁pharm	-12129
▁bronze	-12130
▁loaded	-12131
▁Pie	-12132
▁Vik	-12133
aching	-12134
ups	-12135
▁Rest	-12136
▁leaf	-12137
tenance	-12138
▁conservation	-12139
▁ammunition	-12140
▁Organization	-12141
▁Norman	-12142
▁300,000	-12143
▁fixture	-12144
▁Rig	-12145
▁cancelled	-12146
▁Berk	-12147
▁Patrol	-12148
▁roleplay	-12149
▁quaternary	-12150
▁flags	-12151
▁Ta	-12152
▁oftt	-12153
▁ofttimes	-12154
▁Diamond	-12155
ozy	-12156
▁les	-12157
▁threaten	-12158
iy	-12159
▁researcher	-12160
▁breed	-12161
▁deployed	-12162
screen	-12163
▁Match	-12164
▁legally	-12165
▁expression	-12166
.99	-12167
▁loans	-12168
▁affects	-12169
▁structures	-12170
▁Prize	-12171
▁Yah	-12172
▁corroborate	-12173
▁Own	-12174
▁Bali	-12175
pit	-12176
▁monarch	-12177
▁signals	-12178
mal	-12179
making	-12180
▁kinds	-12181
ean	-12182
▁Lux	-12183
▁Harvey	-12184
▁Heather	-12185
▁fathers	-12186
▁Management	-12187
rics	-12188
▁aviation	-12189
ologic	-12190
▁oftentimes	-12191
▁Britt	-12192
▁euros	-12193
▁Chavez	-12194
▁copies	-12195
▁--	-12196
▁cruelty	-12197
▁asks	-12198
bus	-12199
abwe	-12200
▁Dead	-12201
▁climbing	-12202
▁politically	-12203
▁pedest	-12204
▁Stef	-12205
▁Murdoch	-12206
▁weighed	-12207
▁stupid	-12208
▁publicity	-12209
▁beloved	-12210
▁Development	-12211
▁Reagan	-12212
▁hale	-12213
▁reduction	-12214
▁donation	-12215
▁tug	-12216
▁Mountain	-12217
agles	-12218
iary	-12219
ping	-12220
▁Fig	-12221
▁Sunni	-12222
▁protrude	-12223
▁sack	-12224
▁junior	-12225
▁Beth	-12226
ori	-12227
inity	-12228
▁wrap	-12229
▁Weekly	-12230
▁doubly	-12231
▁extension	-12232
▁surveil	-12233
▁Pad	-12234
▁Disease	-12235
ikes	-12236
▁franchise	-12237
▁billions	-12238
▁Cav	-12239
▁gren	-12240
▁phenomenon	-12241
zai	-12242
▁Middles	-12243
IDS	-12244
ologies	-12245
▁tongue	-12246
▁quarters	-12247
▁prosecute	-12248
▁wax	-12249
▁dire	-12250
▁barric	-12251
▁warming	-12252
▁Firef	-12253
▁Marco	-12254
▁fisher	-12255
▁Girls	-12256
▁minds	-12257
▁versions	-12258
onesome	-12259
▁consecutive	-12260
▁Rail	-12261
▁SA	-12262
▁Championships	-12263
▁bic	-12264
▁habits	-12265
▁Zimbabwe	-12266
hentic	-12267
▁puddle	-12268
▁populate	-12269
▁bureau	-12270
▁250,000	-12271
▁broadcaster	-12272
▁attrib	-12273
▁ownership	-12274
treat	-12275
▁Cohen	-12276
oppy	-12277
-6	-12278
▁carries	-12279
▁(2	-12280
▁Ecuador	-12281
▁Corps	-12282
▁pione	-12283
▁ts	-12284
ghazi	-12285
▁Golf	-12286
▁Kard	-12287
thouse	-12288
▁fatigue	-12289
ropical	-12290
▁Ele	-12291
▁satisfact	-12292
▁rely	-12293
▁Sebastian	-12294
▁astonishing	-12295
▁Hey	-12296
doing	-12297
▁Hell	-12298
▁span	-12299
▁voices	-12300
▁$7	-12301
achers	-12302
onte	-12303
▁Shanghai	-12304
▁lonesome	-12305
▁correctly	-12306
charged	-12307
izant	-12308
▁vom	-12309
▁Intelligence	-12310
iva	-12311
▁admin	-12312
▁cycling	-12313
rus	-12314
▁ears	-12315
▁Action	-12316
▁selected	-12317
▁Pick	-12318
▁chiefs	-12319
▁Marshall	-12320
▁Icel	-12321
▁pensioner	-12322
▁Fat	-12323
▁Dylan	-12324
abs	-12325
umper	-12326
▁burial	-12327
urbed	-12328
▁crocod	-12329
▁stupefy	-12330
▁publically	-12331
▁Kane	-12332
▁famed	-12333
▁flesh	-12334
di	-12335
▁Cox	-12336
obi	-12337
▁casualties	-12338
▁updated	-12339
▁ups	-12340
▁somewhere	-12341
▁majestic	-12342
▁confronted	-12343
▁BP	-12344
▁Stra	-12345
▁costume	-12346
▁thousand	-12347
▁arous	-12348
▁Mors	-12349
▁membership	-12350
▁caring	-12351
▁fights	-12352
▁paintings	-12353
▁RSPCA	-12354
▁sire	-12355
▁Pyong	-12356
▁excellent	-12357
▁attraction	-12358
OT	-12359
▁defec	-12360
▁bruise	-12361
▁fulfil	-12362
▁Benghazi	-12363
▁sew	-12364
▁lists	-12365
▁siege	-12366
▁barrel	-12367
▁gig	-12368
▁destruct	-12369
▁10,	-12370
▁covers	-12371
▁imposed	-12372
▁Harper	-12373
vised	-12374
▁pills	-12375
sl	-12376
wee	-12377
▁interrupt	-12378
▁parliamentary	-12379
▁heritage	-12380
▁reasonable	-12381
enh	-12382
▁Magn	-12383
▁bout	-12384
▁Croatia	-12385
▁Ramos	-12386
▁feedback	-12387
▁practical	-12388
uthors	-12389
gain	-12390
▁Ice	-12391
▁coinc	-12392
▁eager	-12393
▁anchor	-12394
▁Nicolas	-12395
▁desperately	-12396
illas	-12397
▁dishon	-12398
▁apologize	-12399
▁rend	-12400
▁contribution	-12401
▁rolled	-12402
▁Stephanie	-12403
▁households	-12404
agu	-12405
▁Dad	-12406
▁MS	-12407
▁Kal	-12408
▁Later	-12409
▁stark	-12410
▁Prop	-12411
▁echo	-12412
▁2007.	-12413
▁locate	-12414
▁careful	-12415
▁$6	-12416
▁infer	-12417
▁Kardash	-12418
▁kidnapped	-12419
▁healthcare	-12420
▁raids	-12421
▁peer	-12422
▁dumbfound	-12423
▁Trade	-12424
▁preferred	-12425
tered	-12426
elesc	-12427
▁Curt	-12428
▁Priv	-12429
▁Delta	-12430
ulating	-12431
keys	-12432
▁bats	-12433
▁requested	-12434
CH	-12435
▁urinate	-12436
adesh	-12437
▁denote	-12438
▁Wilshere	-12439
▁Pil	-12440
▁Rah	-12441
▁bount	-12442
▁embark	-12443
▁endang	-12444
▁hed	-12445
forced	-12446
▁shoulders	-12447
▁FAA	-12448
▁beef	-12449
▁furnish	-12450
▁venture	-12451
▁ordin	-12452
▁Hudson	-12453
▁Gir	-12454
incing	-12455
▁Sharon	-12456
▁aggreg	-12457
▁generous	-12458
olan	-12459
▁Imp	-12460
▁lungs	-12461
▁87	-12462
▁Thor	-12463
▁McLaren	-12464
▁Hag	-12465
▁carefully	-12466
▁eBay	-12467
▁Program	-12468
▁Ki	-12469
aria	-12470
▁woke	-12471
▁dumped	-12472
▁tracking	-12473
▁constitution	-12474
▁organised	-12475
▁teammates	-12476
usalem	-12477
▁Venezuela	-12478
▁investigator	-12479
lon	-12480
▁1986	-12481
spoken	-12482
▁Jackie	-12483
▁restore	-12484
▁Tampa	-12485
▁ghost	-12486
opes	-12487
adequ	-12488
▁coup	-12489
▁traumatic	-12490
▁compon	-12491
▁whales	-12492
▁Cit	-12493
▁PSG	-12494
terror	-12495
ulum	-12496
▁cartoon	-12497
▁Portland	-12498
▁assaults	-12499
▁lethal	-12500
▁formation	-12501
rique	-12502
anding	-12503
▁refusing	-12504
▁motivated	-12505
▁complications	-12506
▁Technology	-12507
▁Pictures	-12508
▁180	-12509
▁Cant	-12510
▁Express	-12511
▁Criminal	-12512
▁Sergeant	-12513
▁sweat	-12514
▁criticize	-12515
cribable	-12516
▁Franklin	-12517
▁Dom	-12518
▁audio	-12519
utenant	-12520
▁sensation	-12521
▁pollution	-12522
▁192	-12523
raneous	-12524
▁shotgun	-12525
▁Jerusalem	-12526
▁Pyongyang	-12527
▁propel	-12528
▁conduce	-12529
▁villages	-12530
▁maintained	-12531
iop	-12532
▁shoe	-12533
▁Gw	-12534
▁cave	-12535
▁secretly	-12536
▁monumental	-12537
arity	-12538
▁Bosn	-12539
▁purport	-12540
▁Esp	-12541
▁fond	-12542
▁Blackburn	-12543
▁trous	-12544
▁motivate	-12545
▁murdering	-12546
▁justify	-12547
▁mentioned	-12548
▁Iceland	-12549
▁asteroid	-12550
▁humanity	-12551
▁IT	-12552
uese	-12553
▁renov	-12554
▁Neither	-12555
▁universe	-12556
ancial	-12557
▁domin	-12558
▁upright	-12559
oween	-12560
▁conj	-12561
▁harb	-12562
▁fixed	-12563
▁importantly	-12564
▁sid	-12565
▁ostr	-12566
▁Cre	-12567
▁upwards	-12568
▁overwhelming	-12569
▁Scar	-12570
▁cage	-12571
inking	-12572
▁Walsh	-12573
▁Gonzalez	-12574
▁stranger	-12575
▁hill	-12576
▁ingredients	-12577
▁horn	-12578
▁uncomfortable	-12579
▁rav	-12580
▁unl	-12581
▁describing	-12582
▁wash	-12583
angel	-12584
▁resemb	-12585
▁Half	-12586
▁Mills	-12587
▁prayer	-12588
▁TMZ	-12589
▁shin	-12590
▁omit	-12591
▁boarding	-12592
▁discount	-12593
onel	-12594
itans	-12595
▁Capt	-12596
▁effic	-12597
▁firearm	-12598
▁frustrated	-12599
▁bloody	-12600
Sh	-12601
shaw	-12602
▁32,	-12603
▁Bundes	-12604
▁chronic	-12605
▁Tragic	-12606
▁breasts	-12607
▁shouting	-12608
▁resulting	-12609
▁muscles	-12610
▁confused	-12611
▁amput	-12612
▁stalk	-12613
▁beliefs	-12614
▁basically	-12615
▁inspector	-12616
▁employed	-12617
▁Netany	-12618
▁Nipponese	-12619
▁tenacious	-12620
▁Hob	-12621
▁Tunis	-12622
▁boasts	-12623
▁Marines	-12624
owder	-12625
▁jumping	-12626
▁accum	-12627
▁evacuated	-12628
▁BA	-12629
▁adoption	-12630
▁Coalition	-12631
▁punct	-12632
cony	-12633
▁Brew	-12634
▁lengthy	-12635
▁Portuguese	-12636
▁communicate	-12637
▁maintenance	-12638
▁photography	-12639
▁lick	-12640
▁monolithic	-12641
emouth	-12642
▁Englands	-12643
▁extraneous	-12644
visor	-12645
▁periods	-12646
▁Sark	-12647
▁inex	-12648
▁inmate	-12649
▁evil	-12650
ped	-12651
2.	-12652
▁rings	-12653
roe	-12654
▁Tibet	-12655
▁imprisonment	-12656
▁letting	-12657
▁miracle	-12658
▁Halloween	-12659
Ar	-12660
sa	-12661
▁planets	-12662
▁maturate	-12663
▁friendship	-12664
moon	-12665
▁policeman	-12666
▁12,	-12667
abouts	-12668
▁puppy	-12669
▁Summer	-12670
gie	-12671
▁DV	-12672
▁orph	-12673
▁gunmen	-12674
▁laptop	-12675
aternity	-12676
heem	-12677
▁FDA	-12678
▁confrontation	-12679
▁prank	-12680
▁deplorable	-12681
▁neur	-12682
▁brains	-12683
above	-12684
▁freak	-12685
▁urging	-12686
▁determination	-12687
second	-12688
yes	-12689
▁Jenkins	-12690
EE	-12691
▁define	-12692
peak	-12693
▁Ant	-12694
lisher	-12695
▁Glenn	-12696
▁disagree	-12697
▁McCarthy	-12698
▁terrified	-12699
▁homosexual	-12700
▁electrical	-12701
▁Manning	-12702
▁Liz	-12703
▁elephants	-12704
▁Laz	-12705
▁Lis	-12706
▁Theresa	-12707
aran	-12708
▁talented	-12709
▁protecting	-12710
▁130	-12711
otype	-12712
ummox	-12713
▁Fi	-12714
▁plainly	-12715
▁strangers	-12716
rac	-12717
▁speaker	-12718
▁Wes	-12719
hole	-12720
▁icon	-12721
▁Wells	-12722
▁flummox	-12723
..	-12724
loe	-12725
▁BMW	-12726
▁Netanyahu	-12727
▁ov	-12728
▁balcony	-12729
▁distribution	-12730
▁grandparents	-12731
▁rehabilitation	-12732
Bl	-12733
▁excitement	-12734
▁filing	-12735
▁refugee	-12736
▁deliberately	-12737
zed	-12738
▁emissions	-12739
▁Haram	-12740
▁PGA	-12741
▁uncovered	-12742
▁risky	-12743
▁Peru	-12744
▁3.	-12745
ista	-12746
ultural	-12747
▁8,	-12748
▁Etihad	-12749
▁Sem	-12750
▁rapper	-12751
ige	-12752
erie	-12753
▁Vick	-12754
▁amateur	-12755
▁81	-12756
▁smooth	-12757
▁nomination	-12758
bat	-12759
▁attendance	-12760
antan	-12761
een	-12762
race	-12763
▁Mub	-12764
▁uprise	-12765
▁suburban	-12766
▁woods	-12767
▁innocence	-12768
▁cultivate	-12769
▁Students	-12770
rina	-12771
▁Bened	-12772
▁downwards	-12773
▁GB	-12774
liga	-12775
oren	-12776
▁peril	-12777
aments	-12778
rend	-12779
▁alerted	-12780
▁Equ	-12781
▁thieves	-12782
▁1.2	-12783
▁uncommon	-12784
▁Rica	-12785
▁illustr	-12786
▁pir	-12787
▁donors	-12788
▁peoples	-12789
▁authentic	-12790
des	-12791
▁countryside	-12792
▁measured	-12793
▁Antar	-12794
▁Allardy	-12795
▁outs	-12796
ji	-12797
▁stressed	-12798
▁revealing	-12799
ims	-12800
▁Alger	-12801
▁Burg	-12802
▁Sha	-12803
▁myth	-12804
▁coiffure	-12805
▁infamous	-12806
▁undivided	-12807
▁Andrews	-12808
▁confidential	-12809
dahl	-12810
▁Iraki	-12811
▁acute	-12812
▁Felipe	-12813
ifications	-12814
▁educate	-12815
▁Design	-12816
▁mystify	-12817
▁underwater	-12818
▁misdeme	-12819
▁horrible	-12820
▁rumours	-12821
▁AN	-12822
▁Rab	-12823
rary	-12824
iffer	-12825
▁prostitution	-12826
▁chains	-12827
▁producing	-12828
▁Ext	-12829
▁priest	-12830
▁monthly	-12831
▁examined	-12832
▁Bundesliga	-12833
▁slide	-12834
▁keys	-12835
▁iReport	-12836
▁defecate	-12837
▁entrepreneur	-12838
oto	-12839
▁citizenship	-12840
fle	-12841
▁Bryan	-12842
▁equality	-12843
▁knot	-12844
brev	-12845
▁commemorate	-12846
▁Full	-12847
▁assaulting	-12848
bn	-12849
feld	-12850
▁slaughter	-12851
▁fol	-12852
▁thief	-12853
▁crusade	-12854
▁displays	-12855
▁abbrev	-12856
▁incorpor	-12857
lass	-12858
▁stairs	-12859
▁smiling	-12860
▁companion	-12861
ieu	-12862
fers	-12863
▁Omar	-12864
idy	-12865
▁ascribable	-12866
remark	-12867
▁advis	-12868
▁BT	-12869
▁HS	-12870
▁System	-12871
▁bell	-12872
uration	-12873
▁Sullivan	-12874
▁26-	-12875
▁happiness	-12876
▁@@	-12877
otes	-12878
▁rises	-12879
▁fiddle	-12880
will	-12881
▁flirt	-12882
▁stopping	-12883
3.	-12884
enk	-12885
▁None	-12886
icians	-12887
▁Immigr	-12888
▁quote	-12889
▁Whether	-12890
▁dissent	-12891
▁outlets	-12892
▁dropping	-12893
▁angle	-12894
▁shield	-12895
iates	-12896
unami	-12897
▁Shane	-12898
▁festive	-12899
▁outdoors	-12900
▁achievement	-12901
▁manufacturers	-12902
rae	-12903
▁Garner	-12904
▁ranked	-12905
▁Past	-12906
▁Bourn	-12907
▁farsighted	-12908
▁tub	-12909
▁referable	-12910
▁tob	-12911
▁deton	-12912
▁backs	-12913
▁Ellis	-12914
▁improving	-12915
▁owe	-12916
▁dealt	-12917
▁councils	-12918
▁Easter	-12919
▁meanwhile	-12920
▁consideration	-12921
pee	-12922
▁UKIP	-12923
▁stiff	-12924
▁inspection	-12925
▁Kob	-12926
▁Suffolk	-12927
▁troubled	-12928
▁Dawn	-12929
▁prest	-12930
▁Sochi	-12931
child	-12932
▁privately	-12933
▁Kom	-12934
▁Rud	-12935
▁leftover	-12936
▁Pearson	-12937
arak	-12938
ailable	-12939
▁installed	-12940
henko	-12941
▁swept	-12942
▁imputable	-12943
▁routes	-12944
▁freezing	-12945
▁coal	-12946
▁Pitts	-12947
▁triggered	-12948
▁Kaz	-12949
▁rubber	-12950
▁Amerind	-12951
▁duck	-12952
▁Craw	-12953
▁inadequ	-12954
▁reviews	-12955
▁Boko	-12956
▁Represent	-12957
uma	-12958
▁Nearly	-12959
▁premium	-12960
▁Engine	-12961
▁pel	-12962
▁Ancel	-12963
boat	-12964
pack	-12965
▁gloves	-12966
ourge	-12967
▁nude	-12968
▁Nation	-12969
▁deliberate	-12970
epers	-12971
▁ultra	-12972
itively	-12973
▁grocer	-12974
▁Indonesian	-12975
▁Trump	-12976
▁Hazard	-12977
▁competing	-12978
▁respectable	-12979
gart	-12980
orey	-12981
▁999	-12982
▁volley	-12983
▁designers	-12984
▁Run	-12985
▁piddle	-12986
▁breathe	-12987
looking	-12988
▁marriages	-12989
▁VA	-12990
▁weekly	-12991
▁inflation	-12992
▁Point	-12993
▁downwardly	-12994
▁staggering	-12995
With	-12996
▁sheep	-12997
▁crushed	-12998
▁programmes	-12999
married	-13000
▁nonplus	-13001
bles	-13002
▁13,	-13003
▁Eddie	-13004
▁ditch	-13005
▁passage	-13006
▁Allardyce	-13007
▁Financial	-13008
▁Iron	-13009
▁archae	-13010
▁doubled	-13011
▁drought	-13012
▁Salt	-13013
▁uploaded	-13014
▁retentive	-13015
▁Guy	-13016
amas	-13017
▁140	-13018
▁Dra	-13019
ships	-13020
▁protein	-13021
▁Joan	-13022
▁defeated	-13023
▁developers	-13024
▁passionate	-13025
▁Bangl	-13026
▁Raheem	-13027
▁Target	-13028
▁touching	-13029
▁Khal	-13030
▁timing	-13031
▁Reports	-13032
bes	-13033
▁Rolling	-13034
▁sensational	-13035
▁arguing	-13036
▁Latin	-13037
▁alterc	-13038
▁supportive	-13039
▁starring	-13040
SH	-13041
▁2007,	-13042
▁postdate	-13043
▁isolation	-13044
entry	-13045
▁mart	-13046
▁stagn	-13047
▁Hussein	-13048
▁carriage	-13049
▁thankful	-13050
gle	-13051
▁beforehand	-13052
▁remembered	-13053
▁Market	-13054
▁Gran	-13055
iffs	-13056
▁pledged	-13057
▁recommendations	-13058
▁surm	-13059
▁comprehensive	-13060
otal	-13061
▁Doz	-13062
▁salv	-13063
▁inflict	-13064
▁magnanimous	-13065
ocate	-13066
▁coif	-13067
astrous	-13068
▁dominate	-13069
▁distressed	-13070
▁funded	-13071
▁graphic	-13072
habi	-13073
▁guitar	-13074
▁wield	-13075
▁coiffe	-13076
▁relinqu	-13077
▁Ozil	-13078
▁metre	-13079
▁struggles	-13080
orize	-13081
▁Novak	-13082
▁Falk	-13083
▁Train	-13084
▁Sex	-13085
print	-13086
redit	-13087
▁classified	-13088
▁Village	-13089
▁Carlo	-13090
▁exped	-13091
▁upward	-13092
▁killers	-13093
sted	-13094
ework	-13095
▁centers	-13096
ogram	-13097
▁dealer	-13098
▁backlash	-13099
▁drum	-13100
▁approaching	-13101
mel	-13102
rin	-13103
▁laser	-13104
▁laughing	-13105
▁Vett	-13106
▁speeding	-13107
iago	-13108
▁Gat	-13109
▁Emp	-13110
▁datab	-13111
▁manoeuv	-13112
▁Francois	-13113
▁perce	-13114
!!	-13115
▁Esc	-13116
▁glamour	-13117
secution	-13118
▁considerable	-13119
▁Chi	-13120
▁Dakota	-13121
▁disqu	-13122
▁Film	-13123
▁Along	-13124
aton	-13125
▁manufacturer	-13126
▁8,000	-13127
▁chop	-13128
profile	-13129
▁qualified	-13130
▁beneficial	-13131
▁Kens	-13132
ottage	-13133
▁hunger	-13134
▁Rugby	-13135
▁33,	-13136
▁indef	-13137
▁lasted	-13138
▁condolences	-13139
uffle	-13140
raught	-13141
▁tobacco	-13142
▁athletic	-13143
▁Kiev	-13144
▁luxur	-13145
▁volcano	-13146
▁Dia	-13147
▁Aviation	-13148
▁launching	-13149
▁Aud	-13150
▁gene	-13151
▁persuade	-13152
▁longsighted	-13153
▁smashing	-13154
▁Woman	-13155
▁Catal	-13156
▁survivor	-13157
zo	-13158
bled	-13159
▁cosm	-13160
▁Schum	-13161
FP	-13162
▁Amber	-13163
▁Romania	-13164
▁Mersey	-13165
▁27-	-13166
▁fict	-13167
broken	-13168
▁fastest	-13169
▁Pam	-13170
▁chamber	-13171
▁trousers	-13172
▁drained	-13173
▁operated	-13174
▁regardless	-13175
▁tanks	-13176
▁vivid	-13177
▁Chambers	-13178
▁consistent	-13179
▁recollective	-13180
▁champagne	-13181
▁transportation	-13182
▁Ivory	-13183
missions	-13184
▁Mahm	-13185
▁irre	-13186
▁unequ	-13187
▁Jobs	-13188
▁Bournemouth	-13189
cons	-13190
▁satisfy	-13191
▁improper	-13192
▁foresighted	-13193
idi	-13194
isha	-13195
▁Flet	-13196
▁boun	-13197
km	-13198
▁dies	-13199
white	-13200
rose	-13201
anches	-13202
▁Bergdahl	-13203
▁pray	-13204
▁Workers	-13205
▁centres	-13206
▁homeown	-13207
▁Ancelotti	-13208
▁sensors	-13209
quez	-13210
▁Wang	-13211
▁skirt	-13212
▁decently	-13213
▁arrangements	-13214
▁Move	-13215
▁suck	-13216
▁wider	-13217
▁Sharap	-13218
▁gardens	-13219
▁Sche	-13220
termit	-13221
▁Dhabi	-13222
▁awaiting	-13223
▁departments	-13224
▁Jake	-13225
▁overhaul	-13226
▁dent	-13227
▁partly	-13228
▁affection	-13229
▁pretermit	-13230
affer	-13231
▁valuable	-13232
▁fu	-13233
famed	-13234
▁Hugh	-13235
▁sheer	-13236
▁Hem	-13237
eous	-13238
leap	-13239
▁ancest	-13240
▁travelers	-13241
isan	-13242
▁Hook	-13243
▁Natalie	-13244
▁Ports	-13245
kok	-13246
▁suing	-13247
▁Colombian	-13248
▁disastrous	-13249
▁Search	-13250
▁theatre	-13251
▁Boxing	-13252
▁disappointing	-13253
finals	-13254
▁Place	-13255
▁interrog	-13256
▁evolution	-13257
▁bonus	-13258
▁marine	-13259
adventure	-13260
▁Ka	-13261
rove	-13262
▁accur	-13263
▁sham	-13264
▁joked	-13265
▁cabinet	-13266
tra	-13267
▁penet	-13268
liest	-13269
▁palace	-13270
▁Sharapova	-13271
▁enam	-13272
▁mict	-13273
▁bully	-13274
▁earnings	-13275
▁micturate	-13276
▁Si	-13277
▁Carr	-13278
▁Susp	-13279
▁whereabouts	-13280
arma	-13281
▁lowly	-13282
▁Bashar	-13283
▁expense	-13284
▁incon	-13285
▁Nobel	-13286
▁Kos	-13287
▁implicated	-13288
▁WW	-13289
▁Have	-13290
▁minimal	-13291
feed	-13292
▁quake	-13293
▁prevented	-13294
▁goodbye	-13295
▁divorced	-13296
awi	-13297
▁medium	-13298
auer	-13299
▁exploded	-13300
▁Bil	-13301
▁Lim	-13302
▁whis	-13303
▁wars	-13304
antanamo	-13305
▁administer	-13306
▁arra	-13307
▁unremark	-13308
iffe	-13309
▁Unlike	-13310
▁aroused	-13311
▁navy	-13312
ept	-13313
zan	-13314
▁5.	-13315
▁overleap	-13316
▁Vi	-13317
▁Len	-13318
ormal	-13319
▁Rain	-13320
▁Pas	-13321
▁guilt	-13322
▁stere	-13323
▁remorse	-13324
▁propaganda	-13325
▁lb	-13326
ophob	-13327
▁neut	-13328
▁ostrac	-13329
PA	-13330
▁leap	-13331
manuel	-13332
▁hadn	-13333
▁chann	-13334
▁Katherine	-13335
▁sufficient	-13336
▁Grey	-13337
▁Wend	-13338
▁wrongdoing	-13339
▁Constitution	-13340
▁authors	-13341
aste	-13342
▁Sally	-13343
▁Frenchman	-13344
▁immigrant	-13345
▁Guantanamo	-13346
original	-13347
▁Coc	-13348
▁clouds	-13349
▁shouldn	-13350
▁mysterious	-13351
▁Shock	-13352
▁Break	-13353
▁flour	-13354
western	-13355
▁Coul	-13356
▁amass	-13357
▁musical	-13358
▁Blas	-13359
▁kicking	-13360
▁orient	-13361
▁lam	-13362
▁defenders	-13363
▁listening	-13364
▁errors	-13365
▁Inside	-13366
▁Change	-13367
▁farseeing	-13368
▁connections	-13369
ulus	-13370
▁Kenneth	-13371
iggins	-13372
▁purple	-13373
▁Wallace	-13374
▁provision	-13375
▁AM	-13376
▁rh	-13377
▁clues	-13378
zi	-13379
▁4.	-13380
▁harbour	-13381
▁unarmed	-13382
▁administrative	-13383
▁reluct	-13384
bot	-13385
rogen	-13386
▁posters	-13387
lif	-13388
oft	-13389
▁Bangkok	-13390
▁identification	-13391
▁(3	-13392
▁grid	-13393
reeze	-13394
▁gates	-13395
▁undergoing	-13396
▁Vettel	-13397
▁Madison	-13398
▁integrity	-13399
▁sanct	-13400
▁hackers	-13401
▁poisoning	-13402
▁terrific	-13403
▁Conservatives	-13404
was	-13405
▁organisations	-13406
▁snapped	-13407
riculum	-13408
▁inse	-13409
▁ladder	-13410
acles	-13411
▁void	-13412
▁childrens	-13413
▁airstrikes	-13414
eled	-13415
▁Unit	-13416
▁Song	-13417
▁decrease	-13418
▁epidemic	-13419
▁lump	-13420
▁Foley	-13421
▁glory	-13422
▁cooperation	-13423
▁reconstruct	-13424
utical	-13425
▁penny	-13426
stanbul	-13427
▁stones	-13428
▁foresightful	-13429
▁Eden	-13430
▁Indust	-13431
▁directors	-13432
▁prospicient	-13433
itudes	-13434
▁invoke	-13435
▁influential	-13436
Un	-13437
aunder	-13438
ranean	-13439
▁2,500	-13440
▁Borussia	-13441
▁Sac	-13442
▁drift	-13443
▁unemployed	-13444
▁Amend	-13445
▁Paulo	-13446
▁maneuver	-13447
▁submar	-13448
▁Mang	-13449
▁strengthen	-13450
▁scoot	-13451
bage	-13452
▁Teen	-13453
▁beard	-13454
▁script	-13455
▁arrives	-13456
▁subway	-13457
▁slipped	-13458
▁extradition	-13459
▁improb	-13460
▁ladies	-13461
Be	-13462
▁160	-13463
▁Cart	-13464
▁updates	-13465
▁Amnesty	-13466
▁Passengers	-13467
▁competitors	-13468
".	-13469
▁Muham	-13470
▁download	-13471
▁Gibson	-13472
▁dialogue	-13473
▁attach	-13474
Some	-13475
▁umb	-13476
▁savage	-13477
▁Reading	-13478
▁breakdown	-13479
▁Kardashian	-13480
▁harsh	-13481
▁mistr	-13482
▁Walter	-13483
▁Dist	-13484
▁ballot	-13485
▁cemetery	-13486
▁92	-13487
▁Sara	-13488
▁Istanbul	-13489
▁reminder	-13490
▁musician	-13491
▁disturbing	-13492
ricia	-13493
▁lovers	-13494
▁breakthrough	-13495
iri	-13496
▁click	-13497
aku	-13498
▁Talk	-13499
▁honorable	-13500
▁Myan	-13501
▁chip	-13502
▁inadequate	-13503
▁employer	-13504
▁prompting	-13505
▁concentrate	-13506
▁institution	-13507
▁inval	-13508
▁sanction	-13509
▁Rut	-13510
▁Cheshire	-13511
Or	-13512
▁floods	-13513
stead	-13514
▁wager	-13515
arified	-13516
▁reserved	-13517
▁Reyn	-13518
▁dive	-13519
▁Montana	-13520
▁vanished	-13521
▁Schumacher	-13522
▁34,	-13523
▁floors	-13524
▁parach	-13525
▁rans	-13526
▁13-	-13527
▁Fletcher	-13528
▁compliment	-13529
▁por	-13530
▁Writ	-13531
▁romance	-13532
▁accent	-13533
▁Myanmar	-13534
▁examples	-13535
▁terrifying	-13536
▁11-	-13537
▁IRS	-13538
▁ina	-13539
▁float	-13540
▁proficient	-13541
▁Maid	-13542
▁Much	-13543
ounded	-13544
regular	-13545
auc	-13546
▁3.5	-13547
▁Logan	-13548
▁Raymond	-13549
▁pointing	-13550
▁Being	-13551
▁Element	-13552
▁lottery	-13553
▁Portsmouth	-13554
itime	-13555
▁publisher	-13556
▁charm	-13557
▁Liberty	-13558
▁permanently	-13559
▁immun	-13560
ahn	-13561
ollah	-13562
▁undercover	-13563
▁suggestions	-13564
▁Mend	-13565
▁cinema	-13566
▁plight	-13567
▁pursuit	-13568
▁astronom	-13569
▁concentration	-13570
▁kg	-13571
▁Body	-13572
▁debts	-13573
▁Cour	-13574
intage	-13575
▁drain	-13576
▁Timothy	-13577
▁Appeal	-13578
▁pressing	-13579
▁tale	-13580
▁aired	-13581
▁Mubarak	-13582
▁presidents	-13583
IM	-13584
▁AP	-13585
uggage	-13586
▁contractor	-13587
▁disappointment	-13588
▁ware	-13589
bishop	-13590
▁Brandon	-13591
ski	-13592
ugs	-13593
▁aspects	-13594
▁Paula	-13595
▁mistrust	-13596
but	-13597
htag	-13598
iples	-13599
olesc	-13600
▁compassion	-13601
▁Mumb	-13602
▁boxer	-13603
▁commend	-13604
▁construe	-13605
spr	-13606
iped	-13607
▁Sheikh	-13608
▁hashtag	-13609
▁scenario	-13610
▁Od	-13611
▁Iss	-13612
▁mac	-13613
▁Dame	-13614
▁Athletic	-13615
▁Pel	-13616
▁Budd	-13617
After	-13618
inness	-13619
▁Pic	-13620
▁handic	-13621
ensed	-13622
▁plates	-13623
▁retailer	-13624
-20	-13625
nell	-13626
▁boo	-13627
▁organized	-13628
▁resistance	-13629
▁Kam	-13630
▁poly	-13631
▁unnecess	-13632
▁insurgents	-13633
▁vic	-13634
▁shipping	-13635
▁intoxicated	-13636
▁raping	-13637
▁asterisk	-13638
▁mistaken	-13639
enge	-13640
▁1988	-13641
harmed	-13642
▁nu	-13643
chester	-13644
▁pistol	-13645
▁Chamber	-13646
chat	-13647
▁unm	-13648
▁epic	-13649
▁challenged	-13650
▁Bin	-13651
▁Osama	-13652
▁Winston	-13653
▁discontin	-13654
▁Travis	-13655
▁Isab	-13656
ickets	-13657
▁landl	-13658
▁Lie	-13659
▁peers	-13660
▁Jun	-13661
▁gut	-13662
▁scholar	-13663
▁intemperately	-13664
▁photographers	-13665
▁Yahoo	-13666
▁brush	-13667
▁sober	-13668
▁devoted	-13669
▁Fun	-13670
▁rit	-13671
▁relieve	-13672
▁appreciate	-13673
▁internation	-13674
▁Isa	-13675
▁spree	-13676
▁damp	-13677
▁Storm	-13678
▁juven	-13679
▁Toyota	-13680
▁Congo	-13681
bands	-13682
▁Dozens	-13683
ilies	-13684
▁Math	-13685
▁ridiculous	-13686
▁inauspicious	-13687
▁patch	-13688
▁heed	-13689
▁addresses	-13690
▁prosthetic	-13691
teen	-13692
▁intact	-13693
▁dealers	-13694
▁Ton	-13695
▁derby	-13696
▁Number	-13697
▁principle	-13698
▁essentially	-13699
.45	-13700
▁350	-13701
▁jar	-13702
▁roots	-13703
▁Kabul	-13704
▁surgeons	-13705
▁Photographer	-13706
▁lesb	-13707
▁sue	-13708
▁immobil	-13709
▁Kle	-13710
▁Adela	-13711
rank	-13712
▁unmarried	-13713
▁Fu	-13714
▁chill	-13715
▁comet	-13716
▁grace	-13717
▁Danish	-13718
▁Chester	-13719
▁Merseyside	-13720
iors	-13721
umen	-13722
▁Fried	-13723
▁longest	-13724
▁washing	-13725
ealous	-13726
▁harmful	-13727
▁Gem	-13728
grown	-13729
▁Tommy	-13730
▁Shiite	-13731
IL	-13732
▁Ree	-13733
▁Nep	-13734
Brien	-13735
▁bucket	-13736
▁enhance	-13737
▁Benedict	-13738
lb	-13739
▁philos	-13740
▁erupted	-13741
▁5.5	-13742
▁displayed	-13743
▁Kensington	-13744
▁gloss	-13745
▁admission	-13746
▁Conference	-13747
▁et	-13748
▁ally	-13749
▁outc	-13750
▁triv	-13751
▁inspectors	-13752
▁Living	-13753
▁practise	-13754
sor	-13755
▁Mik	-13756
▁volume	-13757
gom	-13758
backs	-13759
▁stig	-13760
▁Lawson	-13761
itous	-13762
▁Zucker	-13763
▁Sarkozy	-13764
▁Heritage	-13765
▁paedophile	-13766
▁Rih	-13767
▁Hague	-13768
▁chips	-13769
▁provoc	-13770
▁tang	-13771
▁advocates	-13772
▁workplace	-13773
▁certificate	-13774
orie	-13775
▁nest	-13776
▁Jet	-13777
▁tsunami	-13778
anic	-13779
▁Glen	-13780
▁buses	-13781
▁patent	-13782
▁Lindsay	-13783
▁relinquish	-13784
▁Beh	-13785
▁gover	-13786
▁dys	-13787
astro	-13788
▁Joel	-13789
▁dispos	-13790
▁wives	-13791
▁Nothing	-13792
▁pipe	-13793
▁MA	-13794
▁junk	-13795
▁earning	-13796
rue	-13797
▁blockade	-13798
▁promoting	-13799
▁luc	-13800
▁thunder	-13801
riculture	-13802
▁cardiac	-13803
essional	-13804
onga	-13805
▁enroll	-13806
▁Gregory	-13807
▁explicit	-13808
▁apologized	-13809
▁responding	-13810
▁unsc	-13811
▁rider	-13812
▁tiger	-13813
▁deform	-13814
▁matern	-13815
▁artific	-13816
▁confusion	-13817
▁answered	-13818
▁matching	-13819
▁detainees	-13820
▁Palm	-13821
▁medics	-13822
▁spectators	-13823
▁mast	-13824
lace	-13825
▁farmer	-13826
BL	-13827
reep	-13828
▁grip	-13829
▁coffin	-13830
▁Enrique	-13831
▁Shin	-13832
▁hyper	-13833
▁marital	-13834
string	-13835
throp	-13836
▁addict	-13837
▁Adelaide	-13838
▁lighting	-13839
▁Everything	-13840
▁Firefighters	-13841
▁granddaughter	-13842
▁2020	-13843
▁tune	-13844
▁relegation	-13845
▁insight	-13846
adic	-13847
▁Hut	-13848
▁fib	-13849
▁syn	-13850
▁Page	-13851
▁channels	-13852
▁engender	-13853
CO	-13854
▁virtual	-13855
▁unharmed	-13856
alymp	-13857
▁Hert	-13858
▁disse	-13859
ser	-13860
word	-13861
▁cyclist	-13862
▁unlawful	-13863
▁miserable	-13864
mile	-13865
▁Curtis	-13866
▁lips	-13867
▁Event	-13868
▁illust	-13869
▁powder	-13870
arse	-13871
ocol	-13872
▁inquiries	-13873
▁Montgom	-13874
▁arresting	-13875
gant	-13876
▁expects	-13877
▁abort	-13878
▁supports	-13879
▁materialise	-13880
▁6.	-13881
▁Which	-13882
ulative	-13883
▁luggage	-13884
▁dominated	-13885
▁Rosie	-13886
markets	-13887
▁cheaper	-13888
▁Almost	-13889
ummy	-13890
▁Kit	-13891
▁array	-13892
▁Fisher	-13893
▁triple	-13894
▁tracked	-13895
▁Viol	-13896
▁logo	-13897
▁amply	-13898
▁Warwick	-13899
▁93	-13900
▁bowl	-13901
▁150,000	-13902
▁neighboring	-13903
▁Eug	-13904
▁resume	-13905
▁Pieters	-13906
▁bruises	-13907
▁sized	-13908
antine	-13909
ossip	-13910
▁Dawson	-13911
▁converted	-13912
▁awake	-13913
▁repro	-13914
▁110	-13915
▁Jesse	-13916
▁Santos	-13917
▁exclude	-13918
▁Griffith	-13919
▁tribal	-13920
▁registr	-13921
▁Fish	-13922
▁serial	-13923
▁superb	-13924
▁slumber	-13925
▁governing	-13926
iba	-13927
▁Dim	-13928
▁Dow	-13929
▁sic	-13930
▁1,200	-13931
▁Mediter	-13932
▁careers	-13933
▁improvements	-13934
▁Plus	-13935
▁Blood	-13936
▁separat	-13937
▁indecent	-13938
▁Tas	-13939
▁expansion	-13940
eer	-13941
umbled	-13942
▁Geoff	-13943
▁innovative	-13944
ammy	-13945
matic	-13946
▁Never	-13947
▁sympathy	-13948
oided	-13949
▁qualifier	-13950
▁reactions	-13951
▁expel	-13952
▁arranged	-13953
▁manufacturing	-13954
ounge	-13955
▁phrase	-13956
gly	-13957
▁flip	-13958
▁knees	-13959
▁assassination	-13960
▁upgrade	-13961
▁regulation	-13962
▁Lynn	-13963
▁hinder	-13964
▁disturbed	-13965
leted	-13966
▁colligate	-13967
▁dancer	-13968
atten	-13969
▁consens	-13970
▁recognised	-13971
▁Kil	-13972
▁males	-13973
▁Elementary	-13974
▁magistrates	-13975
pot	-13976
▁7,000	-13977
▁Years	-13978
▁poorly	-13979
▁Amendment	-13980
▁subjected	-13981
▁Brotherhood	-13982
▁GPS	-13983
level	-13984
▁Dark	-13985
▁racially	-13986
▁AIDS	-13987
▁shelves	-13988
▁fireworks	-13989
▁constitutional	-13990
▁Dew	-13991
▁rubble	-13992
▁irregular	-13993
▁Nico	-13994
▁Kenyan	-13995
▁outfits	-13996
zb	-13997
▁weighing	-13998
▁Jill	-13999
▁indo	-14000
▁destinations	-14001
-5	-14002
▁magic	-14003
ewalk	-14004
▁Mediterranean	-14005
▁snipe	-14006
▁Lennon	-14007
▁tributes	-14008
▁Din	-14009
▁salute	-14010
ili	-14011
▁Self	-14012
▁root	-14013
▁skies	-14014
winning	-14015
▁pleasure	-14016
ussy	-14017
otton	-14018
▁opens	-14019
▁deer	-14020
▁bands	-14021
oyle	-14022
▁maps	-14023
▁instrument	-14024
▁Assembly	-14025
gral	-14026
▁Cad	-14027
▁solic	-14028
▁89	-14029
▁Holy	-14030
▁jaunt	-14031
▁cosmet	-14032
▁avoided	-14033
▁detached	-14034
▁particles	-14035
▁tension	-14036
uf	-14037
▁singles	-14038
LC	-14039
leen	-14040
fried	-14041
▁crystal	-14042
atoes	-14043
▁Mata	-14044
▁folks	-14045
▁ripped	-14046
heastern	-14047
▁appealed	-14048
▁stagnant	-14049
▁autonom	-14050
pol	-14051
shop	-14052
▁Money	-14053
instein	-14054
▁fossil	-14055
engu	-14056
▁1984	-14057
▁Doug	-14058
▁Pod	-14059
ourses	-14060
▁submitted	-14061
▁materialize	-14062
▁developments	-14063
main	-14064
▁Belf	-14065
▁dirty	-14066
▁Blatter	-14067
▁accusing	-14068
▁abusing	-14069
▁forbid	-14070
▁pope	-14071
▁Ambulance	-14072
▁Ern	-14073
ammar	-14074
utian	-14075
▁ger	-14076
▁layer	-14077
▁Serena	-14078
▁plum	-14079
orated	-14080
▁Prior	-14081
▁enemies	-14082
▁educational	-14083
▁Johnny	-14084
▁sketch	-14085
▁biological	-14086
▁ly	-14087
election	-14088
impse	-14089
▁Benz	-14090
▁Rams	-14091
▁mole	-14092
▁partially	-14093
▁Jol	-14094
▁demolish	-14095
▁1982	-14096
▁warns	-14097
▁Worces	-14098
▁forecl	-14099
▁practiced	-14100
▁modify	-14101
▁unsuccess	-14102
▁Cand	-14103
▁slot	-14104
▁Flore	-14105
▁Mumbai	-14106
mm	-14107
▁Sao	-14108
▁Twenty	-14109
▁unaware	-14110
▁skillful	-14111
▁traditionally	-14112
▁Bahrain	-14113
▁Records	-14114
▁fractured	-14115
▁operators	-14116
▁Hand	-14117
▁Ethiop	-14118
▁Moon	-14119
▁knives	-14120
▁populations	-14121
▁Sak	-14122
▁knockout	-14123
▁appealing	-14124
ulously	-14125
▁Cameroon	-14126
▁nock	-14127
sterdam	-14128
▁Revolution	-14129
▁circular	-14130
▁Study	-14131
rite	-14132
▁Dere	-14133
▁fortun	-14134
▁peradventure	-14135
▁10.	-14136
▁approve	-14137
▁sob	-14138
eston	-14139
▁Controvers	-14140
▁Ashton	-14141
▁Germans	-14142
▁Blasio	-14143
▁flooded	-14144
holders	-14145
▁Nicola	-14146
berto	-14147
▁Seoul	-14148
▁Rihanna	-14149
resco	-14150
▁bechance	-14151
▁1.3	-14152
▁Dod	-14153
▁Drag	-14154
▁Drog	-14155
EP	-14156
▁Wilts	-14157
bedroom	-14158
▁bodily	-14159
inction	-14160
▁stripped	-14161
▁solutions	-14162
stage	-14163
piring	-14164
▁sunshine	-14165
▁developer	-14166
▁Hondur	-14167
▁literal	-14168
▁rope	-14169
▁Cambod	-14170
▁reunited	-14171
unky	-14172
▁Bag	-14173
▁dawn	-14174
▁womb	-14175
▁aisle	-14176
▁glimpse	-14177
▁violated	-14178
▁comparatively	-14179
▁Megan	-14180
▁Kro	-14181
▁Wait	-14182
▁bunch	-14183
▁panels	-14184
▁organise	-14185
▁premises	-14186
▁overweight	-14187
▁disciplinary	-14188
▁Nixon	-14189
▁spine	-14190
▁Cah	-14191
▁Sev	-14192
▁proven	-14193
▁precious	-14194
luded	-14195
▁swell	-14196
▁Hammond	-14197
err	-14198
ogen	-14199
▁unsafe	-14200
▁thrilled	-14201
▁Superintendent	-14202
▁Survey	-14203
▁befall	-14204
ipt	-14205
onious	-14206
▁Butler	-14207
▁doubts	-14208
▁launder	-14209
NS	-14210
▁injection	-14211
▁Ze	-14212
▁Ply	-14213
▁mighty	-14214
▁proffer	-14215
▁reclaim	-14216
▁Immigration	-14217
▁dally	-14218
▁resur	-14219
▁motorb	-14220
▁precede	-14221
▁rolling	-14222
▁Standards	-14223
shirt	-14224
▁trifle	-14225
▁fend	-14226
▁jewel	-14227
▁Madele	-14228
▁prosecuting	-14229
▁lag	-14230
▁brick	-14231
▁automatically	-14232
▁96	-14233
▁upload	-14234
▁climbed	-14235
▁inherit	-14236
dened	-14237
▁interim	-14238
▁integral	-14239
▁Berkshire	-14240
▁mayhap	-14241
▁eject	-14242
▁divided	-14243
▁premiere	-14244
irable	-14245
▁diddle	-14246
▁shouted	-14247
▁suitable	-14248
▁Bible	-14249
▁Lance	-14250
▁Maybe	-14251
▁toast	-14252
▁Between	-14253
▁acceler	-14254
▁motorcycle	-14255
▁Carney	-14256
▁|	-14257
▁Adv	-14258
arcer	-14259
gender	-14260
rection	-14261
▁Series	-14262
▁runners	-14263
imm	-14264
▁Coron	-14265
kee	-14266
▁princess	-14267
▁Brig	-14268
▁Monica	-14269
▁academic	-14270
▁treasure	-14271
IT	-14272
▁ESP	-14273
▁charging	-14274
▁Amsterdam	-14275
▁Fitz	-14276
▁belongings	-14277
▁gradually	-14278
ozni	-14279
▁Suz	-14280
gather	-14281
▁critically	-14282
abi	-14283
▁adolesc	-14284
▁28-	-14285
▁sizes	-14286
▁pond	-14287
▁Smart	-14288
▁suite	-14289
▁Ground	-14290
▁closest	-14291
▁astronauts	-14292
aires	-14293
▁Mission	-14294
▁obscure	-14295
isticated	-14296
▁Superior	-14297
▁forgotten	-14298
▁tu	-14299
▁bol	-14300
▁coer	-14301
▁instructor	-14302
oub	-14303
rouse	-14304
▁sore	-14305
▁gotten	-14306
▁abduction	-14307
▁slept	-14308
▁gifted	-14309
▁harbinger	-14310
ronics	-14311
▁tables	-14312
▁perchance	-14313
▁confab	-14314
▁Miranda	-14315
▁Paralymp	-14316
▁Valentine	-14317
▁Sandra	-14318
▁foster	-14319
quet	-14320
▁Javier	-14321
▁privilege	-14322
embr	-14323
live	-14324
▁Celebrity	-14325
▁revelation	-14326
▁35,	-14327
▁Blanc	-14328
▁buyer	-14329
▁cartel	-14330
▁surviving	-14331
net	-14332
asant	-14333
▁urgent	-14334
▁instinct	-14335
fare	-14336
inging	-14337
▁Ana	-14338
▁flats	-14339
▁petty	-14340
▁removing	-14341
▁necessarily	-14342
parts	-14343
▁Worth	-14344
jad	-14345
anqu	-14346
coni	-14347
▁Mirror	-14348
▁Mohamm	-14349
amps	-14350
▁Floyd	-14351
▁topic	-14352
▁abandon	-14353
▁Meh	-14354
▁pund	-14355
▁wont	-14356
▁UC	-14357
▁defe	-14358
try	-14359
▁Giggs	-14360
▁females	-14361
▁annunciate	-14362
▁prosperous	-14363
▁sorts	-14364
▁Lor	-14365
▁lavish	-14366
▁conceal	-14367
▁actively	-14368
▁dignity	-14369
phoon	-14370
shaped	-14371
▁crush	-14372
▁forcible	-14373
eria	-14374
▁olds	-14375
▁toss	-14376
▁Chuck	-14377
▁Mak	-14378
esthetic	-14379
▁episodes	-14380
inces	-14381
▁heroes	-14382
▁highlighted	-14383
gs	-14384
▁diverse	-14385
alt	-14386
▁Dublin	-14387
▁fleeing	-14388
▁Christina	-14389
empor	-14390
▁pastor	-14391
▁Mug	-14392
▁potent	-14393
Now	-14394
ERE	-14395
▁sued	-14396
▁incarcer	-14397
▁limbs	-14398
▁kidnap	-14399
▁Churchill	-14400
▁7.	-14401
risk	-14402
▁Baron	-14403
▁greatly	-14404
▁hurricane	-14405
▁overturned	-14406
sky	-14407
▁stroll	-14408
▁manoeuvre	-14409
drop	-14410
▁tipped	-14411
ecting	-14412
▁rack	-14413
▁trap	-14414
▁outp	-14415
▁Wozni	-14416
▁youre	-14417
▁abusive	-14418
▁lun	-14419
▁Band	-14420
▁Luiz	-14421
▁masc	-14422
▁Alliance	-14423
▁trivial	-14424
▁Springs	-14425
joined	-14426
▁bargain	-14427
▁Carn	-14428
▁femin	-14429
▁millionaire	-14430
hamed	-14431
▁12,000	-14432
▁Constable	-14433
▁Standard	-14434
▁emerging	-14435
▁Bh	-14436
▁Janet	-14437
▁halfway	-14438
▁soap	-14439
▁shutdown	-14440
▁excessive	-14441
▁Bangladesh	-14442
▁Isle	-14443
▁Click	-14444
▁Wiltshire	-14445
▁spiel	-14446
▁handled	-14447
▁drill	-14448
▁Nobody	-14449
usk	-14450
otion	-14451
▁Honda	-14452
▁kilomet	-14453
▁recognized	-14454
guards	-14455
▁jumps	-14456
▁unconst	-14457
▁crashing	-14458
▁voy	-14459
▁advances	-14460
▁rescuers	-14461
rot	-14462
brough	-14463
▁artwork	-14464
terior	-14465
etsk	-14466
▁distrust	-14467
▁counterparts	-14468
nut	-14469
▁legitimate	-14470
▁Aberde	-14471
▁Creek	-14472
▁Griffin	-14473
▁Province	-14474
▁nod	-14475
▁Room	-14476
iatric	-14477
▁Plymouth	-14478
iciency	-14479
▁volatile	-14480
EL	-14481
▁Forbes	-14482
▁convoy	-14483
▁chim	-14484
▁indefin	-14485
▁gambling	-14486
▁anonymity	-14487
▁embarrassing	-14488
icio	-14489
▁Mach	-14490
▁tant	-14491
▁examiner	-14492
▁Fell	-14493
▁Drogba	-14494
▁hailed	-14495
▁inclus	-14496
▁prisons	-14497
▁Wo	-14498
▁prejud	-14499
▁establishment	-14500
ulu	-14501
▁Hero	-14502
▁Kend	-14503
rising	-14504
▁Claims	-14505
▁Challenge	-14506
▁overdose	-14507
▁Sutton	-14508
▁wouldnt	-14509
▁satisfied	-14510
▁CL	-14511
umin	-14512
▁Starb	-14513
▁thirds	-14514
▁contents	-14515
▁stranded	-14516
▁dirt	-14517
▁courses	-14518
▁prestigious	-14519
four	-14520
▁tasks	-14521
▁concur	-14522
▁finances	-14523
▁upwardly	-14524
75	-14525
uba	-14526
▁drunken	-14527
▁deterior	-14528
▁Less	-14529
▁Corporation	-14530
▁Hassan	-14531
▁introduction	-14532
▁Cesc	-14533
▁linger	-14534
▁whenever	-14535
▁Jur	-14536
▁vie	-14537
▁Side	-14538
▁Greene	-14539
▁Terror	-14540
▁1979	-14541
▁Main	-14542
▁Berlus	-14543
▁pertain	-14544
▁explaining	-14545
▁Record	-14546
▁chapter	-14547
iphe	-14548
page	-14549
▁Brent	-14550
▁altercation	-14551
▁dre	-14552
▁Ot	-14553
▁nab	-14554
▁robots	-14555
▁unpaid	-14556
▁battled	-14557
▁bicycle	-14558
▁hik	-14559
illip	-14560
▁Pipp	-14561
▁traumat	-14562
▁confisc	-14563
lean	-14564
▁Joint	-14565
▁anyway	-14566
▁dose	-14567
▁Election	-14568
▁victories	-14569
▁29-	-14570
footed	-14571
▁Brits	-14572
gue	-14573
▁Da	-14574
isure	-14575
▁Diane	-14576
▁neighbourhood	-14577
robe	-14578
weg	-14579
▁believ	-14580
ignment	-14581
▁Lords	-14582
▁Nigerian	-14583
▁dictator	-14584
▁Kier	-14585
▁Factor	-14586
▁forged	-14587
▁cockpit	-14588
▁Pittsburgh	-14589
▁explosions	-14590
▁Sug	-14591
▁Madeleine	-14592
▁principles	-14593
▁handbag	-14594
▁tattoos	-14595
braska	-14596
▁quarterback	-14597
▁Init	-14598
▁Damasc	-14599
▁misdemeanor	-14600
▁printed	-14601
▁container	-14602
▁endangered	-14603
▁9,	-14604
▁Jak	-14605
start	-14606
▁organize	-14607
▁sheets	-14608
▁gradu	-14609
▁ashamed	-14610
▁Tol	-14611
ATED	-14612
▁360	-14613
▁Ult	-14614
▁hub	-14615
▁Yaya	-14616
▁sung	-14617
▁existent	-14618
▁Beyon	-14619
▁Bryant	-14620
▁somehow	-14621
▁database	-14622
▁Tab	-14623
▁Chloe	-14624
▁Shaun	-14625
▁steep	-14626
▁$8	-14627
▁valid	-14628
▁scramble	-14629
▁amongst	-14630
▁prolong	-14631
▁affecting	-14632
▁3-0	-14633
▁magnitude	-14634
▁auto	-14635
▁Using	-14636
▁Youth	-14637
▁bushed	-14638
▁Patricia	-14639
▁Poy	-14640
▁ache	-14641
▁nause	-14642
opic	-14643
▁Tah	-14644
▁adul	-14645
▁Titan	-14646
▁straw	-14647
▁Guardiola	-14648
▁da	-14649
▁respected	-14650
▁gunfire	-14651
▁reassert	-14652
▁ranking	-14653
▁regulate	-14654
▁vaporize	-14655
omo	-14656
▁mun	-14657
▁eliminate	-14658
▁accountable	-14659
▁900	-14660
▁pap	-14661
▁shy	-14662
▁thread	-14663
▁Damascus	-14664
▁Peninsula	-14665
▁superstar	-14666
▁Walmart	-14667
▁floating	-14668
emb	-14669
▁Hat	-14670
▁Button	-14671
▁Jas	-14672
flung	-14673
▁notable	-14674
▁intelligent	-14675
▁nursery	-14676
aho	-14677
iox	-14678
occo	-14679
ulse	-14680
uri	-14681
coon	-14682
selling	-14683
▁Final	-14684
▁Judaic	-14685
▁banner	-14686
▁pirates	-14687
▁Beverly	-14688
essa	-14689
▁Pete	-14690
high	-14691
▁Mau	-14692
▁corporation	-14693
▁ESPN	-14694
▁estr	-14695
ancies	-14696
▁Sources	-14697
▁airplane	-14698
▁canceled	-14699
▁troubles	-14700
urbs	-14701
▁moder	-14702
▁drives	-14703
sur	-14704
▁riders	-14705
▁rampage	-14706
6.	-14707
▁Herrera	-14708
▁assumed	-14709
▁ate	-14710
▁Derek	-14711
▁beget	-14712
▁Nebraska	-14713
▁promptly	-14714
▁sustainable	-14715
▁hospitalized	-14716
ieth	-14717
▁Lot	-14718
▁smuggling	-14719
umbria	-14720
▁Riley	-14721
▁insects	-14722
▁rankings	-14723
▁discontinue	-14724
Im	-14725
ohn	-14726
▁Donetsk	-14727
▁upstairs	-14728
rors	-14729
▁famously	-14730
▁tours	-14731
▁Singer	-14732
▁efficient	-14733
▁identical	-14734
illiputian	-14735
▁CS	-14736
▁dip	-14737
.50	-14738
hunt	-14739
ET	-14740
▁whit	-14741
▁blonde	-14742
▁heated	-14743
▁CA	-14744
▁jam	-14745
▁Else	-14746
▁calf	-14747
▁eldest	-14748
▁Century	-14749
▁annoy	-14750
▁supermarkets	-14751
▁Dunn	-14752
▁flop	-14753
▁Put	-14754
▁indoors	-14755
▁illnesses	-14756
▁providers	-14757
▁coins	-14758
▁surgeries	-14759
gor	-14760
urches	-14761
▁adjudge	-14762
▁endured	-14763
▁modelling	-14764
▁Fast	-14765
▁helm	-14766
▁packages	-14767
▁collecting	-14768
▁lilliputian	-14769
fund	-14770
▁Sue	-14771
▁Pin	-14772
▁ninth	-14773
▁Oakland	-14774
▁narrowly	-14775
▁depressed	-14776
▁Gove	-14777
▁bush	-14778
▁faulty	-14779
▁starred	-14780
▁recruitment	-14781
usky	-14782
▁Mul	-14783
▁iOS	-14784
▁Princ	-14785
▁Footage	-14786
esy	-14787
ovy	-14788
▁Rush	-14789
ellect	-14790
▁weighs	-14791
▁hamstring	-14792
OU	-14793
▁Son	-14794
▁chart	-14795
▁exercises	-14796
▁evacuation	-14797
▁cared	-14798
▁lions	-14799
▁secrets	-14800
▁bay	-14801
▁Shield	-14802
▁Richmond	-14803
verts	-14804
▁Users	-14805
▁tonnes	-14806
▁reliable	-14807
▁Cob	-14808
▁3-1	-14809
▁Champion	-14810
▁Berlusconi	-14811
avan	-14812
▁excav	-14813
▁immune	-14814
▁diversity	-14815
▁Boys	-14816
▁Mali	-14817
▁acclaim	-14818
▁precip	-14819
pherd	-14820
third	-14821
itious	-14822
▁Vo	-14823
▁Ral	-14824
▁Surv	-14825
▁slender	-14826
▁deadened	-14827
▁tide	-14828
▁sufferers	-14829
▁DVD	-14830
▁Arrest	-14831
▁Couple	-14832
▁1987	-14833
iotics	-14834
▁revers	-14835
enberg	-14836
▁reducing	-14837
RI	-14838
▁Sporting	-14839
steps	-14840
▁lifel	-14841
plicate	-14842
▁Patriots	-14843
▁40,	-14844
▁Swift	-14845
▁throne	-14846
▁buzz	-14847
▁visitor	-14848
▁Zuckerberg	-14849
▁embarrassment	-14850
▁dated	-14851
▁risen	-14852
omposed	-14853
▁Cricket	-14854
▁nutrition	-14855
aciously	-14856
▁violate	-14857
▁respects	-14858
▁conservatives	-14859
athed	-14860
▁aspect	-14861
▁overhe	-14862
▁Mohammad	-14863
▁List	-14864
▁Serbia	-14865
▁Perhaps	-14866
▁Families	-14867
▁countrys	-14868
▁severally	-14869
urr	-14870
▁Small	-14871
▁kip	-14872
▁Banks	-14873
▁Claud	-14874
▁purse	-14875
fair	-14876
▁oust	-14877
esa	-14878
regn	-14879
▁Bak	-14880
▁Gabriel	-14881
rup	-14882
cend	-14883
▁Metro	-14884
▁ordinarily	-14885
▁Bi	-14886
raise	-14887
▁Bulger	-14888
▁farms	-14889
▁flunk	-14890
▁urine	-14891
▁unhappy	-14892
▁briefing	-14893
▁underway	-14894
▁2006.	-14895
▁Starbucks	-14896
▁Lohan	-14897
▁treas	-14898
▁diminished	-14899
ilo	-14900
▁Tu	-14901
▁Lall	-14902
▁ugly	-14903
▁casino	-14904
▁Et	-14905
▁Kid	-14906
▁Hugo	-14907
▁Redd	-14908
▁apartments	-14909
▁Gloucestershire	-14910
▁AA	-14911
▁Wade	-14912
▁Dems	-14913
▁Fellow	-14914
▁ratify	-14915
▁unin	-14916
▁naval	-14917
▁canvas	-14918
▁outcry	-14919
▁rarified	-14920
ipherable	-14921
oland	-14922
▁insisting	-14923
▁commissioned	-14924
ocaust	-14925
▁scans	-14926
[...]
