<pad>	0
<unk>	0
<s>	0
</s>	0
▁t	-0
he	-1
▁a	-2
in	-3
▁s	-4
er	-5
▁the	-6
▁.	-7
on	-8
re	-9
▁w	-10
▁,	-11
en	-12
▁c	-13
at	-14
▁o	-15
▁b	-16
▁f	-17
is	-18
an	-19
or	-20
it	-21
▁p	-22
ed	-23
▁h	-24
ar	-25
es	-26
▁to	-27
▁in	-28
nd	-29
ou	-30
ing	-31
as	-32
al	-33
▁m	-34
▁d	-35
▁'	-36
▁of	-37
ic	-38
▁and	-39
le	-40
om	-41
il	-42
▁th	-43
▁T	-44
id	-45
ion	-46
▁n	-47
ent	-48
▁-	-49
▁re	-50
▁be	-51
ve	-52
▁l	-53
▁S	-54
▁he	-55
ot	-56
st	-57
ay	-58
ut	-59
ly	-60
▁A	-61
▁g	-62
▁e	-63
▁M	-64
▁on	-65
ac	-66
ad	-67
ro	-68
am	-69
▁I	-70
im	-71
▁C	-72
▁for	-73
ol	-74
ter	-75
ur	-76
ig	-77
▁was	-78
el	-79
ir	-80
ver	-81
▁st	-82
▁The	-83
et	-84
▁B	-85
ow	-86
▁is	-87
se	-88
▁u	-89
▁that	-90
▁wh	-91
ith	-92
ce	-93
▁H	-94
▁with	-95
ec	-96
ate	-97
▁at	-98
ld	-99
▁y	-100
ill	-101
▁"	-102
▁P	-103
ri	-104
▁W	-105
▁as	-106
▁it	-107
▁an	-108
ra	-109
▁his	-110
ear	-111
ation	-112
ers	-113
ul	-114
her	-115
▁ha	-116
▁D	-117
ch	-118
▁con	-119
▁al	-120
ge	-121
and	-122
▁:	-123
▁1	-124
ke	-125
▁L	-126
igh	-127
▁fr	-128
▁F	-129
▁R	-130
ts	-131
▁2	-132
ore	-133
▁sa	-134
th	-135
pp	-136
▁r	-137
us	-138
est	-139
if	-140
▁N	-141
▁de	-142
▁have	-143
▁from	-144
▁has	-145
▁G	-146
op	-147
our	-148
▁by	-149
un	-150
ain	-151
▁v	-152
▁her	-153
▁ch	-154
▁are	-155
res	-156
od	-157
▁su	-158
▁com	-159
ct	-160
▁sh	-161
▁ex	-162
▁J	-163
▁said	-164
ment	-165
end	-166
os	-167
▁E	-168
00	-169
ess	-170
ab	-171
ard	-172
ould	-173
ew	-174
▁not	-175
▁le	-176
▁af	-177
ist	-178
▁year	-179
▁pro	-180
ive	-181
ight	-182
▁we	-183
▁se	-184
ort	-185
art	-186
▁O	-187
qu	-188
▁who	-189
oun	-190
ice	-191
ere	-192
ack	-193
▁had	-194
ast	-195
ity	-196
em	-197
um	-198
all	-199
▁after	-200
gh	-201
ust	-202
▁whe	-203
▁sp	-204
▁pl	-205
▁j	-206
oc	-207
ag	-208
▁she	-209
ome	-210
ant	-211
▁were	-212
▁been	-213
▁U	-214
ud	-215
ide	-216
ies	-217
rou	-218
▁ab	-219
ure	-220
▁they	-221
ell	-222
▁or	-223
▁but	-224
▁their	-225
▁un	-226
ok	-227
▁K	-228
ak	-229
ich	-230
▁out	-231
ost	-232
ect	-233
out	-234
▁off	-235
▁will	-236
iv	-237
are	-238
ire	-239
▁k	-240
▁go	-241
▁do	-242
▁this	-243
ial	-244
▁wor	-245
▁cl	-246
▁up	-247
ap	-248
ine	-249
ie	-250
▁ad	-251
day	-252
ous	-253
ry	-254
ff	-255
ber	-256
ia	-257
▁He	-258
▁ac	-259
ime	-260
one	-261
ace	-262
▁ag	-263
▁en	-264
ict	-265
▁pr	-266
au	-267
▁int	-268
ally	-269
age	-270
ans	-271
ong	-272
mer	-273
▁which	-274
▁St	-275
▁It	-276
per	-277
▁one	-278
▁Ch	-279
ub	-280
ue	-281
▁dis	-282
▁tw	-283
▁ne	-284
pl	-285
ord	-286
▁)	-287
▁ar	-288
▁when	-289
ish	-290
▁(	-291
own	-292
ose	-293
▁man	-294
▁Th	-295
ence	-296
ile	-297
▁In	-298
▁can	-299
pt	-300
ake	-301
▁3	-302
▁im	-303
ary	-304
▁him	-305
▁pe	-306
ike	-307
▁over	-308
ian	-309
ip	-310
ays	-311
▁sc	-312
og	-313
ree	-314
ite	-315
▁inc	-316
▁all	-317
▁more	-318
▁about	-319
▁cont	-320
ail	-321
ass	-322
ise	-323
ame	-324
ild	-325
▁would	-326
ru	-327
▁pol	-328
act	-329
ions	-330
▁me	-331
iz	-332
▁20	-333
ople	-334
ond	-335
▁res	-336
ident	-337
ount	-338
ind	-339
▁rep	-340
av	-341
▁you	-342
▁two	-343
ep	-344
▁so	-345
ook	-346
ound	-347
ign	-348
▁rec	-349
ress	-350
ne	-351
▁V	-352
▁people	-353
other	-354
ick	-355
▁att	-356
ren	-357
▁app	-358
▁per	-359
able	-360
▁time	-361
▁comp	-362
ated	-363
ther	-364
ark	-365
man	-366
▁than	-367
▁Mr	-368
▁like	-369
ase	-370
▁into	-371
▁te	-372
oy	-373
very	-374
▁acc	-375
▁Y	-376
ek	-377
ib	-378
ach	-379
▁tr	-380
▁pre	-381
▁them	-382
ance	-383
▁bec	-384
▁ev	-385
▁ro	-386
▁5	-387
aw	-388
ors	-389
▁4	-390
ath	-391
▁years	-392
▁could	-393
▁its	-394
▁us	-395
fore	-396
rit	-397
ife	-398
▁part	-399
ll	-400
▁But	-401
so	-402
ood	-403
ations	-404
▁work	-405
nder	-406
wn	-407
ily	-408
ang	-409
oin	-410
iss	-411
▁no	-412
▁down	-413
anc	-414
▁We	-415
ens	-416
ough	-417
amp	-418
land	-419
▁bl	-420
▁201	-421
▁qu	-422
▁She	-423
▁fl	-424
ft	-425
▁mon	-426
▁des	-427
ward	-428
▁new	-429
ause	-430
hed	-431
old	-432
▁before	-433
ob	-434
▁fam	-435
▁also	-436
▁am	-437
▁my	-438
▁again	-439
ool	-440
uc	-441
▁being	-442
urn	-443
ious	-444
▁some	-445
▁there	-446
▁week	-447
▁19	-448
ove	-449
round	-450
▁Un	-451
ade	-452
▁inv	-453
ater	-454
▁home	-455
▁fir	-456
▁tra	-457
▁get	-458
▁last	-459
der	-460
oll	-461
▁police	-462
▁back	-463
▁car	-464
ult	-465
▁child	-466
000	-467
▁any	-468
▁inter	-469
▁sec	-470
ov	-471
ical	-472
ink	-473
orm	-474
▁just	-475
▁play	-476
ings	-477
ory	-478
▁what	-479
▁kn	-480
reat	-481
▁offic	-482
ock	-483
▁state	-484
▁New	-485
uring	-486
ons	-487
▁An	-488
▁did	-489
over	-490
ition	-491
▁000	-492
▁act	-493
▁old	-494
▁ser	-495
oot	-496
▁other	-497
▁dec	-498
ash	-499
▁month	-500
▁three	-501
ied	-502
▁ph	-503
und	-504
▁6	-505
vel	-506
▁under	-507
iver	-508
ited	-509
▁told	-510
▁200	-511
mit	-512
ince	-513
▁imp	-514
▁say	-515
ning	-516
▁br	-517
ters	-518
▁wom	-519
▁where	-520
ather	-521
▁supp	-522
lic	-523
als	-524
enc	-525
▁cr	-526
rough	-527
ton	-528
▁exp	-529
▁char	-530
▁because	-531
lud	-532
illion	-533
▁Le	-534
▁show	-535
ates	-536
▁if	-537
▁pres	-538
▁cent	-539
▁first	-540
▁sur	-541
▁bet	-542
rib	-543
ged	-544
▁ra	-545
▁family	-546
ourt	-547
we	-548
ph	-549
▁ear	-550
▁fe	-551
▁count	-552
▁against	-553
▁report	-554
fer	-555
ier	-556
▁while	-557
▁ass	-558
ful	-559
▁Fr	-560
son	-561
▁how	-562
lect	-563
riend	-564
▁during	-565
ouse	-566
▁rem	-567
▁day	-568
▁def	-569
ss	-570
air	-571
▁cons	-572
ents	-573
▁min	-574
▁look	-575
ont	-576
ital	-577
▁ter	-578
atch	-579
▁And	-580
▁Al	-581
ize	-582
▁call	-583
▁found	-584
elf	-585
▁ind	-586
▁now	-587
oss	-588
ix	-589
▁our	-590
ues	-591
▁em	-592
▁Sc	-593
▁fin	-594
▁add	-595
ting	-596
red	-597
▁bel	-598
▁7	-599
▁Wh	-600
ublic	-601
▁Mar	-602
▁They	-603
▁through	-604
▁world	-605
ty	-606
ble	-607
ork	-608
▁left	-609
▁ret	-610
ities	-611
te	-612
▁ins	-613
irl	-614
▁ve	-615
chool	-616
ted	-617
▁includ	-618
ational	-619
pe	-620
alk	-621
▁$	-622
▁?	-623
▁life	-624
▁Af	-625
hen	-626
▁take	-627
aim	-628
ved	-629
▁team	-630
oh	-631
ank	-632
▁lead	-633
▁million	-634
▁reg	-635
▁comm	-636
▁Ar	-637
cc	-638
row	-639
les	-640
up	-641
ug	-642
imes	-643
▁alle	-644
iel	-645
ured	-646
ah	-647
▁four	-648
outh	-649
ull	-650
▁pict	-651
ner	-652
▁rel	-653
ments	-654
▁every	-655
ger	-656
augh	-657
▁end	-658
▁children	-659
▁hand	-660
▁Brit	-661
▁inf	-662
ual	-663
▁This	-664
▁disc	-665
▁tri	-666
▁former	-667
ute	-668
oth	-669
▁make	-670
▁law	-671
ason	-672
bs	-673
▁En	-674
way	-675
▁says	-676
▁gr	-677
▁only	-678
▁near	-679
▁around	-680
ern	-681
▁right	-682
▁co	-683
tle	-684
ody	-685
osp	-686
▁claim	-687
sh	-688
▁De	-689
iew	-690
▁Amer	-691
▁since	-692
ck	-693
erson	-694
▁hel	-695
iate	-696
▁Sp	-697
▁stud	-698
ven	-699
▁then	-700
▁death	-701
roup	-702
hes	-703
▁head	-704
▁Sh	-705
az	-706
vern	-707
▁need	-708
▁vide	-709
ures	-710
▁Americ	-711
aking	-712
▁8	-713
▁pass	-714
▁sm	-715
▁most	-716
ale	-717
▁should	-718
▁mem	-719
ange	-720
▁way	-721
uch	-722
▁conc	-723
ving	-724
▁attack	-725
ating	-726
▁invest	-727
ene	-728
▁cap	-729
▁10	-730
▁see	-731
uth	-732
▁may	-733
orn	-734
ric	-735
▁win	-736
▁mother	-737
▁own	-738
med	-739
ney	-740
led	-741
ling	-742
▁help	-743
▁Pol	-744
▁9	-745
▁kill	-746
▁friend	-747
▁govern	-748
▁med	-749
▁school	-750
ave	-751
▁many	-752
tain	-753
▁Re	-754
▁well	-755
▁bre	-756
▁bu	-757
▁made	-758
▁want	-759
▁set	-760
▁gu	-761
ollow	-762
▁ke	-763
▁bo	-764
▁court	-765
ists	-766
aren	-767
get	-768
▁sl	-769
any	-770
ister	-771
▁mil	-772
▁place	-773
▁ent	-774
▁dep	-775
▁still	-776
▁United	-777
ames	-778
▁night	-779
▁Se	-780
▁conf	-781
▁resp	-782
▁sign	-783
▁plan	-784
ween	-785
▁video	-786
▁war	-787
ster	-788
▁che	-789
▁those	-790
▁long	-791
▁group	-792
▁start	-793
du	-794
alth	-795
eth	-796
ral	-797
ives	-798
ury	-799
orts	-800
uss	-801
▁between	-802
▁even	-803
io	-804
▁run	-805
ley	-806
▁country	-807
ady	-808
▁dri	-809
ative	-810
ounce	-811
▁ext	-812
▁Br	-813
urs	-814
▁num	-815
▁Eng	-816
gan	-817
▁sub	-818
▁Cl	-819
ross	-820
ours	-821
ospital	-822
ness	-823
▁order	-824
ret	-825
ms	-826
▁belie	-827
▁good	-828
▁official	-829
tic	-830
▁think	-831
ote	-832
orth	-833
▁follow	-834
ina	-835
rug	-836
▁girl	-837
▁op	-838
▁post	-839
▁public	-840
ision	-841
tern	-842
▁vict	-843
ott	-844
min	-845
ax	-846
▁As	-847
▁At	-848
▁five	-849
▁care	-850
▁Is	-851
ama	-852
irect	-853
▁such	-854
ced	-855
▁er	-856
▁know	-857
▁exper	-858
ased	-859
▁very	-860
xt	-861
hel	-862
▁loc	-863
rest	-864
▁Chr	-865
▁col	-866
ison	-867
side	-868
uthor	-869
ular	-870
▁investig	-871
ower	-872
ording	-873
▁government	-874
oney	-875
▁air	-876
▁Mon	-877
olog	-878
▁foot	-879
▁person	-880
▁Police	-881
ulate	-882
wards	-883
▁phot	-884
▁women	-885
rem	-886
▁days	-887
ently	-888
▁sy	-889
▁eff	-890
▁leg	-891
▁som	-892
br	-893
ants	-894
▁your	-895
▁Q	-896
▁mar	-897
▁high	-898
▁prot	-899
▁another	-900
▁months	-901
▁real	-902
▁Lond	-903
▁inj	-904
▁beh	-905
▁though	-906
▁Pr	-907
▁sk	-908
ague	-909
ple	-910
▁hit	-911
ves	-912
▁Z	-913
ared	-914
▁There	-915
▁today	-916
▁London	-917
▁Mc	-918
▁far	-919
ages	-920
▁vis	-921
ivers	-922
ram	-923
iday	-924
att	-925
▁str	-926
▁CN	-927
ham	-928
▁bus	-929
ible	-930
vice	-931
ets	-932
ech	-933
ges	-934
used	-935
bers	-936
▁men	-937
▁CNN	-938
▁tell	-939
nes	-940
hip	-941
▁too	-942
ield	-943
uro	-944
▁direct	-945
ected	-946
▁happ	-947
▁case	-948
▁top	-949
atur	-950
▁poin	-951
ines	-952
ins	-953
▁fore	-954
▁dif	-955
ics	-956
aff	-957
iam	-958
▁inst	-959
▁second	-960
▁Bar	-961
▁trans	-962
ient	-963
▁early	-964
▁fire	-965
▁six	-966
▁dist	-967
▁sent	-968
▁rest	-969
ann	-970
vers	-971
quire	-972
alf	-973
▁Joh	-974
▁find	-975
▁ca	-976
▁ref	-977
▁York	-978
ices	-979
▁woman	-980
ised	-981
▁unt	-982
▁fil	-983
▁house	-984
self	-985
▁game	-986
▁dem	-987
oung	-988
▁sex	-989
▁both	-990
▁Car	-991
▁read	-992
ex	-993
ights	-994
ener	-995
▁ask	-996
▁much	-997
▁Ob	-998
▁camp	-999
▁15	-1000
▁cle	-1001
ually	-1002
▁cou	-1003
its	-1004
ides	-1005
ider	-1006
▁admit	-1007
roll	-1008
▁wife	-1009
okes	-1010
▁equ	-1011
▁Aust	-1012
▁John	-1013
▁boy	-1014
▁For	-1015
▁det	-1016
▁South	-1017
▁father	-1018
▁season	-1019
▁star	-1020
▁12	-1021
▁rele	-1022
▁does	-1023
aj	-1024
▁Dav	-1025
▁Wor	-1026
usp	-1027
pped	-1028
uck	-1029
▁Com	-1030
ility	-1031
▁these	-1032
use	-1033
by	-1034
ction	-1035
ution	-1036
line	-1037
▁number	-1038
▁Tw	-1039
rown	-1040
▁spe	-1041
ened	-1042
▁On	-1043
ency	-1044
enn	-1045
aughter	-1046
▁going	-1047
▁arrest	-1048
ik	-1049
▁30	-1050
ony	-1051
▁come	-1052
▁Bl	-1053
crib	-1054
▁wr	-1055
iet	-1056
ys	-1057
▁spec	-1058
▁club	-1059
▁tak	-1060
▁prev	-1061
▁support	-1062
▁aff	-1063
▁hospital	-1064
▁cond	-1065
unc	-1066
▁World	-1067
▁gl	-1068
▁pop	-1069
▁news	-1070
ience	-1071
▁cur	-1072
▁ob	-1073
▁away	-1074
▁put	-1075
pr	-1076
ane	-1077
▁author	-1078
▁iss	-1079
ump	-1080
ball	-1081
rew	-1082
▁England	-1083
▁turn	-1084
▁When	-1085
▁miss	-1086
ense	-1087
▁son	-1088
idence	-1089
▁adv	-1090
▁sw	-1091
most	-1092
▁spokes	-1093
▁Christ	-1094
▁sever	-1095
▁hop	-1096
▁pat	-1097
▁Be	-1098
ands	-1099
▁use	-1100
▁train	-1101
▁Sund	-1102
▁susp	-1103
▁Euro	-1104
▁next	-1105
ific	-1106
▁expl	-1107
▁really	-1108
▁prov	-1109
▁body	-1110
▁used	-1111
▁del	-1112
▁contin	-1113
▁called	-1114
mber	-1115
▁cor	-1116
▁Obama	-1117
▁stri	-1118
▁One	-1119
▁fac	-1120
▁side	-1121
▁move	-1122
▁young	-1123
▁deal	-1124
▁exc	-1125
▁Ro	-1126
ager	-1127
▁enj	-1128
ones	-1129
port	-1130
▁money	-1131
▁victim	-1132
▁If	-1133
▁Sunday	-1134
▁Sy	-1135
▁rece	-1136
▁face	-1137
ject	-1138
▁mod	-1139
▁City	-1140
ces	-1141
▁appear	-1142
artment	-1143
▁Austral	-1144
▁never	-1145
▁try	-1146
▁11	-1147
▁You	-1148
▁record	-1149
▁reported	-1150
▁suff	-1151
rop	-1152
oke	-1153
▁Monday	-1154
▁ann	-1155
▁elect	-1156
▁including	-1157
▁18	-1158
▁par	-1159
▁lot	-1160
amer	-1161
▁mur	-1162
iness	-1163
▁president	-1164
▁oper	-1165
▁milit	-1166
▁West	-1167
▁British	-1168
▁prog	-1169
▁later	-1170
▁est	-1171
▁health	-1172
▁hours	-1173
▁half	-1174
▁took	-1175
▁company	-1176
▁pictured	-1177
rain	-1178
urity	-1179
app	-1180
▁paren	-1181
▁return	-1182
ploy	-1183
▁Pres	-1184
uesday	-1185
▁dr	-1186
▁Tuesday	-1187
els	-1188
▁until	-1189
▁aver	-1190
▁according	-1191
rol	-1192
sec	-1193
riv	-1194
ele	-1195
lish	-1196
▁Ger	-1197
ify	-1198
ird	-1199
▁sit	-1200
▁That	-1201
iving	-1202
▁give	-1203
ially	-1204
ered	-1205
▁prof	-1206
▁without	-1207
▁;	-1208
▁hum	-1209
▁pay	-1210
▁hold	-1211
▁sim	-1212
▁Har	-1213
▁Friday	-1214
▁daughter	-1215
imate	-1216
cer	-1217
iversity	-1218
▁League	-1219
▁perf	-1220
ract	-1221
view	-1222
thing	-1223
▁UK	-1224
▁Pe	-1225
ush	-1226
▁mark	-1227
▁ago	-1228
▁opp	-1229
ever	-1230
▁times	-1231
▁Wed	-1232
▁May	-1233
▁statement	-1234
▁few	-1235
▁soc	-1236
▁prom	-1237
▁proble	-1238
▁don	-1239
esc	-1240
ention	-1241
▁incident	-1242
▁water	-1243
▁mid	-1244
▁Satur	-1245
▁His	-1246
▁city	-1247
▁Saturday	-1248
udge	-1249
▁drug	-1250
▁front	-1251
gest	-1252
▁Cup	-1253
ror	-1254
▁build	-1255
iol	-1256
osed	-1257
anche	-1258
▁Miss	-1259
▁allow	-1260
ism	-1261
▁Min	-1262
ats	-1263
cept	-1264
▁murder	-1265
▁President	-1266
▁remain	-1267
▁let	-1268
▁American	-1269
▁added	-1270
▁job	-1271
▁commun	-1272
▁lit	-1273
▁Wednes	-1274
ogra	-1275
▁Wednesday	-1276
▁Ph	-1277
▁sn	-1278
con	-1279
utes	-1280
stem	-1281
▁area	-1282
▁Ad	-1283
▁Her	-1284
▁along	-1285
rent	-1286
atic	-1287
my	-1288
▁big	-1289
▁each	-1290
pite	-1291
▁poss	-1292
▁across	-1293
▁!	-1294
▁name	-1295
▁Europe	-1296
▁mov	-1297
aign	-1298
▁walk	-1299
▁coun	-1300
▁David	-1301
▁seen	-1302
▁couple	-1303
▁polit	-1304
band	-1305
▁officials	-1306
▁outside	-1307
▁bro	-1308
▁break	-1309
▁invol	-1310
▁25	-1311
▁Ind	-1312
atter	-1313
▁alleged	-1314
ait	-1315
ief	-1316
▁Ms	-1317
▁consider	-1318
ior	-1319
gin	-1320
▁hard	-1321
eal	-1322
ready	-1323
▁shot	-1324
arm	-1325
ething	-1326
▁taken	-1327
ried	-1328
▁Thurs	-1329
raw	-1330
ned	-1331
▁Thursday	-1332
ably	-1333
duc	-1334
▁Col	-1335
▁Russ	-1336
▁16	-1337
▁pos	-1338
▁Fl	-1339
imin	-1340
▁After	-1341
une	-1342
▁differ	-1343
▁Co	-1344
▁already	-1345
▁late	-1346
▁test	-1347
▁got	-1348
▁All	-1349
▁Su	-1350
▁open	-1351
▁system	-1352
▁Will	-1353
▁parents	-1354
▁How	-1355
ember	-1356
gy	-1357
▁friends	-1358
▁weeks	-1359
▁hus	-1360
▁stand	-1361
▁hear	-1362
▁went	-1363
▁0	-1364
▁prison	-1365
▁something	-1366
▁sum	-1367
▁mor	-1368
▁bar	-1369
▁cover	-1370
▁inform	-1371
▁2012	-1372
▁meet	-1373
▁intern	-1374
▁members	-1375
▁local	-1376
▁bab	-1377
▁Rep	-1378
▁yet	-1379
▁campaign	-1380
velop	-1381
▁North	-1382
▁died	-1383
▁Pro	-1384
▁ris	-1385
▁same	-1386
▁treat	-1387
▁quest	-1388
▁cost	-1389
ten	-1390
▁Ge	-1391
▁came	-1392
▁conv	-1393
▁199	-1394
enal	-1395
▁Ab	-1396
▁Scroll	-1397
ald	-1398
oon	-1399
▁ut	-1400
cess	-1401
▁Court	-1402
▁business	-1403
ived	-1404
▁artic	-1405
ester	-1406
istr	-1407
▁press	-1408
▁power	-1409
ways	-1410
▁behind	-1411
▁viol	-1412
reet	-1413
ales	-1414
▁gun	-1415
book	-1416
▁husband	-1417
▁lar	-1418
▁best	-1419
▁keep	-1420
▁less	-1421
▁Manche	-1422
▁reve	-1423
ajor	-1424
▁Manchester	-1425
aid	-1426
amed	-1427
▁comple	-1428
▁evidence	-1429
▁Mich	-1430
▁fail	-1431
ither	-1432
▁design	-1433
reen	-1434
▁view	-1435
▁feel	-1436
ards	-1437
▁saf	-1438
ael	-1439
ection	-1440
▁Mrs	-1441
ai	-1442
▁pot	-1443
▁dead	-1444
ature	-1445
▁shoot	-1446
▁class	-1447
▁players	-1448
▁ed	-1449
que	-1450
▁*	-1451
▁final	-1452
▁net	-1453
▁occ	-1454
▁spokesman	-1455
▁officers	-1456
▁14	-1457
▁past	-1458
▁fact	-1459
▁talk	-1460
▁bes	-1461
▁No	-1462
▁Am	-1463
▁mom	-1464
▁describ	-1465
▁13	-1466
▁ap	-1467
▁fight	-1468
▁av	-1469
▁met	-1470
▁least	-1471
▁room	-1472
BC	-1473
ession	-1474
▁cust	-1475
▁50	-1476
ries	-1477
▁rese	-1478
▁dog	-1479
▁killed	-1480
aul	-1481
▁Jan	-1482
▁visit	-1483
▁proper	-1484
ians	-1485
▁point	-1486
▁security	-1487
▁whether	-1488
▁cre	-1489
▁threat	-1490
ert	-1491
earch	-1492
eng	-1493
▁match	-1494
▁military	-1495
▁event	-1496
wise	-1497
▁seem	-1498
less	-1499
▁incre	-1500
▁gener	-1501
▁mess	-1502
▁following	-1503
ically	-1504
ects	-1505
▁form	-1506
▁Face	-1507
ided	-1508
ators	-1509
▁able	-1510
▁Sec	-1511
▁might	-1512
▁require	-1513
▁init	-1514
▁media	-1515
▁100	-1516
▁eng	-1517
▁level	-1518
▁clear	-1519
▁Off	-1520
▁Tr	-1521
ective	-1522
ler	-1523
▁Ser	-1524
ending	-1525
▁develop	-1526
▁several	-1527
▁bed	-1528
▁Afric	-1529
▁Dr	-1530
▁food	-1531
dle	-1532
ium	-1533
▁line	-1534
▁employ	-1535
▁free	-1536
ington	-1537
▁17	-1538
▁ground	-1539
▁party	-1540
▁Facebook	-1541
▁University	-1542
▁const	-1543
▁goal	-1544
▁cut	-1545
itter	-1546
ev	-1547
▁hist	-1548
ault	-1549
oor	-1550
▁minutes	-1551
▁investigation	-1552
isc	-1553
▁staff	-1554
▁crit	-1555
ished	-1556
▁book	-1557
▁list	-1558
omb	-1559
▁el	-1560
ator	-1561
istan	-1562
▁must	-1563
▁major	-1564
▁cele	-1565
▁tax	-1566
oe	-1567
urch	-1568
▁Gr	-1569
▁live	-1570
ases	-1571
▁hom	-1572
▁reveal	-1573
▁Dep	-1574
▁himself	-1575
iven	-1576
▁Cal	-1577
▁Man	-1578
▁nt	-1579
▁morning	-1580
▁heart	-1581
▁close	-1582
ended	-1583
aster	-1584
stand	-1585
▁deb	-1586
ceed	-1587
▁enjoin	-1588
▁Ju	-1589
ued	-1590
▁ple	-1591
▁believe	-1592
▁love	-1593
▁ey	-1594
▁2011	-1595
▁gra	-1596
▁thought	-1597
▁authorities	-1598
sea	-1599
▁pain	-1600
cher	-1601
▁discover	-1602
▁previous	-1603
▁succ	-1604
▁fun	-1605
▁current	-1606
▁resear	-1607
▁House	-1608
ille	-1609
lier	-1610
▁decision	-1611
▁Britain	-1612
ering	-1613
empt	-1614
af	-1615
▁enc	-1616
head	-1617
▁among	-1618
▁include	-1619
▁appro	-1620
▁tot	-1621
conom	-1622
▁phone	-1623
▁dev	-1624
duct	-1625
▁service	-1626
▁concern	-1627
ized	-1628
▁suppose	-1629
ti	-1630
▁Ed	-1631
▁imm	-1632
ogn	-1633
▁become	-1634
▁charges	-1635
▁hon	-1636
▁great	-1637
▁short	-1638
ford	-1639
▁eight	-1640
ampions	-1641
▁pron	-1642
▁Con	-1643
▁things	-1644
▁film	-1645
ole	-1646
ops	-1647
▁aw	-1648
▁allege	-1649
▁experience	-1650
▁Count	-1651
▁hot	-1652
▁tech	-1653
▁di	-1654
▁fall	-1655
▁German	-1656
▁seven	-1657
ox	-1658
▁pract	-1659
▁football	-1660
▁information	-1661
ances	-1662
▁land	-1663
room	-1664
▁claims	-1665
▁risk	-1666
▁organ	-1667
itness	-1668
▁fund	-1669
▁Par	-1670
▁potent	-1671
▁lo	-1672
▁sold	-1673
uary	-1674
▁ri	-1675
▁likewise	-1676
▁join	-1677
▁My	-1678
▁success	-1679
ified	-1680
▁doct	-1681
▁control	-1682
eb	-1683
▁Gu	-1684
▁program	-1685
▁result	-1686
▁present	-1687
▁super	-1688
▁Cent	-1689
▁unc	-1690
▁Geor	-1691
▁compl	-1692
nt	-1693
▁sing	-1694
erve	-1695
▁commit	-1696
▁always	-1697
▁US	-1698
▁site	-1699
acy	-1700
par	-1701
▁known	-1702
▁having	-1703
idge	-1704
▁Michael	-1705
▁War	-1706
▁besides	-1707
go	-1708
▁dam	-1709
bert	-1710
str	-1711
▁emer	-1712
▁40	-1713
▁anim	-1714
▁equally	-1715
▁leave	-1716
cil	-1717
▁fig	-1718
▁States	-1719
▁low	-1720
▁exec	-1721
▁saying	-1722
ighb	-1723
▁fut	-1724
ched	-1725
ung	-1726
▁El	-1727
▁William	-1728
▁others	-1729
pool	-1730
unciate	-1731
▁econom	-1732
▁baby	-1733
irth	-1734
miss	-1735
urg	-1736
ology	-1737
▁grow	-1738
ruct	-1739
▁watch	-1740
▁Park	-1741
▁full	-1742
ences	-1743
ising	-1744
▁arri	-1745
▁24	-1746
▁road	-1747
▁here	-1748
secut	-1749
▁Sw	-1750
▁National	-1751
▁sug	-1752
▁terror	-1753
esterday	-1754
▁manager	-1755
▁brother	-1756
▁age	-1757
▁kid	-1758
▁little	-1759
▁why	-1760
▁trial	-1761
be	-1762
ape	-1763
inc	-1764
ze	-1765
▁tre	-1766
▁study	-1767
mp	-1768
▁host	-1769
▁pronounce	-1770
▁asked	-1771
▁celebr	-1772
▁articulate	-1773
▁Ir	-1774
▁lear	-1775
fic	-1776
work	-1777
aly	-1778
▁stay	-1779
eral	-1780
▁rul	-1781
▁jail	-1782
ream	-1783
▁cour	-1784
ograph	-1785
▁sol	-1786
▁mot	-1787
▁webs	-1788
▁main	-1789
ests	-1790
▁future	-1791
akes	-1792
▁wind	-1793
▁relations	-1794
▁squ	-1795
▁enounce	-1796
▁fans	-1797
▁ident	-1798
unch	-1799
ender	-1800
▁charge	-1801
▁ball	-1802
▁enunciate	-1803
▁art	-1804
▁import	-1805
▁interview	-1806
ask	-1807
▁Chel	-1808
▁officer	-1809
here	-1810
▁Ham	-1811
▁change	-1812
▁given	-1813
▁check	-1814
▁la	-1815
ocr	-1816
▁January	-1817
▁picture	-1818
▁human	-1819
▁process	-1820
ana	-1821
ona	-1822
▁Or	-1823
rie	-1824
▁nec	-1825
▁2010	-1826
▁stop	-1827
ds	-1828
▁light	-1829
▁Pal	-1830
▁office	-1831
▁bring	-1832
▁Ne	-1833
▁grand	-1834
ourn	-1835
int	-1836
▁account	-1837
▁China	-1838
unt	-1839
▁scene	-1840
▁Sm	-1841
▁partic	-1842
orney	-1843
▁third	-1844
▁County	-1845
▁sure	-1846
▁Char	-1847
▁21	-1848
▁judge	-1849
▁search	-1850
▁Ang	-1851
▁State	-1852
▁den	-1853
ored	-1854
▁2013	-1855
▁birth	-1856
▁TV	-1857
▁deter	-1858
lam	-1859
▁Liver	-1860
▁compet	-1861
▁ill	-1862
erv	-1863
hic	-1864
ption	-1865
▁action	-1866
▁round	-1867
irt	-1868
▁dou	-1869
den	-1870
friend	-1871
aper	-1872
irc	-1873
▁techn	-1874
▁blood	-1875
though	-1876
▁different	-1877
▁ide	-1878
▁Twitter	-1879
▁Ste	-1880
▁Syri	-1881
lin	-1882
▁small	-1883
agn	-1884
ming	-1885
let	-1886
▁arrested	-1887
▁inside	-1888
▁Sept	-1889
▁What	-1890
▁Liverpool	-1891
shire	-1892
itch	-1893
sel	-1894
▁non	-1895
▁working	-1896
sp	-1897
itions	-1898
▁teen	-1899
▁Hol	-1900
▁despite	-1901
uty	-1902
▁taking	-1903
▁town	-1904
ients	-1905
▁attempt	-1906
▁won	-1907
▁allegedly	-1908
▁ver	-1909
▁Australia	-1910
icate	-1911
ipp	-1912
▁heard	-1913
▁fur	-1914
▁fell	-1915
▁neighb	-1916
ray	-1917
raz	-1918
▁making	-1919
ired	-1920
▁red	-1921
gr	-1922
▁player	-1923
▁/	-1924
▁Paul	-1925
▁shows	-1926
▁using	-1927
▁travel	-1928
▁22	-1929
ained	-1930
▁coll	-1931
▁earlier	-1932
▁eas	-1933
▁Mart	-1934
▁released	-1935
attle	-1936
lex	-1937
▁vehic	-1938
ocu	-1939
gu	-1940
▁Mad	-1941
▁within	-1942
▁Chelsea	-1943
▁started	-1944
▁Republic	-1945
▁News	-1946
▁sour	-1947
▁due	-1948
▁thing	-1949
▁Dem	-1950
▁chang	-1951
▁prop	-1952
▁spot	-1953
▁September	-1954
▁ever	-1955
▁convict	-1956
▁begin	-1957
▁ty	-1958
▁Department	-1959
▁enough	-1960
▁expect	-1961
▁tar	-1962
▁Prem	-1963
aur	-1964
▁black	-1965
▁lost	-1966
▁James	-1967
▁issue	-1968
▁community	-1969
igr	-1970
▁activ	-1971
ety	-1972
▁%	-1973
▁Ira	-1974
ee	-1975
▁chance	-1976
▁carry	-1977
▁Calif	-1978
▁Gl	-1979
▁training	-1980
▁Jack	-1981
▁mus	-1982
▁almost	-1983
▁wear	-1984
▁strik	-1985
igin	-1986
anger	-1987
▁website	-1988
uff	-1989
antly	-1990
duce	-1991
hing	-1992
▁Mor	-1993
▁Californ	-1994
▁yesterday	-1995
▁Intern	-1996
▁interest	-1997
▁park	-1998
itate	-1999
▁camer	-2000
▁store	-2001
▁Ex	-2002
▁pub	-2003
▁obs	-2004
▁Me	-2005
▁With	-2006
▁Air	-2007
▁Pl	-2008
▁priv	-2009
▁billion	-2010
▁lives	-2011
▁Aug	-2012
▁bank	-2013
▁political	-2014
acher	-2015
oo	-2016
ails	-2017
▁June	-2018
▁wanted	-2019
gency	-2020
ars	-2021
ressed	-2022
▁Can	-2023
▁role	-2024
▁Some	-2025
▁someone	-2026
▁Just	-2027
iation	-2028
▁summer	-2029
▁comment	-2030
▁While	-2031
▁condition	-2032
▁Sam	-2033
▁California	-2034
▁Dece	-2035
▁hope	-2036
aced	-2037
▁saw	-2038
▁bene	-2039
▁December	-2040
ches	-2041
iff	-2042
▁produc	-2043
▁students	-2044
▁polic	-2045
▁kind	-2046
ease	-2047
▁assault	-2048
yle	-2049
▁Oct	-2050
reed	-2051
uries	-2052
▁reports	-2053
▁Premier	-2054
▁cause	-2055
▁looking	-2056
ding	-2057
reg	-2058
▁Roy	-2059
vert	-2060
▁question	-2061
▁story	-2062
▁mean	-2063
▁stra	-2064
▁Mil	-2065
▁docu	-2066
mediate	-2067
▁victims	-2068
▁White	-2069
▁August	-2070
raft	-2071
ories	-2072
▁better	-2073
▁Nove	-2074
▁surv	-2075
▁i	-2076
orters	-2077
aged	-2078
ule	-2079
▁Ass	-2080
uit	-2081
ertain	-2082
ilar	-2083
▁assist	-2084
▁series	-2085
▁relationship	-2086
erry	-2087
▁mis	-2088
▁198	-2089
▁exact	-2090
▁miles	-2091
uge	-2092
▁quick	-2093
▁target	-2094
▁moment	-2095
▁custom	-2096
▁contrib	-2097
▁America	-2098
▁treatment	-2099
▁self	-2100
▁Des	-2101
ino	-2102
▁tour	-2103
ift	-2104
ober	-2105
▁history	-2106
▁trust	-2107
▁November	-2108
▁wait	-2109
iber	-2110
ills	-2111
▁Apr	-2112
▁cancer	-2113
▁Ars	-2114
▁tit	-2115
▁Iraq	-2116
▁Wash	-2117
▁large	-2118
▁April	-2119
▁potential	-2120
▁March	-2121
▁serious	-2122
▁director	-2123
vey	-2124
▁trying	-2125
elt	-2126
opp	-2127
▁continue	-2128
▁chall	-2129
▁July	-2130
▁pair	-2131
▁leaders	-2132
ively	-2133
▁capt	-2134
▁claimed	-2135
ivid	-2136
▁fav	-2137
▁centre	-2138
▁leader	-2139
sw	-2140
▁23	-2141
ortun	-2142
▁Minister	-2143
cast	-2144
▁October	-2145
▁total	-2146
▁rights	-2147
▁Em	-2148
▁draw	-2149
▁project	-2150
▁revealed	-2151
▁problem	-2152
▁likely	-2153
▁Washington	-2154
▁disp	-2155
retary	-2156
▁held	-2157
▁games	-2158
▁Kore	-2159
▁building	-2160
▁anything	-2161
▁online	-2162
▁immediate	-2163
uation	-2164
▁step	-2165
▁Go	-2166
▁Cr	-2167
▁hol	-2168
sy	-2169
ality	-2170
▁European	-2171
hile	-2172
ousands	-2173
▁famil	-2174
ying	-2175
▁However	-2176
reme	-2177
ata	-2178
omin	-2179
vices	-2180
▁Sen	-2181
▁500	-2182
▁cho	-2183
▁hor	-2184
cel	-2185
▁image	-2186
uel	-2187
▁flight	-2188
▁lim	-2189
▁origin	-2190
▁course	-2191
me	-2192
▁nothing	-2193
rap	-2194
unk	-2195
field	-2196
▁App	-2197
ults	-2198
▁trip	-2199
▁circ	-2200
▁bit	-2201
rag	-2202
▁contract	-2203
order	-2204
ply	-2205
▁based	-2206
▁drink	-2207
avy	-2208
▁resident	-2209
▁once	-2210
▁insp	-2211
▁release	-2212
selves	-2213
▁accident	-2214
oman	-2215
▁collect	-2216
cent	-2217
▁hands	-2218
▁termin	-2219
▁force	-2220
▁2009	-2221
read	-2222
▁strong	-2223
hern	-2224
▁Res	-2225
mas	-2226
ional	-2227
▁cal	-2228
▁nation	-2229
▁property	-2230
ference	-2231
▁special	-2232
▁crash	-2233
▁station	-2234
▁demand	-2235
▁chief	-2236
ots	-2237
▁Bro	-2238
▁Angel	-2239
▁subst	-2240
▁Phil	-2241
▁market	-2242
▁whose	-2243
▁bad	-2244
▁nearly	-2245
▁toget	-2246
▁together	-2247
▁countries	-2248
ida	-2249
ades	-2250
oved	-2251
omp	-2252
▁member	-2253
▁wrote	-2254
▁dest	-2255
▁recent	-2256
▁nine	-2257
▁complete	-2258
etime	-2259
▁began	-2260
▁26	-2261
▁Mark	-2262
▁often	-2263
▁estab	-2264
▁accused	-2265
iers	-2266
▁hour	-2267
▁career	-2268
▁girls	-2269
ring	-2270
▁problems	-2271
ume	-2272
▁val	-2273
▁vol	-2274
eat	-2275
▁social	-2276
▁Acc	-2277
▁rear	-2278
▁Sch	-2279
▁confir	-2280
▁lawy	-2281
▁tem	-2282
ston	-2283
▁driver	-2284
▁colle	-2285
▁writ	-2286
▁entire	-2287
fully	-2288
▁tele	-2289
▁race	-2290
bed	-2291
ournal	-2292
▁bod	-2293
▁witness	-2294
▁board	-2295
▁execut	-2296
eared	-2297
▁Champions	-2298
sey	-2299
ghan	-2300
▁So	-2301
▁Islam	-2302
▁neg	-2303
▁Pat	-2304
▁injuries	-2305
atory	-2306
▁East	-2307
▁Rich	-2308
aces	-2309
▁esc	-2310
▁var	-2311
▁link	-2312
▁weekend	-2313
resent	-2314
▁Ear	-2315
▁27	-2316
▁Dan	-2317
▁France	-2318
ivil	-2319
ery	-2320
place	-2321
▁charged	-2322
▁reach	-2323
▁Christmas	-2324
▁Two	-2325
▁fear	-2326
▁Alex	-2327
▁expected	-2328
▁conn	-2329
▁tro	-2330
▁trad	-2331
ensive	-2332
rid	-2333
▁plane	-2334
▁plans	-2335
▁Lab	-2336
▁[	-2337
to	-2338
yn	-2339
▁contact	-2340
▁Que	-2341
▁]	-2342
inger	-2343
▁lab	-2344
ruck	-2345
▁abuse	-2346
▁became	-2347
▁60	-2348
▁To	-2349
▁ahead	-2350
▁Med	-2351
ulation	-2352
ening	-2353
▁Lu	-2354
ij	-2355
▁Mid	-2356
▁bear	-2357
ope	-2358
wood	-2359
▁Its	-2360
▁Mail	-2361
▁Isra	-2362
▁suggest	-2363
rench	-2364
orce	-2365
▁research	-2366
▁position	-2367
aily	-2368
▁X	-2369
undred	-2370
▁comments	-2371
▁challen	-2372
▁Israel	-2373
▁safety	-2374
▁pull	-2375
lo	-2376
quest	-2377
▁Braz	-2378
▁gen	-2379
▁base	-2380
▁recogn	-2381
▁28	-2382
lus	-2383
▁prob	-2384
▁pick	-2385
▁forward	-2386
umb	-2387
▁student	-2388
while	-2389
▁Rob	-2390
▁accept	-2391
▁track	-2392
▁sell	-2393
▁rad	-2394
▁Feb	-2395
▁straight	-2396
▁violence	-2397
▁Mal	-2398
ips	-2399
▁ll	-2400
▁beat	-2401
▁Red	-2402
ett	-2403
▁Cor	-2404
▁Camer	-2405
aps	-2406
▁cases	-2407
▁aut	-2408
▁didn	-2409
▁sentence	-2410
ament	-2411
▁Afghan	-2412
▁div	-2413
▁term	-2414
exic	-2415
▁crime	-2416
orman	-2417
ners	-2418
▁happened	-2419
▁access	-2420
▁tried	-2421
EO	-2422
▁George	-2423
▁living	-2424
▁Flor	-2425
▁families	-2426
▁further	-2427
▁workers	-2428
ky	-2429
▁laws	-2430
▁page	-2431
▁international	-2432
iety	-2433
▁Mexic	-2434
▁harm	-2435
▁respons	-2436
▁Brazil	-2437
▁disapp	-2438
▁led	-2439
▁rather	-2440
▁adj	-2441
▁bomb	-2442
▁shock	-2443
▁ten	-2444
▁pri	-2445
▁unf	-2446
▁thousands	-2447
▁injury	-2448
onald	-2449
bit	-2450
yc	-2451
▁hearing	-2452
ounced	-2453
▁Wil	-2454
▁Arsenal	-2455
▁McC	-2456
▁anyone	-2457
ruary	-2458
aving	-2459
▁February	-2460
ead	-2461
▁sound	-2462
▁King	-2463
▁2008	-2464
▁received	-2465
▁getting	-2466
▁bid	-2467
▁Inst	-2468
▁individ	-2469
▁La	-2470
▁&	-2471
vision	-2472
▁Mus	-2473
▁done	-2474
▁impro	-2475
▁Ben	-2476
▁doing	-2477
ministr	-2478
na	-2479
▁spent	-2480
▁infl	-2481
▁attorney	-2482
▁Smith	-2483
▁photo	-2484
rage	-2485
▁Hospital	-2486
▁conclud	-2487
▁points	-2488
▁sal	-2489
body	-2490
mission	-2491
▁crimin	-2492
itute	-2493
▁agree	-2494
▁Africa	-2495
▁comes	-2496
▁simply	-2497
▁provide	-2498
▁themselves	-2499
▁boss	-2500
▁exam	-2501
▁attacks	-2502
▁forces	-2503
▁images	-2504
▁message	-2505
▁Brown	-2506
▁critic	-2507
ks	-2508
▁San	-2509
▁believed	-2510
▁vot	-2511
▁weap	-2512
▁door	-2513
iron	-2514
▁everything	-2515
▁mass	-2516
▁wed	-2517
▁van	-2518
▁School	-2519
▁scar	-2520
rog	-2521
▁cred	-2522
ibility	-2523
▁increase	-2524
▁Mur	-2525
▁gain	-2526
▁reason	-2527
▁Lou	-2528
▁important	-2529
▁2014	-2530
▁Australian	-2531
▁rock	-2532
ached	-2533
▁personal	-2534
▁Fer	-2535
▁z	-2536
▁described	-2537
▁immediately	-2538
▁suit	-2539
▁coach	-2540
▁Florida	-2541
▁meas	-2542
▁space	-2543
rugg	-2544
▁BBC	-2545
aker	-2546
ese	-2547
▁fly	-2548
▁prosecut	-2549
▁patients	-2550
▁speed	-2551
▁block	-2552
▁address	-2553
▁ain	-2554
▁national	-2555
ron	-2556
oard	-2557
▁popular	-2558
oring	-2559
oid	-2560
▁guil	-2561
now	-2562
▁35	-2563
▁sister	-2564
ging	-2565
▁avail	-2566
▁played	-2567
▁involved	-2568
ficult	-2569
▁Do	-2570
▁hither	-2571
▁desire	-2572
▁Day	-2573
▁Comm	-2574
atives	-2575
riage	-2576
▁benef	-2577
itive	-2578
ately	-2579
▁percent	-2580
ude	-2581
▁represent	-2582
▁possible	-2583
▁difficult	-2584
▁drugs	-2585
▁Ber	-2586
▁capital	-2587
▁surger	-2588
▁More	-2589
▁sle	-2590
▁bill	-2591
▁white	-2592
▁protect	-2593
▁separ	-2594
▁minute	-2595
▁shooting	-2596
ode	-2597
▁abs	-2598
ural	-2599
uate	-2600
▁gave	-2601
ara	-2602
▁victory	-2603
▁Ke	-2604
ederal	-2605
omm	-2606
▁strugg	-2607
▁loss	-2608
▁seek	-2609
▁goals	-2610
resh	-2611
▁damage	-2612
▁idea	-2613
overn	-2614
▁establish	-2615
▁box	-2616
▁wide	-2617
▁mind	-2618
▁197	-2619
▁owner	-2620
▁services	-2621
▁learn	-2622
urt	-2623
▁mat	-2624
▁firm	-2625
▁mater	-2626
▁French	-2627
▁above	-2628
▁pack	-2629
▁legal	-2630
▁situation	-2631
▁dress	-2632
uted	-2633
▁Te	-2634
▁necess	-2635
▁model	-2636
iod	-2637
▁cell	-2638
▁areas	-2639
▁admitted	-2640
cise	-2641
▁complain	-2642
▁wrong	-2643
chers	-2644
▁amount	-2645
▁understand	-2646
▁MP	-2647
ows	-2648
▁cross	-2649
ously	-2650
▁chair	-2651
oint	-2652
▁turned	-2653
▁ban	-2654
▁danger	-2655
icated	-2656
▁har	-2657
▁Tex	-2658
▁Not	-2659
▁High	-2660
▁pictures	-2661
▁card	-2662
▁Scot	-2663
engers	-2664
▁29	-2665
▁street	-2666
▁Union	-2667
▁hotel	-2668
ought	-2669
▁anti	-2670
▁doctors	-2671
play	-2672
▁civil	-2673
atures	-2674
▁indust	-2675
▁crow	-2676
▁English	-2677
▁Democr	-2678
▁defeat	-2679
lymp	-2680
▁photograph	-2681
▁sat	-2682
▁pressure	-2683
urb	-2684
▁Pak	-2685
▁teacher	-2686
▁attend	-2687
▁penal	-2688
hood	-2689
ancy	-2690
▁music	-2691
▁key	-2692
▁practice	-2693
arr	-2694
esp	-2695
▁playing	-2696
▁sen	-2697
▁rac	-2698
▁camera	-2699
▁Govern	-2700
▁soon	-2701
▁alleg	-2702
▁Olymp	-2703
oming	-2704
mine	-2705
▁Russian	-2706
▁touch	-2707
▁mag	-2708
▁occur	-2709
▁Iran	-2710
▁pm	-2711
▁educ	-2712
▁vehicle	-2713
▁International	-2714
▁Royal	-2715
▁pil	-2716
aught	-2717
▁range	-2718
▁rob	-2719
▁hundred	-2720
▁unl	-2721
▁fat	-2722
▁feet	-2723
▁everyone	-2724
ica	-2725
key	-2726
▁Syria	-2727
bor	-2728
▁answ	-2729
▁matter	-2730
▁These	-2731
rought	-2732
por	-2733
▁letter	-2734
▁Russia	-2735
▁Offic	-2736
▁period	-2737
▁title	-2738
bol	-2739
▁behav	-2740
▁fit	-2741
▁meeting	-2742
▁defend	-2743
▁Prime	-2744
▁finally	-2745
▁bul	-2746
aded	-2747
▁resc	-2748
▁storm	-2749
▁guilty	-2750
▁forth	-2751
▁south	-2752
▁quar	-2753
▁contain	-2754
▁conduct	-2755
ival	-2756
with	-2757
▁policy	-2758
▁surgery	-2759
▁brain	-2760
▁respond	-2761
▁Coun	-2762
▁45	-2763
▁aid	-2764
▁cand	-2765
▁pred	-2766
acter	-2767
▁agency	-2768
▁vote	-2769
rict	-2770
ilt	-2771
▁photos	-2772
▁bea	-2773
▁twe	-2774
▁appeared	-2775
▁intimate	-2776
▁Pakistan	-2777
▁groups	-2778
▁ste	-2779
▁Americans	-2780
▁Germany	-2781
▁Texas	-2782
rey	-2783
▁election	-2784
▁emb	-2785
▁drive	-2786
▁network	-2787
▁certain	-2788
▁Cameron	-2789
▁initi	-2790
▁receive	-2791
▁enjoy	-2792
▁Martin	-2793
▁honest	-2794
▁Black	-2795
▁opportun	-2796
▁users	-2797
▁surpr	-2798
▁issues	-2799
▁forced	-2800
▁Madrid	-2801
▁north	-2802
sc	-2803
icide	-2804
lands	-2805
▁Rod	-2806
▁stage	-2807
▁norm	-2808
▁else	-2809
▁weight	-2810
▁battle	-2811
▁IS	-2812
ularly	-2813
▁Vict	-2814
▁Cong	-2815
▁Williams	-2816
▁buy	-2817
▁foc	-2818
▁Sim	-2819
▁field	-2820
sequ	-2821
▁Tra	-2822
▁suc	-2823
▁mult	-2824
▁Street	-2825
▁According	-2826
fort	-2827
▁succeed	-2828
▁thither	-2829
▁broad	-2830
▁doub	-2831
▁bur	-2832
reak	-2833
▁caused	-2834
▁deg	-2835
▁aim	-2836
▁data	-2837
▁People	-2838
▁effect	-2839
▁coming	-2840
▁hair	-2841
▁medical	-2842
▁comb	-2843
ises	-2844
▁alone	-2845
▁Franc	-2846
▁esp	-2847
vent	-2848
▁safe	-2849
▁performan	-2850
attling	-2851
▁amb	-2852
▁ele	-2853
▁remains	-2854
▁disease	-2855
▁sexual	-2856
▁hig	-2857
mark	-2858
▁nigh	-2859
▁price	-2860
▁compan	-2861
▁refer	-2862
IS	-2863
▁homes	-2864
apan	-2865
ounds	-2866
▁Che	-2867
lim	-2868
▁bag	-2869
▁suffered	-2870
tee	-2871
▁worked	-2872
▁dro	-2873
ander	-2874
▁Op	-2875
▁driving	-2876
▁involve	-2877
ma	-2878
▁material	-2879
▁crew	-2880
▁cit	-2881
▁figure	-2882
mar	-2883
▁cru	-2884
▁Japan	-2885
▁pet	-2886
enced	-2887
ined	-2888
▁posted	-2889
rovers	-2890
▁region	-2891
▁lif	-2892
▁Bay	-2893
▁scient	-2894
▁offer	-2895
▁Val	-2896
▁decided	-2897
▁killing	-2898
heless	-2899
oul	-2900
ada	-2901
▁Robert	-2902
▁Despite	-2903
▁striker	-2904
▁drop	-2905
ny	-2906
osing	-2907
▁util	-2908
erate	-2909
using	-2910
itution	-2911
▁Secretary	-2912
berg	-2913
▁Im	-2914
▁Bel	-2915
yan	-2916
eck	-2917
▁exh	-2918
▁Prince	-2919
itional	-2920
▁Tom	-2921
▁born	-2922
▁stat	-2923
enger	-2924
▁size	-2925
well	-2926
▁date	-2927
▁floor	-2928
▁Uk	-2929
onse	-2930
▁showed	-2931
▁2007	-2932
▁holiday	-2933
▁score	-2934
▁Cam	-2935
▁similar	-2936
▁huge	-2937
▁strike	-2938
▁operation	-2939
▁cult	-2940
▁Scott	-2941
▁although	-2942
overy	-2943
▁signific	-2944
ID	-2945
iant	-2946
▁Je	-2947
▁By	-2948
▁announced	-2949
ample	-2950
of	-2951
▁immigr	-2952
ingly	-2953
▁creat	-2954
▁deep	-2955
▁currently	-2956
▁vill	-2957
▁Real	-2958
▁fix	-2959
▁journal	-2960
ination	-2961
▁Port	-2962
▁31	-2963
▁whole	-2964
away	-2965
▁depart	-2966
▁recently	-2967
▁partner	-2968
▁Clin	-2969
▁extra	-2970
▁und	-2971
▁create	-2972
▁secret	-2973
▁Per	-2974
▁worth	-2975
▁32	-2976
▁Sir	-2977
▁perform	-2978
▁kick	-2979
▁encoun	-2980
▁however	-2981
▁ens	-2982
ibly	-2983
▁table	-2984
che	-2985
gn	-2986
▁passengers	-2987
▁mist	-2988
▁port	-2989
gress	-2990
▁reportedly	-2991
ees	-2992
istic	-2993
pton	-2994
▁Mer	-2995
▁running	-2996
co	-2997
gal	-2998
▁administr	-2999
▁Richard	-3000
▁marriage	-3001
olf	-3002
▁fem	-3003
▁residents	-3004
▁serve	-3005
▁minister	-3006
▁iP	-3007
▁happy	-3008
▁react	-3009
men	-3010
▁paid	-3011
▁Afghanistan	-3012
▁fresh	-3013
▁missing	-3014
▁cars	-3015
▁Now	-3016
▁means	-3017
▁erst	-3018
rab	-3019
▁source	-3020
▁impact	-3021
▁jump	-3022
▁Tur	-3023
▁discovered	-3024
ki	-3025
▁prep	-3026
▁lat	-3027
▁196	-3028
▁Part	-3029
iding	-3030
▁speak	-3031
▁ord	-3032
▁older	-3033
▁cere	-3034
▁executive	-3035
▁towards	-3036
▁suffer	-3037
form	-3038
▁Tod	-3039
▁Council	-3040
▁clean	-3041
▁thus	-3042
iger	-3043
▁customers	-3044
▁calls	-3045
▁cat	-3046
viron	-3047
▁Los	-3048
▁Labour	-3049
▁appeal	-3050
▁comput	-3051
essor	-3052
▁reb	-3053
▁sense	-3054
▁response	-3055
▁squad	-3056
▁conditions	-3057
▁girlfriend	-3058
▁Rom	-3059
▁eye	-3060
yl	-3061
itor	-3062
▁produce	-3063
▁deliver	-3064
▁pers	-3065
▁failed	-3066
▁traff	-3067
ergy	-3068
▁attention	-3069
▁save	-3070
▁actually	-3071
▁Chris	-3072
▁emergency	-3073
▁technology	-3074
▁details	-3075
▁arm	-3076
▁determine	-3077
ari	-3078
▁named	-3079
ris	-3080
▁happen	-3081
ization	-3082
ashion	-3083
▁herself	-3084
▁Another	-3085
▁Office	-3086
▁looked	-3087
▁allegations	-3088
▁phys	-3089
▁Health	-3090
▁Last	-3091
ca	-3092
▁African	-3093
▁trou	-3094
riff	-3095
▁gold	-3096
▁pan	-3097
onstr	-3098
oms	-3099
▁Jose	-3100
▁moved	-3101
come	-3102
▁restaur	-3103
▁uns	-3104
ashed	-3105
iece	-3106
▁catch	-3107
▁conference	-3108
▁sun	-3109
▁newsp	-3110
▁wat	-3111
ugh	-3112
iously	-3113
▁Mel	-3114
rupt	-3115
ado	-3116
roy	-3117
epend	-3118
▁ship	-3119
▁Spain	-3120
▁discuss	-3121
▁private	-3122
ograp	-3123
▁Muslim	-3124
▁fle	-3125
▁trib	-3126
▁Louis	-3127
▁gas	-3128
▁Apple	-3129
▁controvers	-3130
▁captain	-3131
▁Thom	-3132
▁Goog	-3133
▁prim	-3134
▁Kh	-3135
imb	-3136
▁knew	-3137
▁sport	-3138
▁kids	-3139
▁encounter	-3140
▁wall	-3141
force	-3142
▁brought	-3143
ability	-3144
▁Daily	-3145
▁Author	-3146
▁states	-3147
▁Peter	-3148
▁bott	-3149
▁felt	-3150
▁extreme	-3151
▁ille	-3152
▁tick	-3153
▁aftern	-3154
adium	-3155
▁po	-3156
▁average	-3157
▁Def	-3158
▁vir	-3159
▁terminal	-3160
▁cash	-3161
▁Scotland	-3162
▁suspect	-3163
▁profession	-3164
▁lawyer	-3165
▁council	-3166
▁Cle	-3167
▁directly	-3168
▁India	-3169
ohol	-3170
▁makes	-3171
▁skin	-3172
▁Cap	-3173
cl	-3174
▁champ	-3175
▁ur	-3176
uses	-3177
▁pur	-3178
▁Span	-3179
▁Jones	-3180
gg	-3181
▁Johnson	-3182
▁conce	-3183
▁Mic	-3184
▁vers	-3185
cohol	-3186
asons	-3187
▁animals	-3188
ps	-3189
▁lack	-3190
▁afternoon	-3191
eed	-3192
▁rise	-3193
▁latest	-3194
ellig	-3195
▁brand	-3196
▁pret	-3197
ux	-3198
▁wedding	-3199
▁results	-3200
▁rattling	-3201
▁advert	-3202
▁90	-3203
▁words	-3204
▁events	-3205
▁cann	-3206
▁style	-3207
ini	-3208
▁Wales	-3209
▁die	-3210
orry	-3211
▁recover	-3212
▁Som	-3213
▁finish	-3214
▁Google	-3215
lit	-3216
gent	-3217
enty	-3218
▁hundreds	-3219
▁Bal	-3220
▁Syd	-3221
unched	-3222
ils	-3223
back	-3224
▁nearby	-3225
▁animal	-3226
▁border	-3227
▁opt	-3228
ho	-3229
▁surf	-3230
ension	-3231
▁snow	-3232
▁either	-3233
▁Angeles	-3234
▁scarce	-3235
▁boys	-3236
▁engine	-3237
▁sens	-3238
cial	-3239
▁Hill	-3240
▁rev	-3241
▁rout	-3242
▁jury	-3243
▁Sydney	-3244
▁companies	-3245
▁Jer	-3246
▁sil	-3247
▁mill	-3248
▁grant	-3249
astic	-3250
▁weather	-3251
▁leaving	-3252
TV	-3253
rect	-3254
irst	-3255
▁needed	-3256
▁Mexico	-3257
illa	-3258
▁Clinton	-3259
▁pregn	-3260
HS	-3261
▁candid	-3262
▁spend	-3263
▁80	-3264
▁70	-3265
▁burn	-3266
▁proceed	-3267
▁demonstr	-3268
▁share	-3269
ya	-3270
▁injured	-3271
▁Sal	-3272
aves	-3273
▁Law	-3274
▁Congress	-3275
▁needs	-3276
▁mere	-3277
▁Van	-3278
ledge	-3279
▁rap	-3280
airs	-3281
▁footage	-3282
▁swe	-3283
vironment	-3284
▁review	-3285
▁sust	-3286
▁Qu	-3287
▁apply	-3288
iful	-3289
▁arrived	-3290
▁quite	-3291
▁wild	-3292
▁Kim	-3293
▁ant	-3294
▁aud	-3295
▁Jackson	-3296
▁allowed	-3297
ique	-3298
▁progress	-3299
▁dig	-3300
▁married	-3301
oud	-3302
craft	-3303
▁center	-3304
▁figures	-3305
ront	-3306
lished	-3307
▁Korea	-3308
ken	-3309
change	-3310
▁Every	-3311
▁beginning	-3312
▁parts	-3313
▁item	-3314
▁wants	-3315
▁questions	-3316
▁ft	-3317
ground	-3318
oph	-3319
▁mob	-3320
▁evening	-3321
▁Many	-3322
▁glob	-3323
▁energy	-3324
▁Matt	-3325
▁Center	-3326
▁prevent	-3327
▁coast	-3328
▁33	-3329
▁alcohol	-3330
duction	-3331
iled	-3332
▁charity	-3333
▁transfer	-3334
ples	-3335
▁Wood	-3336
▁single	-3337
▁motor	-3338
▁During	-3339
▁challenge	-3340
▁rate	-3341
▁Crown	-3342
▁doctor	-3343
▁attract	-3344
▁stock	-3345
▁launch	-3346
▁peace	-3347
▁screen	-3348
▁federal	-3349
▁performance	-3350
off	-3351
▁Barcel	-3352
annel	-3353
▁troops	-3354
rian	-3355
▁onto	-3356
▁schools	-3357
▁Step	-3358
▁crowd	-3359
▁acquire	-3360
▁hy	-3361
▁gone	-3362
▁Government	-3363
otten	-3364
amb	-3365
vell	-3366
▁penalty	-3367
osition	-3368
▁presently	-3369
▁industry	-3370
▁inn	-3371
▁temper	-3372
▁opening	-3373
▁describe	-3374
▁confirmed	-3375
▁Judge	-3376
▁cris	-3377
▁Barcelona	-3378
▁bas	-3379
ushed	-3380
▁300	-3381
▁returned	-3382
hold	-3383
▁common	-3384
▁consum	-3385
▁Thomas	-3386
▁observe	-3387
lor	-3388
▁various	-3389
▁spir	-3390
▁Italy	-3391
▁caught	-3392
▁substant	-3393
arent	-3394
▁hous	-3395
▁oil	-3396
itz	-3397
▁eyes	-3398
▁Our	-3399
eated	-3400
ains	-3401
▁lose	-3402
▁airport	-3403
▁Mary	-3404
▁Ev	-3405
▁Nor	-3406
aed	-3407
▁Assoc	-3408
▁severe	-3409
▁concluding	-3410
night	-3411
▁Lib	-3412
▁Times	-3413
▁Att	-3414
▁FA	-3415
▁din	-3416
▁Ital	-3417
iles	-3418
▁Gar	-3419
▁lik	-3420
▁comfort	-3421
▁Sa	-3422
▁Green	-3423
▁looks	-3424
▁meant	-3425
▁helped	-3426
▁Gener	-3427
▁heavy	-3428
▁poll	-3429
▁feed	-3430
▁Andrew	-3431
▁fighting	-3432
eper	-3433
▁send	-3434
▁diss	-3435
▁pit	-3436
olution	-3437
iated	-3438
▁soldiers	-3439
▁Of	-3440
▁tear	-3441
▁citiz	-3442
▁Carol	-3443
▁Paris	-3444
▁Fore	-3445
▁ice	-3446
▁sleep	-3447
▁document	-3448
▁hero	-3449
ielder	-3450
▁effort	-3451
▁unex	-3452
▁merely	-3453
▁Bill	-3454
SA	-3455
▁Sur	-3456
ires	-3457
▁Det	-3458
vest	-3459
▁bare	-3460
▁tweet	-3461
▁sym	-3462
rif	-3463
▁sole	-3464
▁36	-3465
▁adop	-3466
▁Lee	-3467
▁push	-3468
isters	-3469
inese	-3470
▁individual	-3471
▁ep	-3472
▁vac	-3473
▁fellow	-3474
▁concerns	-3475
▁2006	-3476
▁Queen	-3477
▁Act	-3478
▁aircraft	-3479
▁Mos	-3480
▁vo	-3481
▁ready	-3482
ellow	-3483
▁stre	-3484
▁television	-3485
▁exist	-3486
ication	-3487
ighters	-3488
▁insist	-3489
fielder	-3490
▁regard	-3491
▁fashion	-3492
ube	-3493
▁Republican	-3494
▁Super	-3495
bour	-3496
▁Don	-3497
▁quarter	-3498
lant	-3499
▁character	-3500
▁speech	-3501
▁sched	-3502
▁suicide	-3503
ental	-3504
▁credit	-3505
▁repl	-3506
▁Daniel	-3507
▁cry	-3508
▁rules	-3509
▁wearing	-3510
▁opportunity	-3511
▁Ash	-3512
▁newspaper	-3513
standing	-3514
▁fre	-3515
▁Mill	-3516
istry	-3517
▁der	-3518
▁costs	-3519
▁Sand	-3520
▁manage	-3521
▁fra	-3522
ago	-3523
anda	-3524
▁Far	-3525
▁weapons	-3526
▁hang	-3527
uce	-3528
▁experts	-3529
▁aged	-3530
rival	-3531
tt	-3532
za	-3533
▁financ	-3534
▁Mo	-3535
▁NHS	-3536
▁nd	-3537
▁raise	-3538
▁available	-3539
▁spread	-3540
▁efforts	-3541
liam	-3542
▁shop	-3543
▁expend	-3544
▁bedroom	-3545
▁changes	-3546
rate	-3547
▁Both	-3548
▁Ba	-3549
▁typ	-3550
orthern	-3551
bal	-3552
▁mach	-3553
sych	-3554
▁criminal	-3555
ka	-3556
▁exit	-3557
▁dogs	-3558
▁fish	-3559
▁Camp	-3560
▁owners	-3561
▁diagn	-3562
▁instead	-3563
▁Mod	-3564
▁apartment	-3565
▁mount	-3566
light	-3567
woman	-3568
▁Hall	-3569
▁extend	-3570
▁throw	-3571
▁Vir	-3572
▁gang	-3573
▁general	-3574
ropri	-3575
▁kept	-3576
▁row	-3577
etimes	-3578
▁competition	-3579
▁remember	-3580
▁champion	-3581
▁select	-3582
▁levels	-3583
▁foremost	-3584
quir	-3585
▁seat	-3586
▁Charl	-3587
▁subs	-3588
▁advance	-3589
▁VID	-3590
▁VIDEO	-3591
▁qual	-3592
▁Chinese	-3593
liament	-3594
ih	-3595
ographer	-3596
▁Arab	-3597
▁sale	-3598
▁longer	-3599
▁decl	-3600
▁created	-3601
▁arrive	-3602
▁Inter	-3603
▁award	-3604
▁separate	-3605
aine	-3606
▁senior	-3607
▁lay	-3608
▁custody	-3609
▁united	-3610
down	-3611
▁erstwhile	-3612
▁Victor	-3613
▁deaths	-3614
oper	-3615
▁messages	-3616
▁answer	-3617
▁exactly	-3618
▁leading	-3619
▁ring	-3620
▁terms	-3621
▁Justice	-3622
▁God	-3623
▁Ros	-3624
▁documents	-3625
▁pun	-3626
▁economy	-3627
▁remark	-3628
▁airl	-3629
▁34	-3630
▁ISIS	-3631
▁bodies	-3632
owers	-3633
ruction	-3634
▁Mag	-3635
▁significant	-3636
▁female	-3637
▁ful	-3638
▁fill	-3639
▁approach	-3640
▁Old	-3641
▁novel	-3642
▁reck	-3643
▁display	-3644
▁Lord	-3645
▁recall	-3646
▁tourn	-3647
▁teams	-3648
van	-3649
orter	-3650
▁espec	-3651
▁obtain	-3652
▁chem	-3653
▁unlike	-3654
▁explos	-3655
▁doll	-3656
▁request	-3657
▁fast	-3658
▁rape	-3659
▁midfielder	-3660
anks	-3661
▁church	-3662
▁ess	-3663
▁winner	-3664
ounts	-3665
▁survey	-3666
▁Earth	-3667
BI	-3668
▁General	-3669
right	-3670
▁sea	-3671
▁winning	-3672
zz	-3673
antage	-3674
▁Today	-3675
▁lowest	-3676
iar	-3677
lear	-3678
andal	-3679
▁Although	-3680
chie	-3681
▁rare	-3682
▁crisis	-3683
▁Under	-3684
ns	-3685
▁intellig	-3686
▁Argent	-3687
▁illegal	-3688
▁defense	-3689
▁paper	-3690
ites	-3691
▁dom	-3692
eless	-3693
▁rain	-3694
▁Egy	-3695
▁Harry	-3696
estern	-3697
▁fan	-3698
edy	-3699
lt	-3700
▁carried	-3701
oes	-3702
▁render	-3703
aging	-3704
▁doz	-3705
▁ren	-3706
▁example	-3707
▁normal	-3708
▁Adam	-3709
▁Jon	-3710
▁Army	-3711
▁movie	-3712
▁Italian	-3713
akers	-3714
▁foreign	-3715
iple	-3716
▁Egypt	-3717
▁actions	-3718
▁Ga	-3719
▁degree	-3720
▁influ	-3721
▁league	-3722
▁streets	-3723
arden	-3724
▁kit	-3725
▁launched	-3726
▁trade	-3727
▁Spe	-3728
▁Islamic	-3729
▁bra	-3730
▁education	-3731
▁appearance	-3732
rief	-3733
▁virt	-3734
▁throughout	-3735
▁cop	-3736
▁prove	-3737
▁jobs	-3738
▁alongside	-3739
isl	-3740
ilities	-3741
▁truck	-3742
▁takes	-3743
▁Service	-3744
iting	-3745
▁gar	-3746
▁assoc	-3747
▁reporters	-3748
▁exclus	-3749
▁settle	-3750
▁middle	-3751
▁Lew	-3752
pper	-3753
▁Spanish	-3754
▁swim	-3755
▁notice	-3756
▁flood	-3757
▁thr	-3758
azine	-3759
uish	-3760
▁jud	-3761
▁bail	-3762
▁previously	-3763
aches	-3764
opping	-3765
▁Atlant	-3766
▁Since	-3767
▁announce	-3768
▁warned	-3769
emy	-3770
▁quickly	-3771
▁continued	-3772
▁faces	-3773
▁Child	-3774
▁clos	-3775
▁entirely	-3776
▁spending	-3777
▁boyfriend	-3778
▁Soc	-3779
▁purch	-3780
FA	-3781
▁giving	-3782
▁poor	-3783
inson	-3784
▁unitedly	-3785
▁refused	-3786
▁cerem	-3787
▁mission	-3788
▁impart	-3789
▁wound	-3790
ression	-3791
phone	-3792
▁stars	-3793
▁fourth	-3794
▁Gall	-3795
▁Sar	-3796
▁believes	-3797
▁double	-3798
▁independ	-3799
▁millions	-3800
▁Jim	-3801
▁justice	-3802
▁piece	-3803
▁Dar	-3804
▁Post	-3805
ernand	-3806
▁depend	-3807
osh	-3808
▁Sun	-3809
▁Tal	-3810
▁numbers	-3811
orial	-3812
▁scored	-3813
▁knock	-3814
▁utmost	-3815
elly	-3816
▁counter	-3817
▁convicted	-3818
ani	-3819
▁Ronald	-3820
set	-3821
▁successful	-3822
omen	-3823
ez	-3824
iana	-3825
▁included	-3826
▁Hum	-3827
ties	-3828
▁Fam	-3829
icit	-3830
▁detect	-3831
asc	-3832
▁prem	-3833
rick	-3834
▁Ram	-3835
▁sports	-3836
▁computer	-3837
▁supporters	-3838
▁works	-3839
▁dream	-3840
▁wel	-3841
▁rule	-3842
dy	-3843
▁administration	-3844
▁Frank	-3845
▁Bur	-3846
▁Good	-3847
utiful	-3848
ero	-3849
▁fair	-3850
▁Three	-3851
▁fine	-3852
▁FBI	-3853
▁bud	-3854
▁sales	-3855
▁pilot	-3856
▁apparent	-3857
imately	-3858
▁teenager	-3859
▁population	-3860
▁respect	-3861
▁products	-3862
▁champions	-3863
▁completely	-3864
▁environment	-3865
▁Virgin	-3866
▁Den	-3867
▁Met	-3868
▁original	-3869
elling	-3870
▁neighbor	-3871
▁Fin	-3872
▁Ol	-3873
▁habit	-3874
▁natur	-3875
▁traffic	-3876
▁department	-3877
▁rescue	-3878
▁Newcast	-3879
▁restaurant	-3880
▁emot	-3881
▁wish	-3882
▁cast	-3883
▁device	-3884
▁Sant	-3885
▁prior	-3886
▁youth	-3887
certain	-3888
▁benefits	-3889
▁intro	-3890
▁word	-3891
▁exer	-3892
▁itself	-3893
opped	-3894
▁desc	-3895
▁records	-3896
▁advantage	-3897
▁enforce	-3898
icious	-3899
▁endure	-3900
▁opin	-3901
▁Net	-3902
▁shut	-3903
▁lived	-3904
▁stick	-3905
▁estim	-3906
▁Prof	-3907
▁perfect	-3908
▁sout	-3909
know	-3910
▁built	-3911
▁Star	-3912
▁denied	-3913
▁decades	-3914
▁mouth	-3915
iance	-3916
hab	-3917
▁sustain	-3918
▁75	-3919
▁Newcastle	-3920
▁window	-3921
▁song	-3922
▁farm	-3923
▁2005	-3924
ourney	-3925
▁encou	-3926
▁stab	-3927
▁contributed	-3928
▁instantly	-3929
▁island	-3930
▁psych	-3931
▁behavi	-3932
▁circum	-3933
▁ensure	-3934
▁shortly	-3935
▁protest	-3936
▁supply	-3937
▁societ	-3938
▁scientists	-3939
roud	-3940
ym	-3941
▁investigators	-3942
ications	-3943
▁repeated	-3944
hest	-3945
▁ang	-3946
▁dangerous	-3947
▁capable	-3948
▁bird	-3949
ville	-3950
▁favour	-3951
anch	-3952
▁chairman	-3953
rad	-3954
agers	-3955
mb	-3956
bola	-3957
▁bal	-3958
▁Joe	-3959
▁Cons	-3960
▁Security	-3961
▁biggest	-3962
▁Chief	-3963
▁smart	-3964
▁Commission	-3965
▁occas	-3966
▁probably	-3967
▁Kenn	-3968
cy	-3969
itt	-3970
▁Gold	-3971
fact	-3972
▁argu	-3973
▁maintain	-3974
ares	-3975
▁majority	-3976
▁grad	-3977
▁Their	-3978
ighted	-3979
▁37	-3980
▁century	-3981
▁pen	-3982
▁Jul	-3983
ipe	-3984
olve	-3985
▁Senate	-3986
▁Tay	-3987
▁subsequ	-3988
▁wond	-3989
▁shown	-3990
▁Bush	-3991
▁prompt	-3992
aug	-3993
▁growing	-3994
▁confront	-3995
▁joined	-3996
where	-3997
▁professional	-3998
inho	-3999
▁Ever	-4000
angu	-4001
ano	-4002
▁flag	-4003
▁achie	-4004
▁debate	-4005
▁arr	-4006
▁beach	-4007
▁histor	-4008
▁Del	-4009
▁utter	-4010
▁ended	-4011
▁development	-4012
igan	-4013
ector	-4014
▁internet	-4015
▁Rad	-4016
ropriate	-4017
▁tournament	-4018
iced	-4019
▁blue	-4020
▁especially	-4021
▁Grand	-4022
▁whom	-4023
ipped	-4024
uk	-4025
▁Ve	-4026
▁west	-4027
inent	-4028
bridge	-4029
aze	-4030
▁dark	-4031
▁transport	-4032
▁tight	-4033
utch	-4034
▁veter	-4035
▁telling	-4036
▁lock	-4037
ien	-4038
▁compens	-4039
▁Wat	-4040
▁researchers	-4041
▁Most	-4042
▁NA	-4043
▁east	-4044
▁Open	-4045
▁loan	-4046
▁apolog	-4047
▁conceive	-4048
▁boat	-4049
ede	-4050
▁First	-4051
▁Sl	-4052
▁avoid	-4053
▁straightaway	-4054
jects	-4055
▁pitch	-4056
▁Ebola	-4057
▁engage	-4058
▁choice	-4059
wide	-4060
iring	-4061
▁Jo	-4062
hew	-4063
▁Authorities	-4064
▁thank	-4065
▁reasons	-4066
▁@	-4067
aked	-4068
▁names	-4069
▁Mont	-4070
▁Georg	-4071
mate	-4072
▁raised	-4073
▁mail	-4074
▁raw	-4075
▁400	-4076
▁armed	-4077
▁travell	-4078
ampton	-4079
worth	-4080
▁expert	-4081
▁register	-4082
iling	-4083
▁village	-4084
▁Other	-4085
▁lic	-4086
▁extremely	-4087
▁betimes	-4088
▁acknow	-4089
▁items	-4090
On	-4091
▁improve	-4092
▁38	-4093
nel	-4094
▁Oh	-4095
▁Palace	-4096
resp	-4097
▁Moh	-4098
▁Christian	-4099
▁Barack	-4100
▁collection	-4101
▁ordered	-4102
▁suffering	-4103
▁glass	-4104
▁Kar	-4105
gers	-4106
▁myself	-4107
▁roll	-4108
unte	-4109
NA	-4110
▁journey	-4111
▁birthday	-4112
▁stopped	-4113
▁surround	-4114
▁file	-4115
utin	-4116
▁doesn	-4117
▁worker	-4118
▁eventually	-4119
▁42	-4120
rogate	-4121
rimin	-4122
kins	-4123
▁secure	-4124
▁minor	-4125
useum	-4126
▁Nick	-4127
▁product	-4128
▁disting	-4129
▁opened	-4130
▁beautiful	-4131
▁convers	-4132
▁spokeswoman	-4133
▁societal	-4134
▁quality	-4135
▁pal	-4136
▁Former	-4137
mond	-4138
▁Ari	-4139
▁Tim	-4140
▁Steve	-4141
▁Party	-4142
asts	-4143
▁Cont	-4144
▁treated	-4145
▁pose	-4146
▁Murray	-4147
▁eat	-4148
▁Win	-4149
▁bath	-4150
▁bottom	-4151
▁Middle	-4152
▁followed	-4153
▁offered	-4154
▁counts	-4155
▁cook	-4156
▁function	-4157
▁Bob	-4158
▁Cost	-4159
▁Ty	-4160
▁reckon	-4161
▁altern	-4162
▁crack	-4163
chen	-4164
▁River	-4165
▁Shar	-4166
▁kne	-4167
▁concerned	-4168
▁signs	-4169
urance	-4170
▁particip	-4171
ials	-4172
▁magazine	-4173
▁bi	-4174
▁guard	-4175
▁twice	-4176
▁employees	-4177
▁Nic	-4178
Online	-4179
▁talks	-4180
▁remove	-4181
▁Year	-4182
▁value	-4183
▁passed	-4184
ovic	-4185
▁band	-4186
▁below	-4187
▁EU	-4188
▁unb	-4189
▁ult	-4190
▁defender	-4191
▁Gra	-4192
▁broke	-4193
▁initially	-4194
▁Bost	-4195
inary	-4196
▁behaviour	-4197
▁Mass	-4198
▁domest	-4199
▁favor	-4200
▁Bir	-4201
▁Ryan	-4202
▁signed	-4203
▁financial	-4204
▁spoke	-4205
▁correct	-4206
▁fort	-4207
▁Invest	-4208
▁Sil	-4209
▁presidential	-4210
▁harmon	-4211
▁Charles	-4212
▁patient	-4213
▁reform	-4214
▁Holly	-4215
▁appears	-4216
▁Brad	-4217
rieve	-4218
▁Wal	-4219
▁Stud	-4220
▁soft	-4221
eder	-4222
▁lux	-4223
▁Ire	-4224
uct	-4225
▁Hen	-4226
atively	-4227
orrow	-4228
▁sad	-4229
asing	-4230
▁cogn	-4231
ula	-4232
▁easy	-4233
▁crimes	-4234
▁entr	-4235
▁clot	-4236
▁plant	-4237
▁version	-4238
▁neck	-4239
▁Boston	-4240
oned	-4241
▁survive	-4242
▁Group	-4243
▁specific	-4244
arez	-4245
▁published	-4246
▁slow	-4247
ucky	-4248
▁backwards	-4249
ading	-4250
▁arms	-4251
▁hopes	-4252
▁sometime	-4253
▁secern	-4254
▁loved	-4255
▁Os	-4256
▁belong	-4257
▁respective	-4258
▁scandal	-4259
▁2004	-4260
esters	-4261
sex	-4262
▁Bre	-4263
▁Church	-4264
▁sem	-4265
▁places	-4266
vis	-4267
▁plenty	-4268
▁Gaal	-4269
▁arch	-4270
▁actor	-4271
▁particularly	-4272
▁ir	-4273
▁withd	-4274
▁showing	-4275
▁Web	-4276
yond	-4277
▁Association	-4278
▁ran	-4279
▁MailOnline	-4280
▁ceremony	-4281
angers	-4282
▁fraud	-4283
▁designed	-4284
igg	-4285
▁mer	-4286
▁relig	-4287
▁Hel	-4288
▁therefore	-4289
▁verbal	-4290
▁central	-4291
aring	-4292
ship	-4293
ission	-4294
▁distinguish	-4295
▁Fire	-4296
▁unable	-4297
istrict	-4298
bury	-4299
▁stim	-4300
cious	-4301
▁affect	-4302
eds	-4303
nce	-4304
▁agreed	-4305
lig	-4306
▁ways	-4307
▁wasn	-4308
de	-4309
▁clubs	-4310
▁type	-4311
▁text	-4312
iment	-4313
▁university	-4314
▁jailed	-4315
▁Ken	-4316
▁via	-4317
▁precise	-4318
▁ability	-4319
▁prosecutors	-4320
▁shirt	-4321
▁Taylor	-4322
▁Coast	-4323
▁District	-4324
raine	-4325
▁green	-4326
▁From	-4327
▁wood	-4328
▁profile	-4329
▁Jord	-4330
▁Jersey	-4331
▁operations	-4332
▁sometimes	-4333
▁citizens	-4334
▁identified	-4335
▁langu	-4336
▁48	-4337
lict	-4338
▁forthwith	-4339
ador	-4340
▁Chic	-4341
▁opposition	-4342
▁goes	-4343
▁Kent	-4344
▁Dis	-4345
▁Island	-4346
▁sick	-4347
▁Di	-4348
▁tests	-4349
▁removed	-4350
▁male	-4351
▁bon	-4352
▁assure	-4353
▁necessitate	-4354
▁freed	-4355
▁rearward	-4356
▁fel	-4357
arian	-4358
elled	-4359
▁prices	-4360
▁55	-4361
▁rough	-4362
▁pounds	-4363
▁Tor	-4364
▁note	-4365
ae	-4366
▁purs	-4367
▁ones	-4368
▁stren	-4369
▁Home	-4370
▁seconds	-4371
▁volunte	-4372
▁budget	-4373
▁sentenced	-4374
board	-4375
▁Totten	-4376
arily	-4377
▁college	-4378
▁Conn	-4379
▁Brook	-4380
▁Mac	-4381
▁bought	-4382
iser	-4383
▁cro	-4384
▁exchange	-4385
▁princ	-4386
▁postulate	-4387
pts	-4388
ennis	-4389
▁placed	-4390
▁43	-4391
▁cab	-4392
▁Tottenham	-4393
▁Rec	-4394
▁mans	-4395
uction	-4396
▁legisl	-4397
▁Syrian	-4398
▁multiple	-4399
▁issued	-4400
angled	-4401
la	-4402
▁views	-4403
ayne	-4404
▁pup	-4405
▁calling	-4406
▁experi	-4407
▁Ter	-4408
lyn	-4409
▁Tony	-4410
▁photographer	-4411
▁immigration	-4412
ena	-4413
▁prefer	-4414
▁hurt	-4415
▁feeling	-4416
▁changed	-4417
▁visual	-4418
▁Mess	-4419
▁pool	-4420
▁broken	-4421
▁clin	-4422
val	-4423
▁matches	-4424
▁decade	-4425
aith	-4426
▁Penn	-4427
▁Bank	-4428
phy	-4429
▁Colle	-4430
ustr	-4431
▁Hot	-4432
▁san	-4433
house	-4434
▁feature	-4435
pet	-4436
cean	-4437
▁scr	-4438
▁seems	-4439
▁yield	-4440
▁moving	-4441
▁Stephen	-4442
▁barely	-4443
▁terrorist	-4444
▁voice	-4445
▁65	-4446
▁reality	-4447
▁legs	-4448
▁founder	-4449
▁hal	-4450
▁intelligence	-4451
▁famous	-4452
▁ath	-4453
▁focus	-4454
▁iPh	-4455
▁proced	-4456
▁meth	-4457
ugg	-4458
▁doubt	-4459
▁impl	-4460
▁Trans	-4461
▁lots	-4462
▁cannot	-4463
▁sav	-4464
▁attacked	-4465
rier	-4466
▁managed	-4467
▁enter	-4468
▁predict	-4469
▁true	-4470
▁Wall	-4471
pled	-4472
▁initiative	-4473
▁Over	-4474
ateg	-4475
ological	-4476
▁responsibility	-4477
▁Wilson	-4478
▁backward	-4479
▁Wel	-4480
▁195	-4481
▁unp	-4482
▁resist	-4483
▁largest	-4484
see	-4485
▁Pet	-4486
▁Qaed	-4487
▁exhib	-4488
anned	-4489
ota	-4490
▁politic	-4491
▁arg	-4492
▁streng	-4493
▁Foot	-4494
▁estate	-4495
▁radio	-4496
▁Down	-4497
▁39	-4498
▁spark	-4499
▁Sports	-4500
▁meaning	-4501
▁surve	-4502
▁Fox	-4503
▁Qaeda	-4504
▁helic	-4505
▁warning	-4506
▁pulled	-4507
▁Ireland	-4508
▁virtually	-4509
▁controversial	-4510
▁Mike	-4511
▁struck	-4512
▁helicop	-4513
▁gay	-4514
oma	-4515
▁growth	-4516
ilton	-4517
azz	-4518
▁emerged	-4519
inal	-4520
olute	-4521
▁district	-4522
▁earn	-4523
▁planning	-4524
▁eld	-4525
▁considered	-4526
▁Kev	-4527
▁wheel	-4528
▁determin	-4529
char	-4530
▁imag	-4531
▁connect	-4532
▁44	-4533
agues	-4534
▁resign	-4535
gedy	-4536
▁economic	-4537
ayers	-4538
mon	-4539
▁subject	-4540
▁Pri	-4541
▁escape	-4542
▁traditional	-4543
▁Road	-4544
▁cyc	-4545
▁beyond	-4546
▁Gre	-4547
▁onetime	-4548
▁II	-4549
▁stress	-4550
▁drivers	-4551
▁150	-4552
▁vehicles	-4553
▁Cast	-4554
▁cold	-4555
anny	-4556
▁ride	-4557
pping	-4558
▁dont	-4559
▁afterwards	-4560
▁indeed	-4561
▁global	-4562
▁surface	-4563
▁ic	-4564
▁democr	-4565
▁rearwards	-4566
ondam	-4567
▁quondam	-4568
▁Prosecut	-4569
▁Die	-4570
▁magn	-4571
▁fuel	-4572
onic	-4573
▁Sky	-4574
▁lawsuit	-4575
▁activity	-4576
▁Haw	-4577
▁cities	-4578
▁commission	-4579
▁singer	-4580
rison	-4581
▁deser	-4582
▁blog	-4583
▁fif	-4584
▁Investig	-4585
▁Guard	-4586
▁tum	-4587
▁solely	-4588
▁finger	-4589
▁Republicans	-4590
▁easily	-4591
▁Chicago	-4592
▁equip	-4593
▁commer	-4594
▁illness	-4595
▁parties	-4596
▁addition	-4597
▁await	-4598
▁Korean	-4599
▁agreement	-4600
▁Mour	-4601
▁features	-4602
▁Ell	-4603
▁Maria	-4604
▁trag	-4605
▁duty	-4606
apt	-4607
aire	-4608
▁complex	-4609
▁devast	-4610
▁adopt	-4611
▁fest	-4612
burg	-4613
uals	-4614
▁Du	-4615
▁McD	-4616
▁path	-4617
athan	-4618
▁hack	-4619
▁47	-4620
▁article	-4621
▁guide	-4622
ella	-4623
▁Championship	-4624
ius	-4625
▁enforcement	-4626
▁related	-4627
▁Sus	-4628
▁mobile	-4629
▁afford	-4630
▁Airport	-4631
ulance	-4632
▁identify	-4633
▁Lewis	-4634
▁beg	-4635
ighter	-4636
▁#	-4637
▁sort	-4638
▁fired	-4639
▁ign	-4640
igue	-4641
▁handed	-4642
▁gam	-4643
▁lower	-4644
going	-4645
▁rub	-4646
▁higher	-4647
▁movement	-4648
▁rank	-4649
▁contr	-4650
ads	-4651
▁rid	-4652
oken	-4653
▁Kevin	-4654
gus	-4655
▁visitors	-4656
itation	-4657
▁mph	-4658
▁upon	-4659
▁Ver	-4660
▁shape	-4661
▁forget	-4662
▁Family	-4663
▁feat	-4664
duced	-4665
▁41	-4666
omach	-4667
▁walking	-4668
▁mort	-4669
▁write	-4670
▁recovery	-4671
mates	-4672
isions	-4673
▁adding	-4674
▁tree	-4675
▁Jordan	-4676
▁Attorney	-4677
▁tie	-4678
▁Ukraine	-4679
▁conflict	-4680
iqu	-4681
▁Those	-4682
▁exercise	-4683
orate	-4684
icient	-4685
▁society	-4686
▁artist	-4687
▁videos	-4688
rel	-4689
▁obv	-4690
▁Even	-4691
ef	-4692
▁ruling	-4693
▁incred	-4694
▁shel	-4695
▁Canada	-4696
▁stomach	-4697
▁Georgia	-4698
imum	-4699
▁carrying	-4700
eces	-4701
▁promot	-4702
▁dismiss	-4703
aped	-4704
▁unw	-4705
▁modern	-4706
▁god	-4707
iano	-4708
aled	-4709
▁detail	-4710
▁Well	-4711
▁served	-4712
▁mix	-4713
isation	-4714
▁publish	-4715
▁Bol	-4716
▁stun	-4717
▁unit	-4718
▁46	-4719
▁sche	-4720
▁waiting	-4721
▁delay	-4722
▁thanks	-4723
ela	-4724
▁defence	-4725
itude	-4726
▁2003	-4727
▁master	-4728
▁knife	-4729
▁Ann	-4730
▁inaug	-4731
▁Games	-4732
▁Liber	-4733
▁subsequently	-4734
▁Southampton	-4735
▁spect	-4736
▁holding	-4737
▁brief	-4738
▁Club	-4739
▁Big	-4740
▁measures	-4741
ware	-4742
▁Eric	-4743
udi	-4744
ova	-4745
▁contribute	-4746
▁sites	-4747
▁asking	-4748
theless	-4749
ids	-4750
▁prosec	-4751
apian	-4752
▁scen	-4753
▁applic	-4754
▁clothes	-4755
▁passenger	-4756
▁Carl	-4757
escul	-4758
esculapian	-4759
▁repeatedly	-4760
▁flat	-4761
▁aesculapian	-4762
▁tal	-4763
▁Modern	-4764
▁effective	-4765
▁culture	-4766
▁retrieve	-4767
▁except	-4768
itan	-4769
▁limit	-4770
mittee	-4771
▁spirit	-4772
▁ascertain	-4773
▁location	-4774
▁express	-4775
▁Israeli	-4776
dd	-4777
aughters	-4778
adays	-4779
▁pregnant	-4780
▁expensive	-4781
▁trouble	-4782
▁Mem	-4783
lete	-4784
▁Andy	-4785
▁programme	-4786
▁Bo	-4787
▁recomm	-4788
onn	-4789
▁Dev	-4790
▁positive	-4791
verse	-4792
▁condem	-4793
▁spell	-4794
▁Bor	-4795
▁Rooney	-4796
cribed	-4797
▁circumst	-4798
ented	-4799
▁Professor	-4800
equ	-4801
▁responsible	-4802
▁antic	-4803
▁user	-4804
▁Steven	-4805
▁Watch	-4806
▁commence	-4807
bur	-4808
▁reached	-4809
▁dropped	-4810
▁connection	-4811
▁2015	-4812
▁amid	-4813
▁agent	-4814
▁Kat	-4815
jected	-4816
aint	-4817
alys	-4818
▁Victoria	-4819
▁YouT	-4820
▁pretty	-4821
gra	-4822
▁Luc	-4823
iban	-4824
▁written	-4825
▁Jeff	-4826
▁talking	-4827
▁highest	-4828
▁nowadays	-4829
▁hardly	-4830
oner	-4831
etheless	-4832
▁closed	-4833
▁partners	-4834
▁seeing	-4835
▁breath	-4836
uclear	-4837
▁iPhone	-4838
inate	-4839
napp	-4840
▁committee	-4841
▁hun	-4842
▁Young	-4843
▁natural	-4844
▁conserv	-4845
▁protests	-4846
▁giant	-4847
▁language	-4848
▁YouTube	-4849
othing	-4850
▁Taliban	-4851
▁actress	-4852
▁49	-4853
▁Ox	-4854
▁Anth	-4855
ga	-4856
▁Ac	-4857
▁equipment	-4858
acts	-4859
rapy	-4860
ala	-4861
▁earth	-4862
▁Olympic	-4863
urse	-4864
▁ble	-4865
▁guy	-4866
▁garden	-4867
▁Great	-4868
do	-4869
▁NE	-4870
ste	-4871
▁Holland	-4872
▁Carolina	-4873
▁Niger	-4874
mingham	-4875
▁FI	-4876
▁batter	-4877
iction	-4878
▁bang	-4879
▁Why	-4880
▁nomin	-4881
▁voters	-4882
▁analy	-4883
▁College	-4884
▁excess	-4885
▁Birmingham	-4886
▁upd	-4887
▁Virginia	-4888
▁flu	-4889
ortion	-4890
▁captured	-4891
▁organization	-4892
▁tough	-4893
▁nature	-4894
▁Zeal	-4895
▁Kate	-4896
▁protesters	-4897
▁choose	-4898
▁impress	-4899
▁Hollywood	-4900
▁bom	-4901
▁occup	-4902
▁tast	-4903
▁Mourinho	-4904
agram	-4905
▁tow	-4906
▁absolute	-4907
com	-4908
▁laugh	-4909
▁shots	-4910
keeper	-4911
ification	-4912
▁Michel	-4913
▁influence	-4914
aries	-4915
va	-4916
encies	-4917
▁bump	-4918
▁99	-4919
▁auction	-4920
▁operate	-4921
▁filed	-4922
▁daughters	-4923
▁amaz	-4924
▁boost	-4925
▁Bec	-4926
▁Fergus	-4927
▁Tour	-4928
▁frequ	-4929
▁Jenn	-4930
▁scale	-4931
▁alive	-4932
▁Four	-4933
▁worst	-4934
▁gets	-4935
▁precisely	-4936
▁confidence	-4937
▁bow	-4938
▁photographs	-4939
▁hat	-4940
hire	-4941
▁Boy	-4942
▁pock	-4943
▁rent	-4944
ammed	-4945
▁realise	-4946
▁Rog	-4947
▁Card	-4948
▁Committee	-4949
▁bot	-4950
bon	-4951
▁insurance	-4952
▁Indian	-4953
▁toler	-4954
uests	-4955
▁maid	-4956
ua	-4957
▁sides	-4958
dog	-4959
elli	-4960
apse	-4961
▁consult	-4962
▁drinking	-4963
▁inquir	-4964
▁grade	-4965
▁funeral	-4966
▁pra	-4967
▁debut	-4968
▁nonetheless	-4969
▁fears	-4970
▁coff	-4971
ength	-4972
▁Everton	-4973
ructure	-4974
mother	-4975
▁Ronaldo	-4976
iest	-4977
▁Ah	-4978
utions	-4979
▁Ford	-4980
▁Anthony	-4981
▁wonder	-4982
▁planned	-4983
oking	-4984
▁600	-4985
▁cart	-4986
▁Sarah	-4987
▁destroy	-4988
▁nurs	-4989
▁Jam	-4990
▁lines	-4991
▁spotted	-4992
icken	-4993
▁bodied	-4994
▁dram	-4995
▁Es	-4996
bourne	-4997
▁CEO	-4998
▁sources	-4999
ba	-5000
▁Argentina	-5001
▁Stadium	-5002
▁Pre	-5003
▁apparently	-5004
▁includes	-5005
▁surprise	-5006
▁194	-5007
▁ton	-5008
▁books	-5009
▁prost	-5010
▁Children	-5011
lement	-5012
▁Diego	-5013
▁claiming	-5014
▁corner	-5015
▁standing	-5016
▁Suarez	-5017
▁scream	-5018
▁nevertheless	-5019
▁Ag	-5020
▁hence	-5021
▁advice	-5022
▁Hug	-5023
▁Tory	-5024
▁suspended	-5025
ampled	-5026
▁arrogate	-5027
▁clash	-5028
▁adult	-5029
▁virus	-5030
withstanding	-5031
▁utilise	-5032
▁tack	-5033
▁covered	-5034
▁devices	-5035
berts	-5036
▁Ma	-5037
▁causing	-5038
▁wa	-5039
▁Zealand	-5040
anced	-5041
elle	-5042
▁Ray	-5043
▁purp	-5044
▁withdraw	-5045
idel	-5046
▁notwithstanding	-5047
ources	-5048
▁Ill	-5049
acious	-5050
▁utilize	-5051
ols	-5052
▁propos	-5053
▁session	-5054
▁hur	-5055
▁thence	-5056
▁Morgan	-5057
▁failure	-5058
▁dad	-5059
▁scoring	-5060
▁difference	-5061
encing	-5062
uing	-5063
▁heat	-5064
dom	-5065
▁shared	-5066
▁newf	-5067
▁replace	-5068
▁Kelly	-5069
▁ABC	-5070
▁aside	-5071
▁tru	-5072
▁runs	-5073
▁withal	-5074
▁flights	-5075
ocal	-5076
▁suspects	-5077
▁shopping	-5078
▁celebrate	-5079
▁lawyers	-5080
iot	-5081
▁Press	-5082
▁Democrats	-5083
▁arrange	-5084
udd	-5085
▁rates	-5086
▁Queens	-5087
▁Ferguson	-5088
▁explain	-5089
▁intend	-5090
▁suggested	-5091
▁Costa	-5092
▁horse	-5093
▁stuff	-5094
▁ruled	-5095
▁steal	-5096
▁thinking	-5097
haps	-5098
▁Ok	-5099
▁commercial	-5100
pir	-5101
▁Tre	-5102
▁realize	-5103
▁starting	-5104
itals	-5105
uine	-5106
▁disappear	-5107
▁Mir	-5108
rom	-5109
▁breast	-5110
▁toward	-5111
▁Central	-5112
▁appropriate	-5113
▁pleaded	-5114
▁eth	-5115
▁Lind	-5116
▁winter	-5117
▁sky	-5118
▁Mun	-5119
▁negot	-5120
▁Kn	-5121
▁helping	-5122
▁army	-5123
iley	-5124
iev	-5125
▁tom	-5126
▁vul	-5127
▁Beach	-5128
▁underw	-5129
▁Nations	-5130
▁Internet	-5131
▁production	-5132
▁52	-5133
iner	-5134
▁fare	-5135
▁MPs	-5136
▁Sup	-5137
▁Cambridge	-5138
▁Milan	-5139
▁genuine	-5140
▁Burn	-5141
▁tragedy	-5142
▁stories	-5143
▁linked	-5144
▁cuts	-5145
▁Prot	-5146
▁diet	-5147
ias	-5148
▁secretary	-5149
osen	-5150
▁threatening	-5151
▁colleagues	-5152
▁luxury	-5153
▁Found	-5154
▁Alan	-5155
olly	-5156
▁Reg	-5157
isher	-5158
▁fal	-5159
▁Gree	-5160
▁mile	-5161
▁signal	-5162
uled	-5163
▁stimulate	-5164
outs	-5165
▁wo	-5166
▁machine	-5167
▁Sing	-5168
▁email	-5169
▁nuclear	-5170
▁mum	-5171
▁newfangled	-5172
▁NEW	-5173
▁unve	-5174
itutional	-5175
▁warn	-5176
▁unexampled	-5177
▁Sav	-5178
▁Before	-5179
▁Cur	-5180
lined	-5181
cri	-5182
▁punish	-5183
ufact	-5184
▁250	-5185
▁depict	-5186
▁Palest	-5187
▁prosp	-5188
▁regul	-5189
PR	-5190
▁flying	-5191
▁Then	-5192
▁bond	-5193
▁wake	-5194
▁Miam	-5195
▁income	-5196
▁militants	-5197
▁2001	-5198
▁log	-5199
▁gather	-5200
▁complaint	-5201
▁Bow	-5202
▁Abb	-5203
gas	-5204
▁measure	-5205
▁heav	-5206
uts	-5207
▁Hay	-5208
icket	-5209
▁surge	-5210
rant	-5211
▁Hart	-5212
▁weapon	-5213
▁cameras	-5214
▁warm	-5215
CA	-5216
incess	-5217
▁adults	-5218
▁violent	-5219
▁sons	-5220
▁faith	-5221
▁Dutch	-5222
rive	-5223
▁electric	-5224
▁Miami	-5225
▁Ariz	-5226
▁dece	-5227
▁rif	-5228
etch	-5229
ologist	-5230
▁sand	-5231
▁length	-5232
met	-5233
▁pu	-5234
▁afterward	-5235
▁massive	-5236
▁wing	-5237
▁cas	-5238
▁benefit	-5239
ieces	-5240
▁accounts	-5241
▁Roberts	-5242
BS	-5243
▁expressed	-5244
apers	-5245
▁calc	-5246
▁regime	-5247
▁compared	-5248
▁instruct	-5249
▁Roman	-5250
▁dinner	-5251
▁aware	-5252
▁91	-5253
▁Mount	-5254
▁regular	-5255
▁ded	-5256
ollect	-5257
▁becoming	-5258
▁facing	-5259
▁moments	-5260
▁species	-5261
▁honor	-5262
▁Dou	-5263
▁Belg	-5264
▁watching	-5265
orse	-5266
▁sight	-5267
▁apart	-5268
▁achieve	-5269
uana	-5270
vention	-5271
▁selling	-5272
▁tally	-5273
▁chest	-5274
inct	-5275
▁defin	-5276
▁standard	-5277
▁status	-5278
FL	-5279
▁2002	-5280
▁800	-5281
ker	-5282
▁interp	-5283
▁circumstances	-5284
▁gri	-5285
▁criticism	-5286
▁continues	-5287
▁strange	-5288
▁affected	-5289
▁Simon	-5290
▁Agency	-5291
▁Long	-5292
esh	-5293
▁losing	-5294
▁Sol	-5295
▁DNA	-5296
▁occurred	-5297
▁Jew	-5298
▁Arizona	-5299
amm	-5300
▁fifth	-5301
▁powerful	-5302
▁Bu	-5303
lets	-5304
▁candidate	-5305
plom	-5306
▁coc	-5307
▁eating	-5308
▁task	-5309
▁Turkey	-5310
▁shout	-5311
iny	-5312
▁relatives	-5313
aust	-5314
▁channel	-5315
▁confident	-5316
izing	-5317
ptoms	-5318
▁grave	-5319
ensions	-5320
▁Pac	-5321
▁prepare	-5322
▁shame	-5323
▁Davis	-5324
▁controll	-5325
▁paint	-5326
▁Medical	-5327
▁kitchen	-5328
venue	-5329
▁proud	-5330
▁walked	-5331
▁Gal	-5332
▁threats	-5333
▁signing	-5334
▁Navy	-5335
▁hole	-5336
▁Cath	-5337
▁Yorkshire	-5338
▁leadership	-5339
▁restrict	-5340
fall	-5341
▁contest	-5342
▁protection	-5343
▁kil	-5344
ijuana	-5345
▁Abd	-5346
▁Gary	-5347
▁Walk	-5348
▁Out	-5349
▁Supreme	-5350
▁mention	-5351
▁oblit	-5352
▁agents	-5353
▁maiden	-5354
▁Romney	-5355
▁struggle	-5356
▁thusly	-5357
▁blow	-5358
▁approx	-5359
uous	-5360
▁rival	-5361
▁Feder	-5362
▁grab	-5363
▁standards	-5364
▁clearly	-5365
umber	-5366
ardy	-5367
▁welcome	-5368
▁Av	-5369
▁investigating	-5370
▁Matthew	-5371
▁couldn	-5372
▁confirm	-5373
▁Villa	-5374
▁teach	-5375
▁attempted	-5376
▁purchase	-5377
▁committed	-5378
vy	-5379
▁ru	-5380
olate	-5381
▁dance	-5382
▁effects	-5383
▁sexually	-5384
▁Force	-5385
▁robber	-5386
▁Staff	-5387
▁banned	-5388
inet	-5389
▁inaugural	-5390
▁trend	-5391
▁neighbour	-5392
ayer	-5393
▁Hong	-5394
umn	-5395
time	-5396
oz	-5397
▁temperatures	-5398
▁Lake	-5399
▁steps	-5400
▁convey	-5401
▁explained	-5402
▁Lam	-5403
▁persist	-5404
ores	-5405
ulf	-5406
▁Direct	-5407
rell	-5408
▁inquest	-5409
▁faced	-5410
▁manufact	-5411
▁usually	-5412
▁Bridge	-5413
▁scarcely	-5414
essed	-5415
▁facility	-5416
▁cease	-5417
▁soldier	-5418
▁insisted	-5419
▁incur	-5420
▁nurse	-5421
▁Mean	-5422
▁pin	-5423
▁regularly	-5424
▁Er	-5425
▁reaction	-5426
▁wealth	-5427
▁Squ	-5428
cow	-5429
▁Dub	-5430
▁recru	-5431
▁traum	-5432
▁induce	-5433
▁ambulance	-5434
illance	-5435
▁GP	-5436
imal	-5437
▁Color	-5438
▁Foreign	-5439
▁stret	-5440
gate	-5441
▁anticip	-5442
▁prescribed	-5443
isco	-5444
▁Doct	-5445
20	-5446
▁obliterate	-5447
abeth	-5448
asters	-5449
▁mayor	-5450
▁blast	-5451
▁contend	-5452
▁guests	-5453
▁finding	-5454
▁Eliz	-5455
▁object	-5456
mes	-5457
▁putting	-5458
join	-5459
▁oppon	-5460
isa	-5461
▁Inc	-5462
▁prepar	-5463
▁construct	-5464
▁combat	-5465
▁healthy	-5466
▁Fab	-5467
fl	-5468
▁individuals	-5469
▁Instagram	-5470
▁Leices	-5471
put	-5472
▁plot	-5473
▁mic	-5474
▁Der	-5475
▁Hamilton	-5476
▁rail	-5477
olk	-5478
▁Cro	-5479
▁highly	-5480
alled	-5481
▁background	-5482
▁rat	-5483
wich	-5484
ilitate	-5485
▁particular	-5486
▁buildings	-5487
ruption	-5488
▁flee	-5489
▁rum	-5490
▁helicopter	-5491
aret	-5492
▁2000	-5493
▁vess	-5494
▁stadium	-5495
▁betray	-5496
break	-5497
▁decide	-5498
▁examine	-5499
▁certainly	-5500
▁babies	-5501
ernandez	-5502
▁fully	-5503
▁Messi	-5504
▁Any	-5505
▁Ali	-5506
atically	-5507
hens	-5508
▁fant	-5509
▁Miller	-5510
▁Centre	-5511
▁smoke	-5512
▁Kong	-5513
ran	-5514
▁mir	-5515
rial	-5516
▁habituate	-5517
▁blame	-5518
▁elder	-5519
▁management	-5520
▁Lat	-5521
▁Hod	-5522
▁tribute	-5523
▁Football	-5524
assy	-5525
▁Ministry	-5526
▁brothers	-5527
▁trail	-5528
▁labor	-5529
het	-5530
▁phones	-5531
▁retail	-5532
▁Cole	-5533
tery	-5534
▁2016	-5535
rific	-5536
▁listen	-5537
ER	-5538
ED	-5539
▁Bern	-5540
ademy	-5541
▁audience	-5542
▁Osc	-5543
sters	-5544
▁capture	-5545
▁jet	-5546
▁truth	-5547
▁diplom	-5548
▁entertain	-5549
inder	-5550
dict	-5551
▁migr	-5552
▁Speaking	-5553
▁suspected	-5554
makers	-5555
▁union	-5556
▁boot	-5557
▁golf	-5558
▁aggress	-5559
▁Western	-5560
▁roy	-5561
oom	-5562
more	-5563
▁necessary	-5564
▁affair	-5565
▁que	-5566
ashes	-5567
▁elections	-5568
ola	-5569
▁Ster	-5570
▁54	-5571
▁Putin	-5572
▁content	-5573
▁broadcast	-5574
▁gest	-5575
▁estimated	-5576
▁Ohio	-5577
ounger	-5578
▁strength	-5579
▁Wayne	-5580
▁anc	-5581
▁burg	-5582
onym	-5583
▁sed	-5584
▁skip	-5585
▁chemical	-5586
hand	-5587
▁plat	-5588
▁cool	-5589
iversary	-5590
▁killer	-5591
▁mistake	-5592
▁provided	-5593
▁anger	-5594
▁ham	-5595
▁freedom	-5596
herly	-5597
▁CC	-5598
▁permit	-5599
▁succeeding	-5600
▁discl	-5601
▁Colorado	-5602
▁assistant	-5603
▁Cub	-5604
▁planet	-5605
dden	-5606
iat	-5607
▁command	-5608
▁accord	-5609
▁51	-5610
▁vulner	-5611
look	-5612
▁false	-5613
ipal	-5614
▁Palestin	-5615
▁critical	-5616
istol	-5617
▁Meanwhile	-5618
▁restrain	-5619
▁recognise	-5620
▁rd	-5621
▁Beck	-5622
ipl	-5623
▁NBC	-5624
aza	-5625
▁1990	-5626
▁systems	-5627
▁Human	-5628
ables	-5629
▁province	-5630
▁Sheriff	-5631
▁activities	-5632
▁neighborhood	-5633
▁53	-5634
hetic	-5635
▁offend	-5636
▁Research	-5637
cing	-5638
▁upset	-5639
▁appoint	-5640
▁Portug	-5641
▁liber	-5642
▁internal	-5643
▁recognize	-5644
▁Corn	-5645
▁vast	-5646
▁Northern	-5647
▁acknowledge	-5648
lying	-5649
▁attended	-5650
▁annual	-5651
▁grandmother	-5652
▁epis	-5653
▁forg	-5654
uche	-5655
acing	-5656
▁handle	-5657
▁stone	-5658
anna	-5659
▁suspic	-5660
▁underst	-5661
IA	-5662
▁Ra	-5663
hatt	-5664
▁Kennedy	-5665
▁witnesses	-5666
add	-5667
▁Harris	-5668
▁assume	-5669
▁McG	-5670
▁appre	-5671
▁climate	-5672
▁memory	-5673
▁Rock	-5674
▁tim	-5675
▁Traff	-5676
inn	-5677
▁FIFA	-5678
fit	-5679
kes	-5680
▁exclusively	-5681
▁requ	-5682
▁politics	-5683
▁Melbourne	-5684
▁sudden	-5685
▁symptoms	-5686
▁gall	-5687
▁scheme	-5688
▁inches	-5689
ON	-5690
▁initiatory	-5691
etts	-5692
oked	-5693
stal	-5694
▁affil	-5695
▁employee	-5696
reck	-5697
▁seemed	-5698
▁marijuana	-5699
▁primary	-5700
OP	-5701
▁hoping	-5702
▁businesses	-5703
▁Sea	-5704
rible	-5705
▁tweeted	-5706
oured	-5707
▁descend	-5708
▁guns	-5709
▁debt	-5710
atever	-5711
ench	-5712
▁narr	-5713
▁sitting	-5714
▁beauty	-5715
▁possession	-5716
▁preced	-5717
▁consist	-5718
▁Work	-5719
▁trick	-5720
▁anniversary	-5721
▁missed	-5722
▁domin	-5723
▁threatened	-5724
▁roof	-5725
▁Form	-5726
▁Atlanta	-5727
▁findings	-5728
gen	-5729
▁diagnosed	-5730
ios	-5731
▁Airl	-5732
▁pieces	-5733
osure	-5734
under	-5735
▁lov	-5736
▁visited	-5737
▁ven	-5738
▁bright	-5739
▁watched	-5740
ography	-5741
▁Women	-5742
▁bars	-5743
▁airline	-5744
▁firef	-5745
ette	-5746
illy	-5747
life	-5748
▁developed	-5749
▁Swan	-5750
▁Elizabeth	-5751
▁essay	-5752
▁supposed	-5753
▁legend	-5754
▁Bayern	-5755
▁deputy	-5756
▁Fort	-5757
▁Scient	-5758
▁potentially	-5759
▁announcement	-5760
▁devote	-5761
▁truly	-5762
ivity	-5763
▁Lit	-5764
▁Marc	-5765
ointed	-5766
▁Conserv	-5767
iscal	-5768
▁daily	-5769
▁flow	-5770
▁Trust	-5771
ternal	-5772
▁nations	-5773
▁bask	-5774
▁Institute	-5775
azi	-5776
▁Because	-5777
▁Coll	-5778
kin	-5779
▁offences	-5780
▁Greg	-5781
arrass	-5782
▁ticket	-5783
▁Us	-5784
▁absolutely	-5785
▁shark	-5786
▁split	-5787
▁prosecutor	-5788
alition	-5789
▁increased	-5790
hered	-5791
▁Anderson	-5792
▁Democratic	-5793
ompl	-5794
acent	-5795
▁terrorism	-5796
▁memorial	-5797
▁river	-5798
▁alt	-5799
ban	-5800
▁serving	-5801
▁presence	-5802
▁indicate	-5803
oses	-5804
▁fart	-5805
bell	-5806
bro	-5807
ctions	-5808
▁du	-5809
▁identity	-5810
▁speaking	-5811
▁Six	-5812
▁Bus	-5813
ospitals	-5814
▁panel	-5815
▁picked	-5816
▁dozens	-5817
▁mental	-5818
▁drag	-5819
▁required	-5820
▁motiv	-5821
▁gift	-5822
rivals	-5823
▁shocked	-5824
father	-5825
▁stores	-5826
cribe	-5827
list	-5828
ential	-5829
▁desper	-5830
▁innoc	-5831
▁parliament	-5832
▁Manhatt	-5833
rep	-5834
▁Gh	-5835
▁initial	-5836
▁Defense	-5837
▁strain	-5838
▁option	-5839
▁Francisco	-5840
▁Clark	-5841
▁incidents	-5842
▁seeking	-5843
▁fighters	-5844
▁divorce	-5845
amin	-5846
▁Luis	-5847
▁disaster	-5848
▁satis	-5849
▁56	-5850
▁semi	-5851
▁advoc	-5852
▁models	-5853
▁metal	-5854
▁NFL	-5855
▁Officers	-5856
▁Ten	-5857
adow	-5858
▁Cook	-5859
▁younger	-5860
▁governor	-5861
▁Saf	-5862
eced	-5863
▁Evans	-5864
▁cup	-5865
▁Wenger	-5866
▁Saudi	-5867
▁aband	-5868
uchess	-5869
▁lie	-5870
▁recollect	-5871
▁Phill	-5872
aken	-5873
▁domestic	-5874
▁amazing	-5875
▁generation	-5876
olic	-5877
▁deploy	-5878
empts	-5879
▁houses	-5880
▁tort	-5881
▁Olympics	-5882
west	-5883
▁designer	-5884
▁funding	-5885
▁letters	-5886
▁physical	-5887
▁Manhattan	-5888
▁Kr	-5889
▁Mayor	-5890
▁submit	-5891
ommod	-5892
▁Cru	-5893
▁knows	-5894
▁facilitate	-5895
▁Town	-5896
▁independent	-5897
▁knee	-5898
▁hall	-5899
▁housing	-5900
▁worry	-5901
▁unus	-5902
▁colour	-5903
▁complaints	-5904
▁Pers	-5905
▁preserve	-5906
▁Who	-5907
▁Pan	-5908
bo	-5909
▁bin	-5910
▁Snow	-5911
bing	-5912
▁Lanc	-5913
▁trig	-5914
▁farther	-5915
▁parent	-5916
▁weigh	-5917
▁slip	-5918
▁prosecution	-5919
▁Commun	-5920
▁Sterling	-5921
▁policies	-5922
▁Gun	-5923
ni	-5924
▁gre	-5925
▁guess	-5926
▁funds	-5927
ronic	-5928
▁grown	-5929
▁resort	-5930
ulated	-5931
▁Gallic	-5932
achus	-5933
▁mate	-5934
▁Henry	-5935
▁lights	-5936
▁goodness	-5937
▁cells	-5938
▁surveillance	-5939
iform	-5940
▁fault	-5941
▁musc	-5942
▁sup	-5943
▁seriously	-5944
▁Rodgers	-5945
▁Beij	-5946
▁accommod	-5947
rah	-5948
▁promise	-5949
▁egg	-5950
▁overt	-5951
▁behavior	-5952
▁Up	-5953
▁nort	-5954
▁myster	-5955
▁sorry	-5956
▁Ball	-5957
charge	-5958
OR	-5959
▁finished	-5960
wan	-5961
mail	-5962
mosp	-5963
gl	-5964
▁porn	-5965
▁Art	-5966
▁consort	-5967
▁totally	-5968
▁je	-5969
▁neglect	-5970
▁Cra	-5971
▁excuse	-5972
▁Beijing	-5973
▁Buck	-5974
▁Ross	-5975
▁goalkeeper	-5976
▁pitched	-5977
▁remained	-5978
▁anteced	-5979
▁parking	-5980
▁CCTV	-5981
ancing	-5982
▁skills	-5983
▁frustr	-5984
▁dollars	-5985
▁extrem	-5986
enth	-5987
ifer	-5988
achusetts	-5989
iable	-5990
▁spring	-5991
▁Brian	-5992
▁concent	-5993
▁knowledge	-5994
▁intimately	-5995
▁couples	-5996
▁antecedently	-5997
▁Men	-5998
▁client	-5999
▁inquiry	-6000
▁Massachusetts	-6001
olen	-6002
itary	-6003
eme	-6004
▁Jess	-6005
▁equal	-6006
▁plead	-6007
▁crucial	-6008
▁determined	-6009
▁cig	-6010
▁lands	-6011
▁teachers	-6012
▁edge	-6013
▁owned	-6014
▁height	-6015
▁Swed	-6016
▁pocket	-6017
▁Mexican	-6018
▁Ian	-6019
▁Barb	-6020
▁Hou	-6021
▁Jac	-6022
▁possess	-6023
▁possibility	-6024
▁route	-6025
▁plain	-6026
▁Milib	-6027
▁joint	-6028
opher	-6029
▁retire	-6030
▁decent	-6031
▁tourists	-6032
▁section	-6033
▁Michelle	-6034
▁Team	-6035
▁slight	-6036
▁chances	-6037
▁investigate	-6038
▁recorded	-6039
▁humans	-6040
▁fiscal	-6041
▁refuse	-6042
▁max	-6043
▁uses	-6044
▁Channel	-6045
rous	-6046
▁chain	-6047
▁Abu	-6048
▁Somal	-6049
▁Follow	-6050
▁mothers	-6051
▁retain	-6052
▁cards	-6053
▁Const	-6054
▁bathroom	-6055
▁bull	-6056
▁collapse	-6057
▁science	-6058
▁Leicester	-6059
▁dispute	-6060
▁smile	-6061
iro	-6062
▁mostly	-6063
▁Duchess	-6064
▁schedule	-6065
▁spl	-6066
▁Foundation	-6067
▁mal	-6068
▁Cat	-6069
▁consequ	-6070
illing	-6071
ections	-6072
▁Mu	-6073
rees	-6074
▁attain	-6075
▁viewers	-6076
▁Once	-6077
▁wee	-6078
▁journalist	-6079
▁deny	-6080
▁waste	-6081
▁meat	-6082
▁Parliament	-6083
▁cock	-6084
▁Exper	-6085
win	-6086
▁legislation	-6087
▁vice	-6088
▁loose	-6089
▁tears	-6090
fe	-6091
▁roughly	-6092
▁learned	-6093
osis	-6094
▁Moscow	-6095
▁Cab	-6096
▁stands	-6097
▁1980	-6098
▁likes	-6099
▁Colomb	-6100
▁misc	-6101
▁deadly	-6102
ugby	-6103
uster	-6104
▁royal	-6105
▁trace	-6106
▁flo	-6107
▁lift	-6108
▁accomp	-6109
▁Andre	-6110
▁worse	-6111
▁attempts	-6112
▁worldwide	-6113
▁imagine	-6114
▁scheduled	-6115
lvan	-6116
▁empt	-6117
▁Sunder	-6118
▁Hun	-6119
▁Max	-6120
▁Canad	-6121
▁verdict	-6122
▁choke	-6123
▁ine	-6124
▁external	-6125
▁Ut	-6126
▁string	-6127
AT	-6128
▁indict	-6129
▁Hotel	-6130
▁sear	-6131
▁approximately	-6132
acked	-6133
▁decisions	-6134
▁films	-6135
▁Sher	-6136
▁didnt	-6137
▁Public	-6138
▁Nat	-6139
awn	-6140
▁Las	-6141
itzer	-6142
▁bound	-6143
▁switch	-6144
▁compar	-6145
▁Mand	-6146
▁outrage	-6147
▁rich	-6148
▁Hull	-6149
▁Officials	-6150
▁cocaine	-6151
▁nose	-6152
▁overall	-6153
▁plus	-6154
▁occasion	-6155
▁reflect	-6156
▁57	-6157
▁northern	-6158
illed	-6159
▁chosen	-6160
▁alarm	-6161
▁landing	-6162
▁Josh	-6163
▁taxp	-6164
sylvan	-6165
▁ho	-6166
▁Patrick	-6167
urate	-6168
▁recount	-6169
▁Bul	-6170
▁vulnerable	-6171
▁heads	-6172
▁gives	-6173
▁simple	-6174
▁Pennsylvan	-6175
▁moon	-6176
▁journalists	-6177
▁urg	-6178
▁drunk	-6179
▁analys	-6180
▁refuge	-6181
▁perhaps	-6182
▁pee	-6183
utation	-6184
▁Journal	-6185
▁conversation	-6186
quar	-6187
▁accompl	-6188
▁Mother	-6189
ader	-6190
▁Airlines	-6191
▁tomorrow	-6192
▁Nev	-6193
▁Asia	-6194
▁Terry	-6195
▁85	-6196
enses	-6197
▁unn	-6198
▁keen	-6199
▁inquire	-6200
owell	-6201
▁editor	-6202
▁undergo	-6203
▁waters	-6204
▁gym	-6205
▁isn	-6206
▁Sunderland	-6207
▁Pennsylvania	-6208
▁Jay	-6209
ifying	-6210
▁Joseph	-6211
▁personnel	-6212
▁map	-6213
▁lend	-6214
▁Khan	-6215
▁wine	-6216
▁pension	-6217
▁communities	-6218
▁recommend	-6219
town	-6220
▁construction	-6221
▁firstly	-6222
▁assess	-6223
▁pupils	-6224
▁Like	-6225
▁Dam	-6226
▁clothing	-6227
▁Rodr	-6228
▁interested	-6229
▁Scottish	-6230
▁Mat	-6231
▁trigger	-6232
▁nor	-6233
▁Sout	-6234
burgh	-6235
▁method	-6236
ita	-6237
▁tail	-6238
▁paying	-6239
▁Charlie	-6240
▁Princess	-6241
irm	-6242
▁Care	-6243
ko	-6244
▁infection	-6245
▁trees	-6246
▁enquire	-6247
asy	-6248
▁nar	-6249
▁prepared	-6250
▁64	-6251
▁Rose	-6252
▁dissim	-6253
▁breaking	-6254
▁dissimilar	-6255
▁700	-6256
▁hail	-6257
ira	-6258
▁Rick	-6259
▁bottle	-6260
▁profit	-6261
▁Sorry	-6262
▁metres	-6263
▁Tele	-6264
▁Jr	-6265
▁keeping	-6266
rard	-6267
iamond	-6268
▁Lady	-6269
▁suppl	-6270
▁Oscar	-6271
ether	-6272
▁taste	-6273
▁celebrity	-6274
▁investment	-6275
▁Id	-6276
▁limited	-6277
rawn	-6278
▁offers	-6279
▁elderly	-6280
▁Among	-6281
ihad	-6282
▁bridge	-6283
▁southern	-6284
▁alb	-6285
▁Ly	-6286
▁fatal	-6287
▁plastic	-6288
▁acts	-6289
▁Cross	-6290
▁Fre	-6291
▁Stan	-6292
iders	-6293
▁Indones	-6294
▁distance	-6295
▁adjacent	-6296
▁Fal	-6297
▁discrimin	-6298
▁responded	-6299
▁Alexander	-6300
eree	-6301
▁Hamp	-6302
▁conviction	-6303
ansas	-6304
▁tennis	-6305
▁USA	-6306
atern	-6307
▁prime	-6308
▁seats	-6309
estyle	-6310
▁uniform	-6311
ourse	-6312
▁atmosp	-6313
▁Mit	-6314
▁professor	-6315
▁Test	-6316
▁opinion	-6317
▁resolve	-6318
BA	-6319
▁Jes	-6320
▁bags	-6321
▁Friend	-6322
▁corpor	-6323
▁Bet	-6324
▁jack	-6325
▁Hor	-6326
itely	-6327
▁accus	-6328
▁organiz	-6329
▁Call	-6330
▁Valley	-6331
▁appearances	-6332
rise	-6333
▁Let	-6334
▁acqu	-6335
▁bru	-6336
han	-6337
▁basis	-6338
▁uncover	-6339
▁terminate	-6340
▁Earlier	-6341
▁lunch	-6342
▁scenes	-6343
▁distrib	-6344
▁reduce	-6345
▁ment	-6346
▁Hughes	-6347
▁veteran	-6348
▁testing	-6349
▁Top	-6350
▁fled	-6351
▁agencies	-6352
ST	-6353
▁household	-6354
elfare	-6355
▁Graham	-6356
▁Jason	-6357
▁ineff	-6358
▁alter	-6359
▁mountain	-6360
▁Miliband	-6361
▁surprised	-6362
▁Houston	-6363
▁Show	-6364
agger	-6365
izz	-6366
▁GOP	-6367
▁doors	-6368
eman	-6369
▁rooms	-6370
▁screw	-6371
▁Cooper	-6372
▁resources	-6373
lah	-6374
▁Bru	-6375
ordon	-6376
▁pink	-6377
anged	-6378
▁Christopher	-6379
▁retired	-6380
▁Wild	-6381
▁Ts	-6382
eland	-6383
▁Pict	-6384
▁options	-6385
ache	-6386
istics	-6387
▁angry	-6388
▁Swansea	-6389
unge	-6390
▁Jud	-6391
▁58	-6392
▁mates	-6393
omes	-6394
▁tend	-6395
▁Life	-6396
▁Mot	-6397
▁causes	-6398
uties	-6399
▁privacy	-6400
irts	-6401
▁Comp	-6402
▁Trafford	-6403
sighted	-6404
irates	-6405
▁plea	-6406
uls	-6407
▁coverage	-6408
oted	-6409
uated	-6410
▁brut	-6411
like	-6412
▁Irish	-6413
▁shift	-6414
▁meantime	-6415
▁stolen	-6416
istrates	-6417
▁inte	-6418
▁disorder	-6419
▁religious	-6420
▁prisoners	-6421
▁yours	-6422
▁promote	-6423
ria	-6424
▁conspir	-6425
▁Kir	-6426
▁193	-6427
▁writing	-6428
▁explosion	-6429
▁Prosecutors	-6430
▁toile	-6431
acle	-6432
▁allot	-6433
sts	-6434
▁Vegas	-6435
▁politicians	-6436
rob	-6437
▁locom	-6438
▁coin	-6439
▁Allen	-6440
etic	-6441
amber	-6442
▁prize	-6443
▁Boe	-6444
▁square	-6445
▁Sport	-6446
▁active	-6447
oster	-6448
coming	-6449
▁perpet	-6450
aus	-6451
agon	-6452
▁Abbott	-6453
▁interior	-6454
▁customer	-6455
cia	-6456
▁Laure	-6457
aks	-6458
▁climb	-6459
▁authority	-6460
▁Each	-6461
▁Michigan	-6462
▁medal	-6463
▁Tri	-6464
▁emp	-6465
▁discovery	-6466
▁shar	-6467
▁59	-6468
▁passion	-6469
▁passing	-6470
▁eminent	-6471
allas	-6472
▁gamy	-6473
itors	-6474
▁Week	-6475
▁Hernandez	-6476
▁Jane	-6477
▁inspired	-6478
bre	-6479
aden	-6480
imp	-6481
PD	-6482
▁swimming	-6483
▁id	-6484
▁Mars	-6485
▁platform	-6486
▁Philipp	-6487
▁purpose	-6488
▁revel	-6489
▁discipl	-6490
immer	-6491
IN	-6492
▁Ho	-6493
▁theft	-6494
▁Lo	-6495
▁Doctors	-6496
otic	-6497
▁unusual	-6498
arant	-6499
▁holl	-6500
▁km	-6501
wick	-6502
▁Canadian	-6503
▁mellow	-6504
▁Amaz	-6505
ining	-6506
lock	-6507
▁Turk	-6508
▁unse	-6509
IC	-6510
▁burgl	-6511
▁Santa	-6512
▁followers	-6513
hi	-6514
▁produced	-6515
▁jur	-6516
▁favourite	-6517
▁gamey	-6518
▁fee	-6519
▁gro	-6520
weight	-6521
kn	-6522
▁suspicion	-6523
gar	-6524
▁none	-6525
▁Anton	-6526
▁Crist	-6527
▁62	-6528
▁Francis	-6529
▁rivals	-6530
▁Lar	-6531
▁somew	-6532
ams	-6533
▁Rights	-6534
▁Muslims	-6535
urban	-6536
▁fundament	-6537
▁opinions	-6538
▁evac	-6539
▁boast	-6540
▁declined	-6541
ey	-6542
▁entered	-6543
▁Federal	-6544
▁maybe	-6545
▁pled	-6546
▁Duke	-6547
▁Craig	-6548
▁deport	-6549
▁Bell	-6550
▁belief	-6551
▁terrorists	-6552
▁fract	-6553
▁Str	-6554
eline	-6555
▁emotional	-6556
▁ped	-6557
▁roads	-6558
▁decline	-6559
SP	-6560
▁blank	-6561
▁hospitals	-6562
▁dozen	-6563
lay	-6564
▁symbol	-6565
▁lady	-6566
▁remote	-6567
▁Brazilian	-6568
▁bust	-6569
▁nice	-6570
▁Danny	-6571
▁stro	-6572
▁63	-6573
EA	-6574
owed	-6575
▁recon	-6576
▁encourage	-6577
▁joke	-6578
ouri	-6579
iguez	-6580
▁defendant	-6581
ishop	-6582
▁struggling	-6583
▁coffee	-6584
▁zone	-6585
▁permission	-6586
▁Leeds	-6587
▁remarks	-6588
ogue	-6589
▁Space	-6590
▁targeted	-6591
▁controversy	-6592
yr	-6593
▁worried	-6594
▁unh	-6595
▁Fil	-6596
▁beating	-6597
▁sac	-6598
▁headed	-6599
▁67	-6600
▁remaining	-6601
▁shoes	-6602
▁appl	-6603
▁fancy	-6604
▁frame	-6605
▁tatt	-6606
tha	-6607
adel	-6608
▁winds	-6609
▁euro	-6610
▁courts	-6611
stone	-6612
▁argument	-6613
▁pec	-6614
▁Jere	-6615
▁rifle	-6616
employ	-6617
▁territ	-6618
▁outbreak	-6619
▁Are	-6620
▁inch	-6621
▁additional	-6622
▁closely	-6623
▁banks	-6624
▁concord	-6625
▁differentiate	-6626
▁compensation	-6627
▁excited	-6628
ridge	-6629
▁noted	-6630
▁museum	-6631
▁challenges	-6632
▁Oxford	-6633
▁Moore	-6634
▁Turn	-6635
▁grounds	-6636
▁Rio	-6637
▁dating	-6638
orable	-6639
▁rebels	-6640
istor	-6641
▁Ashley	-6642
▁expire	-6643
▁considerably	-6644
lers	-6645
stein	-6646
▁Rodriguez	-6647
▁tickets	-6648
▁arrival	-6649
echan	-6650
ila	-6651
▁tank	-6652
▁telephone	-6653
▁bills	-6654
▁latter	-6655
▁Phot	-6656
▁Stoke	-6657
▁1970	-6658
road	-6659
▁falling	-6660
▁Square	-6661
▁Bang	-6662
▁Nas	-6663
▁astr	-6664
▁whatever	-6665
▁reading	-6666
▁exhaust	-6667
▁offering	-6668
▁911	-6669
usc	-6670
▁wave	-6671
▁jew	-6672
▁Hear	-6673
▁Essex	-6674
erved	-6675
▁Japanese	-6676
▁Jonathan	-6677
▁receiving	-6678
ked	-6679
▁mel	-6680
market	-6681
▁unique	-6682
▁wid	-6683
assador	-6684
▁explo	-6685
▁locomote	-6686
▁questioned	-6687
▁tun	-6688
▁returning	-6689
▁raid	-6690
▁wreck	-6691
odge	-6692
▁Sud	-6693
▁surviv	-6694
▁medic	-6695
▁reputation	-6696
▁Organ	-6697
leg	-6698
▁declared	-6699
▁allowing	-6700
▁procedure	-6701
▁pregnancy	-6702
▁setting	-6703
▁Love	-6704
▁bike	-6705
othe	-6706
▁Rel	-6707
▁autom	-6708
▁solid	-6709
▁embarrass	-6710
child	-6711
▁empty	-6712
iations	-6713
▁UN	-6714
▁comfortably	-6715
respond	-6716
▁expose	-6717
▁crashed	-6718
▁unbel	-6719
elson	-6720
▁robbery	-6721
▁Campbell	-6722
▁jazz	-6723
▁statements	-6724
▁completed	-6725
▁tradition	-6726
▁thoughts	-6727
▁substantially	-6728
▁routine	-6729
idd	-6730
▁Edward	-6731
aska	-6732
load	-6733
▁lung	-6734
▁Bab	-6735
▁distaff	-6736
▁pursue	-6737
▁Fel	-6738
▁chat	-6739
▁Cardiff	-6740
▁tolerate	-6741
▁incredible	-6742
aser	-6743
rett	-6744
▁Wright	-6745
▁harass	-6746
▁prin	-6747
▁vent	-6748
tar	-6749
▁perish	-6750
▁Vill	-6751
▁silver	-6752
chell	-6753
▁tact	-6754
▁tempor	-6755
▁activists	-6756
ellor	-6757
▁critics	-6758
▁possibly	-6759
▁Sum	-6760
▁Nob	-6761
▁album	-6762
▁recite	-6763
▁quiet	-6764
▁alert	-6765
▁badly	-6766
▁66	-6767
▁Balot	-6768
▁Crime	-6769
wall	-6770
▁Arch	-6771
itting	-6772
▁properly	-6773
onom	-6774
emen	-6775
▁lover	-6776
ogether	-6777
▁Li	-6778
lines	-6779
▁overw	-6780
▁candidates	-6781
▁Pakistani	-6782
▁fulf	-6783
▁leaves	-6784
▁Gordon	-6785
▁Stand	-6786
▁mask	-6787
▁adequ	-6788
▁shell	-6789
▁Aff	-6790
▁liter	-6791
borne	-6792
oli	-6793
▁Laur	-6794
▁Leon	-6795
gio	-6796
▁busy	-6797
▁urged	-6798
▁Oper	-6799
▁Malays	-6800
▁lion	-6801
▁beaten	-6802
▁interpret	-6803
▁pattern	-6804
▁atmosphere	-6805
known	-6806
▁substantial	-6807
▁perman	-6808
▁shoulder	-6809
▁web	-6810
▁dwell	-6811
ords	-6812
▁Cel	-6813
▁rushed	-6814
▁breach	-6815
▁targets	-6816
▁guys	-6817
▁Walker	-6818
aming	-6819
▁Catholic	-6820
▁weak	-6821
▁adjud	-6822
ureau	-6823
▁civilians	-6824
▁stood	-6825
▁rig	-6826
vant	-6827
▁direction	-6828
▁spoken	-6829
▁Land	-6830
▁Thomp	-6831
▁Arm	-6832
▁sets	-6833
▁everybody	-6834
▁spons	-6835
▁Oklah	-6836
▁Scientists	-6837
worthy	-6838
▁fitness	-6839
▁flash	-6840
▁fright	-6841
▁72	-6842
▁sending	-6843
▁affiliate	-6844
▁halt	-6845
▁1999	-6846
▁Jamie	-6847
▁Bry	-6848
▁welfare	-6849
▁drove	-6850
▁Pass	-6851
▁Balotelli	-6852
▁unbeliev	-6853
▁Whe	-6854
igate	-6855
ye	-6856
icks	-6857
▁Girl	-6858
▁Yes	-6859
▁friendly	-6860
▁generate	-6861
▁Munich	-6862
ports	-6863
▁wounds	-6864
boy	-6865
▁Mah	-6866
▁Robin	-6867
▁Hodg	-6868
ibr	-6869
▁somebody	-6870
mble	-6871
arch	-6872
▁deserving	-6873
▁Radio	-6874
▁severalize	-6875
▁Here	-6876
▁transl	-6877
▁conk	-6878
▁hump	-6879
▁disappearance	-6880
▁satell	-6881
▁principal	-6882
▁Spec	-6883
▁Nad	-6884
▁teeth	-6885
▁narrate	-6886
▁croak	-6887
▁studies	-6888
▁Five	-6889
▁ing	-6890
ancer	-6891
▁Christie	-6892
▁tip	-6893
▁Dallas	-6894
▁Watson	-6895
▁turning	-6896
▁Sk	-6897
▁enth	-6898
▁Bull	-6899
person	-6900
▁battery	-6901
▁Kl	-6902
▁Pope	-6903
▁Instead	-6904
arents	-6905
▁clock	-6906
▁tells	-6907
▁offence	-6908
eding	-6909
▁hide	-6910
▁Museum	-6911
▁software	-6912
▁Investigators	-6913
acks	-6914
▁Gen	-6915
IP	-6916
▁survived	-6917
▁symp	-6918
▁68	-6919
▁Ker	-6920
▁kiss	-6921
▁damaged	-6922
▁Resear	-6923
raged	-6924
▁rein	-6925
▁AC	-6926
▁Jean	-6927
uliar	-6928
acity	-6929
▁involving	-6930
▁warrant	-6931
▁Lyn	-6932
▁unless	-6933
▁eleph	-6934
rence	-6935
▁gif	-6936
▁Ha	-6937
▁QPR	-6938
▁Nigeria	-6939
▁Woods	-6940
▁secernate	-6941
▁Gov	-6942
▁Cry	-6943
▁intention	-6944
▁Oklahoma	-6945
▁kidnapp	-6946
▁tiny	-6947
▁revolution	-6948
olas	-6949
fire	-6950
▁Rh	-6951
▁code	-6952
▁conspiracy	-6953
▁intent	-6954
▁corruption	-6955
gun	-6956
▁peculiar	-6957
▁Gulf	-6958
▁lease	-6959
▁tea	-6960
▁failing	-6961
▁tur	-6962
▁pig	-6963
▁toy	-6964
idden	-6965
▁Ferr	-6966
▁effectual	-6967
▁Reb	-6968
▁buck	-6969
ipping	-6970
▁Bristol	-6971
▁McI	-6972
ategy	-6973
▁changing	-6974
▁condemn	-6975
▁strategy	-6976
▁Thompson	-6977
mers	-6978
era	-6979
▁bench	-6980
▁behalf	-6981
▁Gerrard	-6982
▁episode	-6983
▁filmed	-6984
▁basket	-6985
▁saved	-6986
▁harmonize	-6987
icking	-6988
▁pound	-6989
▁deliber	-6990
brit	-6991
gests	-6992
▁Peters	-6993
▁consumers	-6994
oppers	-6995
▁heavily	-6996
▁tag	-6997
▁dish	-6998
▁unac	-6999
▁Insp	-7000
urd	-7001
▁severalise	-7002
▁reward	-7003
▁McL	-7004
▁guarant	-7005
▁ancient	-7006
▁birds	-7007
▁Est	-7008
▁Local	-7009
ulous	-7010
ivery	-7011
▁decease	-7012
▁scan	-7013
▁regain	-7014
▁snap	-7015
ocolate	-7016
rete	-7017
▁Nich	-7018
▁Stew	-7019
▁filled	-7020
ima	-7021
brities	-7022
▁Little	-7023
▁Dun	-7024
▁asp	-7025
▁harmonise	-7026
▁prec	-7027
▁solar	-7028
▁unemploy	-7029
▁Second	-7030
▁categ	-7031
▁balance	-7032
▁immigrants	-7033
▁glad	-7034
▁meal	-7035
▁learning	-7036
▁Bas	-7037
▁compensate	-7038
▁suggests	-7039
▁grav	-7040
▁contacted	-7041
▁Assad	-7042
▁lying	-7043
▁anticipate	-7044
▁relief	-7045
▁milk	-7046
ardo	-7047
inez	-7048
▁tap	-7049
▁patrol	-7050
▁campus	-7051
agan	-7052
▁dressed	-7053
ears	-7054
▁vital	-7055
fy	-7056
mouth	-7057
▁lifestyle	-7058
▁reserve	-7059
▁furn	-7060
▁lucky	-7061
▁org	-7062
oles	-7063
▁Time	-7064
astern	-7065
▁willing	-7066
▁reporter	-7067
▁Glob	-7068
▁derive	-7069
aying	-7070
▁Wimb	-7071
phia	-7072
▁corrupt	-7073
▁championship	-7074
▁collaps	-7075
ci	-7076
▁commentary	-7077
▁involvement	-7078
abled	-7079
▁Services	-7080
▁relax	-7081
▁adjudicate	-7082
▁digital	-7083
▁originally	-7084
▁Tech	-7085
▁risks	-7086
AF	-7087
▁driven	-7088
▁wouldn	-7089
▁era	-7090
appy	-7091
▁Qat	-7092
hend	-7093
▁unknown	-7094
▁arrests	-7095
▁Ple	-7096
▁fold	-7097
rome	-7098
▁Aston	-7099
▁Pacific	-7100
▁introduced	-7101
▁assistance	-7102
▁wounded	-7103
▁Atle	-7104
▁operating	-7105
fast	-7106
▁Philadel	-7107
usion	-7108
▁mechan	-7109
▁spr	-7110
▁Pot	-7111
▁Atlantic	-7112
ested	-7113
▁Missouri	-7114
▁Gib	-7115
iac	-7116
▁pushed	-7117
▁propose	-7118
▁orders	-7119
▁Mitchell	-7120
▁sque	-7121
▁execute	-7122
▁Director	-7123
▁interests	-7124
▁entrust	-7125
▁61	-7126
ishing	-7127
▁volunteer	-7128
▁smugg	-7129
▁yellow	-7130
▁transform	-7131
▁Tai	-7132
▁gap	-7133
▁Philadelphia	-7134
esty	-7135
oration	-7136
▁rocket	-7137
▁Sn	-7138
▁Fair	-7139
▁probable	-7140
▁proposal	-7141
▁vacc	-7142
▁fence	-7143
▁CIA	-7144
tico	-7145
seas	-7146
athon	-7147
TO	-7148
▁batt	-7149
▁democratic	-7150
▁Mario	-7151
▁Marine	-7152
▁Wimbled	-7153
▁wins	-7154
▁77	-7155
▁nail	-7156
▁Common	-7157
▁teenagers	-7158
▁Rub	-7159
▁Supp	-7160
▁destroyed	-7161
uan	-7162
▁talent	-7163
owe	-7164
▁Brooklyn	-7165
▁Hampshire	-7166
▁consume	-7167
▁solution	-7168
▁spokesperson	-7169
▁crop	-7170
▁yourself	-7171
▁reun	-7172
▁apology	-7173
▁larger	-7174
ancellor	-7175
wardly	-7176
▁expand	-7177
atherine	-7178
mo	-7179
▁Gab	-7180
▁documentary	-7181
▁correspond	-7182
▁Turkish	-7183
▁judges	-7184
▁NY	-7185
▁Neil	-7186
▁presenter	-7187
▁Hillary	-7188
ishes	-7189
▁Jennifer	-7190
iration	-7191
▁Martinez	-7192
▁feels	-7193
aun	-7194
▁planes	-7195
▁Justin	-7196
▁strikes	-7197
▁Wimbledon	-7198
▁unfold	-7199
▁95	-7200
aya	-7201
▁Hy	-7202
ema	-7203
▁LA	-7204
▁Dor	-7205
▁acting	-7206
▁marry	-7207
▁Dave	-7208
▁embr	-7209
▁Yet	-7210
▁contrive	-7211
▁Only	-7212
▁anonym	-7213
▁enjoyed	-7214
▁bringing	-7215
▁Hom	-7216
▁Atletico	-7217
▁notes	-7218
▁yards	-7219
▁Water	-7220
▁McDonald	-7221
▁petition	-7222
▁Researchers	-7223
▁Yemen	-7224
▁Palestinian	-7225
aron	-7226
▁understood	-7227
▁specialist	-7228
RA	-7229
▁fiance	-7230
hem	-7231
▁torn	-7232
▁escort	-7233
▁Brend	-7234
▁payments	-7235
▁programs	-7236
▁sheriff	-7237
▁calculate	-7238
▁hate	-7239
areness	-7240
idelines	-7241
▁canc	-7242
▁Perry	-7243
▁Dj	-7244
▁properties	-7245
▁backed	-7246
▁types	-7247
▁hunt	-7248
▁Brand	-7249
olitan	-7250
▁intr	-7251
▁uncom	-7252
▁Jessica	-7253
bled	-7254
▁deeply	-7255
▁bestow	-7256
▁congress	-7257
▁Brom	-7258
born	-7259
ito	-7260
anes	-7261
▁scores	-7262
▁highlight	-7263
▁fuck	-7264
▁lad	-7265
▁allows	-7266
▁assay	-7267
▁advantageously	-7268
▁stream	-7269
▁Philip	-7270
tiary	-7271
▁greater	-7272
▁recovered	-7273
▁tertiary	-7274
IV	-7275
▁festival	-7276
▁rom	-7277
erous	-7278
▁facilities	-7279
▁Academy	-7280
▁Administr	-7281
▁retiring	-7282
▁tex	-7283
▁drinks	-7284
▁Luke	-7285
▁mansion	-7286
▁1998	-7287
▁Jimmy	-7288
▁Whit	-7289
▁Ib	-7290
▁Jeremy	-7291
▁Davies	-7292
emic	-7293
asingly	-7294
▁detain	-7295
▁depression	-7296
▁Transport	-7297
▁iconic	-7298
▁Portugal	-7299
▁tor	-7300
▁bonk	-7301
▁institutional	-7302
▁grandfather	-7303
ingham	-7304
greg	-7305
▁Raf	-7306
▁od	-7307
nic	-7308
▁Food	-7309
▁largely	-7310
▁waves	-7311
▁Brother	-7312
▁sequ	-7313
▁191	-7314
care	-7315
heast	-7316
▁Marsh	-7317
omic	-7318
▁punishment	-7319
▁sink	-7320
▁economical	-7321
▁neighbours	-7322
▁Cop	-7323
▁rehab	-7324
ha	-7325
▁structure	-7326
▁Pear	-7327
▁scre	-7328
arre	-7329
▁Stewart	-7330
▁recede	-7331
▁pip	-7332
isers	-7333
▁dry	-7334
imony	-7335
▁cant	-7336
▁ocean	-7337
▁strip	-7338
▁firms	-7339
▁holds	-7340
▁wreak	-7341
▁bombing	-7342
▁unexp	-7343
▁Ocean	-7344
▁referee	-7345
▁Hunt	-7346
▁travelling	-7347
▁jihad	-7348
▁rural	-7349
antic	-7350
▁eru	-7351
olved	-7352
▁tall	-7353
apped	-7354
▁tackle	-7355
enez	-7356
▁Bruce	-7357
▁dump	-7358
▁Lt	-7359
achel	-7360
▁cous	-7361
▁Greece	-7362
▁sparked	-7363
▁Society	-7364
▁windows	-7365
▁Sub	-7366
mann	-7367
▁surrounding	-7368
▁Has	-7369
▁plays	-7370
▁casual	-7371
▁Connect	-7372
▁Gaza	-7373
▁dism	-7374
▁grew	-7375
TA	-7376
raid	-7377
▁ce	-7378
armed	-7379
▁tape	-7380
▁Libya	-7381
▁bullet	-7382
▁Yesterday	-7383
▁ongoing	-7384
▁Az	-7385
▁crown	-7386
▁Belgium	-7387
▁actual	-7388
▁sanctions	-7389
ogan	-7390
▁stake	-7391
▁Hold	-7392
▁Roll	-7393
ideo	-7394
▁vessel	-7395
essions	-7396
▁Amazon	-7397
orous	-7398
▁brib	-7399
▁practically	-7400
▁Elect	-7401
▁smoking	-7402
▁Lisa	-7403
▁Wind	-7404
▁providing	-7405
▁transmit	-7406
▁noticed	-7407
burn	-7408
▁CBS	-7409
▁Roger	-7410
▁argued	-7411
▁Carter	-7412
rehens	-7413
uay	-7414
▁remov	-7415
▁coalition	-7416
▁adequate	-7417
lem	-7418
▁constitute	-7419
▁unbelievable	-7420
▁Glas	-7421
▁Kerry	-7422
annah	-7423
alling	-7424
▁Garcia	-7425
▁Fernand	-7426
▁experienced	-7427
▁sisters	-7428
▁hell	-7429
▁eastern	-7430
▁Edin	-7431
▁tragic	-7432
▁Mohammed	-7433
▁fees	-7434
▁Columb	-7435
▁pump	-7436
▁fro	-7437
▁walls	-7438
vin	-7439
▁Experts	-7440
▁stabbed	-7441
inois	-7442
▁ministers	-7443
▁king	-7444
▁Merced	-7445
▁Ow	-7446
ibl	-7447
▁monit	-7448
ais	-7449
▁located	-7450
▁dub	-7451
▁bombs	-7452
▁pace	-7453
▁ok	-7454
▁Rangers	-7455
▁brill	-7456
acular	-7457
▁vision	-7458
▁Disney	-7459
▁minimum	-7460
▁seed	-7461
▁demonstrate	-7462
▁print	-7463
▁temperature	-7464
▁interact	-7465
▁oblig	-7466
▁struggled	-7467
▁Officer	-7468
▁discharge	-7469
▁Marg	-7470
▁poison	-7471
▁fallen	-7472
▁fake	-7473
▁pleased	-7474
▁increasingly	-7475
▁PM	-7476
▁drama	-7477
▁Crystal	-7478
▁fruit	-7479
▁Lane	-7480
▁Pen	-7481
orders	-7482
▁stuck	-7483
▁Friends	-7484
▁Stu	-7485
quarters	-7486
▁diver	-7487
▁Iraqi	-7488
ja	-7489
▁ju	-7490
▁earthqu	-7491
▁celebrities	-7492
laim	-7493
▁quit	-7494
▁reass	-7495
▁reject	-7496
▁Broad	-7497
▁AT	-7498
▁firefighters	-7499
▁Laura	-7500
▁Russell	-7501
▁plants	-7502
▁Cos	-7503
▁Illinois	-7504
▁Clar	-7505
▁Deputy	-7506
▁bone	-7507
▁ski	-7508
▁veget	-7509
▁execution	-7510
▁shelter	-7511
anchez	-7512
CC	-7513
▁ge	-7514
ois	-7515
▁forever	-7516
▁grass	-7517
aven	-7518
▁Sanchez	-7519
▁analysis	-7520
▁Moy	-7521
▁performed	-7522
▁abroad	-7523
tell	-7524
▁Hu	-7525
▁Rev	-7526
oln	-7527
dale	-7528
▁shore	-7529
▁burst	-7530
▁wore	-7531
▁69	-7532
uddle	-7533
▁Read	-7534
▁exhibit	-7535
▁distress	-7536
aco	-7537
▁Switzer	-7538
▁Seattle	-7539
iga	-7540
▁accepted	-7541
▁visiting	-7542
▁73	-7543
▁Major	-7544
▁racing	-7545
▁awareness	-7546
aval	-7547
iddle	-7548
▁beer	-7549
▁Stone	-7550
▁constantly	-7551
odes	-7552
▁trained	-7553
yer	-7554
▁obviously	-7555
▁Mercedes	-7556
▁sweet	-7557
▁narrow	-7558
irty	-7559
ologists	-7560
▁74	-7561
▁prominent	-7562
▁formerly	-7563
gow	-7564
▁Was	-7565
▁historic	-7566
▁featured	-7567
▁intended	-7568
▁Nig	-7569
▁Educ	-7570
▁offensive	-7571
▁widely	-7572
▁radical	-7573
▁isol	-7574
▁clinic	-7575
▁Exp	-7576
▁nick	-7577
▁innov	-7578
▁ultimately	-7579
▁honour	-7580
▁Alab	-7581
▁overwhel	-7582
▁creating	-7583
▁brown	-7584
zen	-7585
▁Linc	-7586
▁fighter	-7587
igned	-7588
itable	-7589
▁Switzerland	-7590
letes	-7591
▁Deb	-7592
▁Sean	-7593
▁verbalize	-7594
▁consequences	-7595
ration	-7596
▁complained	-7597
icut	-7598
▁McK	-7599
▁fer	-7600
▁sett	-7601
▁papers	-7602
▁oft	-7603
▁posts	-7604
▁bigger	-7605
ikh	-7606
▁NASA	-7607
▁opportunities	-7608
oyd	-7609
▁incor	-7610
acters	-7611
ashing	-7612
▁alien	-7613
▁childhood	-7614
▁thro	-7615
ighton	-7616
orough	-7617
▁unlikely	-7618
▁rally	-7619
▁clim	-7620
▁Clegg	-7621
mad	-7622
iter	-7623
▁priority	-7624
▁shops	-7625
hib	-7626
ici	-7627
▁blind	-7628
▁Dubai	-7629
▁dramatic	-7630
▁chef	-7631
▁terrif	-7632
▁cos	-7633
▁Social	-7634
▁exclusive	-7635
▁detectives	-7636
▁terrible	-7637
▁caps	-7638
ders	-7639
▁proved	-7640
pa	-7641
▁78	-7642
▁Sheff	-7643
▁powers	-7644
▁Utah	-7645
▁advent	-7646
▁joy	-7647
ros	-7648
▁ties	-7649
▁imply	-7650
▁Though	-7651
▁killings	-7652
▁sentencing	-7653
▁multi	-7654
▁undert	-7655
▁taxi	-7656
▁Zimmer	-7657
▁fought	-7658
ught	-7659
▁recre	-7660
▁Father	-7661
▁Albert	-7662
▁finals	-7663
▁county	-7664
▁unite	-7665
LL	-7666
▁understanding	-7667
▁rejected	-7668
▁chocolate	-7669
▁Gill	-7670
ora	-7671
▁hire	-7672
▁Had	-7673
dad	-7674
▁sought	-7675
lan	-7676
▁Jen	-7677
▁commitment	-7678
▁About	-7679
▁sympath	-7680
▁mos	-7681
maker	-7682
▁drone	-7683
▁rising	-7684
▁capacity	-7685
▁Connecticut	-7686
▁locations	-7687
▁immense	-7688
▁Cas	-7689
▁Sheffield	-7690
▁label	-7691
ateful	-7692
▁Shaw	-7693
▁toilet	-7694
▁titles	-7695
▁imper	-7696
▁Taiwan	-7697
▁calm	-7698
▁emph	-7699
▁landed	-7700
▁characters	-7701
▁Ric	-7702
pate	-7703
▁assert	-7704
athered	-7705
minster	-7706
▁Hodgson	-7707
▁normally	-7708
▁ordeal	-7709
▁branch	-7710
▁Nap	-7711
▁application	-7712
istle	-7713
overty	-7714
ossible	-7715
▁mine	-7716
▁murdered	-7717
▁creditworthy	-7718
▁envision	-7719
▁Swiss	-7720
▁pleas	-7721
▁anx	-7722
▁Glasgow	-7723
▁Thail	-7724
▁120	-7725
▁Juan	-7726
▁tonight	-7727
▁Lincoln	-7728
▁Enter	-7729
▁sized	-7730
▁unman	-7731
ching	-7732
▁Trib	-7733
▁celebrates	-7734
▁Nov	-7735
▁verbalise	-7736
▁tourist	-7737
▁innocent	-7738
▁thrown	-7739
▁Commons	-7740
▁occasions	-7741
▁Board	-7742
▁fundamental	-7743
▁teenage	-7744
▁Power	-7745
▁delivery	-7746
▁ward	-7747
▁conducted	-7748
idays	-7749
OW	-7750
▁Aaron	-7751
▁Leg	-7752
▁Head	-7753
▁flowers	-7754
▁Also	-7755
▁archit	-7756
▁Thailand	-7757
▁mut	-7758
allow	-7759
▁moves	-7760
▁proposed	-7761
nam	-7762
ortunately	-7763
▁Robinson	-7764
▁Ward	-7765
▁buying	-7766
▁Dur	-7767
▁bik	-7768
gment	-7769
▁1997	-7770
▁settlement	-7771
▁labour	-7772
▁tracks	-7773
DA	-7774
▁hug	-7775
▁controlled	-7776
▁cy	-7777
▁Ap	-7778
▁rush	-7779
▁probe	-7780
▁dispatch	-7781
▁dust	-7782
▁blaze	-7783
▁Alabama	-7784
▁governments	-7785
ooth	-7786
▁taxes	-7787
▁Ale	-7788
▁Lion	-7789
lad	-7790
isk	-7791
▁micro	-7792
water	-7793
▁clients	-7794
▁Emer	-7795
▁foretell	-7796
▁beque	-7797
say	-7798
▁accuse	-7799
eller	-7800
▁Pent	-7801
acking	-7802
▁marks	-7803
andy	-7804
▁ast	-7805
▁probation	-7806
▁aboard	-7807
▁votes	-7808
▁abandoned	-7809
▁cricket	-7810
▁Int	-7811
▁Blair	-7812
▁devastated	-7813
▁ster	-7814
▁Heath	-7815
orses	-7816
▁Hur	-7817
▁goods	-7818
▁wire	-7819
sight	-7820
▁Sudan	-7821
obs	-7822
▁afraid	-7823
▁headquarters	-7824
▁cleared	-7825
▁implement	-7826
onz	-7827
▁cha	-7828
▁rapid	-7829
▁package	-7830
vet	-7831
obby	-7832
▁Notting	-7833
▁Hal	-7834
▁bat	-7835
▁Howard	-7836
lude	-7837
▁Agu	-7838
▁clip	-7839
ycle	-7840
▁convert	-7841
▁consec	-7842
MA	-7843
▁color	-7844
▁Ukrain	-7845
▁trem	-7846
ibe	-7847
▁skull	-7848
▁sector	-7849
▁forest	-7850
▁closer	-7851
▁outfit	-7852
▁Tar	-7853
▁Derby	-7854
▁Hawai	-7855
▁rugby	-7856
▁iPad	-7857
▁Thanks	-7858
▁earned	-7859
▁dict	-7860
▁testify	-7861
▁entrance	-7862
▁carbon	-7863
▁delivered	-7864
▁winners	-7865
▁transpl	-7866
anim	-7867
▁hyp	-7868
▁entry	-7869
▁visualize	-7870
▁specially	-7871
▁plunge	-7872
▁bequeath	-7873
▁exposed	-7874
▁ram	-7875
▁testimony	-7876
gt	-7877
▁abide	-7878
▁naked	-7879
▁criminals	-7880
semb	-7881
▁developing	-7882
▁uncon	-7883
▁severely	-7884
▁Bagh	-7885
▁Gil	-7886
▁striking	-7887
▁Adams	-7888
▁variety	-7889
▁Dunc	-7890
▁projects	-7891
▁praise	-7892
▁sample	-7893
▁interesting	-7894
▁Resc	-7895
▁unseason	-7896
▁conclus	-7897
fied	-7898
▁Stuart	-7899
▁summit	-7900
▁unre	-7901
▁moderate	-7902
▁Hend	-7903
▁Tou	-7904
▁emails	-7905
▁distinct	-7906
▁ideas	-7907
▁twist	-7908
▁trophy	-7909
▁athletes	-7910
▁Play	-7911
▁1960	-7912
▁punch	-7913
▁overly	-7914
olph	-7915
▁NATO	-7916
▁gender	-7917
▁Egyptian	-7918
▁Hope	-7919
▁guards	-7920
▁matters	-7921
▁publicly	-7922
anging	-7923
oche	-7924
▁happens	-7925
▁independence	-7926
▁sharing	-7927
▁gate	-7928
▁disappeared	-7929
▁Bos	-7930
iden	-7931
▁drawn	-7932
▁hoped	-7933
▁sail	-7934
▁concept	-7935
▁Celtic	-7936
▁reply	-7937
▁raising	-7938
▁Roma	-7939
▁considering	-7940
▁blamed	-7941
▁emerge	-7942
▁Cou	-7943
▁numerous	-7944
▁Dec	-7945
▁dependable	-7946
▁dismissed	-7947
▁gunman	-7948
▁factor	-7949
▁listed	-7950
▁Back	-7951
amedics	-7952
▁Federer	-7953
▁pill	-7954
din	-7955
▁Where	-7956
▁conjoin	-7957
▁recruit	-7958
▁71	-7959
▁Video	-7960
▁donate	-7961
▁gathered	-7962
▁exciting	-7963
▁imprison	-7964
▁spiritual	-7965
▁successfully	-7966
▁Bond	-7967
bar	-7968
die	-7969
▁Your	-7970
point	-7971
eals	-7972
▁definitely	-7973
▁Southern	-7974
▁Vinc	-7975
▁Bart	-7976
▁univers	-7977
vere	-7978
▁teens	-7979
▁disclose	-7980
unction	-7981
urer	-7982
▁insists	-7983
▁frequently	-7984
▁Administration	-7985
▁todd	-7986
▁focused	-7987
mund	-7988
▁Ko	-7989
▁tested	-7990
eping	-7991
▁CD	-7992
▁iron	-7993
▁degrees	-7994
rane	-7995
▁visualise	-7996
▁Duncan	-7997
▁sin	-7998
▁garage	-7999
▁Sgt	-8000
roit	-8001
itative	-8002
▁basketball	-8003
▁sixth	-8004
borough	-8005
▁luck	-8006
▁Spurs	-8007
ello	-8008
intend	-8009
▁links	-8010
▁cutting	-8011
shot	-8012
▁Cornwall	-8013
▁HM	-8014
▁genuinely	-8015
▁motion	-8016
▁yes	-8017
▁flames	-8018
▁compound	-8019
▁ec	-8020
asion	-8021
▁lean	-8022
▁manner	-8023
▁stages	-8024
war	-8025
bris	-8026
▁regret	-8027
▁Everyone	-8028
xy	-8029
▁thin	-8030
▁haz	-8031
▁vig	-8032
▁regional	-8033
▁update	-8034
▁lone	-8035
▁chicken	-8036
▁satellite	-8037
▁factory	-8038
▁toll	-8039
▁stunning	-8040
▁crews	-8041
▁cheer	-8042
▁locked	-8043
▁Amy	-8044
▁Susan	-8045
▁colleague	-8046
umm	-8047
▁checks	-8048
▁Chile	-8049
▁happening	-8050
▁liqu	-8051
▁Zimmerman	-8052
rows	-8053
▁Rome	-8054
▁stayed	-8055
▁altogether	-8056
▁error	-8057
▁buried	-8058
▁alternatively	-8059
▁PC	-8060
▁tied	-8061
▁Education	-8062
▁Morris	-8063
otte	-8064
▁ripe	-8065
ami	-8066
▁typically	-8067
▁substitute	-8068
▁presented	-8069
▁enthus	-8070
▁Chancellor	-8071
▁organisation	-8072
▁End	-8073
▁horror	-8074
▁cert	-8075
▁declare	-8076
▁promised	-8077
▁pretend	-8078
▁uncons	-8079
▁collapsed	-8080
▁painting	-8081
▁fab	-8082
▁Anne	-8083
▁tox	-8084
yo	-8085
orced	-8086
▁seized	-8087
▁restaurants	-8088
▁communications	-8089
▁overseas	-8090
▁Collins	-8091
▁cream	-8092
▁Business	-8093
▁Burnley	-8094
▁movies	-8095
▁disgr	-8096
▁depl	-8097
▁Amb	-8098
▁sugar	-8099
▁Ll	-8100
▁Stev	-8101
▁investigations	-8102
▁Urug	-8103
▁Baghdad	-8104
▁staying	-8105
arted	-8106
orious	-8107
▁excessively	-8108
▁escaped	-8109
▁Queensland	-8110
▁Welsh	-8111
▁heading	-8112
▁fundra	-8113
oyal	-8114
▁overnight	-8115
heim	-8116
ricane	-8117
▁Westminster	-8118
▁license	-8119
▁famed	-8120
▁smaller	-8121
opard	-8122
▁shed	-8123
▁shocking	-8124
▁positions	-8125
roso	-8126
▁Fe	-8127
▁Get	-8128
▁Sams	-8129
▁stroke	-8130
▁elsewhere	-8131
▁Magistrates	-8132
▁Hills	-8133
▁atomic	-8134
▁Edinburgh	-8135
▁impossible	-8136
▁procedures	-8137
▁accusations	-8138
▁demands	-8139
▁affairs	-8140
▁medication	-8141
▁WA	-8142
▁Ive	-8143
phic	-8144
▁environmental	-8145
▁integr	-8146
oop	-8147
▁materials	-8148
abis	-8149
▁Kay	-8150
▁approved	-8151
▁deem	-8152
▁collision	-8153
▁Victim	-8154
ument	-8155
▁criticised	-8156
▁Safety	-8157
▁Detroit	-8158
▁commander	-8159
▁approval	-8160
▁horrific	-8161
▁compete	-8162
star	-8163
▁hitting	-8164
▁replaced	-8165
esco	-8166
▁bacter	-8167
▁Kath	-8168
▁Brendan	-8169
▁hes	-8170
▁McIl	-8171
▁Ru	-8172
▁volunteers	-8173
▁Emma	-8174
▁See	-8175
▁copy	-8176
arms	-8177
ctic	-8178
▁counsel	-8179
abet	-8180
▁deals	-8181
ndrome	-8182
▁continuing	-8183
▁palpate	-8184
izes	-8185
SW	-8186
▁Beat	-8187
▁button	-8188
box	-8189
▁Fall	-8190
▁Beckham	-8191
▁alternative	-8192
▁hosts	-8193
▁Nottingham	-8194
▁Authority	-8195
▁displ	-8196
▁Uruguay	-8197
▁Py	-8198
▁1996	-8199
▁desperate	-8200
▁spo	-8201
▁viral	-8202
▁Spring	-8203
▁entit	-8204
▁comed	-8205
▁rebel	-8206
▁native	-8207
▁Tam	-8208
▁yard	-8209
▁sam	-8210
▁engaged	-8211
▁unsp	-8212
▁Ukrainian	-8213
▁conservative	-8214
▁relationships	-8215
▁historical	-8216
▁helps	-8217
▁Gard	-8218
▁originate	-8219
▁nut	-8220
▁cruise	-8221
mans	-8222
▁Aut	-8223
▁Kenya	-8224
▁Leban	-8225
▁coiff	-8226
▁subscribe	-8227
ocks	-8228
▁poverty	-8229
▁griev	-8230
▁meals	-8231
▁jaw	-8232
▁Ron	-8233
▁racial	-8234
▁Sony	-8235
▁elev	-8236
itage	-8237
▁attacking	-8238
ato	-8239
regon	-8240
▁Donald	-8241
▁monitor	-8242
▁meetings	-8243
roid	-8244
▁err	-8245
▁tweets	-8246
▁obst	-8247
▁misplace	-8248
▁Did	-8249
anted	-8250
▁cub	-8251
▁anybody	-8252
▁overlook	-8253
▁ambassador	-8254
▁digest	-8255
▁Manuel	-8256
▁76	-8257
▁Phillips	-8258
▁awarded	-8259
▁sharp	-8260
▁Oregon	-8261
esterly	-8262
▁aster	-8263
guard	-8264
▁Barcl	-8265
▁Blue	-8266
▁cruel	-8267
▁ske	-8268
▁apps	-8269
▁bosses	-8270
▁please	-8271
▁outs	-8272
earing	-8273
▁comfortable	-8274
▁felony	-8275
sen	-8276
▁classes	-8277
▁studio	-8278
▁writer	-8279
▁Bra	-8280
▁sevent	-8281
▁Iranian	-8282
▁HIV	-8283
iants	-8284
▁Mack	-8285
caster	-8286
axy	-8287
▁guest	-8288
ierce	-8289
▁approached	-8290
▁cats	-8291
▁Sandy	-8292
inations	-8293
▁Devon	-8294
umes	-8295
lessly	-8296
▁Mull	-8297
▁Bailey	-8298
▁Commissioner	-8299
▁remind	-8300
▁x	-8301
▁jumped	-8302
▁negative	-8303
▁threw	-8304
nag	-8305
▁fasc	-8306
▁seasons	-8307
▁territory	-8308
▁increasing	-8309
▁granted	-8310
▁bew	-8311
▁resolution	-8312
utt	-8313
▁oppose	-8314
rical	-8315
▁Secret	-8316
▁migrants	-8317
▁superv	-8318
▁nobody	-8319
▁starts	-8320
▁licence	-8321
▁shares	-8322
▁Following	-8323
▁speculation	-8324
▁detention	-8325
▁ITV	-8326
▁preceding	-8327
▁bones	-8328
▁reveals	-8329
▁Cuba	-8330
▁producer	-8331
▁Arabia	-8332
▁charter	-8333
▁admits	-8334
▁portra	-8335
▁requests	-8336
▁strateg	-8337
▁throat	-8338
▁celebration	-8339
▁stations	-8340
▁Samsung	-8341
▁Detective	-8342
don	-8343
▁sch	-8344
▁Clarke	-8345
▁acknowled	-8346
▁Fred	-8347
oral	-8348
▁Bon	-8349
▁Rice	-8350
▁racist	-8351
▁opponents	-8352
phones	-8353
▁occupy	-8354
▁fantastic	-8355
▁grat	-8356
▁neither	-8357
▁Maryland	-8358
afe	-8359
▁1994	-8360
▁Flight	-8361
▁Free	-8362
▁Ry	-8363
uits	-8364
▁Best	-8365
▁Snowden	-8366
▁officially	-8367
▁vern	-8368
▁coroner	-8369
▁nickn	-8370
▁Rem	-8371
▁Pelle	-8372
▁leak	-8373
▁Democrat	-8374
▁pilots	-8375
▁realised	-8376
▁mislay	-8377
▁impressive	-8378
▁Amanda	-8379
ulations	-8380
▁mystery	-8381
▁haven	-8382
▁reference	-8383
▁absence	-8384
▁scram	-8385
ati	-8386
▁raped	-8387
▁discrimination	-8388
▁Pere	-8389
▁insure	-8390
▁stem	-8391
▁maj	-8392
▁Cristiano	-8393
orage	-8394
▁electricity	-8395
▁Midlands	-8396
▁reporting	-8397
▁feared	-8398
▁tattoo	-8399
chi	-8400
isb	-8401
▁thinks	-8402
▁attorneys	-8403
itis	-8404
▁maximum	-8405
▁consent	-8406
▁interviews	-8407
▁Reid	-8408
▁spare	-8409
▁reception	-8410
cript	-8411
▁established	-8412
▁fishing	-8413
▁baff	-8414
▁wonderful	-8415
chair	-8416
▁Asian	-8417
▁hidden	-8418
▁ministry	-8419
▁breathing	-8420
▁drain	-8421
▁artists	-8422
▁veterans	-8423
▁Eve	-8424
▁smartphone	-8425
▁ank	-8426
▁bell	-8427
▁Tennes	-8428
▁celebrated	-8429
da	-8430
▁rescued	-8431
▁Neighb	-8432
▁safely	-8433
letic	-8434
▁Domin	-8435
▁Forest	-8436
▁Po	-8437
▁pointed	-8438
oty	-8439
▁McIlroy	-8440
ulge	-8441
▁advertising	-8442
▁inmates	-8443
xual	-8444
▁Ret	-8445
▁leads	-8446
▁disturb	-8447
▁elected	-8448
aling	-8449
▁consecrate	-8450
▁Medic	-8451
akh	-8452
▁adm	-8453
laughter	-8454
▁Djok	-8455
▁retirement	-8456
▁Emb	-8457
▁Captain	-8458
▁regulations	-8459
▁debris	-8460
▁Special	-8461
▁Osborne	-8462
▁Britains	-8463
▁fetch	-8464
▁visits	-8465
▁Nelson	-8466
▁spray	-8467
▁values	-8468
▁Poland	-8469
rene	-8470
▁lies	-8471
▁brilliant	-8472
▁searching	-8473
▁beneath	-8474
ucker	-8475
▁Witness	-8476
▁northerly	-8477
bie	-8478
▁conver	-8479
abe	-8480
▁NBA	-8481
▁Qatar	-8482
▁uncle	-8483
▁traverse	-8484
▁investigated	-8485
hy	-8486
▁Barbara	-8487
▁outcome	-8488
▁manslaughter	-8489
▁ships	-8490
▁Surrey	-8491
▁associated	-8492
▁ages	-8493
▁concluded	-8494
orer	-8495
▁Austin	-8496
▁civilian	-8497
▁offices	-8498
▁Castro	-8499
▁mo	-8500
▁sees	-8501
ourage	-8502
ras	-8503
▁recording	-8504
▁Somalia	-8505
▁nurses	-8506
▁landsc	-8507
▁generally	-8508
entive	-8509
graph	-8510
▁Grant	-8511
▁Live	-8512
▁Defence	-8513
▁Colombia	-8514
angle	-8515
▁dread	-8516
▁Les	-8517
▁chose	-8518
▁reven	-8519
▁Moyes	-8520
▁obvious	-8521
▁bribe	-8522
▁Bloom	-8523
▁noise	-8524
▁favorite	-8525
ls	-8526
▁proceedings	-8527
umph	-8528
▁accommodate	-8529
▁computers	-8530
▁objects	-8531
ilst	-8532
▁Hait	-8533
▁theory	-8534
▁Djokovic	-8535
▁kidnapping	-8536
▁pupp	-8537
▁discourse	-8538
▁organizations	-8539
▁adds	-8540
▁peak	-8541
▁pending	-8542
▁reduced	-8543
▁Indonesia	-8544
▁supporting	-8545
eor	-8546
▁dear	-8547
bles	-8548
▁plow	-8549
▁experiences	-8550
▁advanced	-8551
▁supplies	-8552
izarre	-8553
▁abortion	-8554
▁twins	-8555
▁Edwards	-8556
▁Ay	-8557
▁Alb	-8558
▁Ney	-8559
anne	-8560
inge	-8561
▁contrast	-8562
▁supported	-8563
▁82	-8564
▁horses	-8565
▁midfield	-8566
▁1995	-8567
▁fert	-8568
▁groom	-8569
▁Fund	-8570
▁associate	-8571
▁Night	-8572
▁immature	-8573
▁dimin	-8574
▁Independ	-8575
▁referred	-8576
▁Bah	-8577
▁races	-8578
▁diamond	-8579
pes	-8580
▁representative	-8581
▁Box	-8582
▁mini	-8583
▁partnership	-8584
semble	-8585
▁newly	-8586
▁trusted	-8587
▁supermarket	-8588
▁Britons	-8589
▁proof	-8590
▁posting	-8591
afi	-8592
▁behave	-8593
▁Bad	-8594
▁corro	-8595
▁abused	-8596
▁importance	-8597
ture	-8598
▁torture	-8599
▁mad	-8600
▁citizen	-8601
▁greatest	-8602
▁Around	-8603
▁managers	-8604
▁aston	-8605
ums	-8606
▁wholly	-8607
▁flew	-8608
eze	-8609
▁Station	-8610
▁Eth	-8611
▁Dougl	-8612
▁markets	-8613
▁sleeping	-8614
▁factors	-8615
▁awards	-8616
aver	-8617
usal	-8618
ropolitan	-8619
owa	-8620
uations	-8621
▁Book	-8622
oa	-8623
▁ramp	-8624
▁touc	-8625
▁nights	-8626
rast	-8627
▁Antonio	-8628
▁memories	-8629
▁gent	-8630
children	-8631
▁rounds	-8632
▁Darren	-8633
▁cannabis	-8634
▁unconscious	-8635
▁espouse	-8636
▁Malaysia	-8637
▁Benn	-8638
▁Murphy	-8639
▁Jesus	-8640
▁Class	-8641
▁democracy	-8642
rim	-8643
▁flooding	-8644
onduct	-8645
▁denies	-8646
▁knocked	-8647
cott	-8648
▁voted	-8649
▁strict	-8650
▁Dick	-8651
▁Wolf	-8652
▁eggs	-8653
anied	-8654
LA	-8655
▁defending	-8656
▁engineer	-8657
▁comedy	-8658
▁religion	-8659
▁EST	-8660
▁Crit	-8661
▁Neymar	-8662
▁Morning	-8663
▁compose	-8664
▁Kyle	-8665
▁bottles	-8666
▁Minnes	-8667
▁locals	-8668
▁winger	-8669
▁reign	-8670
▁dying	-8671
oen	-8672
▁networks	-8673
▁Ven	-8674
▁western	-8675
▁Berlin	-8676
orge	-8677
▁convin	-8678
▁Fro	-8679
▁disg	-8680
▁stretch	-8681
▁Tok	-8682
▁division	-8683
▁Disc	-8684
ivalent	-8685
▁holidays	-8686
▁easier	-8687
▁Case	-8688
▁Microso	-8689
▁surprising	-8690
aud	-8691
▁cheek	-8692
wealth	-8693
▁nominate	-8694
▁Nazi	-8695
▁blend	-8696
▁Hawaii	-8697
▁curren	-8698
▁Margaret	-8699
▁prompted	-8700
idents	-8701
▁Serge	-8702
▁posed	-8703
▁sealed	-8704
▁architect	-8705
case	-8706
▁earthquake	-8707
▁spectacular	-8708
▁Look	-8709
▁ending	-8710
▁Treas	-8711
▁Tennessee	-8712
▁Krist	-8713
umble	-8714
▁adopted	-8715
▁glam	-8716
RO	-8717
gage	-8718
▁cul	-8719
▁units	-8720
▁Knight	-8721
olt	-8722
▁convinced	-8723
▁NSW	-8724
▁Stock	-8725
▁Griff	-8726
▁stepped	-8727
▁spin	-8728
▁unveil	-8729
▁Anna	-8730
▁websites	-8731
▁cloud	-8732
▁Emirates	-8733
▁Minnesota	-8734
▁industrial	-8735
issa	-8736
▁Lamp	-8737
▁headlines	-8738
▁physically	-8739
▁trapped	-8740
▁genial	-8741
ageable	-8742
esity	-8743
▁Jong	-8744
▁Ferrari	-8745
▁odd	-8746
▁Mas	-8747
▁wildlife	-8748
▁Sussex	-8749
▁harassment	-8750
▁Ivan	-8751
▁Pentagon	-8752
▁thick	-8753
▁Nether	-8754
▁prevail	-8755
▁accompany	-8756
▁Barclays	-8757
▁negotiations	-8758
▁Others	-8759
▁extent	-8760
▁donations	-8761
▁Hundred	-8762
▁selection	-8763
▁bite	-8764
opsy	-8765
wear	-8766
▁Barry	-8767
▁Sem	-8768
▁Viet	-8769
▁loyal	-8770
▁kicked	-8771
▁Serb	-8772
▁tens	-8773
▁volc	-8774
▁Keith	-8775
▁pages	-8776
▁informed	-8777
▁footballer	-8778
▁Lawrence	-8779
unior	-8780
▁Sweden	-8781
▁Polit	-8782
▁Nigel	-8783
▁argue	-8784
king	-8785
▁salary	-8786
▁otherwise	-8787
▁businessman	-8788
anic	-8789
▁Kansas	-8790
▁payment	-8791
▁comprom	-8792
▁Haz	-8793
▁exhibition	-8794
▁personally	-8795
▁unmanageable	-8796
▁Alaska	-8797
oni	-8798
▁craz	-8799
▁suddenly	-8800
▁youngster	-8801
▁barr	-8802
▁Anfield	-8803
▁offenders	-8804
▁Oliver	-8805
▁youthful	-8806
leton	-8807
▁trains	-8808
▁extended	-8809
oos	-8810
▁Civil	-8811
▁Laden	-8812
grav	-8813
▁cancel	-8814
▁therapy	-8815
▁hits	-8816
▁joining	-8817
▁unclear	-8818
▁surre	-8819
▁warnings	-8820
vard	-8821
▁aer	-8822
▁SU	-8823
▁stamp	-8824
▁cousin	-8825
▁restrictions	-8826
▁lb	-8827
▁residence	-8828
▁defendants	-8829
enson	-8830
▁Chap	-8831
▁activist	-8832
▁neighbors	-8833
▁lately	-8834
▁concert	-8835
▁fame	-8836
▁Sergio	-8837
▁smell	-8838
▁popularity	-8839
rahim	-8840
▁shr	-8841
▁prospect	-8842
▁Microsoft	-8843
▁chase	-8844
▁detained	-8845
▁Ald	-8846
▁Tem	-8847
▁survival	-8848
erable	-8849
▁shamed	-8850
ighth	-8851
riers	-8852
RC	-8853
▁experiment	-8854
▁upper	-8855
▁relie	-8856
▁slam	-8857
▁songs	-8858
▁interchange	-8859
▁facts	-8860
▁sentences	-8861
▁accepting	-8862
▁scared	-8863
bley	-8864
▁graduate	-8865
▁Simp	-8866
▁toddler	-8867
rets	-8868
uv	-8869
▁Bash	-8870
▁amounts	-8871
▁Cher	-8872
▁knowing	-8873
▁lbs	-8874
▁Katie	-8875
▁vs	-8876
▁Seb	-8877
▁Ren	-8878
▁Dog	-8879
▁towns	-8880
OS	-8881
▁seduce	-8882
▁Row	-8883
▁McCain	-8884
▁gal	-8885
▁mand	-8886
▁Commonwealth	-8887
iki	-8888
▁cater	-8889
▁turns	-8890
▁theat	-8891
▁dealing	-8892
▁Louisiana	-8893
▁Formula	-8894
▁Sportsmail	-8895
▁zero	-8896
▁lawmakers	-8897
▁enh	-8898
umed	-8899
▁Cleve	-8900
▁Hundreds	-8901
▁Warren	-8902
▁Iowa	-8903
▁inspiration	-8904
ierra	-8905
▁sacrif	-8906
▁desert	-8907
strong	-8908
▁theme	-8909
▁Julie	-8910
▁tremend	-8911
▁Ahmed	-8912
▁fo	-8913
▁brave	-8914
itarian	-8915
▁lav	-8916
▁Bud	-8917
▁Nadal	-8918
▁Venez	-8919
aga	-8920
ylum	-8921
▁teaching	-8922
▁follows	-8923
▁mud	-8924
idal	-8925
▁Golden	-8926
ecca	-8927
▁solve	-8928
▁Denver	-8929
▁sty	-8930
ES	-8931
bits	-8932
osite	-8933
ulture	-8934
▁Student	-8935
▁Charlotte	-8936
▁Tro	-8937
▁trips	-8938
▁Wem	-8939
bag	-8940
▁signify	-8941
▁persu	-8942
▁insurg	-8943
▁panic	-8944
▁Bradley	-8945
▁Rachel	-8946
▁perfectly	-8947
iggs	-8948
rue	-8949
▁marketing	-8950
▁79	-8951
▁Cy	-8952
apore	-8953
▁hunting	-8954
▁dial	-8955
▁subsist	-8956
▁Freed	-8957
▁Jewish	-8958
▁Hus	-8959
▁pros	-8960
▁ethnic	-8961
▁repair	-8962
icy	-8963
▁Fernando	-8964
▁medicine	-8965
olis	-8966
▁rot	-8967
▁inapp	-8968
▁erupt	-8969
▁taxpayers	-8970
▁Dean	-8971
▁answers	-8972
▁employment	-8973
etta	-8974
endum	-8975
▁Obam	-8976
▁belt	-8977
▁preparing	-8978
ahl	-8979
▁emotion	-8980
oir	-8981
▁Div	-8982
faced	-8983
▁constit	-8984
▁Venezuel	-8985
▁performances	-8986
▁Cleveland	-8987
▁Netherlands	-8988
▁assass	-8989
▁sporting	-8990
▁connected	-8991
▁Conservative	-8992
▁impe	-8993
▁murders	-8994
▁explicate	-8995
▁Avenue	-8996
▁Bat	-8997
▁Singapore	-8998
▁courage	-8999
▁Ban	-9000
nsic	-9001
▁Brisb	-9002
▁Lambert	-9003
▁odds	-9004
abetes	-9005
▁Wembley	-9006
▁replied	-9007
uild	-9008
▁adjust	-9009
▁guarantee	-9010
▁hotels	-9011
utter	-9012
yard	-9013
▁fing	-9014
▁Lionel	-9015
stri	-9016
usive	-9017
hat	-9018
▁Arsene	-9019
acht	-9020
▁appointment	-9021
▁inward	-9022
▁Brisbane	-9023
▁install	-9024
▁liberal	-9025
▁Simpson	-9026
▁element	-9027
▁Ak	-9028
▁Still	-9029
rapped	-9030
▁youngsters	-9031
▁tool	-9032
▁talked	-9033
bl	-9034
▁Armstrong	-9035
▁Hond	-9036
▁closing	-9037
▁urge	-9038
▁domesticated	-9039
▁greet	-9040
math	-9041
chance	-9042
▁Hard	-9043
▁jurors	-9044
▁guidelines	-9045
▁Inf	-9046
▁baseball	-9047
▁extraord	-9048
inos	-9049
▁spy	-9050
fty	-9051
▁impressed	-9052
berry	-9053
▁lessons	-9054
▁dim	-9055
esome	-9056
▁Network	-9057
zzle	-9058
▁riot	-9059
aux	-9060
▁Fest	-9061
▁Persie	-9062
▁brutal	-9063
▁collab	-9064
▁Capital	-9065
▁inspect	-9066
▁attempting	-9067
▁heroin	-9068
▁Douglas	-9069
▁Key	-9070
▁Bale	-9071
▁departure	-9072
▁inwards	-9073
▁transplant	-9074
▁Seven	-9075
▁boom	-9076
▁rocks	-9077
▁westerly	-9078
▁attached	-9079
▁specifically	-9080
eem	-9081
▁fortune	-9082
▁Silver	-9083
▁advise	-9084
▁Vlad	-9085
▁draft	-9086
▁crowds	-9087
▁uphold	-9088
animous	-9089
▁basic	-9090
▁forms	-9091
▁tender	-9092
▁squeeze	-9093
▁Sab	-9094
▁BM	-9095
▁PS	-9096
acre	-9097
▁opponent	-9098
▁funny	-9099
▁freeze	-9100
▁reforms	-9101
apping	-9102
▁extrad	-9103
state	-9104
▁Downing	-9105
▁kg	-9106
ippi	-9107
▁eval	-9108
▁ingest	-9109
▁delight	-9110
▁destination	-9111
aware	-9112
jo	-9113
▁Tokyo	-9114
▁Bolton	-9115
▁bug	-9116
icted	-9117
▁Hon	-9118
▁fet	-9119
▁Soph	-9120
▁impeach	-9121
▁phen	-9122
▁Pop	-9123
▁loud	-9124
▁scientific	-9125
iture	-9126
▁fleet	-9127
▁Cabinet	-9128
estone	-9129
▁regions	-9130
▁authoritative	-9131
▁core	-9132
▁amend	-9133
▁Prix	-9134
▁aimed	-9135
▁missile	-9136
▁feelings	-9137
▁tools	-9138
ician	-9139
▁divulge	-9140
▁mold	-9141
▁cooper	-9142
▁SC	-9143
▁permanent	-9144
▁incrimin	-9145
▁kilome	-9146
▁psychiat	-9147
▁Jav	-9148
urers	-9149
▁outstanding	-9150
▁gear	-9151
▁assign	-9152
▁enjoying	-9153
▁slightly	-9154
▁cow	-9155
▁Cust	-9156
▁chap	-9157
▁libr	-9158
▁keeper	-9159
▁saving	-9160
▁Cele	-9161
▁pushing	-9162
▁personality	-9163
▁Kurd	-9164
▁Sierra	-9165
▁Islamist	-9166
amo	-9167
enda	-9168
▁Biden	-9169
▁inhab	-9170
▁worlds	-9171
▁damages	-9172
▁provides	-9173
▁Gro	-9174
▁attitude	-9175
▁tiss	-9176
▁suburb	-9177
▁craft	-9178
▁84	-9179
▁Telegraph	-9180
▁cheap	-9181
▁obtained	-9182
▁crossing	-9183
▁kidney	-9184
▁survivors	-9185
▁Bark	-9186
▁1992	-9187
abilities	-9188
▁commem	-9189
▁Somers	-9190
▁Hit	-9191
▁referendum	-9192
▁triumph	-9193
▁plate	-9194
▁Sever	-9195
▁unwrap	-9196
ullah	-9197
▁Carlos	-9198
▁Ukip	-9199
▁classic	-9200
▁tragical	-9201
▁disappointed	-9202
▁Lancash	-9203
aints	-9204
▁indec	-9205
▁skill	-9206
▁politician	-9207
▁Gare	-9208
▁renew	-9209
▁lifetime	-9210
▁communication	-9211
▁relate	-9212
rable	-9213
▁Powell	-9214
icts	-9215
▁Stafford	-9216
▁awful	-9217
reprene	-9218
▁Project	-9219
▁mistakes	-9220
▁incredibly	-9221
inte	-9222
▁Juvent	-9223
▁Thousands	-9224
▁spotlight	-9225
▁disgust	-9226
▁accomplish	-9227
▁suspicious	-9228
eld	-9229
▁Lope	-9230
▁electronic	-9231
▁suspension	-9232
▁Bowl	-9233
▁roles	-9234
▁Nathan	-9235
▁crying	-9236
▁demol	-9237
▁screaming	-9238
▁entertainment	-9239
▁nom	-9240
▁Pard	-9241
▁Lopez	-9242
▁bizarre	-9243
▁Buckingham	-9244
▁View	-9245
▁Monaco	-9246
utable	-9247
▁gard	-9248
▁Winter	-9249
▁Juventus	-9250
▁elimin	-9251
▁replacement	-9252
▁dash	-9253
▁wage	-9254
▁cognize	-9255
▁venue	-9256
iblings	-9257
▁cope	-9258
▁arriving	-9259
▁ourselves	-9260
pro	-9261
▁Stur	-9262
▁brag	-9263
▁homeless	-9264
▁OK	-9265
▁comply	-9266
▁designate	-9267
▁surrounded	-9268
▁latterly	-9269
▁rose	-9270
enance	-9271
▁secondly	-9272
▁Greater	-9273
▁untested	-9274
▁twin	-9275
▁vernal	-9276
▁81	-9277
▁drown	-9278
▁Dale	-9279
▁Turner	-9280
▁invited	-9281
▁decor	-9282
oria	-9283
▁jacket	-9284
▁Mississ	-9285
▁Lancashire	-9286
iller	-9287
▁motorc	-9288
▁Ye	-9289
▁performing	-9290
encia	-9291
▁hearts	-9292
otti	-9293
▁Dal	-9294
dles	-9295
encer	-9296
▁modest	-9297
▁Emergency	-9298
uver	-9299
ception	-9300
▁shirts	-9301
ogitate	-9302
▁cognise	-9303
izza	-9304
▁laid	-9305
▁indic	-9306
▁muscle	-9307
▁toxic	-9308
▁UE	-9309
▁Tan	-9310
club	-9311
uters	-9312
▁Mandela	-9313
▁Prov	-9314
▁Theres	-9315
▁opine	-9316
▁Oz	-9317
iorate	-9318
▁gifts	-9319
▁aggressive	-9320
▁manoe	-9321
cription	-9322
▁minority	-9323
ockey	-9324
▁Ferdin	-9325
▁abduct	-9326
▁formally	-9327
▁Liga	-9328
▁mock	-9329
▁breakfast	-9330
rastructure	-9331
▁Android	-9332
erted	-9333
▁hasn	-9334
▁discussion	-9335
bow	-9336
▁foods	-9337
▁intense	-9338
▁1993	-9339
▁convictions	-9340
▁conscious	-9341
▁lasting	-9342
▁aggrav	-9343
▁indite	-9344
▁zoo	-9345
▁describes	-9346
▁Thank	-9347
▁intim	-9348
▁Pistor	-9349
▁rip	-9350
▁Brob	-9351
olar	-9352
idency	-9353
upe	-9354
▁ups	-9355
▁Maur	-9356
▁supra	-9357
▁lake	-9358
▁formed	-9359
▁unseasoned	-9360
dingnag	-9361
▁Brobdingnag	-9362
lee	-9363
▁doom	-9364
asterly	-9365
▁combination	-9366
▁hook	-9367
▁enorm	-9368
fts	-9369
▁treas	-9370
▁asylum	-9371
▁Brobdingnagian	-9372
illo	-9373
▁disappoint	-9374
▁Baker	-9375
▁cafe	-9376
icitous	-9377
ivate	-9378
▁Brighton	-9379
plus	-9380
▁countenance	-9381
▁Techn	-9382
▁improved	-9383
▁Mississippi	-9384
▁affirm	-9385
▁mood	-9386
▁shadow	-9387
▁86	-9388
▁investors	-9389
▁assail	-9390
▁Metropolitan	-9391
▁rib	-9392
▁travelled	-9393
▁Heart	-9394
▁stated	-9395
▁dumb	-9396
▁slay	-9397
▁equivalent	-9398
▁hyd	-9399
▁assets	-9400
▁substance	-9401
▁forecast	-9402
▁marked	-9403
▁relative	-9404
▁83	-9405
▁coat	-9406
▁flex	-9407
eler	-9408
▁testified	-9409
▁yell	-9410
▁Iv	-9411
▁plump	-9412
otherapy	-9413
▁designs	-9414
▁Memorial	-9415
▁+	-9416
▁UEFA	-9417
▁swing	-9418
cao	-9419
▁Ferdinand	-9420
▁southerly	-9421
inion	-9422
▁88	-9423
▁liver	-9424
▁Parker	-9425
▁dollar	-9426
▁passport	-9427
▁tries	-9428
stan	-9429
▁exceed	-9430
▁Eastern	-9431
TS	-9432
beck	-9433
▁bears	-9434
▁unveiled	-9435
▁demanding	-9436
utive	-9437
▁Media	-9438
▁grievous	-9439
▁Indiana	-9440
▁begins	-9441
imir	-9442
▁burns	-9443
▁orbit	-9444
▁obesity	-9445
▁900	-9446
▁untried	-9447
▁Chan	-9448
▁becomes	-9449
▁homicide	-9450
▁McA	-9451
▁demanded	-9452
ivan	-9453
▁ends	-9454
▁silence	-9455
▁Zoo	-9456
uscule	-9457
▁hostage	-9458
weet	-9459
plex	-9460
▁gentle	-9461
▁instance	-9462
▁Sad	-9463
▁QC	-9464
▁Kentucky	-9465
▁voting	-9466
▁Stat	-9467
▁Vice	-9468
▁Gareth	-9469
▁robot	-9470
▁monitoring	-9471
▁Rescue	-9472
aunt	-9473
▁Circ	-9474
▁recalled	-9475
▁contained	-9476
▁participants	-9477
low	-9478
▁peculiarly	-9479
▁oxy	-9480
enny	-9481
▁Fur	-9482
▁gru	-9483
▁invite	-9484
▁paed	-9485
▁trafficking	-9486
▁adviser	-9487
▁cabin	-9488
▁humil	-9489
▁Sov	-9490
▁Made	-9491
▁Mick	-9492
▁ankle	-9493
▁defended	-9494
▁rational	-9495
▁append	-9496
igible	-9497
lights	-9498
▁excite	-9499
ING	-9500
▁machines	-9501
▁forrad	-9502
▁Pistorius	-9503
▁boxes	-9504
▁elab	-9505
▁Lank	-9506
▁foul	-9507
▁reaching	-9508
▁Shel	-9509
zy	-9510
jan	-9511
▁appeals	-9512
▁scrutin	-9513
▁relatively	-9514
▁Pellegr	-9515
▁bullying	-9516
▁siblings	-9517
▁camps	-9518
tershire	-9519
▁sustained	-9520
▁Berg	-9521
▁entail	-9522
unal	-9523
▁expectant	-9524
▁Sri	-9525
▁apprec	-9526
▁soil	-9527
▁advised	-9528
▁whistle	-9529
obile	-9530
▁Ku	-9531
▁myst	-9532
▁hiding	-9533
▁devastating	-9534
▁okay	-9535
▁usual	-9536
▁hangdog	-9537
thur	-9538
▁handling	-9539
▁Bou	-9540
▁inh	-9541
▁soccer	-9542
▁Were	-9543
▁airports	-9544
▁Boeing	-9545
▁burglary	-9546
▁shoppers	-9547
▁practices	-9548
onto	-9549
▁Assist	-9550
▁wheelchair	-9551
▁thorough	-9552
▁Nancy	-9553
▁hammer	-9554
▁Tun	-9555
▁holes	-9556
▁stunt	-9557
▁explan	-9558
▁landmark	-9559
▁ruin	-9560
▁slim	-9561
▁Asked	-9562
▁Falcao	-9563
▁paramedics	-9564
▁Oliv	-9565
▁toys	-9566
acey	-9567
▁nerv	-9568
▁monument	-9569
li	-9570
▁Wol	-9571
▁Add	-9572
▁burning	-9573
▁poses	-9574
▁enable	-9575
icked	-9576
▁instru	-9577
▁Ibrahim	-9578
▁tensions	-9579
▁shamefaced	-9580
▁coord	-9581
ione	-9582
▁duo	-9583
amford	-9584
▁diabetes	-9585
▁Cz	-9586
acon	-9587
▁Bund	-9588
beat	-9589
▁engagement	-9590
ques	-9591
▁Fif	-9592
aba	-9593
▁column	-9594
▁firing	-9595
brate	-9596
har	-9597
▁Dort	-9598
▁Hannah	-9599
▁unemployment	-9600
erves	-9601
▁indis	-9602
▁Price	-9603
▁belated	-9604
▁Mans	-9605
asp	-9606
roc	-9607
▁allies	-9608
▁boats	-9609
thy	-9610
ules	-9611
▁parole	-9612
▁struct	-9613
▁Ref	-9614
iences	-9615
▁dates	-9616
▁fires	-9617
▁apportion	-9618
andom	-9619
ieber	-9620
pread	-9621
▁recip	-9622
▁87	-9623
▁pole	-9624
▁Dortmund	-9625
▁intens	-9626
abul	-9627
▁drew	-9628
▁exposure	-9629
▁Holmes	-9630
▁concrete	-9631
▁Entertain	-9632
▁caut	-9633
▁Perez	-9634
▁stole	-9635
▁Right	-9636
▁advocate	-9637
mat	-9638
ints	-9639
▁consumer	-9640
onial	-9641
▁filming	-9642
▁Knox	-9643
▁Pardew	-9644
▁obsc	-9645
▁unexpected	-9646
antha	-9647
▁nightclub	-9648
▁delays	-9649
ixon	-9650
▁elephant	-9651
▁spill	-9652
▁egress	-9653
▁sounds	-9654
idespread	-9655
▁premature	-9656
step	-9657
idges	-9658
pless	-9659
wa	-9660
rington	-9661
▁Bent	-9662
▁Pit	-9663
▁bless	-9664
▁attending	-9665
▁dedicated	-9666
▁pride	-9667
▁Bureau	-9668
▁emphas	-9669
▁embassy	-9670
▁registered	-9671
▁airlines	-9672
oenix	-9673
▁Company	-9674
▁Ful	-9675
itated	-9676
▁infrastructure	-9677
▁assaulted	-9678
▁Oak	-9679
▁melt	-9680
▁Conc	-9681
ttes	-9682
▁hung	-9683
▁progn	-9684
▁trauma	-9685
▁Conf	-9686
▁Tower	-9687
oko	-9688
▁Ted	-9689
▁Nicole	-9690
▁dressing	-9691
▁delighted	-9692
adh	-9693
▁Croat	-9694
▁Fabreg	-9695
▁conclude	-9696
▁hap	-9697
▁couch	-9698
▁Sut	-9699
▁Hamas	-9700
▁escal	-9701
hall	-9702
▁Gonz	-9703
▁convention	-9704
▁freez	-9705
▁grabbed	-9706
attered	-9707
▁cens	-9708
mitted	-9709
enging	-9710
atican	-9711
▁founded	-9712
anded	-9713
pass	-9714
▁Roberto	-9715
▁prayers	-9716
▁hired	-9717
▁proport	-9718
▁Silva	-9719
▁Please	-9720
▁Several	-9721
▁Prosecutor	-9722
▁aren	-9723
mare	-9724
▁clashes	-9725
▁Ec	-9726
▁Wy	-9727
▁cra	-9728
grade	-9729
▁SUV	-9730
▁brook	-9731
aro	-9732
▁incriminate	-9733
▁enemy	-9734
▁furious	-9735
▁estimate	-9736
▁chaos	-9737
▁Savile	-9738
▁Vincent	-9739
▁storage	-9740
erg	-9741
▁Fabregas	-9742
▁bacteria	-9743
▁Bron	-9744
▁treatments	-9745
ulpt	-9746
▁portray	-9747
▁spac	-9748
▁transp	-9749
▁Ur	-9750
▁Phoenix	-9751
▁ridic	-9752
▁anch	-9753
▁searched	-9754
onsin	-9755
▁Environment	-9756
▁explore	-9757
▁Helen	-9758
▁Wars	-9759
▁Spencer	-9760
▁collected	-9761
aws	-9762
rious	-9763
▁prohib	-9764
▁writes	-9765
▁disrupt	-9766
▁Rafael	-9767
▁intensive	-9768
▁consultant	-9769
rich	-9770
▁taught	-9771
▁infected	-9772
▁foundation	-9773
▁ence	-9774
▁encl	-9775
▁GM	-9776
▁Sel	-9777
▁Tesco	-9778
▁Philippines	-9779
▁extraordinary	-9780
writ	-9781
▁Tsar	-9782
▁130	-9783
▁Vatican	-9784
▁profits	-9785
▁observ	-9786
▁Valencia	-9787
▁repeat	-9788
▁Wisc	-9789
▁mamm	-9790
▁illeg	-9791
▁lodge	-9792
▁examination	-9793
▁vacation	-9794
uten	-9795
▁desk	-9796
▁protective	-9797
▁patron	-9798
▁Alexis	-9799
▁Samantha	-9800
▁midnight	-9801
▁courtroom	-9802
▁olds	-9803
▁explains	-9804
▁gross	-9805
▁overcome	-9806
formation	-9807
▁turb	-9808
iques	-9809
loaded	-9810
▁Wisconsin	-9811
▁Joy	-9812
▁technique	-9813
agle	-9814
isons	-9815
▁acad	-9816
▁oxygen	-9817
▁Rover	-9818
▁interviewed	-9819
▁Cu	-9820
▁Australians	-9821
▁finance	-9822
▁cyber	-9823
isive	-9824
▁lap	-9825
bean	-9826
kinson	-9827
▁burned	-9828
▁Gi	-9829
▁Bishop	-9830
▁entreprene	-9831
ussels	-9832
▁overturn	-9833
▁misconduct	-9834
▁discourage	-9835
headed	-9836
▁Norway	-9837
▁Nine	-9838
II	-9839
▁ingred	-9840
▁prol	-9841
▁samples	-9842
▁vigil	-9843
▁Affairs	-9844
▁Bed	-9845
▁opposite	-9846
GA	-9847
▁Islands	-9848
▁desp	-9849
▁packed	-9850
▁pall	-9851
▁reverse	-9852
▁Nevada	-9853
▁checked	-9854
▁pets	-9855
▁autopsy	-9856
▁Kings	-9857
▁Corpor	-9858
rov	-9859
▁highway	-9860
▁dreams	-9861
▁Governor	-9862
▁classroom	-9863
onia	-9864
▁Without	-9865
idate	-9866
▁anywhere	-9867
▁excell	-9868
▁Festival	-9869
▁cler	-9870
▁riding	-9871
▁Ark	-9872
▁Treasury	-9873
▁Inspector	-9874
▁Gray	-9875
▁Game	-9876
▁infant	-9877
▁hanging	-9878
▁attacker	-9879
▁350	-9880
▁fate	-9881
fish	-9882
▁storms	-9883
▁Operation	-9884
▁dubbed	-9885
▁Caroline	-9886
▁crazy	-9887
▁vicious	-9888
▁hip	-9889
▁tremendous	-9890
▁cake	-9891
▁gained	-9892
▁criminate	-9893
▁Herald	-9894
▁grey	-9895
▁surgeon	-9896
▁mould	-9897
▁revenue	-9898
▁polls	-9899
▁Hollande	-9900
▁diagnosis	-9901
▁Cancer	-9902
▁Pellegrini	-9903
works	-9904
▁stupe	-9905
▁widespread	-9906
EN	-9907
cill	-9908
▁destruction	-9909
zh	-9910
▁Kingdom	-9911
▁extensive	-9912
▁fewer	-9913
iege	-9914
▁Benj	-9915
▁Rebecca	-9916
▁Nav	-9917
▁Vol	-9918
▁selfie	-9919
▁1989	-9920
arettes	-9921
▁CDC	-9922
▁Vis	-9923
▁bread	-9924
▁surely	-9925
▁eyed	-9926
▁facial	-9927
▁Quest	-9928
▁deserve	-9929
ucks	-9930
▁formal	-9931
▁Stri	-9932
no	-9933
udes	-9934
▁Maj	-9935
ttino	-9936
▁Diana	-9937
▁Ped	-9938
thal	-9939
▁mall	-9940
▁Scene	-9941
▁inappropriate	-9942
▁cam	-9943
icial	-9944
▁Lampard	-9945
▁astrona	-9946
▁loving	-9947
▁Carib	-9948
▁aftermath	-9949
▁Bri	-9950
▁gravid	-9951
▁dock	-9952
▁stable	-9953
inals	-9954
▁cliff	-9955
▁Catherine	-9956
▁forwards	-9957
▁Cosby	-9958
onso	-9959
▁legit	-9960
▁supervise	-9961
ww	-9962
▁naturally	-9963
▁instit	-9964
▁tornado	-9965
▁privile	-9966
▁acquit	-9967
▁significantly	-9968
▁reconst	-9969
estic	-9970
actor	-9971
▁analyst	-9972
rena	-9973
▁Somerset	-9974
▁penalties	-9975
▁posit	-9976
▁Rosberg	-9977
▁Hans	-9978
▁athlete	-9979
▁intervention	-9980
▁wooden	-9981
▁Owen	-9982
▁Vladimir	-9983
▁dise	-9984
leep	-9985
storm	-9986
▁Adrian	-9987
eded	-9988
▁unaccept	-9989
▁challenging	-9990
▁Shan	-9991
▁Awards	-9992
nell	-9993
▁fabric	-9994
▁felicitous	-9995
▁literally	-9996
▁temporary	-9997
▁dancing	-9998
▁impression	-9999
▁Entertainment	-10000
ource	-10001
▁Low	-10002
FC	-10003
▁sacrifice	-10004
▁smashed	-10005
▁Na	-10006
▁Prest	-10007
▁Marie	-10008
asty	-10009
▁Light	-10010
▁bride	-10011
▁tower	-10012
▁explosives	-10013
▁balls	-10014
▁cigarettes	-10015
▁spite	-10016
eta	-10017
▁bunk	-10018
▁tablet	-10019
▁Members	-10020
▁anymore	-10021
▁Bobby	-10022
▁Senator	-10023
sembly	-10024
▁savings	-10025
▁association	-10026
▁overd	-10027
▁Labor	-10028
ectives	-10029
▁walks	-10030
▁difficulties	-10031
▁Toy	-10032
▁unpre	-10033
▁coma	-10034
▁lastly	-10035
▁refugees	-10036
inth	-10037
▁ineffective	-10038
agne	-10039
enna	-10040
▁Soviet	-10041
▁gestate	-10042
▁chop	-10043
▁tumour	-10044
▁appointed	-10045
olm	-10046
▁Develop	-10047
AC	-10048
▁impose	-10049
▁Sent	-10050
▁Lut	-10051
▁Glou	-10052
▁existing	-10053
mun	-10054
▁collar	-10055
▁differently	-10056
▁ideal	-10057
▁Lauren	-10058
▁Near	-10059
▁Unt	-10060
cho	-10061
▁Cass	-10062
inated	-10063
riages	-10064
unches	-10065
▁acted	-10066
▁Opinion	-10067
eter	-10068
▁worn	-10069
▁Orland	-10070
▁Emily	-10071
▁commonly	-10072
▁march	-10073
▁Brun	-10074
▁inhabit	-10075
▁Caribbean	-10076
▁dement	-10077
▁lect	-10078
▁Cruz	-10079
▁globe	-10080
▁Tories	-10081
inea	-10082
▁1991	-10083
▁youngest	-10084
▁Glouces	-10085
▁Baby	-10086
▁1950	-10087
▁Brooks	-10088
▁Toronto	-10089
▁enthusi	-10090
▁throwing	-10091
▁legacy	-10092
▁Daw	-10093
▁Stamford	-10094
▁undertake	-10095
▁poster	-10096
▁Angela	-10097
▁Castle	-10098
▁expenses	-10099
▁Han	-10100
▁disag	-10101
▁Embassy	-10102
ico	-10103
▁MI	-10104
▁soul	-10105
▁ow	-10106
▁Valent	-10107
▁Mohamed	-10108
▁introduce	-10109
▁farmers	-10110
▁agitate	-10111
▁Plan	-10112
▁tourism	-10113
▁offender	-10114
▁mature	-10115
▁assessment	-10116
▁controls	-10117
▁regarding	-10118
lington	-10119
▁massacre	-10120
▁Czech	-10121
▁wer	-10122
▁Mall	-10123
▁Brussels	-10124
▁partake	-10125
bi	-10126
oons	-10127
▁actuate	-10128
▁ax	-10129
▁Redk	-10130
▁whilst	-10131
▁specify	-10132
▁Chair	-10133
▁widow	-10134
▁grandchildren	-10135
▁puts	-10136
▁Protection	-10137
▁pure	-10138
▁unfair	-10139
naev	-10140
▁Parents	-10141
▁familiar	-10142
▁depth	-10143
▁recognition	-10144
▁Redknapp	-10145
▁shaped	-10146
▁detailed	-10147
▁urban	-10148
AR	-10149
▁Nasa	-10150
▁caution	-10151
▁Chen	-10152
▁meteor	-10153
▁Tsarnaev	-10154
▁Grace	-10155
ipper	-10156
▁estimates	-10157
▁stunned	-10158
▁loves	-10159
▁MH	-10160
▁ply	-10161
och	-10162
uccess	-10163
▁methods	-10164
▁seventh	-10165
▁addiction	-10166
▁hopefully	-10167
▁cycle	-10168
ffer	-10169
▁stir	-10170
▁representatives	-10171
▁Aguero	-10172
▁Residents	-10173
▁proposals	-10174
▁indictment	-10175
▁resignation	-10176
▁attracted	-10177
▁Associated	-10178
▁haul	-10179
▁Control	-10180
▁sculpt	-10181
▁celebrating	-10182
▁comedian	-10183
▁Sometimes	-10184
▁Sull	-10185
apes	-10186
hill	-10187
▁combined	-10188
▁sne	-10189
▁Alf	-10190
oded	-10191
iminary	-10192
▁Todd	-10193
▁NYPD	-10194
▁movements	-10195
▁manif	-10196
▁Animal	-10197
▁cite	-10198
▁entering	-10199
▁sensitive	-10200
▁technical	-10201
▁invasion	-10202
▁Having	-10203
▁enceinte	-10204
girl	-10205
▁Jail	-10206
▁stealing	-10207
▁Il	-10208
nan	-10209
▁breaks	-10210
▁Gates	-10211
▁creation	-10212
aths	-10213
omet	-10214
▁scratch	-10215
▁Bradford	-10216
▁inspire	-10217
▁08	-10218
iveness	-10219
▁Science	-10220
▁traveling	-10221
▁Saint	-10222
▁sic	-10223
▁Cape	-10224
acco	-10225
▁Such	-10226
▁Tiger	-10227
cedented	-10228
▁solitary	-10229
▁featuring	-10230
iang	-10231
▁192	-10232
▁violation	-10233
ivic	-10234
▁NSA	-10235
▁containing	-10236
Rep	-10237
▁vit	-10238
▁boots	-10239
▁lapt	-10240
▁Torres	-10241
▁smiles	-10242
▁Larry	-10243
▁kilometers	-10244
▁colours	-10245
▁inher	-10246
hearted	-10247
ulent	-10248
▁Short	-10249
▁RAF	-10250
aults	-10251
onna	-10252
▁cheese	-10253
▁Eight	-10254
▁drawing	-10255
▁praised	-10256
acker	-10257
▁resulted	-10258
othy	-10259
▁limits	-10260
▁Farm	-10261
▁runway	-10262
atri	-10263
▁Ener	-10264
▁islands	-10265
▁fierce	-10266
iti	-10267
▁blocks	-10268
anges	-10269
ecraft	-10270
▁parade	-10271
▁Belgian	-10272
▁conversations	-10273
▁liquid	-10274
cr	-10275
ali	-10276
▁racism	-10277
itar	-10278
▁exch	-10279
▁Freedom	-10280
▁mug	-10281
oves	-10282
▁Luk	-10283
▁outl	-10284
gram	-10285
▁disabled	-10286
bey	-10287
▁anxiety	-10288
inh	-10289
▁Stra	-10290
adget	-10291
▁Kirk	-10292
iverse	-10293
▁Yard	-10294
▁sessions	-10295
▁tent	-10296
▁tips	-10297
▁Samar	-10298
▁prisoner	-10299
ura	-10300
▁ease	-10301
weather	-10302
▁mixed	-10303
▁Bea	-10304
▁diseases	-10305
omy	-10306
▁bankrupt	-10307
▁descri	-10308
▁disgrace	-10309
▁frag	-10310
ographed	-10311
▁Orlando	-10312
▁gh	-10313
▁Dream	-10314
▁wasnt	-10315
▁elements	-10316
▁everyday	-10317
▁random	-10318
ducing	-10319
unning	-10320
▁fined	-10321
▁ID	-10322
▁Lev	-10323
▁tissue	-10324
▁trading	-10325
identified	-10326
▁admon	-10327
▁holler	-10328
▁refund	-10329
▁Bes	-10330
▁cardinal	-10331
▁requires	-10332
icing	-10333
▁sits	-10334
▁brands	-10335
▁runner	-10336
▁chemotherapy	-10337
▁shew	-10338
rawl	-10339
▁militant	-10340
▁shootings	-10341
▁Veter	-10342
▁meters	-10343
▁tactics	-10344
▁Benjamin	-10345
▁suggesting	-10346
onnell	-10347
▁Campaign	-10348
how	-10349
▁www	-10350
▁trio	-10351
▁hollo	-10352
▁jewell	-10353
▁stagger	-10354
▁iRep	-10355
▁prote	-10356
▁Palmer	-10357
▁butter	-10358
▁extract	-10359
▁crush	-10360
▁volunt	-10361
vo	-10362
▁Ins	-10363
ilder	-10364
▁tab	-10365
▁hacking	-10366
▁watchdog	-10367
▁Sat	-10368
▁Drug	-10369
▁fields	-10370
▁unprecedented	-10371
▁wet	-10372
▁horrif	-10373
▁distract	-10374
stairs	-10375
▁Witnesses	-10376
▁campaigns	-10377
▁essential	-10378
▁applied	-10379
▁McN	-10380
▁medals	-10381
▁congressional	-10382
rist	-10383
▁Airways	-10384
▁carrier	-10385
▁syndrome	-10386
rated	-10387
▁decre	-10388
▁golden	-10389
aki	-10390
▁vex	-10391
▁brace	-10392
▁Anyone	-10393
▁Vietnam	-10394
▁prosper	-10395
▁nightmare	-10396
▁Pu	-10397
▁Ca	-10398
▁retro	-10399
▁duties	-10400
▁cogitate	-10401
▁Fi	-10402
▁forb	-10403
▁fool	-10404
▁Columbia	-10405
▁contem	-10406
▁participate	-10407
▁Expl	-10408
▁cord	-10409
unes	-10410
▁curb	-10411
ambers	-10412
▁Support	-10413
▁miscar	-10414
▁judgment	-10415
bish	-10416
▁deadline	-10417
▁eligible	-10418
▁grateful	-10419
▁wages	-10420
▁exceptional	-10421
▁Kas	-10422
▁Harrison	-10423
▁keeps	-10424
▁hopeful	-10425
▁tone	-10426
▁thats	-10427
▁screening	-10428
▁Cow	-10429
▁increases	-10430
kel	-10431
▁agenda	-10432
▁shower	-10433
▁waitress	-10434
ayed	-10435
▁squall	-10436
agen	-10437
▁conclusion	-10438
▁recovering	-10439
cot	-10440
▁encouraged	-10441
▁stronger	-10442
ahu	-10443
▁reop	-10444
▁Prison	-10445
▁Community	-10446
▁condemned	-10447
▁cin	-10448
▁foreb	-10449
▁Galaxy	-10450
▁honey	-10451
ographic	-10452
arette	-10453
▁blocked	-10454
▁Dennis	-10455
lie	-10456
▁phil	-10457
▁questioning	-10458
▁mentally	-10459
▁landscape	-10460
▁explanation	-10461
▁merit	-10462
▁transition	-10463
awa	-10464
mons	-10465
▁Karen	-10466
▁branded	-10467
▁Lucas	-10468
▁Hass	-10469
▁actors	-10470
▁Spr	-10471
▁Singh	-10472
▁FC	-10473
▁acknowledged	-10474
▁trials	-10475
▁oldest	-10476
▁Champ	-10477
▁Forces	-10478
▁trainer	-10479
asha	-10480
▁generations	-10481
aph	-10482
▁GB	-10483
▁Wals	-10484
▁TH	-10485
▁wealthy	-10486
▁Jews	-10487
▁owns	-10488
▁jeopard	-10489
emetery	-10490
isle	-10491
▁tablets	-10492
eling	-10493
rition	-10494
▁Kurdish	-10495
▁rapidly	-10496
▁celebrations	-10497
owski	-10498
▁defy	-10499
▁180	-10500
▁salt	-10501
▁Econom	-10502
lec	-10503
seeing	-10504
▁witnessed	-10505
▁handful	-10506
▁190	-10507
ta	-10508
▁bombings	-10509
▁cable	-10510
▁glasses	-10511
▁returns	-10512
▁Shi	-10513
▁effectively	-10514
nesty	-10515
▁frightened	-10516
agu	-10517
▁Kit	-10518
power	-10519
▁fluid	-10520
▁tempt	-10521
ateur	-10522
▁Rou	-10523
▁00	-10524
▁tire	-10525
▁seize	-10526
▁opener	-10527
▁fever	-10528
▁differences	-10529
bel	-10530
▁butt	-10531
▁cerebrate	-10532
▁Gunners	-10533
▁ultimate	-10534
▁covering	-10535
LS	-10536
▁airstri	-10537
▁polite	-10538
▁fingers	-10539
▁flav	-10540
▁waited	-10541
▁backing	-10542
enerate	-10543
▁cultural	-10544
▁lifted	-10545
▁petrol	-10546
▁easterly	-10547
for	-10548
▁Billy	-10549
▁jer	-10550
▁bub	-10551
▁Taiwanese	-10552
▁discussions	-10553
ded	-10554
▁sting	-10555
▁Report	-10556
▁transferred	-10557
▁institutions	-10558
▁grim	-10559
▁tardy	-10560
▁parked	-10561
idav	-10562
▁applications	-10563
▁finds	-10564
▁Investigation	-10565
▁visible	-10566
▁category	-10567
▁operator	-10568
▁persp	-10569
▁slowly	-10570
▁ferment	-10571
▁McM	-10572
▁tong	-10573
▁manifest	-10574
▁Arena	-10575
▁na	-10576
resents	-10577
▁contains	-10578
▁canv	-10579
osexual	-10580
▁forensic	-10581
▁Var	-10582
giving	-10583
▁unspo	-10584
▁plug	-10585
▁propag	-10586
▁92	-10587
▁Energy	-10588
▁extremists	-10589
▁lau	-10590
▁Claire	-10591
▁Foster	-10592
mart	-10593
▁entitled	-10594
▁Global	-10595
▁Gabri	-10596
▁Crow	-10597
▁engineering	-10598
ride	-10599
▁pod	-10600
▁89	-10601
atile	-10602
▁openly	-10603
▁touched	-10604
▁Online	-10605
▁Sturridge	-10606
▁pledge	-10607
▁revenge	-10608
▁toug	-10609
▁Lloyd	-10610
▁Haiti	-10611
▁fixed	-10612
▁Masters	-10613
▁cigarette	-10614
▁buyers	-10615
▁mirror	-10616
▁represents	-10617
▁140	-10618
▁Liberia	-10619
▁consumption	-10620
▁ash	-10621
▁compare	-10622
▁Pictured	-10623
▁cited	-10624
▁Celebr	-10625
▁harness	-10626
▁uncertain	-10627
▁qualifying	-10628
acare	-10629
▁Europa	-10630
▁delayed	-10631
▁constitu	-10632
▁funded	-10633
alo	-10634
▁Mom	-10635
▁Through	-10636
▁diagnose	-10637
ophile	-10638
▁bitter	-10639
▁prel	-10640
▁Louise	-10641
▁FOR	-10642
▁Wool	-10643
▁puzzle	-10644
▁Ryder	-10645
▁relation	-10646
▁Balt	-10647
▁Bernard	-10648
▁Ant	-10649
▁affidav	-10650
▁Poll	-10651
▁depos	-10652
▁Farage	-10653
▁Inn	-10654
ika	-10655
▁Exec	-10656
▁cops	-10657
▁suspend	-10658
▁forge	-10659
▁incess	-10660
▁competitive	-10661
▁Abdul	-10662
▁misd	-10663
▁dyn	-10664
▁resigned	-10665
▁flown	-10666
▁li	-10667
had	-10668
astian	-10669
▁giants	-10670
▁deficit	-10671
lu	-10672
agement	-10673
▁Samuel	-10674
▁statistics	-10675
▁160	-10676
▁faster	-10677
▁pronounced	-10678
▁doesnt	-10679
▁dresses	-10680
▁taxpayer	-10681
▁Obamacare	-10682
▁employers	-10683
▁Way	-10684
▁evoke	-10685
▁rever	-10686
▁undec	-10687
▁Alonso	-10688
▁calories	-10689
▁Greek	-10690
urst	-10691
▁Bath	-10692
oping	-10693
elta	-10694
▁Orle	-10695
▁spirits	-10696
▁Henderson	-10697
cuff	-10698
▁wrest	-10699
▁expecting	-10700
▁header	-10701
▁prognost	-10702
yers	-10703
▁Barnes	-10704
▁suffice	-10705
▁currency	-10706
▁whale	-10707
▁bleeding	-10708
▁sponsors	-10709
▁Until	-10710
▁intox	-10711
▁Toure	-10712
▁welcom	-10713
owned	-10714
▁demo	-10715
▁Bieber	-10716
▁unidentified	-10717
▁burden	-10718
▁accidentally	-10719
▁DJ	-10720
▁Nik	-10721
▁seal	-10722
▁Robertson	-10723
▁Spani	-10724
▁Leader	-10725
foot	-10726
▁Base	-10727
▁Thames	-10728
▁library	-10729
▁fed	-10730
▁beam	-10731
▁trailer	-10732
▁ineffect	-10733
▁Front	-10734
▁gover	-10735
acc	-10736
mont	-10737
▁Lan	-10738
▁Obs	-10739
orset	-10740
▁Above	-10741
▁polar	-10742
▁spots	-10743
▁subsid	-10744
▁Ath	-10745
▁painful	-10746
▁destruct	-10747
▁Mayweather	-10748
log	-10749
▁devolve	-10750
▁comprehens	-10751
▁edition	-10752
▁Ahmad	-10753
▁situations	-10754
▁seiz	-10755
▁Orleans	-10756
▁mol	-10757
▁choices	-10758
▁importune	-10759
▁Lebanon	-10760
▁pulling	-10761
▁lip	-10762
▁scientist	-10763
▁admonish	-10764
imore	-10765
▁Heathrow	-10766
▁attackers	-10767
▁ric	-10768
▁Barn	-10769
▁translate	-10770
▁Independent	-10771
▁protected	-10772
▁matur	-10773
▁Swedish	-10774
▁summate	-10775
▁appearing	-10776
▁fatally	-10777
▁fiancee	-10778
▁forebode	-10779
oup	-10780
▁calend	-10781
▁losses	-10782
▁ordinary	-10783
▁Keane	-10784
▁firearms	-10785
▁creatures	-10786
▁unacceptable	-10787
yang	-10788
▁Arn	-10789
▁vowed	-10790
▁unrest	-10791
▁Field	-10792
▁Yan	-10793
▁Country	-10794
▁sod	-10795
▁Brady	-10796
▁Stephan	-10797
▁displace	-10798
▁insec	-10799
▁Next	-10800
stream	-10801
▁executives	-10802
▁stup	-10803
▁lobby	-10804
▁Fulham	-10805
▁indicated	-10806
▁remarkable	-10807
▁hood	-10808
indle	-10809
▁Alexand	-10810
▁dangers	-10811
▁Zh	-10812
▁Delhi	-10813
▁ineffectual	-10814
▁Thai	-10815
▁governing	-10816
unct	-10817
fits	-10818
quer	-10819
▁closure	-10820
▁93	-10821
igation	-10822
▁substantiate	-10823
▁acres	-10824
▁Gay	-10825
▁singing	-10826
▁apologise	-10827
▁comeback	-10828
▁portrait	-10829
▁Detectives	-10830
▁preliminary	-10831
▁vap	-10832
▁tired	-10833
▁disreg	-10834
▁Olympian	-10835
▁percentage	-10836
▁Orange	-10837
▁embrace	-10838
▁gathering	-10839
osan	-10840
▁liked	-10841
▁Bloomberg	-10842
uers	-10843
▁indisput	-10844
▁memor	-10845
▁steel	-10846
▁qualif	-10847
▁basement	-10848
▁Peace	-10849
annon	-10850
intendent	-10851
▁dramatically	-10852
▁franch	-10853
minate	-10854
uman	-10855
▁III	-10856
▁adapt	-10857
walk	-10858
▁Battle	-10859
▁divers	-10860
▁Joshua	-10861
▁Ta	-10862
▁fitted	-10863
▁Guardian	-10864
▁Lock	-10865
▁predicted	-10866
▁enormous	-10867
HO	-10868
▁Slov	-10869
▁disregard	-10870
anor	-10871
▁metre	-10872
▁jewellery	-10873
▁pornography	-10874
▁typical	-10875
fa	-10876
▁institute	-10877
lain	-10878
▁organs	-10879
▁Hes	-10880
▁Leone	-10881
▁alike	-10882
▁maker	-10883
▁Rand	-10884
▁hostages	-10885
▁publication	-10886
▁Saints	-10887
▁strongly	-10888
▁techniques	-10889
PS	-10890
▁feeding	-10891
avi	-10892
▁seas	-10893
▁gravel	-10894
rust	-10895
▁tons	-10896
▁unnamed	-10897
▁phenomen	-10898
▁demonstrators	-10899
onder	-10900
▁abne	-10901
▁humble	-10902
▁abnegate	-10903
▁somewhat	-10904
▁croc	-10905
▁benefic	-10906
▁radiation	-10907
▁Weather	-10908
▁sweep	-10909
▁borrow	-10910
▁Carroll	-10911
▁rab	-10912
▁Blues	-10913
▁Loc	-10914
shine	-10915
▁Hitler	-10916
▁Death	-10917
▁Palin	-10918
▁frequent	-10919
▁vary	-10920
▁forcing	-10921
▁handcuff	-10922
▁downtown	-10923
sons	-10924
▁vessels	-10925
▁prognosticate	-10926
uting	-10927
▁pupil	-10928
▁nervous	-10929
▁protr	-10930
▁deck	-10931
▁Information	-10932
aired	-10933
▁managing	-10934
insula	-10935
▁Nicholas	-10936
▁Holder	-10937
▁networking	-10938
▁Arthur	-10939
▁sacked	-10940
▁senator	-10941
▁quarters	-10942
▁intercept	-10943
▁indisputable	-10944
prise	-10945
▁elite	-10946
▁Stevens	-10947
▁TM	-10948
onies	-10949
idance	-10950
▁mainly	-10951
▁usable	-10952
▁Cai	-10953
▁sheet	-10954
▁Hey	-10955
▁Abbey	-10956
perate	-10957
arn	-10958
apolis	-10959
breaking	-10960
▁briefly	-10961
▁Lin	-10962
▁underground	-10963
olo	-10964
▁confessed	-10965
▁nav	-10966
ussia	-10967
▁Mitt	-10968
▁Hud	-10969
▁trash	-10970
▁Bear	-10971
▁screens	-10972
atical	-10973
ario	-10974
▁lorry	-10975
▁Armed	-10976
▁Harvard	-10977
▁hind	-10978
▁Argentine	-10979
▁Pep	-10980
eenth	-10981
▁wreckage	-10982
affe	-10983
▁Libyan	-10984
▁quant	-10985
▁admitting	-10986
▁studying	-10987
▁aunt	-10988
▁Line	-10989
▁sooner	-10990
ieves	-10991
▁vocal	-10992
rient	-10993
▁IV	-10994
▁Hop	-10995
neath	-10996
▁lane	-10997
▁grief	-10998
▁manip	-10999
▁Happy	-11000
▁favorable	-11001
▁Aber	-11002
ontin	-11003
▁recreate	-11004
▁motive	-11005
▁Bennett	-11006
▁detective	-11007
▁IP	-11008
▁donor	-11009
▁harder	-11010
▁scrap	-11011
▁garner	-11012
▁ET	-11013
▁promising	-11014
▁Richardson	-11015
itol	-11016
▁Guinea	-11017
▁opposed	-11018
▁booked	-11019
▁continent	-11020
▁comparison	-11021
▁Rogers	-11022
▁clinical	-11023
▁absent	-11024
▁crackdown	-11025
▁Current	-11026
▁cm	-11027
▁monish	-11028
▁tunnel	-11029
▁posing	-11030
▁primal	-11031
▁Julian	-11032
▁caption	-11033
▁Bot	-11034
▁neuro	-11035
▁speaks	-11036
RS	-11037
etown	-11038
ouring	-11039
▁dementia	-11040
▁traumatic	-11041
▁attractive	-11042
▁foss	-11043
▁load	-11044
ulse	-11045
▁Serie	-11046
▁snake	-11047
▁organis	-11048
▁speeds	-11049
▁announ	-11050
▁spacecraft	-11051
▁files	-11052
bling	-11053
▁Critics	-11054
fordshire	-11055
▁Casey	-11056
▁shorts	-11057
▁legion	-11058
▁fines	-11059
▁relevant	-11060
▁stabbing	-11061
▁onward	-11062
aved	-11063
▁Eti	-11064
▁cure	-11065
▁Colin	-11066
▁Jerry	-11067
▁liken	-11068
▁handgun	-11069
▁endorse	-11070
▁onwards	-11071
uable	-11072
▁hint	-11073
▁affidavit	-11074
▁soph	-11075
▁rubbish	-11076
▁DC	-11077
▁brings	-11078
▁eighth	-11079
iddling	-11080
▁picking	-11081
inter	-11082
olith	-11083
▁dat	-11084
▁Andrea	-11085
▁furniture	-11086
▁mountains	-11087
▁wishes	-11088
▁retreat	-11089
▁couldnt	-11090
▁illegally	-11091
▁Music	-11092
▁bulge	-11093
▁steady	-11094
▁bury	-11095
▁gallery	-11096
▁strengt	-11097
▁photographed	-11098
▁Cho	-11099
aic	-11100
▁Perth	-11101
▁Peterson	-11102
▁thigh	-11103
▁Polish	-11104
▁boxing	-11105
▁rating	-11106
▁treating	-11107
▁Tyler	-11108
▁Thatcher	-11109
▁aggravated	-11110
inqu	-11111
▁Ky	-11112
ouses	-11113
▁Natal	-11114
▁unlaw	-11115
▁circuit	-11116
▁searches	-11117
▁residential	-11118
▁bron	-11119
▁phr	-11120
▁incorrect	-11121
▁Sullivan	-11122
▁begun	-11123
▁lovely	-11124
▁twenty	-11125
▁expectations	-11126
▁Unf	-11127
▁phase	-11128
▁Baltimore	-11129
▁promotion	-11130
▁Transportation	-11131
▁Within	-11132
▁bullets	-11133
▁debar	-11134
▁ranks	-11135
▁nursing	-11136
hner	-11137
ohan	-11138
vereign	-11139
▁Dominic	-11140
▁sovereign	-11141
▁pile	-11142
▁civic	-11143
▁evince	-11144
enz	-11145
▁reads	-11146
▁ratings	-11147
▁creature	-11148
▁Age	-11149
▁discussed	-11150
▁Fo	-11151
▁cargo	-11152
▁herald	-11153
▁corporate	-11154
ilia	-11155
ierre	-11156
▁exerc	-11157
▁Formosan	-11158
▁advertise	-11159
▁represented	-11160
▁relaxed	-11161
▁vanish	-11162
▁notorious	-11163
▁directed	-11164
una	-11165
▁Berry	-11166
▁contracts	-11167
ecess	-11168
▁crus	-11169
▁swallow	-11170
▁Richards	-11171
▁Travel	-11172
▁shake	-11173
▁queen	-11174
▁supporter	-11175
▁vet	-11176
▁existence	-11177
▁mourn	-11178
raging	-11179
▁blanket	-11180
inee	-11181
▁Teh	-11182
ifford	-11183
▁vaccine	-11184
found	-11185
▁frozen	-11186
▁gesture	-11187
▁Welbeck	-11188
▁separated	-11189
▁enroll	-11190
▁shine	-11191
▁Blackpool	-11192
date	-11193
yon	-11194
▁Clay	-11195
▁newspapers	-11196
▁cher	-11197
▁dign	-11198
▁constant	-11199
▁representing	-11200
▁thrust	-11201
▁Melissa	-11202
▁idle	-11203
ante	-11204
▁Chad	-11205
ibilities	-11206
▁dedicate	-11207
▁frustration	-11208
▁ranked	-11209
OWN	-11210
▁Ep	-11211
amine	-11212
▁Neville	-11213
▁signature	-11214
nish	-11215
▁Opp	-11216
▁Moslem	-11217
▁96	-11218
▁Maine	-11219
▁waist	-11220
▁wrapped	-11221
▁cleaning	-11222
▁corrobor	-11223
▁recession	-11224
▁mm	-11225
ointing	-11226
▁adjoin	-11227
▁Imm	-11228
sightful	-11229
▁profound	-11230
▁coaches	-11231
▁rehabil	-11232
umer	-11233
▁viewed	-11234
▁Fashion	-11235
▁Karl	-11236
▁damaging	-11237
▁referring	-11238
▁Mason	-11239
▁underwear	-11240
▁commissioner	-11241
▁Tax	-11242
▁presidency	-11243
▁perplex	-11244
▁Kel	-11245
▁Gadh	-11246
▁Shah	-11247
▁pave	-11248
pher	-11249
▁Bird	-11250
▁thirds	-11251
▁accompanied	-11252
▁competitions	-11253
▁passes	-11254
▁Trip	-11255
▁deemed	-11256
▁slap	-11257
▁Trag	-11258
▁pants	-11259
▁underneath	-11260
▁renowned	-11261
▁Wigan	-11262
iments	-11263
▁incessantly	-11264
▁Fle	-11265
▁chemicals	-11266
▁disability	-11267
▁Wi	-11268
erts	-11269
▁jets	-11270
▁nep	-11271
▁removal	-11272
▁tribunal	-11273
▁Shock	-11274
aha	-11275
▁Dak	-11276
▁makers	-11277
▁equate	-11278
▁ads	-11279
▁guidance	-11280
von	-11281
▁convince	-11282
▁yacht	-11283
▁marathon	-11284
▁Suff	-11285
▁painted	-11286
aders	-11287
▁underc	-11288
▁conven	-11289
▁neglig	-11290
olds	-11291
itutes	-11292
▁infam	-11293
▁nationwide	-11294
▁Durham	-11295
▁Chall	-11296
▁wings	-11297
iah	-11298
▁Patri	-11299
entially	-11300
▁Aj	-11301
▁gadget	-11302
▁Dri	-11303
▁Dise	-11304
▁blond	-11305
▁sway	-11306
▁Hunter	-11307
▁billionaire	-11308
▁coastal	-11309
▁tooth	-11310
▁redact	-11311
▁neat	-11312
▁useable	-11313
▁Poche	-11314
▁pizza	-11315
▁Merkel	-11316
▁Cob	-11317
▁gunshot	-11318
▁Liberal	-11319
▁Middleton	-11320
▁pad	-11321
▁Hind	-11322
chant	-11323
▁Boris	-11324
▁amaze	-11325
▁Resp	-11326
▁ordin	-11327
▁texts	-11328
▁psychological	-11329
▁shif	-11330
▁insult	-11331
emark	-11332
▁diving	-11333
▁Brid	-11334
igious	-11335
▁crossed	-11336
▁Staffordshire	-11337
uder	-11338
▁defensive	-11339
▁complicated	-11340
▁smash	-11341
▁abd	-11342
iere	-11343
reek	-11344
▁Reds	-11345
▁dragged	-11346
▁traveled	-11347
pat	-11348
▁isolated	-11349
▁demonstrations	-11350
▁epid	-11351
▁optim	-11352
▁underwent	-11353
▁Ast	-11354
▁intem	-11355
▁utterly	-11356
▁lesson	-11357
▁achieved	-11358
▁Federation	-11359
oga	-11360
▁Cairo	-11361
▁donated	-11362
▁initiate	-11363
▁pic	-11364
▁Manager	-11365
▁Lancaster	-11366
▁Sau	-11367
▁DOWN	-11368
▁Dad	-11369
▁cooking	-11370
▁nowhere	-11371
▁Liam	-11372
▁orange	-11373
▁bomber	-11374
▁forrader	-11375
▁drones	-11376
▁Chamber	-11377
▁targeting	-11378
▁helmet	-11379
▁Gadhafi	-11380
▁dil	-11381
▁Hist	-11382
▁Award	-11383
▁Norwich	-11384
▁nickname	-11385
▁repay	-11386
▁discipline	-11387
obil	-11388
▁subsequent	-11389
▁battling	-11390
ampa	-11391
folk	-11392
owing	-11393
▁Again	-11394
▁inner	-11395
olithic	-11396
▁portion	-11397
▁qualify	-11398
hers	-11399
▁indication	-11400
▁progressively	-11401
▁Alv	-11402
▁Blake	-11403
▁pluck	-11404
▁mosque	-11405
▁illustr	-11406
▁shit	-11407
▁Ghana	-11408
▁nerve	-11409
▁yearly	-11410
▁studied	-11411
iginal	-11412
▁interven	-11413
▁mortgage	-11414
▁professionals	-11415
▁Pap	-11416
▁Interior	-11417
▁Pay	-11418
▁tune	-11419
▁nephew	-11420
▁unlo	-11421
▁carpet	-11422
▁Alice	-11423
▁Boehner	-11424
▁aims	-11425
▁Sophie	-11426
▁AS	-11427
▁110	-11428
▁Hisp	-11429
tail	-11430
▁dolph	-11431
▁Christine	-11432
▁vegetables	-11433
▁uk	-11434
▁stool	-11435
▁replete	-11436
▁Hurricane	-11437
ghai	-11438
▁Said	-11439
▁scare	-11440
▁upcoming	-11441
▁balloon	-11442
▁Sold	-11443
▁bind	-11444
hap	-11445
▁Fans	-11446
▁Border	-11447
▁Dorset	-11448
▁Preston	-11449
▁apologised	-11450
▁Dy	-11451
▁motorists	-11452
▁rust	-11453
▁Speaker	-11454
▁Homeland	-11455
▁Pa	-11456
▁outdo	-11457
▁ferry	-11458
▁travellers	-11459
▁dining	-11460
▁compass	-11461
▁bewilder	-11462
▁statue	-11463
dam	-11464
▁1988	-11465
▁stupid	-11466
▁Jacob	-11467
▁readers	-11468
▁instructions	-11469
▁peach	-11470
▁downward	-11471
iao	-11472
▁semif	-11473
▁leather	-11474
▁perpetually	-11475
aka	-11476
▁Prim	-11477
▁Jeffrey	-11478
▁acid	-11479
▁moral	-11480
▁202	-11481
dling	-11482
▁Salv	-11483
▁seemingly	-11484
▁shooter	-11485
▁analysts	-11486
▁Bald	-11487
▁breat	-11488
▁RSP	-11489
▁obser	-11490
▁Potter	-11491
bye	-11492
ext	-11493
▁Gas	-11494
▁Tib	-11495
▁Division	-11496
▁patterns	-11497
oples	-11498
▁1986	-11499
▁rage	-11500
atural	-11501
pple	-11502
▁Crimin	-11503
▁consecut	-11504
opper	-11505
▁violations	-11506
pert	-11507
▁Tob	-11508
▁Gene	-11509
osa	-11510
▁academy	-11511
▁fulfill	-11512
▁Wildlife	-11513
▁beds	-11514
gi	-11515
▁Jama	-11516
▁corn	-11517
▁numb	-11518
▁preca	-11519
▁slammed	-11520
▁realized	-11521
▁Austria	-11522
▁grandson	-11523
▁Claim	-11524
erm	-11525
▁theater	-11526
▁charities	-11527
▁rarely	-11528
▁Ele	-11529
▁exception	-11530
▁promises	-11531
▁baffle	-11532
▁Glass	-11533
▁suits	-11534
▁Phillip	-11535
▁endanger	-11536
active	-11537
issions	-11538
▁Got	-11539
▁Nash	-11540
▁radar	-11541
ROLL	-11542
▁stops	-11543
▁warming	-11544
▁Buff	-11545
uz	-11546
front	-11547
ippers	-11548
▁confine	-11549
▁leap	-11550
▁Senior	-11551
▁heels	-11552
▁trim	-11553
▁recommended	-11554
lett	-11555
▁exploit	-11556
▁Dian	-11557
▁arts	-11558
▁beaches	-11559
▁everywhere	-11560
▁infections	-11561
▁wand	-11562
▁firmly	-11563
▁Naz	-11564
▁Stanley	-11565
▁spaces	-11566
jud	-11567
▁fox	-11568
ighed	-11569
▁Rest	-11570
▁hometown	-11571
▁revelations	-11572
ousand	-11573
▁Intellig	-11574
▁parks	-11575
▁addressed	-11576
▁SCROLL	-11577
▁teammate	-11578
▁producers	-11579
SE	-11580
▁leaked	-11581
▁98	-11582
orton	-11583
▁engineers	-11584
▁Christians	-11585
bul	-11586
▁powered	-11587
▁asleep	-11588
▁autumn	-11589
▁forc	-11590
▁Lucy	-11591
▁beside	-11592
▁ranking	-11593
▁Arkansas	-11594
▁prince	-11595
▁Lions	-11596
▁campaigners	-11597
zone	-11598
▁TSA	-11599
▁difficulty	-11600
▁Bever	-11601
▁Chairman	-11602
▁minuscule	-11603
▁diplomatic	-11604
rera	-11605
▁imposed	-11606
▁peaceful	-11607
▁schoolgirl	-11608
▁Ramsey	-11609
sein	-11610
ylan	-11611
▁releg	-11612
▁Capitol	-11613
▁bedrooms	-11614
▁loaded	-11615
▁piss	-11616
▁decisive	-11617
▁purchased	-11618
iola	-11619
▁emotions	-11620
▁commute	-11621
▁calendar	-11622
aman	-11623
▁scam	-11624
alle	-11625
grat	-11626
aines	-11627
▁Linda	-11628
▁Warner	-11629
▁ceiling	-11630
▁perspective	-11631
ht	-11632
▁invent	-11633
▁veracious	-11634
▁Pochettino	-11635
adi	-11636
zes	-11637
▁Moss	-11638
erb	-11639
▁bend	-11640
▁empath	-11641
▁hij	-11642
▁Morrison	-11643
▁executed	-11644
▁Jar	-11645
oric	-11646
▁Hayes	-11647
▁flower	-11648
▁accurate	-11649
▁surrender	-11650
rum	-11651
▁ts	-11652
▁Dead	-11653
▁antib	-11654
▁trucks	-11655
▁apprehend	-11656
▁arguments	-11657
ouds	-11658
▁posture	-11659
oker	-11660
▁History	-11661
itches	-11662
▁hosted	-11663
▁persons	-11664
▁predomin	-11665
▁Anti	-11666
▁Military	-11667
▁ignored	-11668
hedral	-11669
▁Lanka	-11670
▁wanting	-11671
▁minded	-11672
▁Eri	-11673
▁hazard	-11674
▁borders	-11675
▁preparation	-11676
▁employed	-11677
▁Cold	-11678
▁engines	-11679
▁retailers	-11680
▁prescription	-11681
▁premier	-11682
▁arise	-11683
▁Norfolk	-11684
▁evident	-11685
plane	-11686
itched	-11687
▁Persian	-11688
▁slump	-11689
▁genetic	-11690
▁Ministers	-11691
▁Hung	-11692
▁Raj	-11693
▁Cuban	-11694
▁railway	-11695
entimes	-11696
▁Ecu	-11697
cillor	-11698
▁startle	-11699
▁reasonable	-11700
▁rav	-11701
▁inev	-11702
▁McCar	-11703
casters	-11704
▁scrutiny	-11705
▁allegation	-11706
▁involves	-11707
▁adventure	-11708
▁Rory	-11709
▁demonstration	-11710
▁gown	-11711
respons	-11712
▁banking	-11713
▁Executive	-11714
▁newborn	-11715
▁les	-11716
▁Equ	-11717
▁Sale	-11718
nie	-11719
▁compromise	-11720
venture	-11721
▁stance	-11722
▁welcomed	-11723
▁Adeb	-11724
▁Girls	-11725
▁improvement	-11726
▁Fat	-11727
▁Lang	-11728
▁certific	-11729
▁criticized	-11730
▁elaborate	-11731
▁Assistant	-11732
▁explosive	-11733
▁Garden	-11734
▁creative	-11735
▁fairly	-11736
▁punched	-11737
▁missions	-11738
▁centuries	-11739
▁prey	-11740
▁intimid	-11741
▁margin	-11742
▁humanitarian	-11743
▁Alz	-11744
onese	-11745
▁sect	-11746
iating	-11747
▁Abdullah	-11748
ptic	-11749
▁expans	-11750
amic	-11751
▁Lenn	-11752
▁aide	-11753
ariably	-11754
▁horm	-11755
▁Highway	-11756
▁deputies	-11757
▁anonymous	-11758
igers	-11759
▁menu	-11760
▁lets	-11761
▁raging	-11762
▁quoted	-11763
▁watches	-11764
▁Webb	-11765
▁missiles	-11766
▁extremist	-11767
▁Motor	-11768
▁circle	-11769
▁Coroner	-11770
▁stability	-11771
▁Cov	-11772
▁Hoff	-11773
▁invariably	-11774
▁Prevention	-11775
▁uncommitted	-11776
▁Thanksgiving	-11777
▁visa	-11778
▁absor	-11779
▁secured	-11780
▁falls	-11781
▁earmark	-11782
▁proportion	-11783
ski	-11784
hurst	-11785
▁Everything	-11786
▁bic	-11787
amel	-11788
▁Arctic	-11789
▁incite	-11790
▁tube	-11791
▁Julia	-11792
▁Command	-11793
▁longtime	-11794
▁oftentimes	-11795
bod	-11796
▁Gw	-11797
▁Nipp	-11798
▁SA	-11799
oning	-11800
▁1982	-11801
▁Barca	-11802
▁condol	-11803
▁lightning	-11804
▁universities	-11805
▁unions	-11806
viously	-11807
▁citing	-11808
▁battles	-11809
▁Rah	-11810
▁Whether	-11811
▁helicopters	-11812
▁smartphones	-11813
alez	-11814
▁wrist	-11815
▁reserv	-11816
▁playact	-11817
▁weren	-11818
emies	-11819
▁ignore	-11820
▁context	-11821
▁1984	-11822
▁Reed	-11823
▁settled	-11824
uspicious	-11825
parents	-11826
▁leaf	-11827
avez	-11828
▁mane	-11829
▁Denmark	-11830
▁astonishing	-11831
▁Corp	-11832
munition	-11833
▁accidents	-11834
▁prosecute	-11835
▁Wils	-11836
fortable	-11837
▁Coleman	-11838
▁gangs	-11839
▁suffers	-11840
▁Tehran	-11841
▁wal	-11842
▁wield	-11843
▁congrat	-11844
▁distinctive	-11845
▁Own	-11846
▁barrier	-11847
▁presents	-11848
▁Chavez	-11849
napped	-11850
▁temporarily	-11851
▁finishing	-11852
▁description	-11853
▁purposes	-11854
▁fundraising	-11855
▁politically	-11856
▁Hell	-11857
▁auth	-11858
▁Match	-11859
▁eB	-11860
▁outd	-11861
▁wheels	-11862
▁Zimb	-11863
abad	-11864
▁solo	-11865
▁Spaniard	-11866
▁coaching	-11867
▁romantic	-11868
▁excellent	-11869
izon	-11870
▁Lux	-11871
▁bung	-11872
ortunate	-11873
roe	-11874
▁generous	-11875
rod	-11876
▁Pie	-11877
ivided	-11878
▁ghost	-11879
▁sharks	-11880
▁reduction	-11881
BO	-11882
▁jeans	-11883
▁trademark	-11884
▁span	-11885
▁jokes	-11886
▁pharm	-11887
▁protrude	-11888
▁roleplay	-11889
▁Robb	-11890
▁Norman	-11891
▁suggestion	-11892
▁tracking	-11893
▁highlights	-11894
▁breed	-11895
▁doubly	-11896
▁deployed	-11897
▁Maybe	-11898
doch	-11899
▁fixture	-11900
▁dire	-11901
▁Scots	-11902
▁expression	-11903
▁Vik	-11904
▁climbing	-11905
▁injure	-11906
aternary	-11907
▁conservation	-11908
▁requirements	-11909
▁anchor	-11910
▁tongue	-11911
▁Alzheim	-11912
▁subjects	-11913
▁bronze	-11914
▁lethal	-11915
▁puddle	-11916
▁beloved	-11917
▁encouraging	-11918
▁cancelled	-11919
▁accommodation	-11920
▁Beth	-11921
▁deleg	-11922
▁researcher	-11923
▁Yah	-11924
ript	-11925
▁Heather	-11926
▁Marathon	-11927
▁legally	-11928
▁Bali	-11929
▁Later	-11930
▁Prize	-11931
▁loans	-11932
▁selected	-11933
▁Firef	-11934
▁Pad	-11935
▁ammunition	-11936
▁Organization	-11937
▁criticise	-11938
izer	-11939
▁Harvey	-11940
▁publicity	-11941
lusive	-11942
▁Ug	-11943
▁asks	-11944
▁flags	-11945
▁Zimbab	-11946
▁Diamond	-11947
▁fathers	-11948
▁miracle	-11949
▁Management	-11950
onte	-11951
▁monarch	-11952
▁pedest	-11953
▁corroborate	-11954
▁Cohen	-11955
▁stupefy	-11956
▁crap	-11957
▁mart	-11958
tenance	-11959
▁publically	-11960
▁tub	-11961
▁Golf	-11962
▁defined	-11963
▁MS	-11964
▁Mes	-11965
▁Stef	-11966
▁Britt	-11967
▁aviation	-11968
▁quaternary	-11969
▁750	-11970
agles	-11971
▁Pick	-11972
ociate	-11973
▁Patrol	-11974
daughter	-11975
▁cruelty	-11976
▁requested	-11977
assing	-11978
▁signals	-11979
iy	-11980
▁Middles	-11981
▁Imp	-11982
▁wrap	-11983
▁Berk	-11984
▁Being	-11985
▁affects	-11986
▁Unfortunately	-11987
▁evil	-11988
▁Thor	-11989
▁disposed	-11990
▁fu	-11991
▁copies	-11992
ozy	-11993
▁Esp	-11994
▁usher	-11995
▁dishon	-11996
▁consecutive	-11997
▁gren	-11998
▁Development	-11999
▁euros	-12000
igration	-12001
▁Cox	-12002
▁Sunni	-12003
▁kinds	-12004
▁Weekly	-12005
▁Mountain	-12006
▁interrupt	-12007
▁extension	-12008
▁monumental	-12009
▁organised	-12010
izant	-12011
▁Kane	-12012
▁Mors	-12013
▁Zimbabwe	-12014
▁junior	-12015
▁fatigue	-12016
▁ownership	-12017
rics	-12018
▁Marco	-12019
▁fisher	-12020
▁wax	-12021
▁admin	-12022
▁updated	-12023
▁thousand	-12024
▁None	-12025
▁caring	-12026
▁Murdoch	-12027
▁satisfact	-12028
orted	-12029
▁donation	-12030
inity	-12031
▁Ice	-12032
▁Ramos	-12033
▁habits	-12034
▁billions	-12035
▁Priv	-12036
▁sire	-12037
▁Ecuador	-12038
▁somewhere	-12039
▁Cav	-12040
▁crocod	-12041
▁franchise	-12042
▁Palestinians	-12043
▁structures	-12044
▁Rail	-12045
▁Disease	-12046
▁sham	-12047
▁carries	-12048
zai	-12049
▁Action	-12050
▁threaten	-12051
atched	-12052
▁voices	-12053
▁Lor	-12054
▁hik	-12055
▁sew	-12056
▁trop	-12057
hentic	-12058
▁fights	-12059
▁Shanghai	-12060
▁hale	-12061
mented	-12062
▁Croatia	-12063
▁stricken	-12064
▁Sebastian	-12065
▁belike	-12066
▁BP	-12067
▁Ext	-12068
▁Pil	-12069
▁cycling	-12070
▁Intelligence	-12071
▁Hob	-12072
▁999	-12073
▁peer	-12074
thouse	-12075
▁Dylan	-12076
▁Neither	-12077
▁phenomenon	-12078
▁Delta	-12079
▁Championships	-12080
▁bout	-12081
▁dropping	-12082
St	-12083
▁vom	-12084
▁locate	-12085
▁correctly	-12086
▁motivated	-12087
▁attrib	-12088
▁minds	-12089
ologies	-12090
▁Reagan	-12091
▁conduce	-12092
▁populate	-12093
▁weighed	-12094
▁FAA	-12095
otes	-12096
▁broadcaster	-12097
mir	-12098
▁BA	-12099
▁burial	-12100
rice	-12101
enter	-12102
▁ears	-12103
▁infer	-12104
▁PR	-12105
▁versions	-12106
▁Icel	-12107
▁Cre	-12108
▁bureau	-12109
▁Marshall	-12110
▁feedback	-12111
▁94	-12112
▁carefully	-12113
▁pensioner	-12114
▁bats	-12115
▁Nothing	-12116
▁sack	-12117
▁Harper	-12118
▁freak	-12119
onesome	-12120
▁terrified	-12121
▁Cit	-12122
▁barrel	-12123
▁backs	-12124
▁deline	-12125
▁siege	-12126
▁Cant	-12127
▁Curt	-12128
▁Magn	-12129
▁preferred	-12130
70	-12131
▁Kard	-12132
▁confused	-12133
▁practical	-12134
▁gig	-12135
▁coup	-12136
▁Corps	-12137
▁Nicolas	-12138
▁Wilshere	-12139
▁eager	-12140
▁rely	-12141
▁Jackie	-12142
▁attraction	-12143
▁Prop	-12144
▁lists	-12145
▁Ki	-12146
ghazi	-12147
▁shin	-12148
▁bloody	-12149
▁covers	-12150
▁endang	-12151
▁jumping	-12152
▁maturate	-12153
▁overwhelming	-12154
▁unrel	-12155
▁careful	-12156
▁costume	-12157
▁horrible	-12158
▁Pyong	-12159
▁casualties	-12160
▁contribution	-12161
▁Fig	-12162
▁Sharon	-12163
▁Technology	-12164
▁sweat	-12165
achers	-12166
IDS	-12167
▁tug	-12168
illas	-12169
▁pione	-12170
▁stalk	-12171
▁Stephanie	-12172
iary	-12173
inating	-12174
▁Half	-12175
▁flesh	-12176
▁lonesome	-12177
▁Scar	-12178
▁venture	-12179
▁Benghazi	-12180
▁oftt	-12181
▁Build	-12182
▁chiefs	-12183
▁ofttimes	-12184
▁Hag	-12185
▁furnish	-12186
obi	-12187
▁heritage	-12188
▁PSG	-12189
▁parliamentary	-12190
▁beef	-12191
adesh	-12192
▁fulfil	-12193
▁kidnapped	-12194
keys	-12195
elesc	-12196
▁horn	-12197
▁heel	-12198
▁pills	-12199
▁Express	-12200
▁ostr	-12201
▁Trade	-12202
▁barric	-12203
▁paintings	-12204
urbed	-12205
▁woke	-12206
▁surveil	-12207
▁Sha	-12208
▁coinc	-12209
▁Summer	-12210
▁dumped	-12211
▁Venezuela	-12212
▁upwards	-12213
▁Kal	-12214
▁basically	-12215
▁Tampa	-12216
▁healthcare	-12217
▁dumbfound	-12218
▁Portland	-12219
▁membership	-12220
▁gamb	-12221
▁stopping	-12222
▁delineate	-12223
▁rolled	-12224
▁shoulders	-12225
▁desperately	-12226
umper	-12227
▁mentioned	-12228
▁households	-12229
oppy	-12230
▁McLaren	-12231
▁Gonzalez	-12232
▁investigator	-12233
▁whales	-12234
asses	-12235
▁eBay	-12236
▁rend	-12237
▁lungs	-12238
▁determination	-12239
▁Criminal	-12240
▁lick	-12241
▁shoe	-12242
▁raids	-12243
▁teammates	-12244
▁maintained	-12245
tered	-12246
▁hed	-12247
▁examined	-12248
▁frustrated	-12249
▁uncomfortable	-12250
incing	-12251
▁embark	-12252
▁Program	-12253
iva	-12254
▁IT	-12255
▁RSPCA	-12256
through	-12257
▁Hudson	-12258
isp	-12259
▁apologize	-12260
50	-12261
ean	-12262
ulum	-12263
▁Sark	-12264
▁asteroid	-12265
▁complications	-12266
▁defec	-12267
▁Kardash	-12268
▁Franklin	-12269
▁Pictures	-12270
▁urinate	-12271
▁resulting	-12272
main	-12273
olan	-12274
atis	-12275
▁bount	-12276
▁confronted	-12277
▁formation	-12278
▁Portugues	-12279
▁producing	-12280
▁constitution	-12281
▁motivate	-12282
▁chronic	-12283
▁pollution	-12284
▁aggreg	-12285
▁Sex	-12286
ulating	-12287
▁Walsh	-12288
▁wash	-12289
▁refusing	-12290
▁echo	-12291
▁audio	-12292
▁bruise	-12293
▁secretly	-12294
▁Pyongyang	-12295
▁ditch	-12296
▁assaults	-12297
▁1979	-12298
▁Sergeant	-12299
▁arous	-12300
▁boarding	-12301
usalem	-12302
▁Tibet	-12303
▁plainly	-12304
▁shotgun	-12305
▁sensation	-12306
▁prank	-12307
▁operated	-12308
▁Blackburn	-12309
▁homosexual	-12310
▁inex	-12311
▁Mills	-12312
▁Jerusalem	-12313
quez	-12314
▁harb	-12315
opes	-12316
▁hill	-12317
▁restore	-12318
iler	-12319
wart	-12320
▁majestic	-12321
▁Tragic	-12322
▁murdering	-12323
▁Have	-12324
▁Portuguese	-12325
▁describing	-12326
▁criticize	-12327
▁Laz	-12328
▁cave	-12329
▁fitting	-12330
▁Bosn	-12331
▁renov	-12332
▁humanity	-12333
▁Capt	-12334
▁propel	-12335
▁Bundes	-12336
▁stranger	-12337
▁rings	-12338
lash	-12339
▁TMZ	-12340
▁Brew	-12341
▁prayer	-12342
▁Iceland	-12343
▁evacuated	-12344
▁maintenance	-12345
▁Never	-12346
▁lengthy	-12347
▁Tunis	-12348
▁trous	-12349
▁barg	-12350
itans	-12351
▁inmate	-12352
fold	-12353
▁purport	-12354
▁rebuild	-12355
CH	-12356
▁FDA	-12357
▁Liz	-12358
▁Englands	-12359
▁universe	-12360
▁sid	-12361
▁Financ	-12362
▁denote	-12363
▁breasts	-12364
▁compon	-12365
▁DV	-12366
iper	-12367
▁postdate	-12368
▁PGA	-12369
▁villages	-12370
▁photography	-12371
▁puppy	-12372
▁Iron	-12373
utenant	-12374
▁beliefs	-12375
▁commemorate	-12376
▁smooth	-12377
▁Hallowe	-12378
▁Nipponese	-12379
emouth	-12380
▁grandparents	-12381
▁fond	-12382
▁upright	-12383
▁firearm	-12384
iop	-12385
▁pir	-12386
▁stark	-12387
▁amateur	-12388
shaw	-12389
arity	-12390
▁muscles	-12391
▁policeman	-12392
▁tenacious	-12393
▁planets	-12394
▁talented	-12395
▁downwards	-12396
adequ	-12397
cribable	-12398
▁conj	-12399
▁Train	-12400
▁Coalition	-12401
▁dominated	-12402
▁Mub	-12403
▁Full	-12404
▁risky	-12405
aternity	-12406
▁periods	-12407
▁inspector	-12408
▁communicate	-12409
cony	-12410
▁accum	-12411
▁adoption	-12412
▁friendship	-12413
▁AN	-12414
gie	-12415
▁Glenn	-12416
▁Marines	-12417
▁letting	-12418
visor	-12419
▁gunmen	-12420
▁ingredients	-12421
▁imprisonment	-12422
▁resemb	-12423
▁Students	-12424
owder	-12425
▁shouting	-12426
onel	-12427
▁HS	-12428
▁Manning	-12429
▁Rolling	-12430
RE	-12431
▁Wells	-12432
▁cage	-12433
OT	-12434
▁Wes	-12435
abouts	-12436
ista	-12437
▁urging	-12438
▁Jenkins	-12439
▁freezing	-12440
▁brains	-12441
▁Etihad	-12442
heem	-12443
▁Gir	-12444
▁filing	-12445
▁inadequ	-12446
▁electrical	-12447
▁overh	-12448
▁Netany	-12449
▁rehabilitation	-12450
▁discount	-12451
▁deliberately	-12452
▁Lis	-12453
▁omit	-12454
▁punct	-12455
▁laptop	-12456
▁disagree	-12457
▁amput	-12458
▁Vick	-12459
▁angle	-12460
▁nonplus	-12461
▁speaker	-12462
▁Halloween	-12463
▁emissions	-12464
pit	-12465
▁justify	-12466
▁acre	-12467
▁distribution	-12468
▁brush	-12469
▁Nobody	-12470
▁peril	-12471
▁Peru	-12472
▁attach	-12473
▁refugee	-12474
▁confrontation	-12475
▁authentic	-12476
▁ov	-12477
▁Haram	-12478
▁strangers	-12479
▁Rab	-12480
▁Bryan	-12481
▁rapper	-12482
uer	-12483
▁450	-12484
▁terr	-12485
otype	-12486
▁Antar	-12487
▁Theresa	-12488
▁McCarthy	-12489
▁cultivate	-12490
▁icon	-12491
▁cartoon	-12492
▁Run	-12493
▁protecting	-12494
liga	-12495
▁balcony	-12496
▁importantly	-12497
ummox	-12498
▁boasts	-12499
▁orph	-12500
▁misdeme	-12501
▁revealing	-12502
rin	-12503
aria	-12504
reep	-12505
ommon	-12506
▁Amerind	-12507
▁flummox	-12508
▁slaughter	-12509
▁BT	-12510
▁myth	-12511
▁Hussein	-12512
▁slide	-12513
▁Burg	-12514
raneous	-12515
▁Felipe	-12516
▁define	-12517
▁BMW	-12518
▁Design	-12519
▁alerted	-12520
rina	-12521
▁suburban	-12522
▁troubled	-12523
▁125	-12524
▁acute	-12525
▁attendance	-12526
▁excitement	-12527
mand	-12528
▁1987	-12529
ao	-12530
aran	-12531
▁knot	-12532
▁Bened	-12533
▁woods	-12534
▁Allardy	-12535
▁py	-12536
lisher	-12537
loe	-12538
▁Alger	-12539
▁innocence	-12540
▁assaulting	-12541
▁deplorable	-12542
▁fiddle	-12543
▁peoples	-12544
▁outdoors	-12545
▁elephants	-12546
antan	-12547
▁Netanyahu	-12548
▁Bundesliga	-12549
▁deliberate	-12550
▁nomination	-12551
▁rises	-12552
▁installed	-12553
▁Rey	-12554
▁Shane	-12555
▁crusade	-12556
▁incomp	-12557
▁donors	-12558
▁stiff	-12559
▁monthly	-12560
▁confidential	-12561
ji	-12562
sa	-12563
erie	-12564
oren	-12565
▁equality	-12566
▁inspiring	-12567
▁thieves	-12568
▁fol	-12569
aments	-12570
▁entrepreneur	-12571
▁Nearly	-12572
▁Sche	-12573
▁qualified	-12574
▁Rica	-12575
▁eaten	-12576
▁rumours	-12577
▁Financial	-12578
▁Dawn	-12579
▁thief	-12580
▁ultra	-12581
▁uncovered	-12582
▁prostitution	-12583
▁swept	-12584
▁monolithic	-12585
angel	-12586
▁priest	-12587
▁sufficient	-12588
▁underwater	-12589
vised	-12590
▁stagn	-12591
▁tob	-12592
piece	-12593
▁flirt	-12594
▁measured	-12595
▁Past	-12596
▁effic	-12597
▁quote	-12598
▁Benz	-12599
▁Omar	-12600
▁duck	-12601
▁deton	-12602
▁volley	-12603
▁irre	-12604
▁educate	-12605
lon	-12606
▁countryside	-12607
▁keys	-12608
▁Petra	-12609
▁citizenship	-12610
▁uprise	-12611
▁stressed	-12612
▁Rud	-12613
▁magnanimous	-12614
▁extraneous	-12615
▁Doz	-12616
▁neut	-12617
▁Point	-12618
▁Andrews	-12619
▁shield	-12620
ieu	-12621
ige	-12622
▁Son	-12623
fers	-12624
▁Joan	-12625
▁advis	-12626
▁Garner	-12627
▁crushed	-12628
▁uncommon	-12629
rary	-12630
▁UKIP	-12631
▁System	-12632
▁happiness	-12633
anding	-12634
▁Bourn	-12635
▁smiling	-12636
ifications	-12637
occ	-12638
▁Target	-12639
enk	-12640
unami	-12641
▁chains	-12642
▁stairs	-12643
▁indef	-12644
▁coal	-12645
▁flung	-12646
▁Suffolk	-12647
▁hub	-12648
ims	-12649
▁cosm	-12650
▁mict	-12651
▁alterc	-12652
▁micturate	-12653
zed	-12654
▁iReport	-12655
▁protein	-12656
▁rubber	-12657
▁Ancel	-12658
▁passionate	-12659
▁Reports	-12660
▁infamous	-12661
▁Craw	-12662
uration	-12663
▁piddle	-12664
▁premium	-12665
▁councils	-12666
▁Dra	-12667
▁pel	-12668
▁nude	-12669
▁AP	-12670
▁Boko	-12671
▁Trump	-12672
▁Khal	-12673
▁surm	-12674
▁comprehensive	-12675
▁Ellis	-12676
▁achievement	-12677
dahl	-12678
▁owe	-12679
▁referable	-12680
▁triggered	-12681
▁Kaz	-12682
▁Pul	-12683
iates	-12684
▁AM	-12685
▁Sochi	-12686
▁considerable	-12687
▁dealt	-12688
▁Esc	-12689
▁carriage	-12690
▁Gram	-12691
▁Eddie	-12692
▁Raheem	-12693
▁Pearson	-12694
▁Indonesian	-12695
▁starring	-12696
▁Gran	-12697
▁weekly	-12698
▁defecate	-12699
▁Represent	-12700
▁imputable	-12701
brev	-12702
▁abbrev	-12703
▁outlets	-12704
▁Francois	-12705
▁inspection	-12706
charged	-12707
▁displays	-12708
▁sheer	-12709
▁Kob	-12710
▁manufacturers	-12711
▁Iraki	-12712
arak	-12713
▁inflation	-12714
▁privately	-12715
▁Nation	-12716
▁consistent	-12717
▁ridiculous	-12718
▁reviews	-12719
▁Lamb	-12720
▁prest	-12721
▁Engine	-12722
▁Easter	-12723
▁fastest	-12724
▁mystify	-12725
▁ranging	-12726
▁Carlo	-12727
▁gloves	-12728
▁consideration	-12729
▁sheep	-12730
idy	-12731
▁drought	-12732
▁improving	-12733
▁meanwhile	-12734
▁Pitts	-12735
▁Constitution	-12736
▁pledged	-12737
▁relinqu	-12738
▁VA	-12739
mal	-12740
▁Hazard	-12741
▁dissent	-12742
▁Novak	-12743
▁arguing	-12744
▁festive	-12745
▁Allardyce	-12746
▁Ton	-12747
▁touching	-12748
▁graphic	-12749
icians	-12750
▁ascribable	-12751
▁Dist	-12752
▁Bangl	-12753
▁companion	-12754
▁immigrant	-12755
▁isolation	-12756
fle	-12757
▁incorpor	-12758
▁97	-12759
▁longsighted	-12760
▁doubled	-12761
▁Flet	-12762
▁Ozil	-12763
▁timing	-12764
feld	-12765
▁suck	-12766
▁marriages	-12767
▁defeated	-12768
▁Emp	-12769
▁Along	-12770
▁dealer	-12771
▁laughing	-12772
▁Unlike	-12773
▁archae	-12774
▁competing	-12775
▁routes	-12776
▁lasted	-12777
▁supportive	-12778
awi	-12779
▁Rugby	-12780
oto	-12781
▁fict	-12782
▁skirt	-12783
▁undivided	-12784
▁coif	-12785
▁Market	-12786
▁Chi	-12787
▁Latin	-12788
▁Woman	-12789
▁Inside	-12790
▁hunger	-12791
habi	-12792
▁Holl	-12793
▁Mahm	-12794
▁guitar	-12795
▁divorced	-12796
▁approaching	-12797
just	-12798
epers	-12799
▁killers	-12800
iffer	-12801
▁uploaded	-12802
▁Dia	-12803
▁grocer	-12804
▁tobacco	-12805
▁developers	-12806
▁Beh	-12807
astrous	-12808
▁struggles	-12809
ourge	-12810
▁Move	-12811
▁Reading	-12812
▁passage	-12813
▁wrongdo	-12814
▁improper	-12815
▁downwardly	-12816
▁AIDS	-12817
▁backp	-12818
▁preter	-12819
bands	-12820
▁exped	-12821
▁designers	-12822
▁programmes	-12823
▁Gat	-12824
▁Amber	-12825
▁Village	-12826
▁awaiting	-12827
iago	-12828
▁Susp	-12829
EC	-12830
▁marine	-12831
▁breathe	-12832
▁recommendations	-12833
▁distressed	-12834
▁Len	-12835
ighting	-12836
uma	-12837
ogram	-12838
▁Norm	-12839
▁luxur	-12840
▁disturbing	-12841
SH	-12842
ships	-12843
▁thankful	-12844
iffs	-12845
raught	-12846
▁centers	-12847
▁staggering	-12848
▁drum	-12849
▁Ivory	-12850
▁detached	-12851
▁lowly	-12852
▁Search	-12853
FP	-12854
zi	-12855
ework	-12856
▁volcano	-12857
▁persuade	-12858
▁glamour	-12859
▁athletic	-12860
▁Jake	-12861
▁Kens	-12862
▁gene	-12863
▁minimal	-12864
▁Aviation	-12865
▁Ancelotti	-12866
▁propaganda	-12867
▁Si	-12868
▁boun	-12869
▁inflict	-12870
▁Falk	-12871
ailable	-12872
▁sensational	-12873
▁Schum	-12874
▁Romania	-12875
▁drained	-12876
▁mysterious	-12877
gart	-12878
▁dies	-12879
▁suing	-12880
▁Film	-12881
▁classified	-12882
▁Grey	-12883
▁bully	-12884
▁disappointing	-12885
▁manoeuv	-12886
▁speeding	-12887
▁coiffe	-12888
▁manufacturer	-12889
▁beforehand	-12890
▁WW	-12891
▁backlash	-12892
▁Bournemouth	-12893
▁datab	-12894
▁incon	-12895
▁leftover	-12896
ocate	-12897
▁regardless	-12898
een	-12899
ottage	-12900
▁Mersey	-12901
▁upward	-12902
▁disastrous	-12903
▁condolences	-12904
▁medium	-12905
▁Dakota	-12906
▁survivor	-12907
redit	-12908
rove	-12909
▁disqu	-12910
▁lovers	-12911
▁remembered	-12912
▁transportation	-12913
▁Aud	-12914
▁salv	-12915
▁authors	-12916
▁Hook	-12917
▁Chambers	-12918
▁Pam	-12919
▁unm	-12920
▁Dhabi	-12921
▁millionaire	-12922
▁launching	-12923
▁Vett	-12924
▁sensors	-12925
▁administer	-12926
▁drift	-12927
▁Catal	-12928
▁ostrac	-12929
▁kicking	-12930
▁Boxing	-12931
▁inadequate	-12932
▁et	-12933
▁Hem	-12934
affer	-12935
▁pray	-12936
▁Guy	-12937
▁Talk	-12938
aton	-12939
▁dominate	-12940
▁Wang	-12941
▁Workers	-12942
▁exploded	-12943
▁trousers	-12944
▁evolution	-12945
peak	-12946
zan	-12947
▁ancest	-12948
▁Carr	-12949
▁goodbye	-12950
uffle	-12951
▁whis	-12952
apper	-12953
▁Jobs	-12954
▁Kiev	-12955
▁inval	-12956
▁partly	-12957
▁Kos	-12958
▁dent	-12959
isha	-12960
▁Place	-12961
▁foresightful	-12962
▁tale	-12963
▁laser	-12964
secution	-12965
▁respectable	-12966
▁Coc	-12967
▁penet	-12968
itively	-12969
kok	-12970
rique	-12971
▁wider	-12972
▁homeown	-12973
▁Change	-12974
▁centres	-12975
▁Hugh	-12976
▁chamber	-12977
▁retentive	-12978
zo	-12979
rose	-12980
▁Connor	-12981
▁foresighted	-12982
▁arrangements	-12983
▁Bil	-12984
ologic	-12985
▁Vi	-12986
▁Lim	-12987
▁coiffure	-12988
▁overhaul	-12989
▁departments	-12990
leap	-12991
▁Rain	-12992
▁Song	-12993
▁grid	-12994
▁Break	-12995
▁snapped	-12996
▁pointing	-12997
▁1985	-12998
▁Salt	-12999
▁Wend	-13000
▁Ports	-13001
▁bonus	-13002
▁Sharap	-13003
▁reluct	-13004
▁gardens	-13005
eous	-13006
▁tanks	-13007
▁Madison	-13008
▁Teen	-13009
30	-13010
arma	-13011
▁savage	-13012
▁decrease	-13013
▁chip	-13014
▁Walter	-13015
▁harbour	-13016
▁overleap	-13017
▁champagne	-13018
▁perce	-13019
▁Dew	-13020
▁Pic	-13021
▁arra	-13022
ultural	-13023
▁Bashar	-13024
▁whereabouts	-13025
▁administrative	-13026
▁accur	-13027
▁terrific	-13028
action	-13029
▁Nobel	-13030
▁Natalie	-13031
▁remorse	-13032
bus	-13033
▁Ka	-13034
▁overs	-13035
▁Wallace	-13036
▁rh	-13037
orize	-13038
anches	-13039
missions	-13040
▁Colombian	-13041
▁theatre	-13042
▁Borussia	-13043
▁earnings	-13044
▁Passengers	-13045
▁Fun	-13046
▁sanct	-13047
bes	-13048
▁expense	-13049
di	-13050
iffe	-13051
▁inse	-13052
▁360	-13053
iggins	-13054
▁Sharapova	-13055
▁beard	-13056
▁shouldn	-13057
▁wars	-13058
▁quake	-13059
▁MA	-13060
amas	-13061
▁rans	-13062
▁wager	-13063
▁submar	-13064
▁epidemic	-13065
▁poisoning	-13066
ombe	-13067
▁navy	-13068
▁listening	-13069
▁travelers	-13070
▁prevented	-13071
▁Much	-13072
▁Guantan	-13073
▁cabinet	-13074
▁Bergdahl	-13075
liest	-13076
▁stere	-13077
▁vivid	-13078
▁Pas	-13079
▁hadn	-13080
▁affection	-13081
▁palace	-13082
▁childrens	-13083
▁guilt	-13084
ophob	-13085
perately	-13086
▁slipped	-13087
▁Sally	-13088
▁joked	-13089
▁Sheikh	-13090
▁Frenchman	-13091
▁pretermit	-13092
▁clouds	-13093
▁beneficial	-13094
▁Katherine	-13095
▁defenders	-13096
auc	-13097
▁dirty	-13098
▁charm	-13099
▁errors	-13100
▁Kenneth	-13101
▁Guantanamo	-13102
▁offs	-13103
▁unequ	-13104
boat	-13105
reeze	-13106
▁identification	-13107
▁provision	-13108
manuel	-13109
▁roots	-13110
▁Bangkok	-13111
▁Muham	-13112
▁Fletcher	-13113
▁penny	-13114
▁decently	-13115
▁Mang	-13116
▁valuable	-13117
▁Coul	-13118
▁terrifying	-13119
bot	-13120
▁Blas	-13121
▁Gibson	-13122
▁improb	-13123
▁hackers	-13124
▁unarmed	-13125
▁farsighted	-13126
▁undergoing	-13127
lar	-13128
isan	-13129
▁script	-13130
▁unrem	-13131
▁invoke	-13132
ulus	-13133
riculum	-13134
▁Almost	-13135
▁integrity	-13136
▁nu	-13137
▁purple	-13138
▁subway	-13139
▁Sara	-13140
▁farseeing	-13141
▁connections	-13142
aping	-13143
▁clues	-13144
▁stig	-13145
▁flour	-13146
▁Fu	-13147
▁IRS	-13148
▁Body	-13149
▁Event	-13150
▁wrongdoing	-13151
▁raping	-13152
▁Rut	-13153
▁recollective	-13154
▁Sac	-13155
▁chann	-13156
▁prospicient	-13157
▁musical	-13158
▁Conservatives	-13159
▁Iss	-13160
▁gut	-13161
fect	-13162
▁Unit	-13163
▁Paulo	-13164
▁unemployed	-13165
▁Sue	-13166
anmar	-13167
▁Eden	-13168
▁ladies	-13169
▁directors	-13170
▁Help	-13171
▁breakdown	-13172
▁Reyn	-13173
▁tomb	-13174
itudes	-13175
▁strengthen	-13176
acles	-13177
utical	-13178
adventure	-13179
▁cooperation	-13180
sted	-13181
married	-13182
▁unnecess	-13183
▁compassion	-13184
▁earning	-13185
▁IC	-13186
▁Sin	-13187
▁provoc	-13188
▁posters	-13189
▁airstrikes	-13190
ranean	-13191
▁immun	-13192
▁mortem	-13193
▁Mubarak	-13194
▁satisfy	-13195
▁institution	-13196
▁Myanmar	-13197
▁organisations	-13198
▁ina	-13199
▁lump	-13200
idi	-13201
▁Indust	-13202
▁Vettel	-13203
original	-13204
▁influential	-13205
▁lam	-13206
▁Mend	-13207
▁sanction	-13208
ricia	-13209
▁harsh	-13210
▁ladder	-13211
▁extradition	-13212
▁epic	-13213
▁Arabian	-13214
▁Blood	-13215
▁Winds	-13216
▁lottery	-13217
▁washing	-13218
▁smashing	-13219
▁Maid	-13220
▁stones	-13221
▁enam	-13222
▁dialogue	-13223
▁employer	-13224
▁honorable	-13225
▁breakthrough	-13226
▁pressing	-13227
▁intemperately	-13228
▁EW	-13229
▁2018	-13230
▁poly	-13231
▁Amend	-13232
▁gates	-13233
▁Montana	-13234
bat	-13235
▁interrog	-13236
▁Number	-13237
▁Liberty	-13238
▁musician	-13239
▁Cart	-13240
bage	-13241
▁umb	-13242
▁void	-13243
▁Living	-13244
▁Brandon	-13245
▁Raymond	-13246
▁download	-13247
▁Rig	-13248
▁scoot	-13249
▁floods	-13250
▁commend	-13251
▁glory	-13252
▁aroused	-13253
▁relieve	-13254
▁click	-13255
▁proficient	-13256
iri	-13257
▁unremark	-13258
▁junk	-13259
▁floors	-13260
▁cemetery	-13261
▁reminder	-13262
▁Schumacher	-13263
▁boo	-13264
▁Isa	-13265
▁boxer	-13266
▁Mumb	-13267
▁Mik	-13268
▁Foley	-13269
▁Shaba	-13270
▁intact	-13271
▁romance	-13272
▁competitors	-13273
▁concentrate	-13274
▁Covent	-13275
▁Element	-13276
gue	-13277
htag	-13278
▁presidents	-13279
▁ware	-13280
ounded	-13281
▁Jun	-13282
▁Cour	-13283
▁Tommy	-13284
stanbul	-13285
▁Amnesty	-13286
▁dive	-13287
▁chill	-13288
▁maneuver	-13289
print	-13290
▁bucket	-13291
▁hashtag	-13292
▁longest	-13293
▁promoting	-13294
▁permanently	-13295
▁astronom	-13296
▁tracked	-13297
▁Od	-13298
rogen	-13299
▁Ey	-13300
▁Math	-13301
▁lesb	-13302
▁Shabaab	-13303
▁implicated	-13304
▁Cheshire	-13305
▁disappointment	-13306
▁devoted	-13307
▁pursuit	-13308
▁resistance	-13309
orld	-13310
throp	-13311
▁Timothy	-13312
▁Paula	-13313
▁Portsmouth	-13314
▁reconstruct	-13315
▁ballot	-13316
▁organized	-13317
▁marital	-13318
▁concentration	-13319
PA	-13320
enh	-13321
rend	-13322
▁cinema	-13323
▁Istanbul	-13324
▁examples	-13325
▁suggestions	-13326
▁Kam	-13327
▁contractor	-13328
▁Writ	-13329
▁arrives	-13330
▁plates	-13331
▁updates	-13332
▁unmarried	-13333
▁Kardashian	-13334
▁aired	-13335
▁float	-13336
iped	-13337
▁syn	-13338
▁Logan	-13339
▁parach	-13340
▁Winston	-13341
▁Storm	-13342
▁gotten	-13343
▁Athletic	-13344
▁challenged	-13345
▁Osama	-13346
▁rit	-13347
▁sober	-13348
aku	-13349
▁AD	-13350
▁Appeal	-13351
▁Bin	-13352
▁mast	-13353
▁Toyota	-13354
▁insurgents	-13355
▁essentially	-13356
real	-13357
▁irreg	-13358
▁publisher	-13359
▁Et	-13360
▁Lindsay	-13361
▁mistaken	-13362
▁por	-13363
▁vanished	-13364
▁undercover	-13365
▁Isab	-13366
▁magnitude	-13367
uggage	-13368
▁Congo	-13369
▁scenario	-13370
▁intoxicated	-13371
▁patch	-13372
▁prompting	-13373
ahn	-13374
gant	-13375
▁Sarkozy	-13376
▁artific	-13377
▁accent	-13378
ugs	-13379
iples	-13380
intage	-13381
▁wives	-13382
▁antibiot	-13383
▁volume	-13384
▁compliment	-13385
▁Lie	-13386
ensed	-13387
▁Plus	-13388
olesc	-13389
▁Chester	-13390
▁dealers	-13391
▁granddaughter	-13392
▁photographers	-13393
nders	-13394
▁grip	-13395
▁Dow	-13396
▁Yahoo	-13397
▁mistr	-13398
▁Jet	-13399
▁Budd	-13400
▁Photographer	-13401
mith	-13402
▁aspects	-13403
▁harmful	-13404
▁mac	-13405
▁Money	-13406
▁scholar	-13407
lav	-13408
▁juven	-13409
▁reserved	-13410
▁Cyr	-13411
▁Dozens	-13412
▁Shiite	-13413
▁Dame	-13414
▁Adela	-13415
▁arranged	-13416
▁blockade	-13417
▁prosthetic	-13418
▁internation	-13419
▁unlawful	-13420
▁Meh	-13421
▁ray	-13422
broken	-13423
▁Kabul	-13424
▁addresses	-13425
▁fib	-13426
▁tang	-13427
▁spree	-13428
▁2017	-13429
▁Which	-13430
▁forbid	-13431
▁retailer	-13432
aching	-13433
▁discontin	-13434
▁relinquish	-13435
▁Aw	-13436
▁principle	-13437
▁damp	-13438
▁lighting	-13439
▁Ree	-13440
bishop	-13441
▁tsunami	-13442
▁explicit	-13443
▁shipping	-13444
▁Pel	-13445
▁Dark	-13446
▁Gem	-13447
▁debts	-13448
▁patent	-13449
▁Viol	-13450
▁philos	-13451
▁virtual	-13452
▁addict	-13453
face	-13454
▁outc	-13455
▁pipe	-13456
▁triv	-13457
▁peers	-13458
▁Danish	-13459
▁inauspicious	-13460
▁flop	-13461
itous	-13462
▁Self	-13463
inness	-13464
▁Merseyside	-13465
▁Holy	-13466
chester	-13467
▁vic	-13468
▁189	-13469
▁derby	-13470
▁Lawson	-13471
▁pistol	-13472
▁Benedict	-13473
▁paedophile	-13474
oft	-13475
▁magic	-13476
▁circular	-13477
▁Kensington	-13478
▁materialise	-13479
17	-13480
▁Gregory	-13481
itime	-13482
▁responding	-13483
gom	-13484
iors	-13485
▁Palm	-13486
▁tiger	-13487
▁launder	-13488
▁practiced	-13489
ealous	-13490
net	-13491
▁1981	-13492
▁comet	-13493
▁dispos	-13494
▁enhance	-13495
▁Kle	-13496
▁Joel	-13497
▁suite	-13498
▁plight	-13499
▁urgent	-13500
▁2020	-13501
▁admission	-13502
▁certificate	-13503
▁Firefighters	-13504
onga	-13505
▁Glen	-13506
▁Conference	-13507
▁deform	-13508
▁Wr	-13509
ilies	-13510
▁cardiac	-13511
▁mistrust	-13512
▁awake	-13513
▁serial	-13514
▁thunder	-13515
▁ON	-13516
▁construe	-13517
▁nest	-13518
▁Zucker	-13519
▁surgeons	-13520
▁apologized	-13521
▁recognised	-13522
▁rider	-13523
▁Gilbert	-13524
▁immobil	-13525
enge	-13526
▁jar	-13527
ickets	-13528
▁Adelaide	-13529
▁workplace	-13530
▁catast	-13531
▁autonom	-13532
▁buses	-13533
▁Fisher	-13534
▁Heritage	-13535
▁relegation	-13536
▁ninth	-13537
▁stagnant	-13538
▁unharmed	-13539
▁Moon	-13540
▁Page	-13541
▁Curtis	-13542
▁asterisk	-13543
▁matern	-13544
▁practise	-13545
▁insight	-13546
▁Nep	-13547
▁rated	-13548
riculture	-13549
▁Fish	-13550
▁erupted	-13551
▁engender	-13552
gle	-13553
ollah	-13554
▁Johnny	-13555
▁tipped	-13556
▁Warwick	-13557
hole	-13558
▁chips	-13559
▁proffer	-13560
▁Tas	-13561
▁Fried	-13562
▁superb	-13563
▁consens	-13564
▁starred	-13565
▁cycl	-13566
▁ally	-13567
▁Santos	-13568
▁Montgom	-13569
▁detainees	-13570
▁Prior	-13571
▁advocates	-13572
▁Travis	-13573
▁gloss	-13574
▁Cad	-13575
▁Dawson	-13576
▁supports	-13577
otal	-13578
▁confusion	-13579
▁expects	-13580
▁irregular	-13581
▁Rih	-13582
handed	-13583
▁registr	-13584
po	-13585
▁poorly	-13586
▁medics	-13587
▁triple	-13588
▁appreciate	-13589
▁Wait	-13590
▁cheaper	-13591
▁Din	-13592
▁existent	-13593
▁displayed	-13594
▁array	-13595
▁indecent	-13596
▁sue	-13597
▁dys	-13598
▁dawn	-13599
orie	-13600
▁powder	-13601
mel	-13602
▁Hague	-13603
▁cyclist	-13604
▁inspectors	-13605
▁regulation	-13606
▁manufacturing	-13607
▁coffin	-13608
▁miserable	-13609
▁Hut	-13610
▁logo	-13611
▁Twenty	-13612
▁luggage	-13613
▁inquiries	-13614
arified	-13615
▁disturbed	-13616
▁Hert	-13617
▁GPS	-13618
▁Mediter	-13619
ocol	-13620
▁Rosie	-13621
▁unacc	-13622
▁Pieters	-13623
▁Hand	-13624
▁abort	-13625
▁grace	-13626
▁Eug	-13627
▁Jill	-13628
▁farmer	-13629
▁appealing	-13630
▁fend	-13631
▁Griffith	-13632
▁answered	-13633
mind	-13634
▁Mau	-13635
▁Geoff	-13636
▁qualifier	-13637
▁spectators	-13638
umen	-13639
▁satisfied	-13640
▁Alt	-13641
▁crystal	-13642
iba	-13643
▁converted	-13644
IM	-13645
▁luc	-13646
▁Lynn	-13647
▁|	-13648
atten	-13649
▁ripped	-13650
▁Between	-13651
adic	-13652
▁swell	-13653
▁abusing	-13654
▁Bag	-13655
yt	-13656
▁resume	-13657
▁sympathy	-13658
▁ly	-13659
nap	-13660
alymp	-13661
▁bruises	-13662
▁biological	-13663
▁heed	-13664
spoken	-13665
▁upgrade	-13666
▁channels	-13667
▁matching	-13668
▁arresting	-13669
gral	-13670
▁Cot	-13671
fying	-13672
▁lips	-13673
markets	-13674
▁Serena	-13675
▁Series	-13676
▁Chamberlain	-13677
▁Shin	-13678
▁encomp	-13679
▁phrase	-13680
▁Elementary	-13681
LC	-13682
▁Kil	-13683
▁Mata	-13684
▁opens	-13685
ulative	-13686
▁Kenyan	-13687
▁tribal	-13688
▁disciplinary	-13689
▁Pod	-13690
▁Know	-13691
▁Lennon	-13692
▁racially	-13693
▁Mediterranean	-13694
ounge	-13695
▁Flore	-13696
▁Years	-13697
▁flooded	-13698
▁separat	-13699
▁Ult	-13700
▁Init	-13701
▁deer	-13702
▁Jesse	-13703
▁educational	-13704
BL	-13705
▁Drag	-13706
▁amply	-13707
▁Put	-13708
▁dele	-13709
▁unsc	-13710
▁careers	-13711
▁subjected	-13712
▁bowl	-13713
▁jaunt	-13714
ummy	-13715
▁Perhaps	-13716
▁brick	-13717
▁Mission	-13718
▁Revolution	-13719
▁neighboring	-13720
▁organise	-13721
▁fireworks	-13722
▁Dim	-13723
▁fossil	-13724
▁CA	-13725
▁Nico	-13726
▁Megan	-13727
▁enemies	-13728
▁forgotten	-13729
▁exclude	-13730
▁violated	-13731
▁respected	-13732
ewalk	-13733
▁Doug	-13734
▁males	-13735
▁dancer	-13736
▁rubble	-13737
▁mole	-13738
▁layer	-13739
▁singles	-13740
aste	-13741
▁ger	-13742
▁reactions	-13743
IL	-13744
▁literal	-13745
lace	-13746
▁101	-13747
▁expansion	-13748
▁assassination	-13749
▁automatically	-13750
▁lag	-13751
dened	-13752
▁Mumbai	-13753
▁hamstr	-13754
▁precious	-13755
▁magistrates	-13756
▁improvements	-13757
▁slumber	-13758
▁stripped	-13759
▁Core	-13760
▁root	-13761
▁knees	-13762
▁hinder	-13763
▁excessive	-13764
▁Brotherhood	-13765
oided	-13766
▁Take	-13767
ili	-13768
irable	-13769
▁tension	-13770
teen	-13771
ussy	-13772
▁instrument	-13773
anson	-13774
▁folks	-13775
▁Amendment	-13776
▁Celebrity	-13777
▁eject	-13778
▁befall	-13779
▁rolling	-13780
▁Smart	-13781
▁pleasure	-13782
▁tributes	-13783
▁cosmet	-13784
▁materialize	-13785
antine	-13786
▁modify	-13787
▁dependent	-13788
▁Terror	-13789
▁fractured	-13790
ipt	-13791
▁Everybody	-13792
▁thrilled	-13793
▁Ambulance	-13794
▁efficient	-13795
▁Bh	-13796
▁Worces	-13797
▁divided	-13798
▁Cameroon	-13799
▁particles	-13800
▁reclaim	-13801
▁Sao	-13802
▁maps	-13803
▁Nixon	-13804
▁diddle	-13805
▁illust	-13806
▁actively	-13807
▁catching	-13808
▁constitutional	-13809
▁ug	-13810
EP	-13811
▁sob	-13812
▁slot	-13813
▁colligate	-13814
▁printed	-13815
zb	-13816
▁flip	-13817
▁Jol	-13818
▁indo	-13819
▁solic	-13820
▁knives	-13821
▁innovative	-13822
▁salute	-13823
▁integral	-13824
ourses	-13825
▁warns	-13826
▁Assembly	-13827
▁dally	-13828
▁toss	-13829
▁Johan	-13830
▁Bahrain	-13831
▁Records	-13832
▁avoided	-13833
▁kilomet	-13834
▁shelves	-13835
▁destinations	-13836
irs	-13837
▁Cand	-13838
▁UC	-13839
▁pope	-13840
▁runners	-13841
arcer	-13842
▁disse	-13843
▁skies	-13844
ori	-13845
▁Adv	-13846
▁Drog	-13847
▁Fast	-13848
▁Enrique	-13849
▁operators	-13850
▁Dod	-13851
utian	-13852
oyle	-13853
▁traditionally	-13854
▁Lov	-13855
▁jewel	-13856
▁outfits	-13857
▁instinct	-13858
▁Madele	-13859
▁comparatively	-13860
▁ESP	-13861
▁1983	-13862
▁Study	-13863
▁Immigration	-13864
▁orient	-13865
▁submitted	-13866
▁Controvers	-13867
▁Sev	-13868
▁Dere	-13869
▁aisle	-13870
▁snipe	-13871
▁unaware	-13872
▁Ply	-13873
heastern	-13874
▁unsuccess	-13875
RI	-13876
engu	-13877
▁nab	-13878
▁nock	-13879
▁Seoul	-13880
▁upload	-13881
uf	-13882
▁femin	-13883
▁landl	-13884
instein	-13885
▁womb	-13886
▁knockout	-13887
▁princess	-13888
▁perchance	-13889
▁populations	-13890
▁developments	-13891
ossip	-13892
umbled	-13893
▁gifted	-13894
▁skillful	-13895
▁partially	-13896
leen	-13897
atoes	-13898
▁Belf	-13899
▁plum	-13900
hamed	-13901
impse	-13902
▁approve	-13903
▁appealed	-13904
▁sunshine	-13905
▁weighing	-13906
▁amass	-13907
eston	-13908
inction	-13909
▁panels	-13910
▁Cambod	-13911
▁bodily	-13912
▁fortun	-13913
▁Hondur	-13914
▁charging	-13915
▁defe	-13916
▁unsafe	-13917
▁bands	-13918
▁Lance	-13919
▁quarterback	-13920
▁establishment	-13921
▁forcible	-13922
▁Ze	-13923
▁shy	-13924
alise	-13925
▁overc	-13926
▁developer	-13927
▁legitimate	-13928
▁trap	-13929
▁sketch	-13930
onnie	-13931
▁Ashton	-13932
▁Blasio	-13933
▁Ground	-13934
▁forecl	-13935
▁lavish	-13936
▁motorb	-13937
▁proven	-13938
▁toast	-13939
▁Butler	-13940
▁acceler	-13941
▁Churchill	-13942
▁injection	-13943
▁solutions	-13944
▁accusing	-13945
sterdam	-13946
western	-13947
▁incarcer	-13948
▁mayhap	-13949
▁premises	-13950
▁Blatter	-13951
▁rope	-13952
▁Survey	-13953
▁interim	-13954
▁Band	-13955
▁Carney	-13956
▁Ethiop	-13957
▁shouted	-13958
▁academic	-13959
▁critically	-13960
auer	-13961
▁Woz	-13962
▁bunch	-13963
▁Mohamm	-13964
▁Germans	-13965
▁Superior	-13966
▁harbinger	-13967
▁overweight	-13968
▁List	-13969
▁bechance	-13970
arse	-13971
▁spine	-13972
▁Rihanna	-13973
▁peradventure	-13974
▁treasure	-13975
rection	-13976
▁lun	-13977
▁sued	-13978
▁Using	-13979
▁Ana	-13980
▁doubts	-13981
▁esteem	-13982
▁embarrassing	-13983
▁Fitz	-13984
▁Chuck	-13985
▁Bible	-13986
▁Floyd	-13987
▁dignity	-13988
ogen	-13989
▁bol	-13990
▁Monica	-13991
▁greatly	-13992
▁expel	-13993
▁Kro	-13994
▁Sak	-13995
▁wont	-13996
▁deflect	-13997
▁glimpse	-13998
▁drunken	-13999
▁fleeing	-14000
▁bn	-14001
▁pund	-14002
▁Blanc	-14003
▁Javier	-14004
▁Mov	-14005
▁removing	-14006
▁gradually	-14007
▁belongings	-14008
▁Superintendent	-14009
▁tu	-14010
▁Miranda	-14011
▁adolesc	-14012
luded	-14013
▁Worth	-14014
kee	-14015
▁Standard	-14016
▁Standards	-14017
▁abusive	-14018
▁abduction	-14019
▁outp	-14020
▁sore	-14021
▁Wilts	-14022
▁Mug	-14023
▁CL	-14024
▁Berkshire	-14025
ERE	-14026
▁Rush	-14027
▁Mak	-14028
▁Would	-14029
▁cartel	-14030
▁demolish	-14031
▁cling	-14032
inces	-14033
▁inherit	-14034
▁Amsterdam	-14035
▁slept	-14036
▁indefin	-14037
▁reunited	-14038
uri	-14039
▁buyer	-14040
▁topic	-14041
▁Sandra	-14042
▁heroes	-14043
▁Hammond	-14044
▁climbed	-14045
▁rack	-14046
▁Mirror	-14047
▁privilege	-14048
phoon	-14049
▁Hero	-14050
▁motorcycle	-14051
▁revelation	-14052
▁Less	-14053
▁ugly	-14054
ronics	-14055
▁Click	-14056
▁Christina	-14057
resco	-14058
▁Main	-14059
quet	-14060
▁Valentine	-14061
▁prosecuting	-14062
▁premiere	-14063
err	-14064
▁Tah	-14065
▁ashamed	-14066
▁astronauts	-14067
▁instructor	-14068
▁tables	-14069
▁CS	-14070
▁Luiz	-14071
▁sorts	-14072
▁obscure	-14073
▁Mach	-14074
▁repro	-14075
unky	-14076
▁Sug	-14077
▁youre	-14078
▁females	-14079
anqu	-14080
▁sung	-14081
▁abandon	-14082
aires	-14083
▁Coron	-14084
▁resur	-14085
ulously	-14086
▁Greene	-14087
▁Nicola	-14088
▁coer	-14089
▁closest	-14090
eria	-14091
▁Honda	-14092
▁Dublin	-14093
▁1978	-14094
▁Hassan	-14095
eer	-14096
▁1969	-14097
▁Brig	-14098
▁Giggs	-14099
▁meter	-14100
▁trifle	-14101
▁sizes	-14102
jad	-14103
▁Paralymp	-14104
▁da	-14105
▁trivial	-14106
▁shutdown	-14107
▁overturned	-14108
opic	-14109
▁Jak	-14110
▁Wozni	-14111
▁spiel	-14112
▁pastor	-14113
▁surviving	-14114
abi	-14115
▁Da	-14116
▁Factor	-14117
▁foster	-14118
▁masc	-14119
▁Suz	-14120
▁episodes	-14121
▁calf	-14122
▁Baron	-14123
▁felon	-14124
▁stranded	-14125
▁hurricane	-14126
▁Person	-14127
esthetic	-14128
▁petty	-14129
▁Plymouth	-14130
▁emerging	-14131
rouse	-14132
▁marvel	-14133
▁volatile	-14134
▁highlighted	-14135
▁slee	-14136
inking	-14137
▁adul	-14138
▁prejud	-14139
▁170	-14140
▁mighty	-14141
▁bargain	-14142
▁Bangladesh	-14143
▁hamstring	-14144
hell	-14145
asant	-14146
▁dose	-14147
▁flats	-14148
▁Springs	-14149
▁dre	-14150
coni	-14151
nest	-14152
▁amp	-14153
▁Janet	-14154
▁limbs	-14155
▁Come	-14156
▁Side	-14157
▁Drogba	-14158
▁prolong	-14159
bec	-14160
▁Aberde	-14161
▁artwork	-14162
▁handled	-14163
orated	-14164
isticated	-14165
▁Creek	-14166
▁Sutton	-14167
▁altercation	-14168
parts	-14169
▁examiner	-14170
▁dirt	-14171
▁Should	-14172
▁confab	-14173
icio	-14174
▁Claims	-14175
▁stroll	-14176
▁advances	-14177
▁overdose	-14178
amps	-14179
▁Starb	-14180
▁Alliance	-14181
▁explaining	-14182
▁Tab	-14183
▁pond	-14184
▁drill	-14185
▁traumat	-14186
▁Fell	-14187
▁Griffin	-14188
▁necessarily	-14189
umin	-14190
▁kidnap	-14191
▁crashing	-14192
▁LG	-14193
▁Jur	-14194
▁robots	-14195
▁gradu	-14196
▁deterior	-14197
▁recognized	-14198
▁Cesc	-14199
▁rescuers	-14200
▁manoeuvre	-14201
moon	-14202
▁wouldnt	-14203
▁automatic	-14204
▁smuggling	-14205
feed	-14206
▁Diane	-14207
▁suitable	-14208
▁postp	-14209
fare	-14210
▁Jas	-14211
▁floating	-14212
▁Constable	-14213
▁prosperous	-14214
▁coloured	-14215
▁passw	-14216
iciency	-14217
▁unconst	-14218
▁endangered	-14219
▁misdemeanor	-14220
▁lined	-14221
▁Kier	-14222
holders	-14223
▁faulty	-14224
▁Kend	-14225
▁storey	-14226
▁Province	-14227
▁Madeleine	-14228
▁Joint	-14229
▁Mobile	-14230
▁confisc	-14231
▁reducing	-14232
matic	-14233
▁Pipp	-14234
▁Record	-14235
▁linger	-14236
▁nod	-14237
▁intelligent	-14238
zer	-14239
▁AA	-14240
▁counterparts	-14241
▁diverse	-14242
▁Carn	-14243
▁Yaya	-14244
▁nause	-14245
▁Forbes	-14246
▁identical	-14247
▁Ot	-14248
▁Challenge	-14249
▁Beyon	-14250
▁gambling	-14251
▁sustainable	-14252
usk	-14253
▁Find	-14254
▁prestigious	-14255
shop	-14256
▁Lot	-14257
brough	-14258
▁courses	-14259
▁soap	-14260
▁unpaid	-14261
▁Brits	-14262
▁moder	-14263
▁anonymity	-14264
▁annunciate	-14265
▁introduction	-14266
▁Cah	-14267
▁chapter	-14268
▁Chloe	-14269
rehensible	-14270
▁explosions	-14271
▁steep	-14272
▁Hat	-14273
▁Nebr	-14274
▁estr	-14275
▁Neill	-14276
▁Small	-14277
terior	-14278
▁precede	-14279
▁reliable	-14280
guards	-14281
▁188	-14282
▁auto	-14283
▁pertain	-14284
▁dictator	-14285
▁whenever	-14286
▁Guardiola	-14287
▁tasks	-14288
rak	-14289
iatric	-14290
▁Brent	-14291
omposed	-14292
▁Berlus	-14293
▁finances	-14294
▁jumps	-14295
▁convoy	-14296
▁battled	-14297
▁Wiltshire	-14298
▁dip	-14299
▁Lords	-14300
▁cockpit	-14301
▁prisons	-14302
▁Patricia	-14303
▁Pete	-14304
▁Tribune	-14305
▁Walmart	-14306
weg	-14307
illip	-14308
▁heated	-14309
▁Shaun	-14310
▁dated	-14311
▁nons	-14312
▁Given	-14313
▁infect	-14314
▁Isle	-14315
▁Election	-14316
▁Corporation	-14317
▁hospitalized	-14318
omo	-14319
▁Cond	-14320
gender	-14321
▁Damasc	-14322
▁drives	-14323
▁bicycle	-14324
▁straw	-14325
▁Judaic	-14326
▁Bryant	-14327
rowing	-14328
▁Final	-14329
▁Thats	-14330
▁Youth	-14331
▁sheets	-14332
▁affecting	-14333
▁victories	-14334
▁halfway	-14335
▁upwardly	-14336
▁generated	-14337
▁whit	-14338
screen	-14339
▁principles	-14340
▁thread	-14341
▁depressed	-14342
ignment	-14343
▁Nebraska	-14344
▁WHO	-14345
▁rampage	-14346
▁Hispanic	-14347
▁Beverly	-14348
▁handbag	-14349
ulu	-14350
▁ESPN	-14351
▁violate	-14352
▁Riley	-14353
▁valid	-14354
▁contents	-14355
▁superstar	-14356
▁Pittsburgh	-14357
▁Vo	-14358
▁Herrera	-14359
▁Oakland	-14360
▁amongst	-14361
▁tattoos	-14362
oub	-14363
▁blonde	-14364
iox	-14365
▁ate	-14366
▁Custom	-14367
▁database	-14368
EL	-14369
ews	-14370
▁recyc	-14371
▁airplane	-14372
▁accountable	-14373
▁neighbourhood	-14374
lif	-14375
▁reassert	-14376
10	-14377
▁Arrest	-14378
▁hailed	-14379
▁Surv	-14380
▁Boys	-14381
▁tant	-14382
▁nursery	-14383
▁Damascus	-14384
▁northwest	-14385
▁believ	-14386
urbs	-14387
▁jam	-14388
etsk	-14389
▁cared	-14390
▁pap	-14391
▁Kick	-14392
▁Room	-14393
▁gunfire	-14394
▁famously	-14395
▁rankings	-14396
awed	-14397
ieth	-14398
▁Nigerian	-14399
coon	-14400
▁kip	-14401
▁mun	-14402
▁Deep	-14403
▁somehow	-14404
▁ordinarily	-14405
▁pirates	-14406
robe	-14407
▁Kid	-14408
▁unjust	-14409
▁Families	-14410
▁definition	-14411
▁hungry	-14412
▁washed	-14413
▁organize	-14414
▁Tu	-14415
▁riders	-14416
▁assumed	-14417
▁troubles	-14418
▁container	-14419
▁Cricket	-14420
▁banner	-14421
▁Sporting	-14422
▁distrust	-14423
▁Peninsula	-14424
aho	-14425
▁voy	-14426
▁Dunn	-14427
▁Button	-14428
plicate	-14429
▁blown	-14430
▁notable	-14431
▁regarded	-14432
▁Poy	-14433
▁Derek	-14434
▁Singer	-14435
▁Century	-14436
▁Sources	-14437
▁insects	-14438
▁eliminate	-14439
▁Tol	-14440
▁ache	-14441
▁disem	-14442
essional	-14443
ancies	-14444
▁Brien	-14445
▁Bi	-14446
▁coins	-14447
Le	-14448
occo	-14449
usky	-14450
▁Else	-14451
▁Patriots	-14452
▁narrowly	-14453
▁Princ	-14454
▁tonnes	-14455
▁slender	-14456
▁upstairs	-14457
ET	-14458
▁buzz	-14459
joined	-14460
umbria	-14461
▁Users	-14462
▁tenth	-14463
▁Beyonce	-14464
▁Northampton	-14465
▁tours	-14466
▁eldest	-14467
▁creator	-14468
▁corporation	-14469
▁gau	-14470
▁regulate	-14471
▁Stars	-14472
▁concur	-14473
gs	-14474
▁helm	-14475
▁conceal	-14476
▁providers	-14477
▁bush	-14478
▁rarefied	-14479
illiputian	-14480
▁Footage	-14481
▁supermarkets	-14482
essa	-14483
▁1976	-14484
▁Bulger	-14485
▁Shield	-14486
▁deadened	-14487
nut	-14488
car	-14489
▁Banks	-14490
▁checking	-14491
▁packages	-14492
▁diversity	-14493
▁illnesses	-14494
▁surgeries	-14495
▁bay	-14496
▁hugely	-14497
▁Jade	-14498
▁anyway	-14499
▁Mohammad	-14500
▁countrys	-14501
▁canceled	-14502
▁annoy	-14503
avan	-14504
▁iOS	-14505
▁Trent	-14506
▁overwhelmed	-14507
▁immune	-14508
▁acceptable	-14509
▁commissioned	-14510
▁CB	-14511
▁Pret	-14512
▁lilliputian	-14513
▁levy	-14514
▁intel	-14515
▁adjudge	-14516
gor	-14517
▁Gove	-14518
▁Lohan	-14519
ATED	-14520
bound	-14521
▁unfit	-14522
▁casino	-14523
▁mining	-14524
▁recruitment	-14525
▁embarrassment	-14526
▁Left	-14527
▁Swift	-14528
▁feather	-14529
▁Wade	-14530
▁Claud	-14531
▁lions	-14532
▁Couple	-14533
▁Serbia	-14534
▁evacuation	-14535
pherd	-14536
▁endured	-14537
▁serv	-14538
enberg	-14539
▁raises	-14540
▁Titan	-14541
▁lifel	-14542
▁overhe	-14543
▁discontinue	-14544
esy	-14545
▁severally	-14546
▁lob	-14547
▁urine	-14548
▁vie	-14549
isure	-14550
▁deceased	-14551
▁modelling	-14552
▁Mali	-14553
▁Starbucks	-14554
rising	-14555
verts	-14556
▁Lall	-14557
▁canvas	-14558
▁Champion	-14559
▁oust	-14560
▁unin	-14561
▁DVD	-14562
▁Wilf	-14563
▁lecture	-14564
▁Berlusconi	-14565
▁collecting	-14566
▁acclaim	-14567
▁deserved	-14568
▁Hugo	-14569
▁revers	-14570
▁respects	-14571
▁sufferers	-14572
▁weighs	-14573
▁nominated	-14574
▁Gam	-14575
▁monster	-14576
▁promptly	-14577
▁Zuckerberg	-14578
▁consciousness	-14579
▁dot	-14580
▁Histor	-14581
▁spreading	-14582
rup	-14583
▁Bak	-14584
▁purse	-14585
▁introm	-14586
▁excav	-14587
▁=	-14588
▁Pacqu	-14589
▁outcry	-14590
▁secrets	-14591
▁Richmond	-14592
▁contamin	-14593
▁indoors	-14594
▁SN	-14595
▁Arnold	-14596
▁mainstream	-14597
▁conservatives	-14598
▁Gloucestershire	-14599
drop	-14600
urches	-14601
▁bushed	-14602
▁precaution	-14603
▁Kur	-14604
▁Mul	-14605
▁brew	-14606
▁tide	-14607
▁Psych	-14608
▁intromit	-14609
▁underway	-14610
▁unfortunate	-14611
▁unhappy	-14612
▁disgu	-14613
▁Coventry	-14614
▁murderer	-14615
▁aspect	-14616
▁Gabriel	-14617
▁visitor	-14618
▁CO	-14619
▁troop	-14620
▁Ral	-14621
▁Bren	-14622
▁Huss	-14623
▁Towns	-14624
▁exercises	-14625
held	-14626
▁Occ	-14627
▁heighten	-14628
▁Olivia	-14629
▁Donetsk	-14630
▁Born	-14631
▁viewing	-14632
▁especial	-14633
▁nutrition	-14634
iggling	-14635
▁Indeed	-14636
▁Latino	-14637
▁throne	-14638
▁northeast	-14639
ackers	-14640
▁Daley	-14641
▁Fellow	-14642
▁savour	-14643
▁holy	-14644
TC	-14645
▁Centers	-14646
▁wandering	-14647
▁apartments	-14648
ovy	-14649
▁Model	-14650
▁briefing	-14651
▁worrying	-14652
▁diminished	-14653
▁trunk	-14654
▁Employ	-14655
▁auster	-14656
▁Redd	-14657
▁unco	-14658
grand	-14659
▁Concern	-14660
▁sophisticated	-14661
▁Tray	-14662
▁Sandusky	-14663
▁contrad	-14664
▁scans	-14665
▁Hopefully	-14666
pin	-14667
▁rude	-14668
▁tranqu	-14669
▁Muhammad	-14670
elescope	-14671
▁forgive	-14672
▁singular	-14673
itious	-14674
▁Hilton	-14675
▁nominee	-14676
urr	-14677
▁Burton	-14678
▁Pietersen	-14679
▁austerity	-14680
▁useful	-14681
igo	-14682
ovich	-14683
▁Cheryl	-14684
▁Chapman	-14685
▁instant	-14686
▁backyard	-14687
▁insisting	-14688
▁Dems	-14689
▁Lily	-14690
▁rice	-14691
▁naval	-14692
▁Reuters	-14693
▁Ecc	-14694
▁Horn	-14695
▁Metro	-14696
▁forged	-14697
▁precip	-14698
▁Heb	-14699
▁artificial	-14700
▁steam	-14701
uba	-14702
prints	-14703
▁blister	-14704
▁captivity	-14705
▁unexpended	-14706
▁farms	-14707
sky	-14708
steps	-14709
▁Doctor	-14710
▁scramble	-14711
▁routinely	-14712
▁southwest	-14713
ilo	-14714
rors	-14715
▁abducted	-14716
▁vaporize	-14717
▁Koh	-14718
azines	-14719
▁Debor	-14720
▁councillor	-14721
▁inject	-14722
▁deciding	-14723
▁Ip	-14724
▁risen	-14725
▁scorer	-14726
▁momentum	-14727
▁relating	-14728
▁participating	-14729
esa	-14730
▁186	-14731
ungle	-14732
▁Bolt	-14733
▁Must	-14734
ocaust	-14735
▁obese	-14736
▁Customs	-14737
backs	-14738
▁beget	-14739
ieg	-14740
▁Mann	-14741
▁McCart	-14742
▁successor	-14743
▁Chase	-14744
▁alleges	-14745
▁creates	-14746
▁Tracy	-14747
▁Napoli	-14748
▁valued	-14749
▁Reporter	-14750
▁tangible	-14751
▁weekends	-14752
▁Thorn	-14753
▁Fow	-14754
oland	-14755
▁Robben	-14756
OC	-14757
▁freest	-14758
▁Circuit	-14759
▁headline	-14760
athed	-14761
▁Gang	-14762
▁unhe	-14763
▁jab	-14764
▁Blind	-14765
▁crocodile	-14766
verage	-14767
▁conceded	-14768
▁Fut	-14769
▁arson	-14770
▁vintage	-14771
▁shortage	-14772
▁aboriginal	-14773
▁creep	-14774
▁orphan	-14775
▁technologies	-14776
▁mindful	-14777
▁Elsewhere	-14778
▁reckless	-14779
▁Hew	-14780
▁unst	-14781
▁Lag	-14782
▁cracking	-14783
▁Kenny	-14784
▁transported	-14785
▁scary	-14786
▁tense	-14787
▁monkey	-14788
▁proceeds	-14789
▁cattle	-14790
▁jersey	-14791
▁Mauricio	-14792
▁quarterf	-14793
▁Protesters	-14794
itating	-14795
▁branches	-14796
▁signings	-14797
▁Pont	-14798
▁rays	-14799
▁Lynch	-14800
▁Steenk	-14801
▁primarily	-14802
▁weary	-14803
▁1974	-14804
▁Ajax	-14805
▁Hammers	-14806
▁costumes	-14807
▁playground	-14808
▁dar	-14809
▁rockets	-14810
▁Exc	-14811
uckily	-14812
mod	-14813
otto	-14814
▁kinda	-14815
▁autism	-14816
▁Gardner	-14817
▁Windsor	-14818
▁UPD	-14819
▁Dh	-14820
▁hoard	-14821
▁unear	-14822
▁roadside	-14823
▁lib	-14824
▁rall	-14825
▁Looking	-14826
▁awesome	-14827
eli	-14828
▁corp	-14829
▁buff	-14830
▁tuck	-14831
▁1930	-14832
▁Radamel	-14833
▁Ces	-14834
▁squir	-14835
▁mutual	-14836
▁freestanding	-14837
iona	-14838
[...]
