<pad>	0
<unk>	0
<s>	0
</s>	0
▁	-2.71548
▁.	-3.20943
▁the	-3.37024
,	-3.48057
s	-3.558
▁to	-3.95833
▁a	-4.04839
▁'	-4.05505
▁of	-4.16558
▁and	-4.1969
▁in	-4.20813
ed	-4.36082
-	-4.49634
▁was	-4.96186
▁for	-4.99475
▁on	-5.03011
ing	-5.03121
▁The	-5.08491
▁is	-5.15614
ly	-5.1851
▁"	-5.19066
▁s	-5.21992
▁that	-5.24213
▁with	-5.29323
▁his	-5.44274
▁at	-5.45219
▁be	-5.51694
▁he	-5.52192
d	-5.52325
y	-5.52508
:	-5.52964
▁it	-5.6364
▁has	-5.65369
▁from	-5.68551
▁have	-5.70957
▁I	-5.71447
▁by	-5.73735
▁as	-5.78186
▁said	-5.79372
▁her	-5.89404
▁are	-5.91076
▁after	-6.02244
▁an	-6.02736
▁who	-6.06229
▁had	-6.07968
▁not	-6.08026
▁been	-6.08419
▁were	-6.10964
e	-6.11447
▁their	-6.18198
▁will	-6.19686
▁but	-6.2042
▁year	-6.22963
▁A	-6.23236
▁this	-6.2892
▁she	-6.30021
▁they	-6.31186
▁up	-6.41964
▁He	-6.44859
▁one	-6.46252
▁out	-6.48816
▁which	-6.50295
▁when	-6.5585
er	-6.58344
(	-6.59369
▁It	-6.60551
▁t	-6.66373
▁two	-6.67052
▁more	-6.69974
▁we	-6.74656
▁about	-6.75142
▁time	-6.77272
▁or	-6.78641
▁him	-6.78648
▁over	-6.80881
▁S	-6.81881
▁people	-6.82801
▁can	-6.8293
▁would	-6.83069
▁into	-6.83528
▁like	-6.86951
▁you	-6.90118
▁than	-6.92343
▁all	-6.97619
▁1	-6.98279
t	-7.00854
▁could	-7.04324
▁years	-7.05077
▁last	-7.06215
▁police	-7.06722
▁before	-7.06969
▁down	-7.07199
▁also	-7.08471
▁But	-7.08694
▁so	-7.09357
▁them	-7.09468
▁home	-7.10168
▁do	-7.10893
▁its	-7.10918
▁being	-7.13324
▁We	-7.1428
ies	-7.14445
▁off	-7.15305
▁Mr	-7.15603
▁In	-7.16073
▁three	-7.18278
▁000	-7.18306
▁old	-7.18906
▁no	-7.20061
▁there	-7.25456
▁She	-7.26714
▁first	-7.27289
▁told	-7.27392
▁against	-7.28324
▁2	-7.28836
n	-7.29829
▁what	-7.29999
cause	-7.30174
es	-7.30179
▁just	-7.33008
▁some	-7.34076
▁man	-7.34675
▁U	-7.35262
▁get	-7.3558
▁while	-7.37119
▁back	-7.37448
▁during	-7.375
▁where	-7.37747
▁my	-7.38037
an	-7.42067
a	-7.42214
▁if	-7.43301
▁New	-7.43463
▁million	-7.43755
▁m	-7.44158
▁new	-7.4584
▁day	-7.47947
▁n	-7.4834
$	-7.49109
▁did	-7.49557
▁family	-7.49699
▁say	-7.50784
▁other	-7.52106
▁place	-7.52682
▁week	-7.53356
▁world	-7.53562
▁work	-7.5407
▁through	-7.54701
▁found	-7.54843
▁team	-7.55451
able	-7.56253
▁re	-7.56564
▁left	-7.56638
▁how	-7.56675
▁take	-7.56975
o	-7.57667
▁call	-7.57849
▁under	-7.58265
▁state	-7.59853
▁now	-7.60129
▁since	-7.6094
▁former	-7.61168
▁our	-7.61437
▁per	-7.61502
al	-7.63393
▁four	-7.63585
▁United	-7.63747
▁make	-7.64617
▁says	-7.65054
▁3	-7.65086
▁around	-7.65114
▁want	-7.66018
▁part	-7.66121
▁They	-7.66501
▁me	-7.66586
▁video	-7.67221
▁un	-7.69487
▁season	-7.69597
▁car	-7.69979
▁10	-7.7029
▁any	-7.70398
▁life	-7.71069
▁go	-7.71921
▁This	-7.72056
▁children	-7.72287
▁show	-7.73073
▁right	-7.73617
▁near	-7.74165
▁way	-7.74645
▁most	-7.75145
▁month	-7.7571
▁D	-7.75739
▁C	-7.75948
▁only	-7.76122
▁made	-7.76289
▁Police	-7.77339
▁CNN	-7.77539
▁attack	-7.77677
▁5	-7.77686
▁death	-7.77724
▁well	-7.78815
▁see	-7.80788
▁order	-7.80802
▁start	-7.80833
▁look	-7.81244
▁report	-7.81597
▁between	-7.82134
▁five	-7.82694
▁group	-7.82814
▁night	-7.82986
▁need	-7.83094
▁club	-7.84694
▁court	-7.85841
▁20	-7.86446
▁still	-7.86941
▁case	-7.86948
▁high	-7.87299
▁then	-7.8749
▁good	-7.88006
▁4	-7.88871
▁mother	-7.89012
▁second	-7.89029
▁game	-7.89225
▁many	-7.89589
▁country	-7.90163
▁help	-7.90385
▁6	-7.91116
▁play	-7.91992
▁E	-7.92275
▁number	-7.92501
▁top	-7.93408
▁World	-7.94026
▁government	-7.94879
▁may	-7.94978
▁cent	-7.95004
▁London	-7.95183
▁woman	-7.95359
▁should	-7.95557
▁those	-7.9589
▁very	-7.96976
ce	-7.9702
▁think	-7.97113
▁women	-7.97375
▁add	-7.97544
▁end	-7.9779
▁move	-7.97834
▁another	-7.99013
▁six	-7.99237
▁Sunday	-7.99549
▁school	-7.99936
▁side	-8.00357
such	-8.00428
▁name	-8.00607
▁your	-8.00946
▁Cup	-8.01257
▁B	-8.01457
▁long	-8.01676
▁And	-8.01729
▁League	-8.01748
▁claim	-8.02568
▁head	-8.02581
▁England	-8.02749
▁arrest	-8.02942
▁City	-8.03991
▁men	-8.04046
i	-8.04195
▁30	-8.05448
on	-8.05487
▁early	-8.05549
▁19	-8.05966
▁public	-8.06095
▁set	-8.06164
▁There	-8.06293
▁P	-8.06405
▁months	-8.06408
▁days	-8.06576
ther	-8.07445
▁Saturday	-8.07813
▁according	-8.08049
▁final	-8.08097
▁us	-8.0908
▁Monday	-8.09568
▁win	-8.09764
▁too	-8.10126
est	-8.10144
▁both	-8.10585
▁reported	-8.10604
▁th	-8.11591
▁hospital	-8.12408
▁M	-8.13025
▁today	-8.13154
▁Friday	-8.13248
▁incident	-8.13493
▁next	-8.1368
▁statement	-8.13862
▁Tuesday	-8.14131
▁face	-8.14478
▁use	-8.1516
▁York	-8.15209
▁T	-8.16114
▁even	-8.16152
▁kill	-8.16239
▁12	-8.16356
▁One	-8.17108
▁company	-8.17768
▁American	-8.17953
▁South	-8.18296
▁come	-8.18797
▁deal	-8.18872
man	-8.18972
ever	-8.19527
▁half	-8.19603
▁away	-8.19634
▁include	-8.19768
▁force	-8.19873
▁7	-8.20011
▁Wednesday	-8.20448
▁15	-8.20718
ers	-8.21237
▁much	-8.21431
▁appear	-8.21472
▁Manchester	-8.21516
▁give	-8.21716
▁return	-8.21799
▁child	-8.21968
▁took	-8.22233
▁wife	-8.22377
▁post	-8.22691
▁ve	-8.23054
▁house	-8.23059
▁going	-8.23207
▁tell	-8.23264
▁father	-8.23869
▁G	-8.23913
▁service	-8.24914
▁Thursday	-8.25059
▁British	-8.25178
▁read	-8.26043
▁know	-8.26299
▁young	-8.26974
▁city	-8.27577
▁own	-8.27775
▁West	-8.28129
▁body	-8.28642
▁match	-8.28739
▁really	-8.28775
▁When	-8.28931
▁F	-8.28947
▁officials	-8.29201
▁couple	-8.29658
▁son	-8.29801
▁fire	-8.29808
▁used	-8.29819
until	-8.29883
▁later	-8.30025
▁including	-8.30947
▁area	-8.30968
▁run	-8.31042
▁money	-8.31211
▁hours	-8.31232
▁far	-8.3193
▁support	-8.31958
▁find	-8.32038
▁daughter	-8.32361
▁hit	-8.32504
▁these	-8.32512
▁ask	-8.32688
▁No	-8.33143
▁K	-8.33204
▁record	-8.33287
▁O	-8.33494
▁spokesm	-8.33716
▁11	-8.33834
▁water	-8.34019
▁R	-8.34086
▁along	-8.35248
▁am	-8.35281
▁players	-8.35522
▁Scroll	-8.35708
▁local	-8.35801
▁close	-8.36294
▁believe	-8.36643
▁lot	-8.36673
ity	-8.36689
▁18	-8.36825
▁remain	-8.37507
▁If	-8.37692
▁taken	-8.37932
▁change	-8.37947
▁ago	-8.38388
▁star	-8.38844
▁front	-8.39131
▁seen	-8.39155
▁An	-8.39174
▁never	-8.39334
▁put	-8.39365
▁turn	-8.39631
▁got	-8.39809
▁every	-8.39923
▁each	-8.40235
▁late	-8.40569
without	-8.40778
▁His	-8.41007
▁8	-8.41012
▁David	-8.42153
▁lead	-8.42412
▁behind	-8.42612
▁manager	-8.42686
▁comment	-8.43241
▁UK	-8.4358
▁0	-8.4362
▁outside	-8.43653
▁problem	-8.441
▁already	-8.44199
▁pictured	-8.44854
▁release	-8.44874
▁allow	-8.4496
▁16	-8.45412
▁walk	-8.45453
▁At	-8.45493
less	-8.45528
across	-8.45664
▁St	-8.45852
▁again	-8.46277
▁does	-8.46617
▁film	-8.46725
▁Court	-8.46738
▁President	-8.46887
▁came	-8.47141
▁person	-8.4773
▁2012	-8.47821
▁fight	-8.4819
▁50	-8.48373
▁phone	-8.48506
▁few	-8.48719
▁On	-8.48884
▁authorit	-8.49051
▁murder	-8.49102
▁news	-8.49211
▁went	-8.49237
▁After	-8.49319
▁John	-8.4973
▁You	-8.49927
▁open	-8.50057
▁That	-8.50641
▁recent	-8.50738
▁discover	-8.50798
▁North	-8.51174
▁driver	-8.512
▁25	-8.51213
▁minutes	-8.51405
▁friend	-8.51618
▁yet	-8.51622
▁N	-8.51701
▁law	-8.52067
▁least	-8.5215
▁present	-8.52381
▁watch	-8.525
▁hand	-8.52511
▁same	-8.52835
▁admit	-8.52997
died	-8.53035
▁times	-8.53086
▁point	-8.53143
▁girl	-8.53306
▁several	-8.53316
▁following	-8.53344
▁100	-8.53392
▁investigation	-8.53712
▁officers	-8.54346
▁reveal	-8.54601
▁condition	-8.54873
▁scene	-8.54878
▁Facebook	-8.55084
▁great	-8.55148
▁experience	-8.55162
en	-8.55219
▁14	-8.55342
▁clear	-8.55348
▁health	-8.55592
▁best	-8.55736
▁Obama	-8.55977
▁line	-8.55979
▁media	-8.5598
▁thought	-8.56204
▁pay	-8.56238
▁W	-8.56459
▁decision	-8.56558
▁campaign	-8.56558
▁break	-8.56638
▁Liverpool	-8.56912
▁seven	-8.56918
▁security	-8.57208
▁something	-8.57295
▁hold	-8.57351
▁members	-8.57503
▁current	-8.57527
▁weeks	-8.57666
▁fans	-8.5786
▁boy	-8.58234
▁president	-8.58254
▁As	-8.58267
▁charges	-8.5829
▁Chelsea	-8.59215
▁morning	-8.5922
▁level	-8.59272
▁9	-8.59481
▁shot	-8.59568
▁pass	-8.598
▁love	-8.59836
▁cost	-8.60302
▁friends	-8.60573
▁2011	-8.6075
▁L	-8.61201
▁husband	-8.61223
▁de	-8.61257
▁past	-8.61278
▁previous	-8.61481
▁age	-8.61608
▁third	-8.6171
▁13	-8.61723
▁parents	-8.61816
▁goal	-8.61937
▁p	-8.61989
▁player	-8.62051
m	-8.62288
▁allege	-8.62562
▁staff	-8.6268
▁eight	-8.62705
▁website	-8.62839
▁consider	-8.6288
▁live	-8.62942
▁attempt	-8.63096
▁himself	-8.63252
▁co	-8.63382
▁military	-8.63657
▁care	-8.63756
▁air	-8.63911
▁whe	-8.63948
▁enjoin	-8.64007
▁office	-8.64042
▁How	-8.6411
▁Premier	-8.64184
▁County	-8.64257
▁become	-8.64322
▁account	-8.64395
▁Ms	-8.64938
▁official	-8.65321
▁sex	-8.65352
▁food	-8.65675
▁site	-8.65778
▁system	-8.65819
▁40	-8.66025
▁test	-8.6628
▁17	-8.66301
k	-8.66482
▁picture	-8.66559
▁University	-8.66636
▁prison	-8.66708
▁dead	-8.67021
▁National	-8.67067
▁leave	-8.67213
wise	-8.67527
▁among	-8.67571
▁suppose	-8.67628
▁seem	-8.67719
▁charge	-8.67742
▁baby	-8.67828
▁won	-8.67934
▁issue	-8.67968
▁party	-8.68024
ic	-8.68139
▁China	-8.6822
▁May	-8.68281
▁January	-8.68585
▁visit	-8.68819
▁summer	-8.68851
▁suspect	-8.68874
▁large	-8.68889
▁result	-8.68889
▁require	-8.69106
▁having	-8.69601
▁suffer	-8.69985
▁chance	-8.70022
▁full	-8.70252
▁job	-8.70505
▁follow	-8.70542
▁reach	-8.70579
▁offer	-8.70668
▁football	-8.70739
▁aver	-8.70802
▁Michael	-8.71152
▁dog	-8.71284
▁Twitter	-8.7132
▁moment	-8.71471
▁concern	-8.7151
▁free	-8.71676
▁stop	-8.71834
▁known	-8.72123
▁24	-8.72318
▁short	-8.7247
▁Park	-8.72536
▁evidence	-8.72578
▁officer	-8.72721
▁title	-8.73077
▁crash	-8.73079
▁must	-8.73172
▁equal	-8.73188
▁training	-8.73189
▁keep	-8.73263
▁rule	-8.73471
▁hard	-8.73523
▁For	-8.7368
▁bring	-8.73748
▁hope	-8.73905
▁information	-8.73976
▁ground	-8.74154
▁real	-8.74281
▁term	-8.74352
▁stay	-8.74514
▁besides	-8.74535
▁round	-8.74687
▁TV	-8.74741
ion	-8.74746
▁building	-8.74957
▁vehicle	-8.75021
▁continue	-8.75408
▁study	-8.75743
▁low	-8.7577
▁Britain	-8.75897
▁Dr	-8.75924
▁jail	-8.7598
▁fee	-8.76298
▁arm	-8.76447
ness	-8.76465
r	-8.76572
▁search	-8.76607
▁articulate	-8.76663
▁pronounce	-8.76759
▁States	-8.77133
▁price	-8.77153
▁allegedly	-8.77244
▁control	-8.7739
▁might	-8.7752
▁question	-8.7768
▁station	-8.77747
▁enunciate	-8.7788
▁heart	-8.78022
▁2010	-8.78116
▁camera	-8.78153
▁total	-8.7819
enounce	-8.78201
▁plane	-8.78278
▁cover	-8.78285
gan	-8.78302
lways	-8.78364
2	-8.78469
▁action	-8.78532
▁worker	-8.78551
▁passenger	-8.78729
▁due	-8.79389
▁future	-8.79422
▁H	-8.79448
▁Arsenal	-8.79749
▁role	-8.79975
▁view	-8.80007
▁James	-8.80075
▁little	-8.80093
▁21	-8.80116
▁risk	-8.80212
▁room	-8.80225
▁Department	-8.80272
▁trial	-8.80315
▁join	-8.80436
▁All	-8.80501
▁here	-8.80901
▁big	-8.81218
▁earli	-8.81384
▁given	-8.81521
▁potential	-8.81524
ton	-8.81707
▁taking	-8.81763
▁direct	-8.81818
▁saying	-8.8185
▁cause	-8.81942
▁event	-8.82007
▁increase	-8.82151
▁inside	-8.8245
▁less	-8.82953
▁2013	-8.83171
▁things	-8.83289
▁Australia	-8.83303
▁victim	-8.83358
st	-8.83512
▁flight	-8.83563
▁September	-8.83581
▁State	-8.83723
▁assault	-8.8373
▁France	-8.83932
th	-8.84008
▁power	-8.84084
▁Her	-8.84115
▁despite	-8.84283
▁form	-8.84361
▁nt	-8.84812
▁damage	-8.84835
▁victor	-8.84856
ance	-8.85144
le	-8.85201
▁able	-8.85251
▁sure	-8.8527
▁business	-8.85367
▁series	-8.85435
▁California	-8.85523
▁brother	-8.86016
▁com	-8.86146
▁pair	-8.86201
▁Miss	-8.86273
▁provide	-8.86419
▁complete	-8.86504
▁injury	-8.86579
lost	-8.86676
▁22	-8.87034
▁judge	-8.87121
▁December	-8.87201
▁gun	-8.87369
▁draw	-8.87392
▁launch	-8.87492
▁contract	-8.87727
▁career	-8.87747
▁human	-8.8777
▁200	-8.87844
▁road	-8.87957
▁drug	-8.88006
▁list	-8.88142
▁European	-8.88164
▁centre	-8.88595
▁What	-8.88673
▁making	-8.8875
▁games	-8.89218
▁June	-8.89337
time	-8.89348
▁carry	-8.89392
▁coach	-8.89471
▁House	-8.89639
▁striker	-8.89659
▁shows	-8.89726
▁others	-8.89729
▁interest	-8.90042
▁international	-8.90071
▁patient	-8.90112
▁looking	-8.90165
▁reports	-8.90179
▁working	-8.90277
held	-8.90287
out	-8.90298
▁f	-8.9042
▁forward	-8.907
or	-8.90801
▁enough	-8.91069
▁miles	-8.9113
▁model	-8.91257
▁J	-8.91613
▁race	-8.91847
▁charged	-8.91888
▁major	-8.9203
▁injurie	-8.92127
sh	-8.92354
▁Christmas	-8.92575
▁March	-8.92878
▁almost	-8.92885
ves	-8.9292
ar	-8.93248
▁saw	-8.93272
▁News	-8.93328
▁why	-8.93468
▁director	-8.93629
▁demand	-8.93644
▁try	-8.9377
▁treatment	-8.93771
▁Two	-8.9385
▁July	-8.94041
▁Madrid	-8.94176
▁November	-8.94342
▁though	-8.94376
▁feel	-8.94651
▁describe	-8.94727
▁nine	-8.95144
ment	-8.95247
▁students	-8.95251
▁don	-8.95254
z	-8.95365
▁cut	-8.95933
▁within	-8.96089
▁August	-8.961
in	-8.9631
▁rest	-8.96416
▁heard	-8.96599
▁receive	-8.96742
▁Paul	-8.96835
▁23	-8.96868
▁500	-8.96966
▁ahead	-8.97075
▁October	-8.9709
▁war	-8.9722
▁To	-8.97391
▁check	-8.97585
▁defeat	-8.97634
online	-8.97648
▁count	-8.97707
▁fail	-8.97915
▁process	-8.98042
▁sign	-8.98155
▁US	-8.98161
▁act	-8.98167
▁weekend	-8.98212
▁position	-8.98402
▁immediate	-8.98413
▁April	-8.98445
▁points	-8.9848
▁De	-8.98625
▁score	-8.98724
▁light	-8.98727
▁wait	-8.98982
▁spend	-8.98984
▁Al	-8.99135
▁book	-8.99206
ish	-8.99207
▁hour	-8.99215
▁small	-8.99344
▁leader	-8.99389
▁park	-8.99653
ither	-8.99853
▁Mrs	-8.99895
▁town	-9.00118
▁serious	-9.00134
▁operation	-9.00212
▁thing	-9.00236
ise	-9.00243
▁image	-9.00279
▁reason	-9.00295
▁owner	-9.0033
▁Real	-9.0033
▁stage	-9.00624
▁member	-9.00743
▁better	-9.00806
ary	-9.01039
▁trip	-9.01041
▁trying	-9.01049
▁sentence	-9.01056
▁confirm	-9.01208
▁store	-9.01357
▁nation	-9.01474
▁bit	-9.01557
▁La	-9.01817
▁course	-9.02016
▁yesterday	-9.02352
▁2009	-9.02434
▁treat	-9.02441
u	-9.02809
▁My	-9.03185
▁billion	-9.03322
▁With	-9.03404
side	-9.03514
▁fall	-9.03516
▁While	-9.03588
ation	-9.03611
▁someone	-9.03716
▁expected	-9.03787
▁Australian	-9.03968
▁learn	-9.03986
▁ball	-9.04179
us	-9.04202
▁Minister	-9.04221
▁project	-9.04241
▁based	-9.04247
▁different	-9.04277
▁community	-9.04277
ley	-9.04314
▁accused	-9.04423
▁26	-9.04568
▁gain	-9.04632
▁Washington	-9.04647
▁firm	-9.04653
▁source	-9.05048
▁interview	-9.05074
using	-9.05144
▁photo	-9.05177
▁sent	-9.05256
▁accident	-9.05297
▁Florida	-9.05342
▁27	-9.0545
▁60	-9.05667
▁claimed	-9.058
▁cancer	-9.05825
▁didn	-9.05964
▁fact	-9.06098
▁class	-9.0616
▁sexual	-9.06228
▁Some	-9.06652
▁market	-9.06717
▁abuse	-9.0689
safety	-9.07066
▁ne	-9.07132
▁strong	-9.07205
▁student	-9.07291
▁So	-9.07383
▁contact	-9.07503
▁minute	-9.07519
▁boss	-9.07678
▁history	-9.079
▁played	-9.08197
▁San	-9.08285
▁black	-9.08873
▁America	-9.08972
▁bear	-9.09147
▁page	-9.09179
▁goals	-9.09195
▁land	-9.09381
▁28	-9.09466
▁February	-9.09747
▁whose	-9.09834
▁expect	-9.09946
ive	-9.0997
▁train	-9.10082
▁travel	-9.10113
▁host	-9.10137
▁Germany	-9.10387
▁election	-9.10851
▁attend	-9.1094
▁miss	-9.11178
▁story	-9.11193
▁trust	-9.11478
▁strike	-9.11705
▁plan	-9.11751
▁once	-9.11989
▁victims	-9.12035
▁letter	-9.12126
▁blood	-9.12146
▁detail	-9.12177
▁research	-9.12205
▁countrie	-9.12215
▁ca	-9.1226
▁plans	-9.12386
▁chief	-9.12488
▁squad	-9.12505
▁national	-9.12667
▁ever	-9.12671
▁White	-9.12754
▁meet	-9.12878
▁ra	-9.12883
▁net	-9.12886
▁board	-9.13005
▁ll	-9.13037
▁property	-9.13184
▁practice	-9.13238
▁relationship	-9.13402
▁lives	-9.13428
▁often	-9.13504
▁popular	-9.13538
▁pull	-9.13693
ous	-9.13785
▁white	-9.13877
▁2014	-9.1391
▁wrot	-9.13932
▁thousand	-9.13984
▁2008	-9.14004
tried	-9.14075
▁School	-9.14092
▁target	-9.14135
1	-9.14289
▁political	-9.14475
▁capital	-9.14519
▁wide	-9.1452
▁Africa	-9.14664
▁mean	-9.14828
▁idea	-9.14949
▁entire	-9.15037
▁accept	-9.15151
ally	-9.15152
▁anything	-9.15206
▁personal	-9.15403
▁Day	-9.15482
▁appearance	-9.15551
▁beat	-9.15614
▁agency	-9.15659
▁amount	-9.15681
▁George	-9.15726
▁seat	-9.16168
▁social	-9.16278
▁International	-9.16376
▁straight	-9.16448
▁sell	-9.16685
▁together	-9.16706
▁became	-9.17035
▁happened	-9.17043
▁Hospital	-9.17176
▁bill	-9.17365
▁region	-9.17417
▁date	-9.17453
son	-9.17459
▁BBC	-9.1746
▁range	-9.17542
▁further	-9.17567
▁Barcelona	-9.17694
▁Brazil	-9.17697
▁vote	-9.17721
▁al	-9.17934
▁East	-9.17949
▁shooting	-9.18049
▁hotel	-9.18161
▁nothing	-9.18276
▁French	-9.1842
▁Man	-9.18596
▁Spain	-9.18827
▁expert	-9.19136
▁German	-9.19361
▁receiv	-9.19421
▁believed	-9.19583
▁getting	-9.19603
▁fund	-9.19622
▁establish	-9.1974
▁Europe	-9.19913
▁challenge	-9.20006
▁important	-9.20014
▁crime	-9.20134
▁space	-9.20184
▁talk	-9.20509
▁Mark	-9.20519
▁message	-9.20597
▁foot	-9.20652
spent	-9.20775
▁pm	-9.20793
▁van	-9.20972
el	-9.21167
▁meeting	-9.21211
ate	-9.21215
▁V	-9.21256
▁special	-9.21279
ize	-9.21296
▁rights	-9.21318
▁Be	-9.21361
▁street	-9.21568
▁animal	-9.21693
▁According	-9.21837
▁comes	-9.21899
▁above	-9.21982
▁admitted	-9.21998
▁Russian	-9.22088
▁door	-9.22118
▁red	-9.22126
▁involv	-9.22227
▁attorney	-9.22279
▁feature	-9.22326
▁violen	-9.22342
▁bad	-9.22362
▁bid	-9.2253
▁Smith	-9.22551
▁performance	-9.22553
▁anyone	-9.22638
▁develop	-9.227
h	-9.2272
▁desire	-9.22831
▁share	-9.22981
▁led	-9.23263
▁size	-9.23326
▁hair	-9.23359
▁midfielder	-9.23399
▁29	-9.23479
▁fly	-9.23597
▁drink	-9.23643
▁threat	-9.23766
▁hearing	-9.23822
▁airport	-9.23887
▁ex	-9.2392
▁English	-9.23958
ry	-9.24034
▁More	-9.2409
▁crew	-9.24254
ie	-9.24302
▁images	-9.24366
▁program	-9.24367
▁kind	-9.24374
▁produce	-9.24579
▁sister	-9.24649
▁rate	-9.24732
▁Los	-9.25066
▁themsel	-9.2518
▁driving	-9.25223
▁users	-9.25291
▁injur	-9.25496
▁Williams	-9.25574
▁Champions	-9.25666
▁succeed	-9.26086
▁track	-9.26119
▁backward	-9.26132
▁document	-9.26145
▁sometime	-9.26234
▁killing	-9.26324
▁brand	-9.26439
▁pitch	-9.26499
▁anti	-9.26591
▁suit	-9.2664
▁living	-9.26765
imply	-9.27161
▁honest	-9.27245
▁floor	-9.27266
▁rearward	-9.27378
▁gave	-9.27411
▁pop	-9.2747
▁weapon	-9.27565
▁captain	-9.27647
▁guilty	-9.27656
▁piece	-9.27658
▁press	-9.27781
l	-9.27863
▁employee	-9.27944
▁situation	-9.28071
▁Brown	-9.28117
▁possible	-9.28181
▁tax	-9.28229
▁speak	-9.28305
ch	-9.28309
▁girls	-9.2848
▁protect	-9.28606
▁publish	-9.28623
▁storm	-9.28734
te	-9.28782
▁VIDEO	-9.2879
▁conduct	-9.2889
▁bus	-9.29018
▁eye	-9.29021
▁champion	-9.29021
▁loss	-9.29078
▁pre	-9.29121
▁contain	-9.29327
▁Union	-9.29466
▁drive	-9.29555
▁let	-9.29557
▁difficult	-9.29567
▁caus	-9.29738
▁speed	-9.29812
▁decade	-9.29893
▁Royal	-9.29911
▁assist	-9.29946
▁done	-9.30223
▁hands	-9.30242
▁disease	-9.30252
▁individual	-9.30415
nt	-9.30435
▁legal	-9.30502
▁spot	-9.30621
▁pictures	-9.30694
▁familie	-9.30761
▁push	-9.30824
▁35	-9.30829
▁Martin	-9.30887
▁everything	-9.30897
▁competition	-9.31106
▁actual	-9.31235
▁penalt	-9.31348
▁percent	-9.31431
▁medical	-9.31588
▁involve	-9.31609
▁award	-9.31731
▁wound	-9.31898
▁doing	-9.31904
▁announc	-9.31913
▁catch	-9.31978
▁soon	-9.31992
▁pressure	-9.31999
▁hither	-9.32088
▁Street	-9.32095
▁buy	-9.32392
▁Texas	-9.32434
▁effect	-9.32509
▁restaurant	-9.32512
▁hop	-9.32555
▁convict	-9.32617
▁customers	-9.32646
▁address	-9.32786
▁rescue	-9.32876
▁advance	-9.33083
▁conclud	-9.33108
▁base	-9.33176
▁key	-9.33419
▁King	-9.33448
▁Re	-9.33724
▁India	-9.3389
▁create	-9.34042
▁2007	-9.34067
▁holiday	-9.34123
ford	-9.34129
▁minister	-9.34301
▁terminal	-9.34405
▁style	-9.34559
▁figure	-9.3463
▁Italy	-9.34641
▁Van	-9.34716
▁Mo	-9.34891
▁drugs	-9.34957
▁birth	-9.34994
▁south	-9.3511
▁decided	-9.35135
▁45	-9.35186
5	-9.35227
▁Center	-9.35326
▁serve	-9.3536
▁Iraq	-9.35404
▁Russia	-9.3541
▁tournament	-9.35766
▁dress	-9.35872
▁31	-9.35959
▁self	-9.3599
▁newspaper	-9.36066
▁emergenc	-9.36147
▁missing	-9.36302
▁kick	-9.36362
▁shop	-9.36376
▁executive	-9.3639
▁benefit	-9.36413
▁photos	-9.36451
▁High	-9.36464
▁Prince	-9.36478
▁protest	-9.3651
▁original	-9.36574
▁initial	-9.36716
▁block	-9.36794
▁forth	-9.36808
▁Le	-9.36961
▁rise	-9.37103
▁aim	-9.37139
▁nigh	-9.37177
▁appeal	-9.37184
▁MP	-9.37253
▁Italian	-9.37349
▁afternoon	-9.37423
▁coming	-9.37506
▁caught	-9.37545
▁winner	-9.3758
land	-9.37583
▁ain	-9.37584
▁People	-9.37685
▁bank	-9.3773
▁warn	-9.37999
▁happy	-9.38008
▁di	-9.38022
▁defender	-9.38027
▁extend	-9.38065
▁Angeles	-9.38091
▁safe	-9.38272
▁Chris	-9.38483
▁encounter	-9.38487
▁period	-9.38524
while	-9.38799
3	-9.38949
▁jump	-9.39093
▁everyone	-9.39149
▁aid	-9.39182
▁begin	-9.39196
espite	-9.392
▁touch	-9.39225
▁music	-9.39238
▁criminal	-9.39301
▁matter	-9.39304
▁footage	-9.39365
▁32	-9.39386
▁Mexico	-9.39518
▁surgery	-9.39562
▁sound	-9.39663
▁Office	-9.39668
▁raise	-9.39795
▁Prime	-9.39822
ia	-9.39836
▁drop	-9.39843
▁areas	-9.39985
▁animals	-9.4011
▁nearby	-9.40126
▁fresh	-9.40167
▁hundred	-9.4018
▁African	-9.40315
ne	-9.40333
▁opportunit	-9.40445
▁ten	-9.40506
▁battle	-9.40612
▁access	-9.40644
▁showed	-9.40752
▁stand	-9.40866
▁app	-9.40963
den	-9.40969
▁Open	-9.41007
▁Service	-9.41078
▁El	-9.41201
▁non	-9.41212
▁notice	-9.41216
▁fell	-9.41356
latest	-9.41363
▁Red	-9.41435
▁Afghanistan	-9.41445
▁erst	-9.41458
▁adult	-9.41493
▁alleged	-9.41506
▁league	-9.41535
▁single	-9.41688
▁Wales	-9.41696
▁running	-9.41841
▁similar	-9.41871
▁Co	-9.42233
▁average	-9.42545
▁girlfriend	-9.42597
▁winning	-9.42742
▁certain	-9.42772
▁approach	-9.42853
▁limit	-9.4294
▁border	-9.43041
▁perform	-9.43081
▁allegation	-9.43105
▁Korea	-9.43172
▁request	-9.43179
▁tie	-9.43328
▁deliver	-9.43478
▁answer	-9.43591
▁opening	-9.43595
▁Council	-9.43612
▁partner	-9.43716
▁huge	-9.43797
▁cash	-9.43829
▁born	-9.44067
▁finish	-9.44083
▁alone	-9.44224
▁agent	-9.44305
▁Pakistan	-9.44318
▁tour	-9.44372
▁releas	-9.44425
▁st	-9.44442
▁determine	-9.44567
▁survey	-9.44577
▁War	-9.44603
▁Apple	-9.44823
▁design	-9.4483
▁ban	-9.44834
▁Cameron	-9.44855
▁leg	-9.44896
▁dis	-9.44919
▁agree	-9.44935
▁although	-9.45145
▁Di	-9.45217
▁prosecutor	-9.45235
▁loan	-9.45256
▁Daily	-9.45294
▁Japan	-9.45471
▁general	-9.45515
▁female	-9.45576
▁double	-9.45638
▁weight	-9.45702
▁paid	-9.45944
▁grant	-9.45996
▁brain	-9.461
▁onto	-9.46265
▁worth	-9.46276
▁Ham	-9.46457
▁Google	-9.46584
▁complaint	-9.46603
▁celebrate	-9.46607
▁plead	-9.46669
▁Johnson	-9.46757
▁afterward	-9.46762
▁impact	-9.46817
▁These	-9.46877
▁surprise	-9.47101
▁successful	-9.47172
▁Last	-9.47309
▁particular	-9.47337
D	-9.47398
▁extra	-9.47406
▁insist	-9.47409
▁towards	-9.47413
▁Newcastle	-9.47451
▁response	-9.47514
▁happen	-9.47603
▁fine	-9.47726
▁north	-9.47788
times	-9.4785
▁normal	-9.47897
▁island	-9.48009
▁center	-9.481
▁whole	-9.48289
▁ft	-9.48422
▁observe	-9.48462
▁shoot	-9.48618
▁item	-9.48619
▁file	-9.48753
▁display	-9.4881
4	-9.48825
▁fashion	-9.49006
▁gas	-9.49094
▁private	-9.49167
▁council	-9.49229
▁crowd	-9.49249
re	-9.49463
▁rival	-9.49593
▁bed	-9.49638
▁leaving	-9.49835
▁sea	-9.49924
▁attention	-9.49978
▁secret	-9.501
▁hear	-9.50356
▁arrived	-9.50417
▁success	-9.50422
▁witness	-9.50446
▁evening	-9.5056
▁Peter	-9.5062
way	-9.50639
▁data	-9.50683
▁save	-9.50683
▁Sir	-9.50692
▁300	-9.50795
▁acquire	-9.50922
▁step	-9.5093
▁oil	-9.51092
▁90	-9.51108
▁explain	-9.51213
▁doctors	-9.51262
▁80	-9.51374
ist	-9.51382
▁field	-9.51422
▁Paris	-9.51439
▁lose	-9.5147
▁fourth	-9.51534
▁separate	-9.51537
▁tweet	-9.51693
▁policy	-9.51743
▁transfer	-9.51786
▁leaders	-9.51802
▁probabl	-9.51982
▁remove	-9.51982
▁main	-9.52085
▁Scotland	-9.52308
F	-9.52333
▁gold	-9.52361
▁issues	-9.52437
▁conference	-9.52761
▁Air	-9.52816
age	-9.52843
▁fan	-9.52964
▁network	-9.53016
ism	-9.53071
▁70	-9.53114
▁fear	-9.53126
▁aircraft	-9.53181
▁focus	-9.53206
▁quarter	-9.5325
▁beginning	-9.53415
▁Sydney	-9.53468
▁wedding	-9.53472
▁Jones	-9.53481
▁33	-9.53554
▁results	-9.53597
▁Health	-9.5367
▁Old	-9.53748
▁met	-9.53759
▁quick	-9.53815
▁bar	-9.53853
▁Another	-9.53868
▁television	-9.54034
▁value	-9.54131
▁figures	-9.54146
▁brought	-9.54255
▁charity	-9.54278
▁sold	-9.54398
▁Labour	-9.54436
▁exit	-9.54473
▁illegal	-9.54603
▁throw	-9.54643
▁troop	-9.54769
▁lawyer	-9.54872
▁Robert	-9.54983
K	-9.55038
▁cross	-9.55077
▁extreme	-9.55348
▁Now	-9.55412
▁enjoy	-9.55444
▁apartment	-9.55754
▁alcohol	-9.55772
▁card	-9.55799
▁Crown	-9.55815
▁cell	-9.55847
▁die	-9.55969
▁Secretary	-9.56049
▁artist	-9.56259
wearing	-9.56353
▁nd	-9.5637
▁sustain	-9.56462
▁wrong	-9.5649
cy	-9.56518
▁fellow	-9.56618
▁fit	-9.56902
▁herself	-9.56906
ability	-9.56939
▁sale	-9.56976
▁deep	-9.57095
▁weather	-9.57277
▁arrive	-9.5729
▁means	-9.57381
▁Gaal	-9.57437
▁regular	-9.57451
▁ready	-9.57458
▁ice	-9.5749
▁Ben	-9.57559
▁Judge	-9.5756
▁custod	-9.57669
available	-9.57755
▁technology	-9.57817
▁teacher	-9.57971
▁severe	-9.57981
▁Times	-9.57994
▁significant	-9.58114
▁Thomas	-9.58243
▁Authoriti	-9.58402
▁scarce	-9.58428
▁cars	-9.5844
▁actor	-9.58502
▁rattling	-9.58604
▁2006	-9.58636
▁ship	-9.58729
na	-9.58766
▁Do	-9.58887
▁lack	-9.59037
▁Chines	-9.5919
older	-9.59248
▁Green	-9.59259
▁window	-9.59321
▁thus	-9.59379
C	-9.59679
▁spokeswom	-9.59721
▁Lee	-9.59802
▁giant	-9.59969
▁build	-9.59977
quite	-9.59978
▁Three	-9.60112
8	-9.60405
ful	-9.60441
▁Government	-9.60564
▁dogs	-9.60689
x	-9.60712
▁clean	-9.60737
▁photograph	-9.60767
▁various	-9.60771
▁church	-9.60779
ueen	-9.60847
▁Louis	-9.60857
▁gone	-9.60864
▁bomb	-9.60887
▁marriage	-9.60941
▁Tom	-9.60955
ham	-9.60957
▁computer	-9.61014
away	-9.61024
▁review	-9.61057
▁prevent	-9.61066
▁suggest	-9.61066
▁Jackson	-9.61102
▁Both	-9.61205
▁Spani	-9.61235
▁sport	-9.61544
▁FA	-9.61566
▁capture	-9.6163
▁mere	-9.61683
▁Richard	-9.61737
men	-9.6186
▁enter	-9.61885
▁Its	-9.6221
▁pain	-9.62407
b	-9.62417
▁u	-9.62448
▁send	-9.62656
U	-9.62821
▁Iran	-9.62826
▁apply	-9.62829
▁collection	-9.6298
P	-9.63022
▁Tottenham	-9.63075
▁novel	-9.63093
▁Republican	-9.63121
▁felt	-9.63152
▁contribute	-9.63262
▁Championship	-9.63349
▁department	-9.63484
▁common	-9.63512
▁art	-9.63582
▁sense	-9.63787
▁looks	-9.6394
▁sleep	-9.64171
▁federal	-9.64263
▁created	-9.64357
▁terrorist	-9.64382
▁34	-9.64391
▁companies	-9.64601
▁matches	-9.6489
▁pilot	-9.64891
▁suicide	-9.64971
▁William	-9.65059
▁ring	-9.65188
▁boat	-9.65457
▁table	-9.65475
▁traffic	-9.65546
▁prove	-9.65609
▁boys	-9.65615
▁shape	-9.65701
▁Our	-9.65747
▁magazine	-9.65773
▁Not	-9.65838
▁effort	-9.65838
▁Kim	-9.65968
▁Milan	-9.66036
▁village	-9.66077
ant	-9.66084
▁mark	-9.66216
▁exact	-9.66343
▁words	-9.66383
▁Syria	-9.66419
▁finding	-9.66461
um	-9.6654
▁investigator	-9.66792
▁material	-9.66903
▁Grand	-9.67004
emost	-9.67149
L	-9.67161
▁subject	-9.6718
▁movie	-9.67221
▁Harry	-9.67264
▁signing	-9.67348
▁ill	-9.67542
▁fast	-9.67804
▁trade	-9.6785
▁Group	-9.67908
▁respect	-9.67911
▁bare	-9.6795
▁doctor	-9.67971
6	-9.68097
▁Former	-9.68118
▁Z	-9.68127
▁kids	-9.68134
▁Palace	-9.68192
▁Andrew	-9.68523
▁understand	-9.68574
▁unit	-9.68635
▁guy	-9.6866
▁married	-9.68685
▁express	-9.68695
▁offence	-9.68757
▁row	-9.6876
▁Many	-9.6893
▁rape	-9.68962
▁location	-9.69108
▁fun	-9.69143
▁clash	-9.69162
▁Daniel	-9.692
▁By	-9.69222
▁population	-9.69327
▁warning	-9.69542
▁industry	-9.69565
▁choice	-9.69777
R	-9.69798
▁eyes	-9.69805
▁shirt	-9.69852
▁snow	-9.69954
▁products	-9.7002
▁leading	-9.70272
▁investigat	-9.7039
▁events	-9.7046
▁skin	-9.70539
▁coast	-9.70551
▁else	-9.70573
kept	-9.70658
▁Jose	-9.7072
▁quickly	-9.70907
▁gift	-9.70964
▁box	-9.70977
p	-9.7098
▁senior	-9.71074
▁wish	-9.71117
▁session	-9.71145
▁twi	-9.71204
▁Officer	-9.71234
▁degree	-9.71346
tmost	-9.71469
▁beach	-9.71483
▁mail	-9.71493
▁professional	-9.71524
residents	-9.71571
ese	-9.7229
▁avoid	-9.72343
▁reporters	-9.72436
ling	-9.72446
▁perfect	-9.72495
▁bottom	-9.72512
▁option	-9.72577
▁spread	-9.72665
▁cat	-9.72722
knew	-9.7277
▁Black	-9.72784
▁recall	-9.7279
▁suspend	-9.729
▁airline	-9.729
▁endure	-9.72921
giving	-9.72963
▁easi	-9.73025
▁secure	-9.73113
▁pick	-9.73165
▁heavy	-9.73202
▁hurt	-9.7322
▁defense	-9.73249
▁contribut	-9.73271
▁36	-9.73292
ty	-9.73326
▁relative	-9.73361
▁Mourinho	-9.73385
▁bag	-9.7354
aged	-9.73616
▁sales	-9.7373
▁General	-9.73757
▁researcher	-9.73793
ma	-9.73821
▁Justice	-9.73859
instead	-9.73887
▁link	-9.73889
▁During	-9.73895
▁apparent	-9.73907
▁Although	-9.73941
▁poor	-9.73981
▁Murray	-9.73993
▁homes	-9.74034
▁stars	-9.74054
▁schedule	-9.7406
▁Korean	-9.74084
▁Villa	-9.74379
▁militant	-9.74534
▁bail	-9.7459
▁Bo	-9.746
▁energy	-9.74753
▁Bill	-9.74794
▁east	-9.74867
ve	-9.74955
▁ensure	-9.74976
▁expend	-9.75061
▁rare	-9.7509
▁pose	-9.75144
▁g	-9.75169
▁obtain	-9.75185
field	-9.75213
▁earn	-9.75328
▁grow	-9.75348
▁efforts	-9.75363
▁describ	-9.7543
▁survive	-9.75456
▁soldiers	-9.75543
▁dozen	-9.7555
▁device	-9.75582
▁Alex	-9.75625
▁feeling	-9.7566
▁famous	-9.75666
▁mind	-9.75714
▁Airport	-9.75766
▁represent	-9.75825
▁Great	-9.75877
▁district	-9.76091
▁transport	-9.76093
▁employ	-9.76111
truck	-9.76231
B	-9.76314
▁longer	-9.76323
▁screen	-9.76352
▁chairman	-9.76368
▁Sam	-9.76384
▁Coast	-9.76417
c	-9.76501
ten	-9.76565
▁mid	-9.76635
▁fish	-9.7666
carried	-9.76671
▁intend	-9.76687
bodies	-9.767
well	-9.76711
▁God	-9.76712
▁debut	-9.76767
▁fix	-9.76802
▁speech	-9.76808
▁exactly	-9.76813
▁fill	-9.76816
▁Post	-9.7686
▁wear	-9.76924
▁Under	-9.7693
▁paper	-9.76935
▁Army	-9.76981
▁Steve	-9.77127
g	-9.77341
7	-9.77359
G	-9.77489
▁faces	-9.77554
▁especial	-9.77585
▁stock	-9.77691
▁Island	-9.77806
▁male	-9.77983
▁dangerous	-9.78038
▁unlike	-9.78041
▁Jack	-9.78068
▁blue	-9.78157
▁west	-9.78224
9	-9.78352
▁render	-9.78434
▁mouth	-9.78466
▁impart	-9.78641
▁Clinton	-9.78793
▁traditional	-9.78814
▁Southampton	-9.78906
▁Of	-9.78916
et	-9.79036
▁singer	-9.79073
▁refused	-9.79191
▁hole	-9.79191
▁remember	-9.79228
line	-9.79271
V	-9.79385
▁biggest	-9.79396
▁development	-9.79474
▁teenager	-9.7957
▁intimate	-9.79613
▁Ronaldo	-9.79722
▁internet	-9.79798
▁wall	-9.79806
▁owners	-9.79913
▁continued	-9.79914
▁lift	-9.80147
▁burn	-9.80275
▁middle	-9.80321
▁400	-9.80455
▁character	-9.80464
▁supporters	-9.80476
▁Israel	-9.80521
hither	-9.80629
▁register	-9.80644
▁Scott	-9.80654
▁machine	-9.80665
▁garden	-9.80874
▁recover	-9.80902
▁tree	-9.80978
▁terror	-9.80991
▁promise	-9.81031
▁organization	-9.81158
▁boyfriend	-9.81204
▁Tour	-9.81271
▁word	-9.81272
▁truck	-9.81285
▁hot	-9.81346
S	-9.81519
▁sports	-9.81655
▁Since	-9.81663
▁Y	-9.81676
▁province	-9.81804
▁2005	-9.81828
▁aware	-9.81862
▁photographer	-9.81923
▁District	-9.8195
▁note	-9.81962
▁raw	-9.81982
▁Maria	-9.81997
▁eventual	-9.82054
▁Argentina	-9.82115
▁pack	-9.82201
▁version	-9.82217
▁Association	-9.82319
▁Everton	-9.82321
it	-9.82433
▁connection	-9.82499
▁pounds	-9.82537
▁band	-9.82653
▁stopp	-9.82677
▁Taylor	-9.82759
▁Year	-9.82778
▁camp	-9.82867
▁Suarez	-9.82906
▁defend	-9.83038
▁mission	-9.83122
▁Costa	-9.83169
quality	-9.83237
▁text	-9.8332
▁FBI	-9.8337
▁jury	-9.83446
▁Force	-9.83479
▁doubt	-9.83645
▁flood	-9.83662
▁rock	-9.83705
▁Star	-9.8372
▁united	-9.83781
▁depart	-9.83817
▁sole	-9.83837
▁Road	-9.83841
▁38	-9.84116
▁spott	-9.84177
▁initiative	-9.84188
▁identifi	-9.84256
▁purchase	-9.8426
▁credit	-9.84465
ought	-9.84509
▁teams	-9.84597
▁voice	-9.84607
▁Mail	-9.84689
▁mate	-9.84707
▁YouTube	-9.84733
▁broke	-9.84747
▁Charles	-9.84863
▁Ro	-9.8492
▁resident	-9.84932
M	-9.84951
▁natural	-9.84973
▁NHS	-9.85032
▁signal	-9.85068
▁visitors	-9.85259
▁via	-9.8526
▁shock	-9.85308
▁quo	-9.85316
▁exchange	-9.85333
▁subsequent	-9.85382
▁progress	-9.85447
▁supply	-9.85552
▁colleague	-9.85581
▁Home	-9.85622
▁birthday	-9.85653
▁Ireland	-9.85683
▁programme	-9.85716
▁virtual	-9.85738
▁streets	-9.85789
▁manag	-9.85844
▁37	-9.85982
▁seek	-9.86039
▁profile	-9.86083
▁conceive	-9.86098
▁pro	-9.86098
▁ran	-9.86238
▁Bayern	-9.8635
▁crisi	-9.86357
▁neighbour	-9.86398
▁rush	-9.86425
▁candidate	-9.86479
ine	-9.86501
▁usual	-9.8655
▁Stadium	-9.86572
board	-9.8662
▁agreement	-9.86628
▁below	-9.86628
▁occur	-9.86639
▁talks	-9.86656
▁NEW	-9.86703
▁example	-9.86708
not	-9.86781
▁Joe	-9.86841
▁Security	-9.8686
▁Hall	-9.86866
by	-9.86866
with	-9.8695
▁await	-9.87011
▁makes	-9.8708
▁regard	-9.87118
ndam	-9.8712
▁Zealand	-9.87198
▁exist	-9.87278
▁Messi	-9.87357
▁Christian	-9.87414
▁messages	-9.87427
f	-9.87593
▁Indian	-9.87862
▁lawsuit	-9.87927
▁escape	-9.87956
▁write	-9.87961
▁deni	-9.87973
▁states	-9.87995
▁respective	-9.88004
▁robber	-9.88024
▁built	-9.88027
▁Chief	-9.88121
▁42	-9.88212
▁schools	-9.88228
▁welcome	-9.88228
▁realise	-9.88394
▁engage	-9.88454
▁exclusive	-9.88509
▁Super	-9.88561
▁economy	-9.88603
▁colour	-9.8867
▁stick	-9.88708
▁Islamic	-9.88751
▁scoring	-9.88899
▁commit	-9.88919
▁distinguish	-9.88926
▁central	-9.88959
▁proceed	-9.8899
▁type	-9.89051
▁adopt	-9.89218
▁mph	-9.89264
▁education	-9.89361
▁plant	-9.89541
▁Most	-9.89573
▁Fox	-9.8961
▁Nation	-9.89689
▁Other	-9.89741
ory	-9.89827
▁Canada	-9.89885
▁article	-9.89934
▁societ	-9.90033
▁Jersey	-9.90052
▁temperature	-9.9014
▁reckon	-9.90161
▁Mar	-9.9023
to	-9.90409
▁Fire	-9.90412
▁sentenced	-9.90471
▁itself	-9.90496
▁helicopter	-9.90497
▁Lewis	-9.90662
▁Hill	-9.90754
▁Bay	-9.90794
ian	-9.90961
▁function	-9.90991
▁green	-9.91004
wood	-9.91056
▁poll	-9.91105
▁spell	-9.91136
▁farm	-9.91158
▁ceremony	-9.91197
▁channel	-9.91217
▁super	-9.91249
▁Chicago	-9.91278
▁ride	-9.91281
ner	-9.91297
▁Ha	-9.91342
▁retir	-9.91388
▁Rooney	-9.9142
▁150	-9.91694
▁Four	-9.91704
▁occurr	-9.91722
▁Me	-9.91727
▁majority	-9.91803
▁exercise	-9.91852
▁dark	-9.91858
▁positive	-9.91872
▁behaviour	-9.91933
▁Lord	-9.92061
▁slow	-9.92065
▁trouble	-9.92092
▁Diego	-9.92106
▁2004	-9.92132
▁steal	-9.92193
▁grade	-9.92226
▁39	-9.92325
▁Andy	-9.92348
▁Their	-9.92385
▁foreign	-9.92411
▁knock	-9.92412
▁justice	-9.92432
▁2015	-9.92458
▁eat	-9.92491
▁48	-9.92542
▁takes	-9.92602
▁Club	-9.92724
▁repeated	-9.92726
▁maintain	-9.92773
▁founder	-9.92774
▁rais	-9.92896
▁First	-9.92961
▁secern	-9.93224
▁actions	-9.93273
▁rough	-9.93321
▁Mary	-9.93361
▁growing	-9.93379
stantly	-9.9341
▁surface	-9.9341
▁university	-9.93449
▁75	-9.9348
▁Sea	-9.93609
▁fuel	-9.93708
▁mistake	-9.93808
▁guide	-9.93886
▁struggle	-9.93916
▁remark	-9.93981
▁affect	-9.94001
▁rain	-9.94029
▁Kevin	-9.9406
▁champions	-9.94067
is	-9.94078
▁substantial	-9.94124
ra	-9.9421
▁suffering	-9.94226
▁Beach	-9.9424
▁doesn	-9.94253
▁43	-9.94277
▁Today	-9.94319
▁Tony	-9.94587
j	-9.94678
▁controversial	-9.94786
▁b	-9.94823
▁bedroom	-9.94827
▁designed	-9.9516
▁River	-9.95296
▁Ali	-9.95338
▁movement	-9.95367
▁plenty	-9.95379
▁multiple	-9.95394
▁telling	-9.95547
▁attract	-9.95557
▁honor	-9.95559
▁mobile	-9.95565
▁neck	-9.95603
▁showing	-9.95652
▁Olympic	-9.95874
▁guard	-9.95906
▁urge	-9.95957
▁stress	-9.96039
▁Lu	-9.96088
▁Mike	-9.96109
▁struggl	-9.96139
▁actress	-9.96152
▁Bridge	-9.96199
▁financial	-9.96248
▁signs	-9.96262
▁moving	-9.96267
▁hang	-9.96336
▁Party	-9.9636
▁Miami	-9.96495
▁affair	-9.96511
▁warm	-9.9654
▁Mac	-9.96596
▁semi	-9.96618
▁dropp	-9.96638
▁manage	-9.96703
▁user	-9.96744
▁raid	-9.96758
▁assure	-9.96759
▁Im	-9.96825
▁proper	-9.9683
▁duty	-9.96851
▁55	-9.96949
▁Instagram	-9.97
▁Young	-9.97007
▁addition	-9.97019
▁correct	-9.97266
▁client	-9.97275
▁hunt	-9.97346
▁danger	-9.97388
▁fifth	-9.9751
▁broken	-9.97653
▁chose	-9.97659
▁wild	-9.97667
▁Ra	-9.97749
▁operate	-9.97764
▁Or	-9.97799
▁Boston	-9.97821
▁journey	-9.9796
▁Ho	-9.97995
▁Adam	-9.97998
▁passed	-9.9802
▁Luis	-9.98041
▁tight	-9.98125
▁knee	-9.98127
▁prompt	-9.98352
▁beautiful	-9.98433
angled	-9.98451
▁product	-9.98492
▁thanks	-9.98523
▁debate	-9.98565
▁Pa	-9.98627
▁Ed	-9.98638
▁Wenger	-9.98652
▁Go	-9.98698
▁auction	-9.98769
▁bodi	-9.98773
▁blame	-9.98779
▁Steven	-9.98791
▁threaten	-9.98832
▁sort	-9.98882
▁blow	-9.99037
▁Carolina	-9.9904
▁utter	-9.99046
▁Games	-9.99062
▁delay	-9.99071
▁Nick	-9.99169
▁Bush	-9.99177
▁necessitate	-9.99278
▁wo	-9.99295
▁engine	-9.99357
▁goalkeeper	-9.99419
▁Bar	-9.99443
▁dream	-9.99453
▁cast	-9.99479
▁handed	-9.99492
▁gay	-9.99667
▁standing	-9.99704
▁bough	-9.99744
▁related	-9.99857
▁tough	-9.99924
▁EU	-10.0012
▁realize	-10.002
▁global	-10.0021
▁nurse	-10.0032
▁specific	-10.0049
▁44	-10.005
▁century	-10.0057
▁alert	-10.0058
▁difference	-10.006
▁radio	-10.0069
▁Un	-10.0071
▁complain	-10.0072
▁collapse	-10.0079
▁scientists	-10.0082
▁iPhone	-10.0087
▁whom	-10.0088
▁peace	-10.009
▁Earth	-10.0097
▁scream	-10.0103
▁blast	-10.0106
▁Taliban	-10.0108
▁Victoria	-10.0111
▁college	-10.0115
▁Alan	-10.0117
▁responsibilit	-10.0126
▁legs	-10.0127
▁opposition	-10.0128
▁Modern	-10.0134
▁retrieve	-10.0134
refore	-10.0144
▁flow	-10.0145
▁Official	-10.0151
▁From	-10.0156
▁spoke	-10.016
▁civilian	-10.0161
▁presidential	-10.0163
▁41	-10.0165
▁horse	-10.0165
▁Cambridge	-10.017
▁Sky	-10.0179
▁climb	-10.018
▁Ma	-10.0182
ke	-10.0185
▁yield	-10.0199
▁monitor	-10.0212
▁Muslim	-10.0213
live	-10.0218
▁physical	-10.0224
▁pet	-10.0228
▁postulate	-10.0229
▁estate	-10.0229
▁select	-10.0233
▁Hollywood	-10.0244
▁Ryan	-10.0248
▁weigh	-10.0261
▁Georgia	-10.0271
▁song	-10.0285
▁minor	-10.0291
▁possession	-10.0293
▁affiliate	-10.0294
▁rebel	-10.0298
▁undergo	-10.0306
▁FIFA	-10.0307
▁Bank	-10.031
pled	-10.0325
▁boost	-10.0341
▁precise	-10.0352
▁jobs	-10.0357
▁Ba	-10.0357
▁Lo	-10.0359
signed	-10.0369
▁Wilson	-10.0373
▁prepare	-10.0374
▁myself	-10.0377
▁gang	-10.0393
▁impress	-10.0398
▁easy	-10.0398
▁sit	-10.04
the	-10.0402
▁identify	-10.0402
▁dance	-10.0404
goes	-10.0412
▁Big	-10.0416
▁seed	-10.0424
▁profit	-10.0427
▁winter	-10.0427
at	-10.0428
▁knife	-10.0436
▁crimes	-10.0446
▁announce	-10.0447
▁prize	-10.0451
▁47	-10.0454
PR	-10.0472
▁advert	-10.0473
▁65	-10.0473
▁planning	-10.0485
▁Attorney	-10.0496
▁influence	-10.0497
▁volunteer	-10.0505
▁Barack	-10.0505
▁Lake	-10.051
▁served	-10.0511
▁favourite	-10.0512
▁wave	-10.0512
▁seal	-10.0514
▁ruling	-10.0515
▁destroy	-10.0519
▁names	-10.0523
▁smoke	-10.0526
▁tally	-10.0527
fully	-10.053
▁wasn	-10.0531
▁discuss	-10.0542
nel	-10.0544
▁grand	-10.0559
▁Church	-10.0577
▁pool	-10.0584
▁Sheriff	-10.0589
▁2003	-10.0592
▁illness	-10.0597
▁46	-10.0597
▁Simon	-10.0603
▁feed	-10.061
▁cold	-10.0622
za	-10.0623
▁language	-10.0628
▁Birmingham	-10.063
▁Frank	-10.0647
cities	-10.0652
▁holding	-10.0663
▁600	-10.0669
▁veteran	-10.067
▁capabl	-10.0672
▁thank	-10.0673
▁god	-10.0674
▁occasion	-10.0678
▁linked	-10.0682
▁cook	-10.0683
ka	-10.0683
shire	-10.0685
aeda	-10.0689
▁glass	-10.069
▁mental	-10.0699
▁indicate	-10.0702
▁confront	-10.0703
▁shar	-10.0706
go	-10.0711
▁Hamilton	-10.0716
▁print	-10.0725
▁Up	-10.0736
▁Football	-10.0744
▁administration	-10.0745
▁Prosecutor	-10.0748
▁pretty	-10.0763
▁afford	-10.0771
▁shopping	-10.0773
▁economic	-10.0776
▁reaction	-10.078
▁route	-10.0781
▁Men	-10.079
▁joke	-10.079
▁Sun	-10.0795
▁Wayne	-10.0796
▁effective	-10.0797
▁spark	-10.0799
▁Ministry	-10.08
▁flat	-10.0809
days	-10.0812
▁import	-10.0818
▁recovery	-10.084
▁expensive	-10.0842
▁scale	-10.0847
▁calling	-10.085
▁annual	-10.0853
▁banned	-10.0854
▁Watch	-10.0855
▁sun	-10.086
T	-10.0866
▁works	-10.0871
▁49	-10.0872
▁Senate	-10.0875
▁Kate	-10.0892
▁stadium	-10.0893
▁Congress	-10.0897
▁Israeli	-10.0898
▁dont	-10.0901
▁clothes	-10.0905
▁defence	-10.0907
▁acknowledge	-10.091
▁lay	-10.091
▁medal	-10.0912
mates	-10.0922
▁critical	-10.0922
▁respond	-10.0933
▁talent	-10.0934
▁stomach	-10.0936
▁nature	-10.0941
▁budget	-10.0944
▁ascertain	-10.0944
▁laws	-10.095
▁corner	-10.0954
▁commercial	-10.0957
▁Eric	-10.0959
▁object	-10.096
▁diet	-10.0961
▁lower	-10.0975
▁paint	-10.0975
▁plann	-10.0979
ized	-10.0979
▁rank	-10.098
▁unexam	-10.0989
▁Melbourne	-10.0994
▁harm	-10.0999
▁wind	-10.1
am	-10.1007
▁Student	-10.1012
▁switch	-10.1012
▁collect	-10.1017
▁shots	-10.1021
▁neighbor	-10.1023
▁Inter	-10.1029
▁emerg	-10.1037
▁rent	-10.1054
▁hail	-10.1058
▁smash	-10.1062
▁reject	-10.1064
▁committ	-10.1064
▁assume	-10.1074
▁Mc	-10.1094
▁production	-10.1096
▁Traf	-10.1097
▁Mexican	-10.1106
▁commence	-10.1107
▁true	-10.1113
▁mile	-10.1121
▁enforcement	-10.1124
▁connect	-10.1125
▁CEO	-10.1126
▁decline	-10.1126
withstand	-10.1126
▁conviction	-10.1127
▁Virginia	-10.1128
▁newf	-10.1132
▁panel	-10.114
▁audience	-10.1145
▁scandal	-10.1151
▁choose	-10.1152
▁alternative	-10.1155
ial	-10.1158
▁Jordan	-10.1161
id	-10.1165
▁Matt	-10.1167
▁massive	-10.1172
▁equipment	-10.1177
▁activit	-10.1177
▁roll	-10.1178
▁Brazilian	-10.1179
▁examine	-10.1193
▁Over	-10.1213
▁Thos	-10.1219
▁ticket	-10.1219
▁listen	-10.122
▁decide	-10.1223
▁scheme	-10.1224
▁Agency	-10.1229
▁losing	-10.1231
▁Will	-10.1232
apian	-10.1232
▁committee	-10.1232
la	-10.1234
▁responsibl	-10.1239
escul	-10.1241
▁defendant	-10.1249
ta	-10.1249
▁chain	-10.1251
ah	-10.1254
▁virus	-10.1258
▁putt	-10.1259
▁Hull	-10.1263
▁theft	-10.1264
▁mis	-10.1265
▁procedure	-10.1266
▁appropriate	-10.1268
▁Long	-10.1277
▁amid	-10.128
▁rd	-10.128
▁cry	-10.1284
▁gather	-10.1289
▁Democrat	-10.1292
▁legend	-10.1301
heles	-10.1302
▁slip	-10.1316
▁explosion	-10.1318
▁Na	-10.132
▁species	-10.1329
ey	-10.1329
▁Sunderland	-10.1331
▁Medical	-10.1337
▁assistant	-10.1337
▁youngster	-10.1337
▁Dutch	-10.1342
▁Web	-10.1349
▁content	-10.1355
▁settle	-10.1356
▁unveil	-10.1356
ctivity	-10.1359
some	-10.1375
▁Test	-10.1378
▁dinner	-10.1382
▁measures	-10.1386
▁facing	-10.1387
▁en	-10.1391
▁Central	-10.1395
▁jet	-10.1399
▁Swansea	-10.1401
▁heat	-10.141
▁conflict	-10.1414
▁ambulance	-10.1419
ina	-10.1429
Y	-10.1432
▁Rio	-10.1432
▁finger	-10.1434
arrogate	-10.1466
▁union	-10.1473
▁250	-10.1473
▁youth	-10.1481
il	-10.149
▁skip	-10.1491
▁Northern	-10.1493
▁fraud	-10.1493
▁bump	-10.1494
▁growth	-10.1495
▁College	-10.1498
▁parties	-10.1499
▁Pe	-10.1501
▁mix	-10.1501
▁violent	-10.1504
▁threatening	-10.1521
▁Phil	-10.1524
up	-10.1526
▁Davis	-10.154
▁Po	-10.1544
▁complex	-10.1546
▁powerful	-10.1547
▁writte	-10.1556
▁ISIS	-10.156
▁Gallic	-10.1569
▁bang	-10.1573
▁stimulate	-10.1576
▁announcement	-10.1578
▁broadcast	-10.1578
▁flights	-10.1582
▁update	-10.1595
▁teen	-10.1598
▁dispute	-10.1607
▁inaugural	-10.1607
▁recognise	-10.1615
▁Right	-10.162
▁author	-10.1637
▁accord	-10.1638
▁generation	-10.1639
▁Gary	-10.164
▁Munich	-10.1641
▁Morgan	-10.1641
▁tribute	-10.1655
▁maiden	-10.1657
▁hat	-10.1658
▁funeral	-10.1662
▁section	-10.1664
▁Rodgers	-10.1666
N	-10.1671
▁induce	-10.1673
▁chair	-10.1679
▁trace	-10.1682
▁beyond	-10.1687
▁tourists	-10.169
▁intelligence	-10.1693
bola	-10.1697
▁encourage	-10.1702
▁Family	-10.1702
▁laugh	-10.1731
▁pocket	-10.1733
▁confidence	-10.1734
▁2016	-10.1738
▁Wood	-10.1739
▁culture	-10.1747
▁Anthony	-10.1752
filed	-10.1753
▁activist	-10.1756
▁shoulder	-10.1761
wear	-10.1764
▁Tim	-10.1767
▁wors	-10.177
▁Ne	-10.1776
▁golf	-10.1782
▁Santa	-10.179
▁ABC	-10.18
▁prescrib	-10.1801
▁resort	-10.1802
▁Arizona	-10.1805
▁obvious	-10.1821
▁wing	-10.1838
▁Navy	-10.1838
▁Good	-10.1844
▁Ford	-10.1845
▁engineer	-10.1847
w	-10.1851
▁leak	-10.1853
▁condemn	-10.1856
▁nonet	-10.1856
▁remov	-10.1857
▁800	-10.1857
▁crack	-10.1867
▁finished	-10.1872
▁depend	-10.1876
ze	-10.1878
▁Press	-10.1881
▁predict	-10.1881
▁politician	-10.1889
▁Kelly	-10.1891
▁utilise	-10.1891
▁Stephen	-10.1901
ting	-10.1906
▁taste	-10.1908
▁utilize	-10.1913
▁edge	-10.1913
▁increasing	-10.1918
ities	-10.1923
luxury	-10.1926
▁failure	-10.1927
▁strange	-10.1931
▁Internet	-10.1934
lived	-10.1937
▁hid	-10.1942
▁roof	-10.1946
▁protester	-10.1949
▁cap	-10.195
▁vessel	-10.1953
▁Hart	-10.1955
▁nowa	-10.196
▁approximate	-10.1961
▁fair	-10.1965
ier	-10.1965
▁travell	-10.1969
water	-10.1969
▁recognize	-10.1969
▁absolute	-10.1972
▁52	-10.1974
▁Hong	-10.1979
W	-10.1985
▁meaning	-10.1986
▁couldn	-10.1993
▁mention	-10.1995
▁criticism	-10.2002
▁Con	-10.2003
▁Just	-10.2006
▁advice	-10.201
▁amazing	-10.2012
▁guests	-10.2021
▁Atletico	-10.2025
▁pee	-10.2029
▁meant	-10.2037
▁counter	-10.2044
▁designer	-10.2054
▁withdraw	-10.2056
▁investigate	-10.2061
▁devices	-10.2062
▁beauty	-10.2067
▁Ferguson	-10.2071
▁Airlines	-10.2084
▁forget	-10.2105
▁CCTV	-10.2109
▁bond	-10.2111
▁outfit	-10.2121
▁fatal	-10.2131
▁Middle	-10.2134
▁retain	-10.2136
▁stuff	-10.2142
▁improve	-10.2142
▁detect	-10.2145
▁Sarah	-10.2147
▁hardly	-10.2149
▁Kong	-10.2151
▁photographs	-10.2153
▁2001	-10.2163
▁Yorkshire	-10.2166
20	-10.2174
▁identit	-10.2178
▁advantage	-10.2179
▁Can	-10.2185
▁depict	-10.2188
▁scor	-10.2192
▁bridge	-10.221
▁proposal	-10.2219
▁gam	-10.2219
▁Balotelli	-10.2228
▁landing	-10.2232
▁affected	-10.2247
▁reform	-10.2247
▁civil	-10.2252
▁shout	-10.2255
▁suspicion	-10.2262
▁Jo	-10.2266
▁facility	-10.227
▁Act	-10.2276
▁bottle	-10.2283
▁river	-10.2285
▁wake	-10.23
▁drone	-10.2304
H	-10.2307
▁income	-10.2318
▁Hu	-10.2322
▁Francisco	-10.2328
▁representative	-10.233
▁reserve	-10.2341
▁wine	-10.2344
▁obliterate	-10.2351
▁ski	-10.2351
▁prisoner	-10.2352
▁proud	-10.2353
▁parking	-10.2354
▁Children	-10.2354
▁consort	-10.2363
▁estimated	-10.2364
▁combat	-10.2369
▁customer	-10.2372
ja	-10.2374
▁resist	-10.2379
▁length	-10.2391
▁decent	-10.2397
▁referee	-10.2403
▁Ko	-10.2404
▁Women	-10.2419
▁debt	-10.2419
▁Leicester	-10.2424
pregnant	-10.2426
▁bombing	-10.2426
▁Syrian	-10.2429
▁Tory	-10.2432
▁celebration	-10.2433
▁seeing	-10.2433
▁management	-10.2441
▁Euro	-10.2445
house	-10.2445
▁meat	-10.2447
like	-10.2447
▁Centre	-10.2447
▁chest	-10.2447
▁nuclear	-10.2452
▁mountain	-10.2453
▁infection	-10.2455
▁Li	-10.2457
I	-10.2457
▁NBC	-10.2466
▁Committee	-10.2466
▁Colorado	-10.2469
▁tru	-10.247
Sorry	-10.2476
▁propose	-10.2476
▁promote	-10.2479
led	-10.248
▁runs	-10.2481
▁initiator	-10.2486
▁Anderson	-10.249
▁compar	-10.2492
▁standards	-10.25
▁Ohio	-10.2503
▁Roy	-10.2505
▁bright	-10.2512
▁Brian	-10.2513
▁sites	-10.2521
▁mayor	-10.2523
▁joint	-10.2525
▁Canadian	-10.2525
▁viewers	-10.2528
▁opinion	-10.2531
▁Atlanta	-10.2544
▁51	-10.2548
▁becoming	-10.2549
▁Cook	-10.2549
co	-10.2557
▁fighter	-10.2558
▁society	-10.256
▁incur	-10.2568
▁athlete	-10.2569
eath	-10.2574
▁Ukraine	-10.2576
ler	-10.2586
▁nose	-10.2597
▁Gu	-10.2613
▁aside	-10.2613
▁picked	-10.262
▁convey	-10.2622
▁burglar	-10.2627
▁conversation	-10.2639
▁po	-10.2642
▁circumstance	-10.2647
80	-10.2648
▁arrival	-10.265
▁Brom	-10.2657
▁neighborhood	-10.2659
▁commission	-10.267
▁punch	-10.2674
▁spring	-10.2681
▁Human	-10.2682
▁handle	-10.2683
▁Ke	-10.2687
greed	-10.2689
▁praise	-10.2695
▁Sports	-10.2702
▁killer	-10.2704
▁album	-10.2705
ana	-10.2713
▁Who	-10.2718
▁Pakistani	-10.2721
▁Sa	-10.2737
▁helping	-10.2738
▁Woods	-10.2741
▁fin	-10.2745
▁keen	-10.2751
▁southern	-10.2754
▁Local	-10.2757
▁descend	-10.2773
▁Khan	-10.2775
▁Doctor	-10.2777
▁grave	-10.2778
▁shocked	-10.2785
▁independent	-10.2787
lin	-10.279
▁Miller	-10.2791
▁Mario	-10.2799
▁Per	-10.2799
▁army	-10.28
▁cease	-10.28
▁stores	-10.28
▁breath	-10.2805
▁anniversar	-10.281
▁Commission	-10.2813
▁Team	-10.2814
▁betray	-10.2815
▁deputy	-10.2817
▁bird	-10.2817
▁metal	-10.2819
▁Professor	-10.2823
deed	-10.2825
▁inspir	-10.2832
▁spirit	-10.2832
▁bin	-10.2833
▁Holland	-10.2837
coming	-10.2838
▁Hotel	-10.2839
▁dad	-10.2843
▁Las	-10.2845
▁terminate	-10.2852
▁secretary	-10.2859
▁Stoke	-10.2863
▁replace	-10.2869
▁forc	-10.2872
▁protection	-10.2876
▁stone	-10.2883
▁lie	-10.2883
▁Car	-10.2892
da	-10.2898
▁Kent	-10.2899
sked	-10.2904
▁expose	-10.2906
▁tennis	-10.2908
upon	-10.2911
▁Sen	-10.292
▁refuse	-10.2922
▁wheel	-10.2931
▁54	-10.2934
▁smile	-10.2934
▁belong	-10.2935
▁thence	-10.2935
▁task	-10.2937
▁shift	-10.2938
inches	-10.294
▁hence	-10.2945
▁Research	-10.2949
▁citizens	-10.295
▁soldier	-10.2951
▁email	-10.2953
▁strain	-10.2954
▁Turkey	-10.2955
de	-10.2958
▁toward	-10.2969
▁highlight	-10.2972
▁unusual	-10.2975
▁Foreign	-10.2984
▁halt	-10.2992
▁breach	-10.3005
▁zone	-10.3008
▁domestic	-10.3016
▁Rodriguez	-10.3017
loved	-10.3017
ville	-10.3021
▁Henry	-10.3025
tolen	-10.3032
▁rid	-10.3032
▁boast	-10.3036
▁shut	-10.3037
E	-10.3041
▁sub	-10.3043
▁Top	-10.3044
▁divorce	-10.3048
▁immigration	-10.3052
▁Ray	-10.3058
▁Meanwhil	-10.3058
▁faced	-10.3069
▁dismiss	-10.3071
▁books	-10.3072
ors	-10.3072
▁genuine	-10.3073
▁suggested	-10.3079
▁serving	-10.308
▁Rob	-10.3082
▁avail	-10.3093
▁internal	-10.3094
▁fat	-10.3105
▁waste	-10.3106
▁grandmother	-10.3112
▁Cole	-10.3119
▁purpose	-10.312
eating	-10.312
me	-10.3127
▁Egypt	-10.3129
▁resolve	-10.3131
▁Vega	-10.3143
caine	-10.3153
▁Aston	-10.3154
▁Terry	-10.3159
▁preserve	-10.3164
▁offender	-10.3166
▁Time	-10.3175
▁Rose	-10.3176
▁sitting	-10.3183
▁kitchen	-10.3187
▁pub	-10.3191
▁toilet	-10.3191
▁measure	-10.3196
▁NFL	-10.3202
▁Detective	-10.3205
▁beating	-10.3211
▁producer	-10.3213
▁2000	-10.3224
▁frame	-10.3224
▁disaster	-10.3229
▁northern	-10.3231
▁status	-10.3236
▁Even	-10.3244
▁Moscow	-10.3247
▁worldwide	-10.3249
staff	-10.3249
as	-10.325
▁traged	-10.3253
▁Why	-10.3255
Speaking	-10.3256
▁master	-10.3256
▁structure	-10.3258
▁Before	-10.3263
▁overall	-10.3263
▁Show	-10.3271
▁Roma	-10.3278
▁elephant	-10.329
▁sudden	-10.329
▁error	-10.329
ong	-10.3298
▁detective	-10.33
▁painting	-10.3302
▁map	-10.3303
▁lines	-10.3316
▁split	-10.3318
▁fears	-10.3323
fired	-10.3323
▁Manhattan	-10.3326
▁clip	-10.3334
▁USA	-10.3336
▁prime	-10.3338
▁argument	-10.3347
▁contend	-10.3351
▁habituate	-10.3354
▁active	-10.3355
▁possibilit	-10.3357
▁Rock	-10.3361
▁Ranger	-10.3364
▁Ka	-10.3366
▁external	-10.3366
▁pen	-10.3368
▁expire	-10.3377
▁Love	-10.3384
istic	-10.3387
▁tickets	-10.3394
▁neglect	-10.3397
▁brief	-10.3399
▁environment	-10.3403
▁Olympics	-10.3407
▁bike	-10.3409
▁voter	-10.3409
▁allot	-10.341
▁championship	-10.3417
▁Republic	-10.3419
▁Saudi	-10.3419
▁skills	-10.3424
▁package	-10.3428
▁babie	-10.343
▁Evans	-10.3431
ural	-10.3445
▁DNA	-10.3445
▁contest	-10.3446
▁concord	-10.3446
▁fare	-10.3447
▁direction	-10.3447
▁construction	-10.3451
▁nail	-10.3454
more	-10.3456
▁declare	-10.3462
▁disappear	-10.3464
▁fault	-10.3465
▁warrant	-10.3476
one	-10.3478
haps	-10.3486
talking	-10.3495
▁parent	-10.3495
▁56	-10.3495
▁principal	-10.3499
▁application	-10.351
▁Cardiff	-10.3511
▁flag	-10.3513
▁stories	-10.3515
▁regime	-10.3519
ung	-10.3525
ard	-10.3525
ni	-10.3527
bury	-10.3527
▁cuts	-10.3528
▁Cor	-10.353
▁tear	-10.353
▁flee	-10.3531
ker	-10.3537
▁Beijing	-10.3539
ir	-10.3541
▁distance	-10.3543
▁sick	-10.3546
▁plain	-10.3553
▁Massachusett	-10.3555
tuck	-10.3562
▁silver	-10.3562
▁trend	-10.357
▁qualify	-10.3571
▁presence	-10.3573
▁1990	-10.3575
▁trick	-10.3576
▁intimately	-10.3578
▁Houston	-10.3583
▁Ki	-10.3591
▁blog	-10.3592
▁plea	-10.3592
▁Institute	-10.3593
▁lend	-10.3596
▁Oscar	-10.3607
▁daily	-10.3616
▁steps	-10.3617
ger	-10.3619
▁c	-10.362
▁path	-10.3626
▁loose	-10.3635
▁Abu	-10.3635
▁adjacen	-10.3637
▁false	-10.364
▁choke	-10.3641
▁essay	-10.3643
▁Asia	-10.3655
▁clothing	-10.366
▁Federer	-10.3662
▁devote	-10.3663
▁Pennsylvania	-10.3668
▁deny	-10.3676
▁53	-10.3682
▁plus	-10.3688
▁Robin	-10.369
▁Jan	-10.369
▁farther	-10.3692
▁Jean	-10.3696
▁Scottish	-10.3696
▁Defense	-10.3697
▁detain	-10.3698
▁Western	-10.3701
▁refer	-10.371
▁Mayor	-10.371
▁reward	-10.3711
▁Moore	-10.3711
▁Life	-10.3724
▁Dan	-10.3728
▁upset	-10.3729
▁vice	-10.373
▁sides	-10.3731
os	-10.3752
▁bet	-10.3757
▁tattoo	-10.3761
▁tank	-10.3764
▁captur	-10.3766
▁excuse	-10.3766
▁Joseph	-10.3768
▁mass	-10.3771
▁governor	-10.3772
▁Japanes	-10.3777
▁disorder	-10.3789
▁Six	-10.3792
▁witnesse	-10.3796
▁healthy	-10.3797
▁MailOnline	-10.3805
▁operat	-10.3806
▁attain	-10.381
▁modern	-10.3817
▁hire	-10.3826
▁seeking	-10.3826
▁inform	-10.3829
▁Wall	-10.383
▁Danny	-10.3832
▁Jim	-10.3833
▁Public	-10.3834
▁Briton	-10.3845
▁determined	-10.3848
▁Elizabeth	-10.3849
▁necessar	-10.385
▁Supreme	-10.3857
▁Gerrard	-10.386
▁resign	-10.3871
▁Wimbledon	-10.3873
▁label	-10.3891
▁Bur	-10.3891
▁antecedent	-10.3892
▁breast	-10.39
▁alarm	-10.3903
▁shelter	-10.3904
▁rifle	-10.3909
▁Du	-10.3911
▁inquire	-10.3917
▁downward	-10.3921
▁Valley	-10.3922
▁sky	-10.393
▁Martinez	-10.3935
▁coffee	-10.3967
▁gate	-10.3967
▁smartphone	-10.3975
▁facilitate	-10.3981
▁multi	-10.3986
▁supermarket	-10.3988
▁studie	-10.3988
▁generate	-10.3989
▁Ja	-10.3994
▁700	-10.4001
fitness	-10.4002
▁realit	-10.4004
▁discharge	-10.4006
▁NASA	-10.4013
▁bars	-10.4017
▁setting	-10.4017
▁honour	-10.4019
▁Jason	-10.403
▁bullet	-10.4034
▁Don	-10.4039
▁communication	-10.4042
▁Islam	-10.4043
▁guess	-10.4063
▁investment	-10.4067
▁zoo	-10.4073
▁flash	-10.4073
▁Garcia	-10.4075
▁Fort	-10.4085
▁elderly	-10.4087
▁offering	-10.409
▁spokesperson	-10.4103
▁abandon	-10.4113
▁strength	-10.4123
▁Harris	-10.4124
▁formal	-10.4128
▁oppose	-10.4134
▁memory	-10.4134
▁chemical	-10.414
▁Leeds	-10.4147
▁moon	-10.4148
▁anticipate	-10.4149
▁Palestinian	-10.4151
ano	-10.4153
▁enquire	-10.4153
▁Francis	-10.4156
▁Crystal	-10.4158
ri	-10.416
▁par	-10.4175
▁II	-10.4181
ended	-10.4181
▁associate	-10.4185
▁planet	-10.4185
▁presenter	-10.4187
▁ultimate	-10.4196
▁frequent	-10.4196
▁shoes	-10.42
ington	-10.4202
▁anger	-10.4203
▁freedom	-10.4208
▁Federal	-10.4214
▁favour	-10.4214
▁supposed	-10.4225
▁iPad	-10.4227
▁slight	-10.4228
▁appoint	-10.4241
▁lights	-10.4243
▁99	-10.4245
▁housing	-10.4246
▁Far	-10.425
▁royal	-10.4263
▁lone	-10.4265
▁Matthew	-10.4269
ett	-10.4271
▁breaking	-10.4274
▁reduce	-10.4281
▁persist	-10.4289
▁pink	-10.4293
▁plastic	-10.4297
▁considerabl	-10.4304
▁background	-10.4309
ver	-10.431
▁inward	-10.4314
kin	-10.4317
ble	-10.4321
▁Portugal	-10.4321
▁convert	-10.4328
▁Charlie	-10.4329
▁bathroom	-10.4338
▁Jay	-10.4339
▁string	-10.4342
▁festival	-10.4344
▁behavior	-10.4346
▁Patrick	-10.4347
▁shark	-10.4353
care	-10.4365
▁trees	-10.4367
▁57	-10.4368
▁testing	-10.4368
▁busy	-10.4373
▁cards	-10.4379
▁Port	-10.4391
▁celebrity	-10.4395
▁vast	-10.4397
▁felon	-10.4409
▁flu	-10.441
ship	-10.441
▁typical	-10.4415
▁offend	-10.4418
▁creature	-10.442
ek	-10.4421
▁Pope	-10.4428
▁Tiger	-10.443
▁arrange	-10.4435
▁harmonise	-10.4444
▁journalist	-10.4447
▁ways	-10.4448
▁businesses	-10.4449
▁Channel	-10.445
▁Brooklyn	-10.4451
▁911	-10.4453
▁Princess	-10.4453
▁gap	-10.4454
▁recorded	-10.4457
▁insurance	-10.4464
▁swimming	-10.4467
▁Duchess	-10.4468
gate	-10.447
▁compensation	-10.447
▁sum	-10.4482
ster	-10.4486
J	-10.4488
▁Djokovic	-10.4488
▁Zoo	-10.449
▁Juan	-10.4493
▁Trust	-10.4497
▁permit	-10.4498
▁Radio	-10.4501
▁Ian	-10.4504
▁Guard	-10.4514
▁Ri	-10.4514
▁crown	-10.4515
▁196	-10.4519
▁destination	-10.4519
▁Bob	-10.452
▁trigger	-10.4523
▁responded	-10.4524
▁Sport	-10.453
do	-10.4533
▁household	-10.4534
▁tip	-10.4536
▁wealth	-10.4543
▁platform	-10.4543
▁Five	-10.4554
▁Dubai	-10.4557
▁primar	-10.4558
▁sorry	-10.456
▁trail	-10.4566
▁react	-10.4567
▁additional	-10.4568
▁follower	-10.4572
▁Belgium	-10.4587
▁videos	-10.4592
▁emerge	-10.4596
▁teeth	-10.4596
▁Ta	-10.4597
▁Disney	-10.4599
▁episode	-10.4611
▁polic	-10.4614
▁harmonize	-10.4616
▁keeping	-10.4619
▁explosive	-10.4623
▁Spurs	-10.4623
▁tablet	-10.4627
▁confident	-10.4628
▁Investigator	-10.463
ter	-10.4634
▁lawyers	-10.4636
▁flame	-10.4637
▁Out	-10.4637
▁cool	-10.4641
▁demonstrate	-10.4647
▁r	-10.4648
all	-10.4653
▁recount	-10.4654
▁Yu	-10.4655
▁fruit	-10.4663
der	-10.467
▁pound	-10.4673
▁bust	-10.468
▁Foundation	-10.4682
▁dollars	-10.4693
▁Bull	-10.47
▁specialist	-10.4703
▁Essex	-10.4714
▁tackle	-10.4716
▁routine	-10.4717
▁Common	-10.4718
▁square	-10.4718
▁museum	-10.4721
▁62	-10.4724
▁Ross	-10.4727
▁simple	-10.4731
▁Then	-10.4736
▁crucial	-10.4739
▁saving	-10.4746
▁AC	-10.4746
▁Each	-10.4748
▁mum	-10.4753
▁hero	-10.4757
▁heavi	-10.4761
▁donate	-10.4765
▁attacker	-10.477
▁pupils	-10.4781
▁resource	-10.4795
▁substitute	-10.4797
▁64	-10.4801
▁Every	-10.4802
▁58	-10.4804
▁symptom	-10.4809
▁Law	-10.4812
▁yellow	-10.4813
▁hopeful	-10.4816
▁unique	-10.4822
▁imagine	-10.4822
▁practical	-10.4832
▁lb	-10.4832
▁Land	-10.4835
▁Ashley	-10.4836
▁bench	-10.4836
▁Like	-10.4838
▁Lady	-10.4839
terti	-10.4843
▁Earli	-10.4844
▁stands	-10.4844
▁Juventus	-10.4845
▁Pro	-10.4847
▁regain	-10.4848
▁Once	-10.485
▁cup	-10.4852
▁Har	-10.4853
▁Gold	-10.4858
▁nice	-10.4859
ur	-10.4861
▁Michigan	-10.4862
rs	-10.4865
▁sanction	-10.4866
▁incredible	-10.4872
▁wee	-10.4873
▁Cross	-10.4875
▁Watson	-10.4877
▁Nigeria	-10.4881
ol	-10.4897
beaten	-10.4898
▁Turk	-10.4901
▁tomorrow	-10.4901
▁possess	-10.4903
▁59	-10.4904
▁Alexander	-10.4912
▁fiscal	-10.4916
▁Putin	-10.492
▁blaze	-10.4922
▁Justin	-10.4924
▁wage	-10.4932
▁upward	-10.4933
▁Hodgson	-10.4934
▁knowledge	-10.4935
▁Roger	-10.4939
▁Among	-10.494
▁sight	-10.4942
▁interior	-10.4946
▁clock	-10.4947
▁Hernandez	-10.4955
▁Mother	-10.4955
▁fled	-10.4957
▁Michelle	-10.4968
▁Nadal	-10.4971
▁pit	-10.4973
▁uniform	-10.4973
ists	-10.4974
ily	-10.4985
▁Ash	-10.4986
▁bags	-10.499
▁outrage	-10.4992
no	-10.4993
▁outbreak	-10.4998
▁remote	-10.5009
▁Kennedy	-10.5013
▁Carl	-10.5015
▁balance	-10.5019
▁convince	-10.5024
▁Mel	-10.503
▁emotional	-10.5038
▁cub	-10.5039
▁estimate	-10.504
tic	-10.5045
▁prepared	-10.5051
▁sheriff	-10.5056
▁Angel	-10.5061
▁falling	-10.5063
▁consume	-10.507
▁Gulf	-10.5071
▁stake	-10.5071
▁Iraqi	-10.5076
▁85	-10.5079
▁teammate	-10.5081
▁Hughes	-10.5085
▁meter	-10.5096
▁Walker	-10.5101
▁leadership	-10.5101
▁priorit	-10.5111
▁Sterling	-10.5119
▁sack	-10.5125
▁tourist	-10.5127
▁Cooper	-10.5128
▁trophy	-10.5129
▁chicken	-10.5133
▁broad	-10.5134
▁tall	-10.5134
rivacy	-10.5134
▁Ferrari	-10.5135
▁fence	-10.5153
▁failing	-10.5154
▁Bra	-10.5155
▁missile	-10.5158
▁Sanchez	-10.5159
▁winger	-10.5162
▁Transport	-10.5162
▁Swiss	-10.5163
▁Cristiano	-10.5163
▁comfortabl	-10.5163
ani	-10.5168
▁locomot	-10.517
▁restrain	-10.517
back	-10.5178
▁surveill	-10.518
▁Arab	-10.5183
▁plot	-10.5184
▁Bruce	-10.5184
ative	-10.5191
▁birds	-10.5192
▁teachers	-10.5196
▁stretch	-10.5201
▁milk	-10.5203
▁meal	-10.5204
ya	-10.5204
▁grown	-10.5204
▁rocket	-10.5205
▁tolerate	-10.5206
▁argu	-10.5207
ino	-10.5211
▁Pacific	-10.5214
▁rich	-10.5219
▁latter	-10.5222
▁Camp	-10.5224
▁earthquake	-10.5225
▁Amazon	-10.5225
▁plunge	-10.5225
▁violation	-10.5231
▁Ex	-10.5235
▁Neil	-10.5235
▁Director	-10.5236
▁discussion	-10.5237
▁opt	-10.5241
▁Irish	-10.5243
▁marijuan	-10.5249
▁Rome	-10.5249
▁cream	-10.5251
▁mellow	-10.5255
▁Graham	-10.5258
▁Jonathan	-10.5262
▁journalists	-10.5264
▁uncover	-10.5269
▁firefighters	-10.5271
▁license	-10.5277
▁recommend	-10.5281
head	-10.5282
▁drove	-10.5284
▁reading	-10.5286
▁Switzerland	-10.5288
▁reflect	-10.5293
▁telephone	-10.5293
▁snap	-10.5299
▁code	-10.5303
▁Che	-10.5305
ab	-10.5308
▁Democratic	-10.5309
▁lady	-10.531
▁relax	-10.5311
▁tiny	-10.5316
ro	-10.5317
▁lucky	-10.5317
▁permission	-10.5322
▁surrounding	-10.5324
17	-10.5325
▁targeted	-10.5328
▁stunt	-10.5328
▁exhibit	-10.5331
▁Taiwan	-10.5333
▁Luke	-10.5334
▁headline	-10.5336
▁Catholic	-10.5347
▁battery	-10.536
▁Celtic	-10.537
▁fake	-10.5374
▁eminent	-10.5375
▁footballer	-10.5384
▁Chi	-10.5389
▁unknown	-10.539
▁prosecution	-10.5393
▁Za	-10.5394
lfare	-10.5398
▁pace	-10.5405
▁63	-10.5408
▁excited	-10.5409
▁grass	-10.541
▁teenage	-10.5416
▁controversy	-10.5419
▁excessive	-10.542
▁drama	-10.5422
▁Oxford	-10.5427
▁celebrat	-10.5427
▁Christopher	-10.5427
▁repair	-10.5428
▁digital	-10.5434
▁See	-10.5439
▁Researcher	-10.5441
▁campus	-10.5446
▁invest	-10.5452
▁Square	-10.5453
▁dispatch	-10.5456
▁Jamie	-10.5458
▁Scientist	-10.546
▁Space	-10.5463
▁chocolate	-10.5465
▁iconic	-10.5465
▁winds	-10.547
▁cheer	-10.5471
▁perish	-10.5472
▁fame	-10.5478
▁empty	-10.5481
▁patrol	-10.5485
▁keeper	-10.5485
▁coat	-10.5492
▁quit	-10.5493
▁Jr	-10.5495
▁accuse	-10.5498
▁pregnanc	-10.5498
▁GP	-10.5505
▁Campbell	-10.5513
▁mom	-10.5517
▁organisation	-10.5519
▁Little	-10.5521
▁brown	-10.5522
▁angry	-10.5525
O	-10.5528
▁bribe	-10.5532
▁stroke	-10.5534
▁Bell	-10.5536
▁sad	-10.5541
▁km	-10.5543
▁endanger	-10.5548
▁Colombia	-10.5548
▁unbelievabl	-10.5549
▁referr	-10.5551
▁72	-10.5557
▁Magistrates	-10.5559
▁Thompson	-10.5563
▁CBS	-10.5564
bo	-10.5569
▁hostage	-10.558
ak	-10.5589
▁Mercedes	-10.559
▁Mu	-10.5592
▁punishment	-10.5595
▁dissimil	-10.5597
▁Manuel	-10.5598
hand	-10.56
dog	-10.5607
over	-10.5613
▁burst	-10.5614
▁Arsen	-10.5622
▁lease	-10.5624
▁differentiate	-10.5632
▁Allen	-10.5634
▁prior	-10.5637
▁Beckham	-10.564
▁compete	-10.5641
▁k	-10.5644
▁plate	-10.5644
▁introduc	-10.5647
▁Oklahoma	-10.5647
▁nominate	-10.5649
▁worse	-10.565
▁vulner	-10.5652
▁Kenya	-10.5655
▁tail	-10.567
▁Ocean	-10.5671
uk	-10.5671
▁derive	-10.5674
▁sending	-10.5677
▁grab	-10.568
▁democratic	-10.5689
▁lover	-10.5694
▁web	-10.5694
▁studio	-10.5694
▁collision	-10.5698
▁variet	-10.5699
▁pretend	-10.5703
▁winners	-10.5717
▁bestow	-10.5718
▁Video	-10.5721
▁fancy	-10.5724
▁reputation	-10.5729
▁films	-10.5729
▁corruption	-10.5734
▁method	-10.5736
0	-10.5737
▁science	-10.5741
▁Liga	-10.5748
▁upload	-10.5753
▁recruit	-10.5759
▁ministry	-10.5766
▁lesson	-10.5768
▁dating	-10.5784
▁Ar	-10.5786
▁doors	-10.579
▁verdict	-10.5795
▁please	-10.5795
▁Dallas	-10.5801
▁Parliament	-10.5802
▁cheap	-10.5808
▁mask	-10.5808
town	-10.5809
▁permanent	-10.5814
▁fur	-10.5816
▁faith	-10.5821
▁recite	-10.5834
▁Dortmund	-10.5834
▁strip	-10.5846
▁Dave	-10.5855
▁cop	-10.5857
stood	-10.5857
▁factor	-10.5858
▁advertis	-10.5861
▁deserving	-10.5861
▁Lambert	-10.5862
▁Well	-10.5864
▁Gar	-10.5864
play	-10.5878
▁apolog	-10.5878
▁guns	-10.589
▁achieve	-10.589
▁donation	-10.5902
red	-10.5912
▁ruin	-10.5916
▁Power	-10.5921
stone	-10.5927
▁Thailand	-10.5929
▁Brendan	-10.593
▁Sudan	-10.5934
▁Gordon	-10.5937
▁writing	-10.5938
▁pursue	-10.5944
▁bruise	-10.5944
▁taxi	-10.5945
▁concert	-10.5948
▁harass	-10.5955
▁rating	-10.5959
▁basis	-10.5969
▁pleas	-10.598
▁Am	-10.5983
▁sw	-10.5988
di	-10.5993
▁Wi	-10.5993
▁Marine	-10.6001
▁desperate	-10.6008
▁inch	-10.601
▁attach	-10.6012
▁Ca	-10.6022
atar	-10.6023
▁onward	-10.6028
▁Seattle	-10.6028
▁Somalia	-10.6032
▁Clark	-10.6034
▁McDonald	-10.6036
▁lunch	-10.6037
▁Edward	-10.6039
▁Roman	-10.6048
A	-10.6049
▁Ni	-10.6055
▁Fernando	-10.606
▁dump	-10.6064
▁parliament	-10.6065
▁Prix	-10.6069
▁waters	-10.6085
▁enjoyed	-10.61
▁croak	-10.6101
▁headed	-10.6111
▁Administration	-10.6117
▁Illinois	-10.6121
ew	-10.6124
▁Brand	-10.6126
sighted	-10.6127
▁Neymar	-10.6134
▁Craig	-10.6137
▁bite	-10.6137
▁Met	-10.6141
▁peak	-10.6142
▁Cha	-10.6145
▁controll	-10.6148
▁inquiry	-10.6154
off	-10.6156
▁glad	-10.6158
▁featured	-10.6164
▁probation	-10.6165
▁contrive	-10.6169
▁Lane	-10.6173
▁religious	-10.6173
▁tag	-10.6179
▁Fi	-10.6179
▁maybe	-10.618
▁compensate	-10.618
▁Burnley	-10.6198
▁climate	-10.62
▁exploit	-10.6203
▁worried	-10.621
▁Academy	-10.6211
▁consumers	-10.6223
▁About	-10.6224
▁Deput	-10.6227
▁Formula	-10.623
▁construct	-10.6237
▁noise	-10.6237
▁Philadelphia	-10.6238
▁Head	-10.6254
▁immigrant	-10.6255
▁command	-10.6257
▁grabb	-10.6266
▁writer	-10.6274
▁McIlroy	-10.6275
▁agenc	-10.6277
▁Te	-10.628
▁submit	-10.6282
ious	-10.6294
▁tea	-10.6296
▁Jennifer	-10.6296
▁conk	-10.6298
▁Call	-10.6308
▁Stewart	-10.6309
▁Lionel	-10.6309
▁Hunt	-10.6311
▁govern	-10.6315
ow	-10.6316
▁lung	-10.6325
▁Duke	-10.6327
▁Pat	-10.6328
▁legislation	-10.6329
▁spray	-10.6335
▁bound	-10.6342
▁basic	-10.6345
▁smell	-10.6346
▁relations	-10.6348
▁Town	-10.6351
▁port	-10.6356
ad	-10.6361
▁1999	-10.6364
▁narrate	-10.6368
▁Bristol	-10.6378
▁clinic	-10.6378
▁eastern	-10.6379
▁prefer	-10.6386
▁sons	-10.6386
▁Atlantic	-10.6392
▁67	-10.6394
▁Glasgow	-10.6395
▁Hampshire	-10.6399
▁nor	-10.6401
▁Gen	-10.6404
▁66	-10.6404
rew	-10.6405
▁calm	-10.6413
ical	-10.6413
▁fold	-10.6422
▁racing	-10.6426
▁reference	-10.6431
▁height	-10.6432
▁moderate	-10.6437
ueensland	-10.6438
▁kilometer	-10.6441
▁rugby	-10.6445
▁division	-10.6449
▁branch	-10.6452
▁68	-10.6452
▁commitment	-10.6457
▁Emirates	-10.6459
▁jacket	-10.6467
▁Sri	-10.6471
▁adjudicate	-10.6476
▁retailer	-10.6483
▁Davies	-10.6487
▁settlement	-10.6489
▁Museum	-10.6491
▁disappoint	-10.6491
▁produc	-10.6498
▁Asian	-10.6499
▁screw	-10.6512
▁decease	-10.6512
▁gets	-10.6515
▁Blue	-10.652
▁Bal	-10.6521
▁prayer	-10.6527
▁constitute	-10.654
▁conspirac	-10.6543
▁professor	-10.6544
▁licence	-10.6547
▁tend	-10.6548
▁Col	-10.6551
▁county	-10.6553
▁escort	-10.6554
▁Society	-10.6554
▁Bowl	-10.6554
▁cricket	-10.6561
▁viral	-10.6561
▁wins	-10.6562
▁ongoing	-10.6568
▁Live	-10.6568
▁smoking	-10.6569
half	-10.6572
▁kiss	-10.6581
▁impressive	-10.6582
▁sat	-10.6584
▁Afghan	-10.6587
▁promotion	-10.659
▁Jimmy	-10.6592
▁Stone	-10.6593
▁saved	-10.6597
em	-10.6598
▁entrust	-10.6605
broad	-10.661
▁substance	-10.6611
▁Food	-10.6616
▁Del	-10.6623
▁recovered	-10.6628
▁beer	-10.6629
▁ankle	-10.6631
▁sand	-10.6646
▁chase	-10.6649
▁recede	-10.6649
▁drunk	-10.6654
▁wreak	-10.6656
▁metre	-10.6659
▁quiet	-10.6661
▁chat	-10.6662
▁Conservative	-10.6664
▁unfold	-10.6666
▁Serie	-10.6669
▁tape	-10.667
▁crop	-10.6679
▁slam	-10.669
▁none	-10.6691
▁definite	-10.6698
▁facilit	-10.6699
▁entrance	-10.67
▁escaped	-10.673
▁wore	-10.6732
ney	-10.6733
place	-10.674
▁communiti	-10.6743
▁continu	-10.6743
▁isn	-10.6749
▁distress	-10.6749
day	-10.6754
▁Welsh	-10.6755
▁racial	-10.6757
▁jazz	-10.6759
▁Jon	-10.6759
▁Had	-10.6759
▁execute	-10.6762
fallen	-10.6763
▁possibl	-10.6771
▁Jeremy	-10.6771
▁Miliband	-10.6772
coverage	-10.6774
▁venue	-10.6775
▁migrant	-10.6782
ck	-10.6795
▁conjoin	-10.6797
▁exhaust	-10.6799
▁denie	-10.68
set	-10.6802
▁unite	-10.6804
▁offensive	-10.6809
▁critics	-10.6811
▁technique	-10.6815
▁Jessica	-10.6819
▁muscle	-10.682
▁Bale	-10.6823
▁inquest	-10.6829
▁Anfield	-10.6834
op	-10.6839
lew	-10.684
▁120	-10.684
▁61	-10.6841
ez	-10.6843
▁Journal	-10.6844
▁tears	-10.6848
▁Sergio	-10.685
▁sets	-10.6851
▁celebrit	-10.6853
▁electronic	-10.686
▁twist	-10.6863
ence	-10.6866
▁seize	-10.6875
▁everybody	-10.6876
▁Yo	-10.6876
▁tap	-10.6883
▁vital	-10.6886
▁pole	-10.6888
▁replacement	-10.6891
▁belt	-10.6893
▁maker	-10.6902
▁petition	-10.6905
▁shore	-10.6908
▁motor	-10.6909
▁disclose	-10.6914
ji	-10.6916
▁somebody	-10.692
▁corrupt	-10.6922
▁yard	-10.6922
▁Safety	-10.6924
▁Let	-10.6925
▁Staff	-10.693
▁acting	-10.6933
▁garage	-10.6937
▁Su	-10.6941
▁selfie	-10.6944
▁Only	-10.6945
▁assay	-10.6949
▁calculate	-10.695
▁deploy	-10.6953
▁69	-10.6953
▁standard	-10.696
▁tech	-10.6966
▁Abbott	-10.6968
▁retirement	-10.6969
don	-10.6973
▁yards	-10.6975
▁authority	-10.6982
▁Second	-10.6983
▁Aaron	-10.6995
▁Bel	-10.6995
▁Board	-10.7001
▁Austin	-10.7008
▁argue	-10.701
▁Mount	-10.7013
▁Shaw	-10.7015
▁Sal	-10.7016
▁Entertainment	-10.702
▁advantageous	-10.7025
▁Mal	-10.7025
▁Chile	-10.7026
▁trapp	-10.703
hitting	-10.7033
▁guarantee	-10.7043
▁peculiar	-10.7047
▁rear	-10.7048
▁turning	-10.7049
▁spoken	-10.7051
▁fundamental	-10.7051
▁Russell	-10.7056
▁cruise	-10.7057
▁Mars	-10.7062
▁yell	-10.7062
▁Read	-10.7064
▁sugar	-10.7064
▁Major	-10.7068
een	-10.707
▁costume	-10.707
▁Rep	-10.7071
▁bull	-10.7073
▁stole	-10.7087
▁dramatic	-10.7093
▁surround	-10.7096
▁Gov	-10.7098
▁Wright	-10.7098
▁stunning	-10.7098
▁Connecticut	-10.71
▁operator	-10.7105
que	-10.7109
▁fishing	-10.7112
▁compare	-10.7113
▁lifestyle	-10.7114
▁Bad	-10.7116
▁favor	-10.7116
▁teenagers	-10.7119
▁Iranian	-10.7125
▁Expert	-10.7125
▁wonder	-10.7127
▁oversea	-10.7128
▁politics	-10.7129
▁delivery	-10.7131
▁Mitchell	-10.7132
▁Egyptian	-10.7137
▁prospect	-10.7144
▁smart	-10.7153
▁toddler	-10.7154
▁LA	-10.7155
box	-10.7176
▁Pi	-10.7176
▁appointment	-10.7178
▁adequate	-10.7178
▁Free	-10.7182
▁Flight	-10.7183
▁con	-10.7185
▁suburb	-10.7185
ueens	-10.7185
▁cheese	-10.7195
ite	-10.7201
▁element	-10.7201
ella	-10.7202
▁drinks	-10.7203
▁tradition	-10.7207
▁Sean	-10.721
▁Father	-10.7211
▁Monaco	-10.7217
▁gym	-10.7217
▁motorist	-10.7219
▁spill	-10.722
▁trained	-10.7222
▁knows	-10.7227
▁labor	-10.7231
▁chef	-10.7232
▁Antonio	-10.7238
▁classic	-10.7238
▁Utah	-10.724
▁era	-10.7241
▁Mor	-10.7241
▁supplie	-10.7242
▁shopper	-10.7243
▁pot	-10.7247
▁trainer	-10.7247
▁striking	-10.7248
▁Rescue	-10.7251
▁coin	-10.7251
▁Philippine	-10.7258
▁Jeff	-10.7259
▁Cuba	-10.7259
▁starr	-10.7261
▁Alabama	-10.7262
▁mine	-10.7262
▁Blair	-10.7263
▁opponent	-10.7268
▁stream	-10.7268
ping	-10.7271
▁marry	-10.7271
▁Devon	-10.7273
▁Stuart	-10.7276
▁Oregon	-10.728
▁fantastic	-10.7286
▁Min	-10.7286
▁Capital	-10.7289
▁driven	-10.729
▁disappearance	-10.7291
▁fixture	-10.7294
▁Persie	-10.7299
sky	-10.7303
▁lion	-10.7304
▁Da	-10.7307
▁reporter	-10.7322
▁Alaska	-10.7322
▁sharp	-10.7328
▁pend	-10.7328
▁Sweden	-10.7328
▁gr	-10.733
▁solid	-10.7336
▁Eve	-10.7337
▁button	-10.7337
▁hide	-10.734
▁headquarter	-10.7341
▁lane	-10.7346
ko	-10.7346
ov	-10.7347
▁Box	-10.7347
▁NATO	-10.7348
pe	-10.735
▁Pardew	-10.7351
95	-10.7357
▁Anna	-10.7359
▁characters	-10.7365
▁Tokyo	-10.7367
▁editor	-10.7368
▁rooms	-10.7371
▁locat	-10.7374
vin	-10.7377
▁favorite	-10.7379
▁intention	-10.7385
▁tension	-10.7386
▁bully	-10.7388
▁Carter	-10.7404
▁partners	-10.7416
▁analyst	-10.7418
▁finance	-10.7419
▁gender	-10.7425
▁Inc	-10.7426
▁hump	-10.7431
▁recollect	-10.7433
▁eff	-10.7435
▁changing	-10.7436
▁prominent	-10.7455
▁Wembley	-10.7459
▁Pan	-10.7466
wildlife	-10.7474
▁larger	-10.7476
▁banks	-10.7477
▁Record	-10.7477
lly	-10.748
▁literal	-10.7481
▁creat	-10.7486
▁foretell	-10.7486
▁native	-10.7487
▁naked	-10.749
▁apart	-10.7497
▁departure	-10.7501
▁satellite	-10.7502
▁brilliant	-10.7505
▁Uruguay	-10.7508
▁Best	-10.751
▁stood	-10.7511
▁duo	-10.7513
▁float	-10.7516
▁Moyes	-10.7516
▁Mohammed	-10.7519
▁cats	-10.7523
▁coalition	-10.7528
▁Missouri	-10.7528
▁Howard	-10.7531
▁En	-10.7533
▁Singapore	-10.7537
▁Philip	-10.7538
▁Southern	-10.7543
▁belief	-10.7543
▁subscribe	-10.7546
▁Though	-10.7546
▁grandfather	-10.7551
▁manufacturer	-10.7554
▁color	-10.7556
▁wouldn	-10.7556
▁dry	-10.7557
▁exciting	-10.7563
▁Sportsmail	-10.7566
▁Barclays	-10.7567
▁Greece	-10.757
▁roads	-10.7571
▁Sp	-10.7572
▁v	-10.7574
▁finals	-10.7574
▁demonstration	-10.7576
▁Andre	-10.7584
effectual	-10.7587
▁paramedic	-10.7593
▁Sheffield	-10.7593
▁comed	-10.7594
drew	-10.7602
ell	-10.7603
▁guest	-10.7605
▁windows	-10.7607
▁consequence	-10.7612
▁apologise	-10.7613
▁scan	-10.7614
▁stabb	-10.7615
▁payments	-10.7619
▁kidnapping	-10.7619
mer	-10.7622
Z	-10.7623
ki	-10.7629
▁expense	-10.765
tries	-10.765
▁UEFA	-10.7659
▁fuck	-10.766
ball	-10.7665
▁73	-10.7671
▁grounds	-10.7672
▁diamond	-10.7672
▁closer	-10.7673
▁basketball	-10.7678
▁spare	-10.7681
▁la	-10.7692
▁execution	-10.7693
▁Pellegrini	-10.7697
▁compound	-10.7697
▁scores	-10.7699
▁rat	-10.7706
▁speculation	-10.7707
hood	-10.7715
▁relief	-10.7716
ED	-10.7716
▁Forest	-10.7729
▁territor	-10.773
▁scar	-10.7733
▁Baghdad	-10.7733
▁1997	-10.7736
▁Your	-10.7737
▁providing	-10.774
▁Libya	-10.7742
▁buyer	-10.7744
▁labour	-10.7744
▁inspiration	-10.7747
▁Sgt	-10.775
▁95	-10.7751
▁Commonwealth	-10.7759
▁Jane	-10.7759
▁march	-10.7763
▁Victor	-10.7769
▁essential	-10.7772
ul	-10.7772
▁Gunners	-10.7775
▁carrier	-10.778
▁infant	-10.7781
▁Tu	-10.7782
▁accusation	-10.7783
▁Was	-10.7784
▁dwell	-10.7795
▁comfort	-10.7796
▁Authority	-10.7797
▁Perry	-10.7805
▁Sha	-10.7808
▁bonk	-10.7808
ncient	-10.7809
▁soft	-10.7812
▁Ban	-10.7814
▁joy	-10.7824
▁sample	-10.7824
▁atmosphere	-10.7835
▁spy	-10.7839
▁Also	-10.7842
▁motion	-10.7845
▁lawmaker	-10.7846
▁acre	-10.7847
▁designate	-10.7847
▁horror	-10.7849
▁Boy	-10.7853
▁economical	-10.7853
▁Marc	-10.7854
▁overnight	-10.7856
▁Ku	-10.7859
▁posting	-10.7863
▁recording	-10.7868
▁Water	-10.7868
▁probe	-10.7872
▁Laura	-10.7876
▁triumph	-10.7883
ted	-10.7889
▁Valencia	-10.7893
ware	-10.79
▁declar	-10.7901
▁impose	-10.7903
▁experiment	-10.7906
▁Yes	-10.7907
▁Rafael	-10.7909
▁interpret	-10.7909
burg	-10.791
▁solution	-10.7917
ny	-10.7923
▁Back	-10.7925
▁ambassador	-10.7928
▁leaves	-10.7943
▁negative	-10.7943
▁leap	-10.7948
▁houses	-10.7951
▁Pu	-10.7951
▁Has	-10.7952
▁Anne	-10.7953
▁sector	-10.7956
▁poster	-10.7964
▁gear	-10.7964
▁toll	-10.7974
▁Carlos	-10.7975
▁Crime	-10.7978
▁norther	-10.7983
ised	-10.7988
▁Julie	-10.7989
▁Berlin	-10.8001
▁Gi	-10.8007
▁entry	-10.8011
▁eggs	-10.8025
▁exhibition	-10.8035
RA	-10.8038
▁memorial	-10.8046
li	-10.8047
▁sweet	-10.8048
▁PM	-10.8048
ca	-10.805
▁Torres	-10.8052
▁Ive	-10.8054
▁Bond	-10.8055
▁truth	-10.8056
▁surviv	-10.806
▁accidental	-10.8067
▁highway	-10.8069
▁Down	-10.8071
▁ocean	-10.8072
amford	-10.8072
ified	-10.8074
umerous	-10.8075
▁ear	-10.8079
▁hosts	-10.8079
▁Osborne	-10.808
ions	-10.8085
▁Mon	-10.8085
▁pledge	-10.8087
▁learning	-10.8092
▁software	-10.8092
▁Muslims	-10.8093
▁historic	-10.8096
▁originate	-10.8096
▁Golden	-10.81
▁manner	-10.8101
▁historical	-10.8103
▁devastat	-10.8111
port	-10.8113
▁crush	-10.8115
▁approval	-10.8119
▁vanish	-10.8128
▁Ru	-10.8128
▁reply	-10.813
▁ripe	-10.813
▁introduce	-10.814
▁Fa	-10.8141
▁attitude	-10.8143
▁Roberto	-10.8146
sen	-10.8146
▁Ti	-10.8148
▁Gaza	-10.8151
▁NBA	-10.8151
▁Jong	-10.8157
▁behave	-10.8159
▁sentenc	-10.8161
ium	-10.8162
▁Netherlands	-10.8165
▁74	-10.8166
berg	-10.8175
▁Ya	-10.8177
▁Robinson	-10.8178
▁fetch	-10.8179
▁Yemen	-10.8181
▁Kar	-10.8189
▁negotiation	-10.819
▁cousin	-10.8192
▁Baker	-10.8199
▁spectacular	-10.8201
▁bequeath	-10.8201
▁lake	-10.8205
ground	-10.8207
▁Castro	-10.8209
▁refugee	-10.8209
▁Bolton	-10.8209
▁Station	-10.821
vy	-10.8212
▁Lin	-10.8213
▁Education	-10.8216
together	-10.8217
▁involvement	-10.8227
▁suspension	-10.8234
▁rising	-10.8236
▁guards	-10.8238
▁misplace	-10.8239
▁seduce	-10.8245
▁Seven	-10.8246
▁Fair	-10.8247
▁cheek	-10.8251
king	-10.8252
▁diagnos	-10.8253
▁surgeon	-10.8253
▁mothers	-10.8259
▁Art	-10.8268
▁dedicate	-10.8273
▁heads	-10.8273
▁creation	-10.8275
▁advocate	-10.8275
▁intent	-10.8277
▁preced	-10.8277
▁portrait	-10.8279
▁foul	-10.8281
▁haul	-10.8282
LA	-10.8285
▁cr	-10.8286
▁medication	-10.8287
▁Max	-10.8291
▁rally	-10.8291
▁Alonso	-10.8301
▁jaw	-10.8307
▁rapid	-10.8312
▁shake	-10.8314
▁hate	-10.8315
▁tracks	-10.8319
▁environmental	-10.8322
▁Nu	-10.8323
ure	-10.8324
▁Maryland	-10.8333
▁swing	-10.8343
70	-10.8344
HIV	-10.8344
▁interesting	-10.8345
▁dash	-10.8349
▁pension	-10.8352
▁Key	-10.8355
▁Ron	-10.8358
▁vision	-10.8361
▁Everyone	-10.8367
▁inspector	-10.8371
▁kit	-10.8371
▁feels	-10.8371
▁Weekly	-10.8372
▁delight	-10.8375
▁tragical	-10.8375
▁Norway	-10.8377
▁Spaniard	-10.8378
▁Adams	-10.8385
▁Telegraph	-10.8387
▁Detroit	-10.8389
▁elect	-10.839
▁consecrate	-10.8393
▁Grant	-10.8393
30	-10.84
▁residence	-10.84
▁rose	-10.8401
▁drain	-10.8401
▁Belgian	-10.8402
▁tonight	-10.8405
▁worry	-10.8408
▁myster	-10.8409
▁fortune	-10.8409
▁Indonesia	-10.8411
▁plants	-10.8416
▁runway	-10.8418
▁Lib	-10.8422
▁Midlands	-10.8423
▁occupy	-10.8423
▁depression	-10.8424
▁locked	-10.8426
▁Tennessee	-10.8428
▁Ann	-10.8429
▁preparation	-10.843
▁kid	-10.844
un	-10.8442
▁78	-10.8443
▁Greg	-10.845
▁improvement	-10.8452
▁Va	-10.8455
▁Play	-10.8457
▁tragic	-10.846
▁beam	-10.8461
▁western	-10.8463
▁aggressive	-10.8472
▁repeat	-10.8473
▁suspicious	-10.8474
▁Cornwall	-10.8479
▁immense	-10.8484
▁propertie	-10.8485
▁Friends	-10.8486
▁Bradley	-10.8491
▁Garden	-10.8493
▁Simpson	-10.8494
TA	-10.8496
▁smaller	-10.85
TV	-10.8508
▁Nelson	-10.851
▁Tri	-10.851
▁Lisa	-10.8512
▁marks	-10.8513
▁Emergenc	-10.8515
▁unt	-10.8518
▁Dean	-10.8518
metres	-10.8519
nan	-10.8519
▁71	-10.852
▁abide	-10.8526
▁unclear	-10.8531
▁cite	-10.8534
▁Bon	-10.8535
▁heroin	-10.8535
▁brutal	-10.8536
▁Brisbane	-10.854
▁Sony	-10.8541
▁suggestion	-10.8544
▁deserve	-10.8545
▁squeeze	-10.8545
▁Lopez	-10.8545
▁whale	-10.8546
970	-10.8547
▁passport	-10.8547
les	-10.855
▁innocent	-10.8554
▁pump	-10.8559
▁CIA	-10.856
▁regulations	-10.8566
▁songs	-10.8566
▁tower	-10.8566
nstead	-10.8569
▁yourself	-10.8577
ola	-10.8582
▁vs	-10.8586
▁Part	-10.8588
▁Je	-10.859
▁injure	-10.8591
▁factory	-10.8596
▁capacit	-10.8599
▁chas	-10.86
▁heading	-10.8602
▁inmate	-10.8606
▁cable	-10.8612
▁absence	-10.8614
ky	-10.8616
▁Lampard	-10.8618
▁partnership	-10.8619
▁Business	-10.8628
▁declin	-10.8628
proved	-10.8628
▁Han	-10.8629
▁ab	-10.8636
▁custom	-10.8636
▁papers	-10.8643
▁summit	-10.8644
▁ordeal	-10.8649
▁Kansas	-10.8657
▁snake	-10.8657
▁cutting	-10.8657
comfortable	-10.8665
▁funny	-10.8667
▁Fabregas	-10.867
FC	-10.8675
▁deem	-10.8684
▁imprison	-10.8685
▁Redknapp	-10.869
▁adviser	-10.8691
right	-10.8692
▁Falcao	-10.8696
▁Tesco	-10.8696
▁Care	-10.8699
▁vet	-10.87
▁Where	-10.8706
▁earth	-10.8715
▁maximum	-10.8717
▁82	-10.8725
▁Player	-10.8726
▁creditworth	-10.8727
▁signature	-10.873
▁shocking	-10.873
▁Sussex	-10.8732
▁Poland	-10.8733
▁movies	-10.8737
▁Emma	-10.8741
▁Roberts	-10.8742
▁minimum	-10.8743
ify	-10.8749
▁craft	-10.8751
▁cloud	-10.8752
fire	-10.8754
▁Dar	-10.8755
▁concept	-10.876
▁throat	-10.8763
be	-10.8764
▁revenue	-10.8765
▁punish	-10.8765
▁charter	-10.8768
q	-10.878
▁Light	-10.8781
▁Nazi	-10.8786
▁bowl	-10.8787
ev	-10.8787
▁Morrison	-10.8793
▁graduate	-10.8795
▁inspire	-10.8797
▁bomber	-10.8805
▁Vi	-10.8806
▁Ferdinand	-10.8806
▁resolution	-10.8806
▁ministers	-10.8807
▁install	-10.881
▁bone	-10.8811
▁semifinal	-10.8817
▁Warren	-10.8822
▁Silva	-10.8828
▁plow	-10.8828
▁collar	-10.8828
▁Jesus	-10.883
▁commander	-10.8831
▁extremist	-10.8835
▁selection	-10.8836
▁diagnose	-10.8837
burn	-10.8837
▁Cho	-10.8842
▁boot	-10.8845
▁Edwards	-10.8845
▁Gareth	-10.8849
tz	-10.8851
ain	-10.8852
▁regional	-10.8853
▁blend	-10.8855
▁bi	-10.8855
▁Work	-10.8856
▁officially	-10.886
▁1996	-10.8866
▁Edinburgh	-10.887
998	-10.8871
▁Fe	-10.8873
▁Arm	-10.8875
▁documentar	-10.8875
▁dear	-10.8876
▁stranger	-10.8876
▁Minnesota	-10.888
Around	-10.8883
▁77	-10.8885
ud	-10.8888
▁Islamist	-10.8895
▁Here	-10.8895
▁Collins	-10.8897
▁swim	-10.8899
▁medicine	-10.89
▁replac	-10.8903
▁proceeding	-10.8908
00	-10.8909
lan	-10.8915
▁dy	-10.8917
▁mislay	-10.8918
▁wash	-10.8919
atomic	-10.892
▁1994	-10.892
▁EW	-10.8922
▁delighted	-10.8923
▁overlook	-10.8926
▁tunnel	-10.8927
▁unconscious	-10.8929
▁teens	-10.8929
▁strict	-10.8932
ara	-10.8935
▁searching	-10.8941
▁reign	-10.8947
▁Ball	-10.8947
▁Chancellor	-10.895
▁fate	-10.8951
▁restriction	-10.8951
dom	-10.8952
▁opener	-10.8961
▁judges	-10.8967
▁torture	-10.8971
▁Parent	-10.8972
▁forecast	-10.8976
▁Murphy	-10.8977
▁nickname	-10.8981
18	-10.8982
▁Hawaii	-10.8987
▁Bre	-10.8989
▁rap	-10.8995
frai	-10.8999
▁boom	-10.9004
▁reduced	-10.9005
verbalize	-10.9007
▁Louisiana	-10.9009
▁envision	-10.9009
▁loud	-10.9012
▁employer	-10.9024
▁Resident	-10.9027
▁memori	-10.9027
▁earning	-10.9028
▁insure	-10.9029
▁prim	-10.9037
▁opponents	-10.904
▁types	-10.9041
▁Mayweather	-10.9041
▁homicide	-10.9043
▁Ward	-10.9043
▁testify	-10.9045
▁Masters	-10.9048
▁luck	-10.9053
▁Susan	-10.9055
▁del	-10.9055
verbalise	-10.9057
▁mini	-10.9058
▁outcome	-10.906
▁desert	-10.906
▁Denver	-10.9063
▁relate	-10.9064
▁stepp	-10.9067
▁bizarre	-10.9067
▁l	-10.9068
▁doubl	-10.907
▁Cal	-10.9077
▁quote	-10.9079
▁consent	-10.9079
▁independen	-10.9081
▁implement	-10.9085
▁cannabi	-10.9085
▁Bi	-10.9087
▁Boeing	-10.9087
▁shower	-10.9088
▁Os	-10.909
ane	-10.9091
han	-10.9099
ova	-10.9103
▁Media	-10.9104
▁amaze	-10.911
▁Shi	-10.9112
slaughter	-10.9117
▁sporting	-10.9117
AT	-10.9118
10	-10.9119
▁cabin	-10.9129
▁deck	-10.9132
▁riot	-10.9132
▁investor	-10.9132
▁Brighton	-10.9135
▁Phillips	-10.9135
▁Night	-10.9139
asking	-10.914
ll	-10.9143
▁Westminster	-10.9145
▁Mad	-10.9145
▁solve	-10.9149
▁Saint	-10.915
▁salary	-10.915
▁Bailey	-10.915
▁meals	-10.9151
▁comply	-10.9154
MA	-10.916
▁rail	-10.9161
▁burie	-10.9163
▁flowers	-10.9173
▁expand	-10.9178
▁Samsung	-10.9183
▁Amy	-10.9186
▁Aguero	-10.9191
mo	-10.9191
▁mount	-10.9193
▁hall	-10.9194
▁uncle	-10.9197
▁Secret	-10.9198
▁wonderful	-10.9199
▁mansion	-10.9207
▁analysis	-10.9208
▁Malaysia	-10.9209
▁dust	-10.9211
▁horses	-10.9215
▁pensioner	-10.9215
rnal	-10.9216
▁Animal	-10.9218
▁Christie	-10.9218
▁compose	-10.9221
▁lock	-10.9221
▁reverse	-10.9224
▁div	-10.9228
▁technical	-10.9232
▁76	-10.9237
▁outstanding	-10.9238
▁electricity	-10.924
bar	-10.9242
▁accommodate	-10.9247
▁degrees	-10.9248
▁traverse	-10.9248
ski	-10.9252
▁Avenue	-10.9252
▁Science	-10.9253
ring	-10.9255
▁careful	-10.9256
▁groom	-10.9256
▁constantly	-10.9257
▁detention	-10.926
▁Cat	-10.9262
▁Arabia	-10.9266
▁ITV	-10.9271
▁visualize	-10.9272
▁Arena	-10.9272
▁199	-10.9272
▁Winter	-10.9279
▁Par	-10.9281
▁Clarke	-10.9285
▁debri	-10.9287
▁peer	-10.9291
▁retire	-10.9295
▁bath	-10.9298
▁traffick	-10.9298
▁participant	-10.9299
ho	-10.9303
▁Fulham	-10.9304
▁closing	-10.9305
▁bombs	-10.9306
terrible	-10.9309
▁Se	-10.9312
▁tender	-10.9312
▁engagement	-10.9315
▁Commissioner	-10.9319
▁Gun	-10.9321
▁foresight	-10.9325
▁prepar	-10.9326
▁spiritual	-10.9332
▁Cleveland	-10.9338
▁barrier	-10.9338
▁advise	-10.9349
▁bigg	-10.9354
▁displace	-10.9355
▁bottles	-10.9357
▁asset	-10.9357
▁accompany	-10.9362
▁Margaret	-10.9366
▁presented	-10.9373
▁Span	-10.9374
▁invite	-10.9376
▁Manager	-10.9376
ga	-10.9377
▁Argentine	-10.9377
▁Child	-10.9379
▁PC	-10.9379
▁childhood	-10.938
▁Sturridge	-10.9382
▁hint	-10.9383
▁Ken	-10.9385
▁regret	-10.9399
▁espouse	-10.9399
▁Android	-10.94
▁Ly	-10.9401
▁stable	-10.9402
▁sibling	-10.9402
▁Game	-10.9402
▁Captain	-10.9405
▁walls	-10.9406
ward	-10.9409
▁gesture	-10.941
▁schedul	-10.9411
▁retail	-10.9412
980	-10.9412
▁freeze	-10.9417
▁association	-10.9419
lo	-10.9419
▁citizen	-10.9424
▁races	-10.9431
ron	-10.9431
▁Nigel	-10.9433
▁crossing	-10.9434
▁pill	-10.9437
▁emotion	-10.9439
ira	-10.9443
▁instance	-10.9444
▁download	-10.9448
▁bonus	-10.9451
▁Nine	-10.9455
room	-10.9455
▁deliberate	-10.9458
▁grey	-10.9462
▁Jail	-10.9467
▁Keith	-10.9469
aj	-10.9471
▁nobody	-10.9473
thele	-10.9477
▁wire	-10.9479
▁visualise	-10.9479
▁Bureau	-10.9485
▁Oh	-10.9489
▁Gil	-10.949
▁digest	-10.949
▁bush	-10.9491
gar	-10.9491
ik	-10.9495
▁Civil	-10.9496
▁Are	-10.9496
▁drawing	-10.95
▁Hundred	-10.9501
▁Indiana	-10.9504
▁Romney	-10.9512
▁brave	-10.9516
im	-10.9518
ini	-10.9521
▁Inspector	-10.9523
▁payment	-10.9524
▁elsewhere	-10.9525
▁spoil	-10.9527
▁qualifier	-10.9528
▁Operation	-10.953
une	-10.953
▁links	-10.9532
▁enable	-10.9534
▁businessman	-10.9535
▁Sandy	-10.9535
▁alien	-10.9543
▁handl	-10.9544
▁symbol	-10.9548
▁pilots	-10.9554
▁tiger	-10.9559
▁odd	-10.956
▁Awards	-10.9563
▁yes	-10.9564
posed	-10.957
▁souther	-10.9573
▁ET	-10.9574
▁conclude	-10.9574
▁passion	-10.9578
▁soccer	-10.9578
▁teaching	-10.9583
▁Surrey	-10.9587
▁Bundesliga	-10.9592
▁Hillary	-10.9595
▁pets	-10.9598
▁blind	-10.9602
unk	-10.9603
▁Control	-10.9603
▁Barbara	-10.9604
▁surge	-10.9606
▁Adrian	-10.9612
▁shirts	-10.9612
▁solar	-10.9614
▁130	-10.9624
▁undertake	-10.9634
work	-10.9641
▁contrast	-10.9644
▁Company	-10.9646
▁cant	-10.9649
eventh	-10.9654
▁Ger	-10.9655
▁prevail	-10.9655
▁Hills	-10.9657
▁Week	-10.9659
▁Derby	-10.9667
▁copy	-10.9667
60	-10.9673
▁robot	-10.9676
▁theme	-10.9691
▁NSW	-10.9697
▁Lt	-10.9698
▁wood	-10.9703
▁Oliver	-10.9704
▁trailer	-10.9704
▁ram	-10.9706
▁Please	-10.9707
▁kidney	-10.9707
ram	-10.971
ay	-10.971
▁Rod	-10.9711
▁Charlotte	-10.9724
▁Investigation	-10.9724
▁Ze	-10.9725
▁priest	-10.973
▁Armstrong	-10.9736
weight	-10.9739
▁mirror	-10.9741
IA	-10.9748
▁assess	-10.9749
▁Br	-10.9751
mann	-10.9756
dale	-10.9758
▁Lawrence	-10.9765
▁load	-10.9766
▁Mississippi	-10.9771
▁Off	-10.9772
▁Hollande	-10.9779
▁Defence	-10.9782
▁horrific	-10.9784
▁desk	-10.9784
▁w	-10.9786
▁haven	-10.9787
▁Spencer	-10.9788
▁locate	-10.9789
▁Yesterday	-10.9794
hrew	-10.9797
▁requirement	-10.9803
▁cake	-10.9805
▁homeless	-10.9807
▁inter	-10.9807
▁Follow	-10.9809
ox	-10.9809
▁happening	-10.9813
ose	-10.9815
low	-10.9818
▁explore	-10.9819
▁UN	-10.9828
▁Europa	-10.9828
▁thick	-10.9835
▁farmer	-10.984
▁unseason	-10.9844
▁Airways	-10.9846
▁egg	-10.9847
▁competitor	-10.9847
▁mad	-10.9848
▁Look	-10.9851
▁Vatican	-10.9858
▁pirate	-10.9859
▁hammer	-10.9862
▁Reid	-10.9865
▁Val	-10.9866
▁Ahmed	-10.9866
▁danc	-10.9868
▁Douglas	-10.987
▁shell	-10.987
dle	-10.9871
covered	-10.9875
▁Toronto	-10.9876
▁porn	-10.988
▁forever	-10.9887
v	-10.9887
▁bio	-10.9889
▁pile	-10.9889
▁End	-10.9894
▁79	-10.9898
▁designs	-10.9899
▁volcano	-10.9901
▁ben	-10.9902
▁Cabinet	-10.9905
▁impossible	-10.9905
▁container	-10.9906
▁bosse	-10.9908
▁Pochettino	-10.9911
▁Ga	-10.9913
▁balloon	-10.9913
▁edition	-10.9915
▁attraction	-10.9919
▁Microsoft	-10.9923
▁immatur	-10.9923
▁ships	-10.9925
▁Metropolitan	-10.9935
▁minorit	-10.9947
▁criticis	-10.9949
▁anybody	-10.995
▁king	-10.9955
BC	-10.9957
▁translate	-10.9961
ba	-10.9964
▁breakfast	-10.9965
▁indictment	-10.9966
▁Price	-10.9969
▁circle	-10.9977
▁Blues	-10.9982
▁understanding	-10.9985
▁FC	-10.9985
▁fleet	-10.9985
▁lodge	-10.9986
▁Morris	-10.9988
▁tornado	-10.999
▁restrict	-10.9991
▁comeback	-10.9993
▁twin	-10.9995
▁Dem	-11
▁unexpected	-11
▁palpate	-11.0006
▁SUV	-11.0007
spread	-11.0008
▁cyclist	-11.0012
idnight	-11.0016
ang	-11.002
▁Dun	-11.0032
▁pride	-11.0037
▁bacteria	-11.0039
▁Festival	-11.0039
▁supervise	-11.0042
▁skull	-11.005
▁sour	-11.0053
▁competitive	-11.0054
▁hip	-11.0055
▁assert	-11.0056
▁Fu	-11.0061
▁Wa	-11.0062
▁radical	-11.0067
▁cafe	-11.0068
▁tweets	-11.0072
▁Ve	-11.0081
▁challeng	-11.0084
▁Singh	-11.0086
▁alter	-11.0088
▁apologize	-11.0088
▁Victim	-11.009
▁EST	-11.0091
▁excite	-11.0092
▁entertainment	-11.0093
▁Ten	-11.0094
ena	-11.0096
▁lean	-11.0102
▁runner	-11.0104
RC	-11.0104
40	-11.0104
▁baseball	-11.0109
gitate	-11.0112
▁Baby	-11.0112
▁cartel	-11.0113
▁petrol	-11.012
▁Vincent	-11.012
▁Mir	-11.0122
▁monkey	-11.0124
▁bleed	-11.0129
worth	-11.013
▁Alexis	-11.0133
▁WA	-11.0139
▁hook	-11.014
▁foundation	-11.0141
▁900	-11.0144
▁plays	-11.0147
▁coroner	-11.016
▁racist	-11.0162
use	-11.0166
▁patent	-11.0174
▁criticise	-11.0177
▁zero	-11.0178
▁ideal	-11.0185
▁modest	-11.0187
▁impeach	-11.0199
▁kg	-11.02
▁Virgin	-11.0206
ps	-11.0209
▁continent	-11.0209
▁Communit	-11.021
▁Toure	-11.0217
▁Iowa	-11.0218
▁Following	-11.0218
▁exposure	-11.0223
wich	-11.0226
▁Network	-11.0229
▁religion	-11.0229
▁thin	-11.0237
▁erupt	-11.0239
▁Herald	-11.0244
▁poses	-11.0251
▁Thai	-11.0255
▁Rica	-11.0256
dding	-11.0261
▁Final	-11.0264
▁discourse	-11.0266
▁Parker	-11.0277
▁eighth	-11.0277
aught	-11.029
▁hell	-11.0291
wards	-11.0294
▁Islands	-11.0297
▁Lanka	-11.0297
au	-11.0297
▁elected	-11.0298
▁transform	-11.0301
che	-11.0303
▁bread	-11.0308
▁Darren	-11.0309
▁furious	-11.0316
▁complet	-11.0318
▁classe	-11.0319
▁ingredient	-11.0321
▁sp	-11.0327
▁Bas	-11.0328
▁tremendous	-11.0333
▁TSA	-11.0335
▁caption	-11.0339
▁dealing	-11.0342
▁Glen	-11.0347
▁industrial	-11.0352
▁reception	-11.0356
▁Sharapova	-11.0358
▁trio	-11.0358
▁automatic	-11.0359
77	-11.0362
ix	-11.0364
▁vegetable	-11.0364
▁Perez	-11.0371
ible	-11.0372
entered	-11.0379
▁mock	-11.0381
▁Wigan	-11.0387
▁Brad	-11.0388
▁unwrap	-11.0391
▁bears	-11.0395
▁Barry	-11.0395
▁Vice	-11.0397
hill	-11.0397
▁Hor	-11.04
▁arriv	-11.0406
▁Nottingham	-11.0413
▁Embass	-11.0414
▁deport	-11.0414
▁Social	-11.0415
▁landmark	-11.0416
▁tube	-11.0416
▁battl	-11.0416
long	-11.0417
▁Delhi	-11.042
▁Swed	-11.042
gun	-11.042
▁breed	-11.0421
▁Eastern	-11.0424
▁Henderson	-11.0426
dite	-11.0426
▁outlet	-11.0428
▁baffle	-11.0432
▁youthful	-11.0434
▁thrill	-11.0436
maker	-11.0439
ig	-11.0439
▁Border	-11.0445
▁wester	-11.0445
▁traveller	-11.0454
lu	-11.0455
▁Fund	-11.0455
urism	-11.0458
▁Girl	-11.0459
▁factors	-11.046
▁divulge	-11.0461
▁GOP	-11.0464
▁combination	-11.0464
▁dragg	-11.0466
cher	-11.0468
ardy	-11.0468
▁lifetime	-11.047
▁Whit	-11.047
▁teach	-11.0479
▁rumour	-11.0482
AA	-11.049
▁stunn	-11.049
ged	-11.0492
▁Gre	-11.0493
▁blanket	-11.0495
verty	-11.0496
point	-11.0499
▁contractor	-11.05
ran	-11.0504
zi	-11.0505
▁okay	-11.0507
▁abduct	-11.0508
▁electric	-11.0508
▁improved	-11.0509
ped	-11.0513
▁belated	-11.0514
▁dish	-11.0516
▁Rick	-11.0518
▁odds	-11.0519
date	-11.0521
oh	-11.0524
▁Owen	-11.0525
▁Carr	-11.0527
▁ending	-11.0528
▁duck	-11.0532
▁recreate	-11.0532
▁helmet	-11.0532
▁featur	-11.0533
▁holidays	-11.0536
lock	-11.0537
▁tactic	-11.0538
▁happens	-11.0543
▁casualt	-11.055
▁donor	-11.055
▁concrete	-11.0552
▁narrow	-11.0553
▁melt	-11.0558
▁connected	-11.056
▁wheelchair	-11.0564
▁ingest	-11.0568
▁vot	-11.0569
▁examination	-11.0571
▁approv	-11.0571
▁jeweller	-11.0574
▁dressing	-11.0576
▁dollar	-11.0577
▁consist	-11.0577
▁Neville	-11.0578
▁Tan	-11.0587
▁draft	-11.0589
▁anonymous	-11.059
▁sting	-11.0592
▁nerve	-11.0592
▁shadow	-11.0597
▁Josh	-11.0598
▁lap	-11.0603
▁tune	-11.0613
▁swallow	-11.0613
▁domesticat	-11.0616
▁84	-11.0619
▁Carlo	-11.0624
▁Fashion	-11.0627
▁Saints	-11.0627
▁mood	-11.0628
▁proof	-11.063
▁Eight	-11.063
▁Ronald	-11.0632
ore	-11.0633
▁Clegg	-11.0633
▁cow	-11.0633
▁uphold	-11.0635
▁sacrifice	-11.0636
visible	-11.065
▁pi	-11.0651
▁landscape	-11.0652
▁Allardyce	-11.0652
▁Rosberg	-11.0652
▁exceptional	-11.0657
▁Affair	-11.0658
▁fracture	-11.0658
▁Barca	-11.0661
▁soil	-11.0664
▁achievement	-11.0664
▁spin	-11.0664
▁Wildlife	-11.0665
▁diabetes	-11.0665
▁Potter	-11.0666
▁reporting	-11.0668
▁inspection	-11.0669
▁widow	-11.0678
▁batter	-11.0682
ita	-11.0684
▁export	-11.0686
Anyone	-11.0688
▁extensive	-11.069
▁Morning	-11.0693
▁Mont	-11.0694
TM	-11.0695
▁Turner	-11.0696
▁Scene	-11.0699
▁menu	-11.0701
▁unfortunate	-11.0703
▁upper	-11.0705
▁demo	-11.0707
▁Memorial	-11.0709
▁append	-11.071
ha	-11.071
▁Larry	-11.0713
▁shamefaced	-11.0716
▁unmanage	-11.0716
▁senator	-11.0716
▁Ghana	-11.072
▁Thank	-11.072
▁hotels	-11.0725
▁Mandela	-11.073
▁grateful	-11.073
▁transmit	-11.0733
PS	-11.0735
orussia	-11.0735
▁criticize	-11.0735
▁Samuel	-11.0736
▁Powell	-11.0736
▁developer	-11.0737
▁accomplish	-11.0741
ette	-11.0743
ick	-11.0743
▁obesit	-11.0745
jo	-11.0746
▁embrace	-11.0748
▁fluid	-11.0749
▁couch	-11.0751
▁Pentagon	-11.0754
▁gunshot	-11.0756
▁Czech	-11.0761
▁Amanda	-11.0761
▁doom	-11.0769
▁PGA	-11.0771
▁Marie	-11.0771
▁Ana	-11.0773
▁cardinal	-11.0774
▁Witnesses	-11.0776
▁Orlando	-11.0777
▁holder	-11.0778
▁Yet	-11.0779
▁Ancelotti	-11.078
▁liquid	-11.078
▁journal	-11.079
awa	-11.0794
defending	-11.081
▁magistrate	-11.0812
ade	-11.0814
▁autops	-11.0818
▁Ci	-11.0819
▁Phoenix	-11.0819
▁agitate	-11.082
▁twins	-11.0821
▁pig	-11.0827
▁supra	-11.0832
▁comedian	-11.0833
min	-11.0837
▁equivalent	-11.0838
▁overcome	-11.084
▁signify	-11.084
▁deadline	-11.084
▁Mak	-11.0843
▁hanging	-11.0844
▁scared	-11.0847
pper	-11.0849
▁divers	-11.085
▁forest	-11.0851
▁discrimination	-11.0852
▁remind	-11.0853
olo	-11.0858
▁Thousands	-11.0858
▁Near	-11.0859
▁trains	-11.0864
▁195	-11.0866
ti	-11.0867
▁Columbia	-11.0869
▁midfield	-11.0869
▁transition	-11.0869
▁felicit	-11.0872
▁salt	-11.0872
▁indication	-11.0875
EA	-11.088
▁advised	-11.0883
▁Norwich	-11.0884
▁vicious	-11.0884
▁Bath	-11.0887
▁Catherine	-11.089
▁apportion	-11.0893
▁participate	-11.0894
▁approve	-11.0902
▁Caribbean	-11.0903
▁Bus	-11.0903
▁Kay	-11.0906
▁Libyan	-11.0906
▁Cruz	-11.0907
wick	-11.0908
fer	-11.0913
▁Pet	-11.0913
▁iron	-11.0916
▁fl	-11.0918
▁chart	-11.0923
▁insult	-11.0924
let	-11.0926
oz	-11.0926
▁gross	-11.0929
▁Lions	-11.093
▁Kyle	-11.0934
chance	-11.0936
▁Kentucky	-11.0936
▁Low	-11.094
▁Gra	-11.0941
▁Duncan	-11.0942
▁Donald	-11.0942
▁boxing	-11.0946
▁Cara	-11.0948
tra	-11.0949
▁PSG	-11.0949
▁overturn	-11.0951
nary	-11.0964
▁classroom	-11.0964
trategy	-11.0965
▁bones	-11.0965
▁cope	-11.0965
▁sideline	-11.0965
citing	-11.0972
BS	-11.0973
▁snapp	-11.0976
▁refund	-11.0976
▁83	-11.0979
▁auto	-11.098
▁tick	-11.0982
▁cab	-11.0982
▁extent	-11.0983
▁unname	-11.0986
▁incredibl	-11.0986
▁Ukrainian	-11.0988
▁revelation	-11.099
▁yacht	-11.0995
▁Field	-11.0996
▁Helen	-11.1
▁Lancashire	-11.1001
▁preliminar	-11.1001
▁Passenger	-11.1001
▁chop	-11.1003
▁Biden	-11.1003
▁Andrea	-11.1008
▁consultant	-11.1009
▁traveling	-11.1009
AR	-11.1018
▁Buckingham	-11.1021
her	-11.1024
▁Nicole	-11.1027
ap	-11.1031
▁Vettel	-11.1034
▁statue	-11.1037
▁consumer	-11.1039
▁Project	-11.1045
▁imp	-11.1046
▁Rachel	-11.1046
▁portion	-11.1047
▁Caroline	-11.1048
▁dubb	-11.1049
▁pronounced	-11.1051
▁shame	-11.1052
▁Ram	-11.1053
▁Report	-11.1058
ization	-11.1058
▁unidentifi	-11.1061
▁Downing	-11.1063
▁cater	-11.1063
▁embassy	-11.1069
▁Prison	-11.1069
▁instruct	-11.1071
▁expectation	-11.1072
▁Norman	-11.1073
▁Austria	-11.1074
▁cheat	-11.1078
cognise	-11.1079
▁whil	-11.1079
▁Kingdom	-11.1082
▁Castle	-11.1082
▁exam	-11.1083
▁parole	-11.1087
▁mess	-11.1088
▁Special	-11.1092
iz	-11.1092
▁specify	-11.1094
▁expectant	-11.1099
▁rounds	-11.1099
▁subsist	-11.1099
bridge	-11.1103
▁statistic	-11.1109
▁instruction	-11.1109
▁thief	-11.1114
▁Tower	-11.1119
▁Were	-11.1123
▁Highway	-11.1128
▁spite	-11.113
▁Grace	-11.1135
▁hap	-11.1135
▁authoritative	-11.1137
▁piddl	-11.1139
▁86	-11.1139
▁queen	-11.1141
▁tips	-11.1146
▁plump	-11.1148
▁pipe	-11.1149
▁Penn	-11.1149
▁skirt	-11.1151
▁categor	-11.1152
▁Sh	-11.1154
▁discourage	-11.1156
▁testimon	-11.1158
▁Monte	-11.1159
▁curb	-11.1161
▁transplant	-11.1161
▁Vietnam	-11.1167
▁burning	-11.1168
math	-11.1178
abad	-11.118
▁rope	-11.1181
50	-11.1182
ants	-11.1182
▁motive	-11.1183
▁Pen	-11.1184
RI	-11.1185
invited	-11.1186
▁facial	-11.1187
je	-11.1194
▁assessment	-11.1198
hi	-11.12
▁Nevada	-11.1201
▁vacation	-11.1201
▁Rice	-11.1201
▁Music	-11.1201
▁Snowden	-11.1201
▁belonging	-11.1202
▁publication	-11.1208
▁Mer	-11.1208
gle	-11.1208
ee	-11.1211
▁Ak	-11.1213
▁puzzle	-11.1217
▁awful	-11.1217
▁Keane	-11.1218
▁circuit	-11.1221
▁opine	-11.1222
▁icon	-11.1222
tas	-11.1222
▁Plan	-11.1224
ept	-11.1226
▁Laden	-11.1226
▁81	-11.1237
glasses	-11.1244
▁otherwise	-11.125
▁spotlight	-11.125
▁rang	-11.1254
▁puppy	-11.1258
▁Wal	-11.1264
▁pointed	-11.1265
▁mature	-11.1268
▁countenance	-11.1275
▁Mi	-11.1277
ius	-11.1278
▁forge	-11.128
▁inflict	-11.1282
▁motivate	-11.1282
▁Peru	-11.1285
▁Farm	-11.1288
▁comparison	-11.1289
▁Interior	-11.1295
▁anchor	-11.1296
▁panic	-11.1297
ile	-11.13
▁predator	-11.1303
▁matters	-11.1304
▁350	-11.1306
▁peaceful	-11.1307
▁Way	-11.131
▁survival	-11.1316
▁Orange	-11.1316
▁wrapp	-11.1316
born	-11.1317
▁stamp	-11.1319
▁Kerry	-11.1319
▁Dor	-11.132
▁Drug	-11.1321
▁Fre	-11.1321
▁Sand	-11.1322
ourselve	-11.1328
▁Bishop	-11.1329
criminate	-11.1329
▁steer	-11.1332
▁OK	-11.1335
▁define	-11.1337
▁attractive	-11.1338
mouth	-11.1342
▁intense	-11.1344
▁Leon	-11.1346
▁rocks	-11.1347
▁doll	-11.135
went	-11.135
▁Abbey	-11.135
▁loving	-11.1351
▁indict	-11.1353
▁Spring	-11.1358
▁origin	-11.1361
▁offense	-11.1365
▁Gray	-11.1367
▁discipline	-11.1369
▁cage	-11.137
shamed	-11.1372
▁transferr	-11.1376
down	-11.1377
▁grievous	-11.1377
▁protective	-11.1378
▁Cu	-11.1379
▁Com	-11.1382
▁Marco	-11.1382
▁smiles	-11.1388
14	-11.1389
▁Still	-11.1392
borough	-11.1396
▁seiz	-11.1396
▁lab	-11.1398
▁notorious	-11.1398
93	-11.14
▁sham	-11.1407
▁Assad	-11.141
▁header	-11.141
▁consecutive	-11.1411
▁worn	-11.1412
▁Carroll	-11.1413
▁Mah	-11.1413
▁87	-11.1414
shaw	-11.1418
▁Britains	-11.1419
▁personality	-11.1421
▁theater	-11.1424
▁Knight	-11.1425
▁Mid	-11.1426
▁Cape	-11.1426
▁adapt	-11.1429
▁carbon	-11.1434
▁checks	-11.1435
▁Karl	-11.1437
▁Book	-11.1439
▁slipp	-11.1439
▁quot	-11.1442
ight	-11.1444
▁fox	-11.1444
ggy	-11.1446
ough	-11.1449
▁incriminate	-11.1452
▁Bol	-11.1454
▁Anti	-11.1457
▁Get	-11.1457
az	-11.146
▁mold	-11.1461
▁Cru	-11.1467
▁Ch	-11.1469
▁bride	-11.1469
▁Cuban	-11.1469
yn	-11.147
▁crazy	-11.147
cognize	-11.1472
▁conclusion	-11.1473
▁fines	-11.1473
▁Polish	-11.1474
▁mould	-11.1476
▁Cre	-11.1481
▁genial	-11.1483
▁CDC	-11.1483
▁dancer	-11.1486
▁liberal	-11.1487
▁crocodile	-11.1487
▁consistent	-11.1487
pa	-11.1488
▁ease	-11.1489
▁Golf	-11.1489
▁golden	-11.149
▁IS	-11.1493
▁gravel	-11.1496
▁thorough	-11.15
▁firing	-11.1502
▁aggravat	-11.1506
▁Fans	-11.1507
gen	-11.1513
▁soar	-11.1513
▁moral	-11.1521
▁humble	-11.1527
▁taxe	-11.1532
▁FAA	-11.1534
▁nightclub	-11.1536
▁imply	-11.1536
▁Novak	-11.1543
▁knowing	-11.1544
▁extraordinar	-11.1544
▁powers	-11.1546
▁Cro	-11.1548
▁lorry	-11.1548
▁cigarette	-11.155
▁Dennis	-11.1552
▁Protection	-11.1558
▁employment	-11.1559
favorable	-11.1561
▁sensor	-11.1562
▁waitress	-11.1563
▁temporar	-11.1565
▁campaigner	-11.1565
▁caution	-11.157
fall	-11.157
▁Guinea	-11.1577
▁dock	-11.1579
ff	-11.1587
▁actuate	-11.159
▁arrangement	-11.1591
▁Albert	-11.1592
▁1991	-11.1594
▁pizza	-11.1596
▁Kirk	-11.1597
▁Blackpool	-11.1598
oke	-11.1601
▁Middleton	-11.1602
▁laid	-11.1603
▁Vladimir	-11.1605
▁Heart	-11.1607
▁Colombian	-11.1612
▁hasn	-11.1616
▁Emily	-11.1618
▁posts	-11.1621
▁expos	-11.1623
▁wooden	-11.1629
▁buck	-11.1629
▁parade	-11.163
▁implant	-11.1634
▁Peace	-11.1639
▁defy	-11.164
▁Delta	-11.1649
▁Shah	-11.1653
▁Federation	-11.1654
▁Mohamed	-11.1659
AF	-11.1659
▁extension	-11.1661
▁Award	-11.1668
▁conservative	-11.1668
▁Javi	-11.1671
▁watchdog	-11.1673
▁thigh	-11.1676
▁toys	-11.1681
▁guidelines	-11.1682
▁waist	-11.1682
75	-11.1685
ES	-11.1695
wa	-11.1696
▁tool	-11.1698
▁Abdul	-11.1699
▁entail	-11.1703
▁plug	-11.1707
▁greet	-11.1709
▁duti	-11.1712
▁wrist	-11.1712
▁Bu	-11.1715
▁Next	-11.1716
▁trad	-11.1717
▁anywhere	-11.1718
▁cycle	-11.1718
▁storage	-11.1719
ou	-11.1719
▁Weather	-11.1723
mitted	-11.1726
▁impression	-11.1726
mar	-11.1729
▁merit	-11.173
▁Mata	-11.1732
▁RSPCA	-11.1732
▁pray	-11.1733
▁percentage	-11.1737
▁180	-11.1743
▁scratch	-11.1743
iya	-11.1746
▁opposite	-11.1753
book	-11.1755
▁heels	-11.1757
▁gravid	-11.176
▁Wil	-11.1763
▁boxe	-11.1765
itch	-11.1767
▁ineffective	-11.177
▁pall	-11.1771
▁Row	-11.1771
▁boats	-11.1772
▁Sebastian	-11.1776
▁blam	-11.1777
▁Summer	-11.1785
▁cigarettes	-11.1788
▁Tar	-11.1793
▁orbit	-11.1795
▁Whe	-11.1795
▁Shanghai	-11.1796
sley	-11.1797
▁projects	-11.18
posing	-11.1802
▁premature	-11.1803
eng	-11.1804
▁intensive	-11.1805
▁snack	-11.1808
▁abortion	-11.1808
▁Frenchman	-11.1809
▁confine	-11.181
▁intoxicat	-11.1813
▁eligib	-11.1816
▁orange	-11.1818
▁layer	-11.1819
▁globe	-11.182
▁except	-11.1821
▁ethnic	-11.1825
ip	-11.1829
▁franchise	-11.183
▁throwing	-11.1831
▁Independent	-11.1831
▁Nathan	-11.1833
▁visa	-11.1833
▁initiate	-11.1834
avi	-11.1836
▁thieve	-11.1841
▁Kam	-11.1847
▁Lucas	-11.185
▁Brob	-11.185
▁Rolling	-11.1851
▁mosque	-11.1853
▁Fift	-11.1856
▁boxer	-11.1859
lain	-11.1862
ent	-11.1866
▁logo	-11.1867
▁solitar	-11.1868
▁emails	-11.1871
▁regarding	-11.1873
▁calendar	-11.1874
▁Jewish	-11.1874
▁laptop	-11.1874
▁gestate	-11.1876
▁attendant	-11.1877
▁divide	-11.1878
▁clashe	-11.188
ado	-11.1881
▁cave	-11.1882
▁Short	-11.1883
25	-11.1884
▁quake	-11.1889
▁Shiite	-11.1889
▁resume	-11.1891
▁140	-11.1892
▁partake	-11.1893
▁diminish	-11.1895
▁Members	-11.1895
RE	-11.1895
▁88	-11.1896
▁Diana	-11.19
▁trash	-11.19
▁Country	-11.1901
▁fam	-11.1903
▁compet	-11.1903
▁inappropriate	-11.1904
ois	-11.1906
NA	-11.1906
▁wicket	-11.191
▁pan	-11.1911
▁Nor	-11.1912
rick	-11.1914
our	-11.1917
▁Guardiola	-11.1924
pped	-11.1925
▁tongue	-11.1927
▁Beck	-11.193
▁Zimmerman	-11.1932
▁interchange	-11.1933
▁fewer	-11.1934
▁Olympian	-11.1935
▁cliff	-11.1935
▁Kane	-11.1936
▁slamm	-11.1939
▁Savile	-11.1939
▁liver	-11.1944
▁compromise	-11.1946
▁Greek	-11.1947
▁promot	-11.1949
▁counterpart	-11.1953
▁dresses	-11.1956
▁Ozil	-11.1961
▁easter	-11.1962
▁Bernard	-11.1967
▁bewilder	-11.1968
▁Heathrow	-11.1968
▁markets	-11.1969
▁urgent	-11.1971
▁elaborate	-11.1973
▁NYPD	-11.1973
▁venture	-11.1973
▁charit	-11.1979
▁assign	-11.1982
▁jersey	-11.1982
▁Cancer	-11.1984
▁Lauren	-11.1986
jan	-11.1989
▁Sporting	-11.199
▁billionaire	-11.199
▁eyed	-11.1994
▁devolve	-11.1997
▁smuggl	-11.1997
19	-11.2
▁gallery	-11.2011
▁Freedom	-11.2012
▁pants	-11.2013
▁fever	-11.2018
▁Wisconsin	-11.2019
▁Somerset	-11.2019
▁su	-11.2022
▁infect	-11.2026
▁defensive	-11.2026
▁Point	-11.2029
▁Hy	-11.2038
▁Any	-11.2045
▁gadget	-11.2047
▁enormous	-11.2048
▁rubbish	-11.2048
▁ambition	-11.2049
▁pluck	-11.205
▁pulling	-11.2053
▁Wolf	-11.2054
▁mall	-11.2057
▁survivors	-11.206
▁picking	-11.2063
▁Sullivan	-11.2066
▁tools	-11.2067
▁Ukip	-11.207
inte	-11.207
▁therapy	-11.2071
▁pages	-11.2072
▁scare	-11.2076
▁dominate	-11.2079
▁Having	-11.2081
wan	-11.2081
▁consumption	-11.2085
▁referendum	-11.2085
▁Croatia	-11.2085
▁reopen	-11.2085
▁trauma	-11.2086
▁affirm	-11.2088
▁Gadhafi	-11.2092
▁misconduct	-11.2099
▁cyber	-11.2099
▁boots	-11.2101
cki	-11.2101
▁Guardian	-11.2101
egress	-11.2103
▁Benjamin	-11.2107
▁flirt	-11.2107
▁Formosa	-11.2107
▁tipp	-11.2107
▁Death	-11.2111
stead	-11.2111
▁grandchildren	-11.2114
cast	-11.2117
▁dispos	-11.2119
sey	-11.2119
lee	-11.2127
▁Pacquiao	-11.2129
▁discount	-11.2129
▁random	-11.2129
▁Ryder	-11.213
▁Wilshere	-11.213
▁Galaxy	-11.2134
▁frustration	-11.2138
▁Felipe	-11.2143
▁Orlean	-11.2143
▁aide	-11.215
ok	-11.2151
illa	-11.2153
▁Sara	-11.2154
▁strand	-11.2156
▁Ker	-11.2157
ng	-11.216
▁Az	-11.2163
▁holler	-11.2166
▁broadcaster	-11.2167
▁debar	-11.217
ue	-11.2171
▁populate	-11.2173
▁Welbeck	-11.2173
▁calories	-11.2175
▁aspect	-11.2181
▁snatch	-11.2191
▁creator	-11.2196
▁bug	-11.22
▁Nicolas	-11.2206
OLL	-11.2208
▁Class	-11.2209
▁Cameroon	-11.2211
▁railway	-11.2212
▁closure	-11.2215
▁bronze	-11.2219
▁disabilit	-11.2223
▁Film	-11.2227
▁clue	-11.2231
▁taxpayers	-11.2232
▁pornography	-11.2233
▁drill	-11.2237
▁explica	-11.2239
▁Palmer	-11.2243
io	-11.2245
▁rider	-11.2246
▁expression	-11.225
▁Palm	-11.225
▁knot	-11.2251
af	-11.2252
berry	-11.2254
▁harness	-11.2255
etta	-11.2256
▁trademark	-11.2256
▁Gay	-11.2259
▁brook	-11.226
tentive	-11.2263
hurst	-11.2263
▁terroris	-11.2264
▁x	-11.2264
▁Wy	-11.2268
▁academy	-11.227
▁McLaren	-11.227
▁160	-11.227
▁fulfill	-11.2271
▁Happy	-11.2272
▁marked	-11.2273
▁recommendation	-11.2276
▁fierce	-11.2279
▁artwork	-11.2279
▁bra	-11.2279
▁shine	-11.2283
▁pure	-11.2284
▁screening	-11.2291
▁principle	-11.2292
▁crackdown	-11.2292
▁extract	-11.2293
▁carpet	-11.2294
▁Ros	-11.2294
▁Si	-11.2294
▁astonishing	-11.2295
▁herald	-11.2302
▁din	-11.2303
▁Ver	-11.2304
mont	-11.2307
fish	-11.2307
▁Bobby	-11.231
▁resignation	-11.231
▁luggage	-11.2315
▁euros	-11.2315
▁substantiate	-11.2322
▁ditch	-11.2322
▁festive	-11.2322
▁deputies	-11.2323
▁contestant	-11.2331
▁lightning	-11.2338
▁Billy	-11.2342
SS	-11.235
▁Etihad	-11.2352
▁destruction	-11.2353
lon	-11.2353
what	-11.2354
▁guid	-11.2355
▁Julian	-11.2356
▁Vo	-11.2357
sleep	-11.2362
▁Gri	-11.2367
960	-11.2368
▁Stan	-11.2382
▁accurate	-11.2384
▁110	-11.2384
▁excellent	-11.239
▁Enrique	-11.239
▁Bro	-11.2392
▁leather	-11.2397
▁Bradford	-11.2398
▁cruelt	-11.2405
▁spider	-11.2405
▁Express	-11.2407
▁networks	-11.2409
SA	-11.2409
▁sail	-11.2409
▁delays	-11.2412
▁finishing	-11.2414
▁undern	-11.2416
where	-11.2417
▁Blake	-11.2424
▁deficit	-11.2428
▁prescription	-11.2428
▁asylum	-11.243
▁balls	-11.243
▁investigations	-11.2433
▁library	-11.2435
▁www	-11.2438
▁nett	-11.2438
▁violat	-11.2438
▁drown	-11.2439
▁Harrison	-11.2443
▁surf	-11.2443
ties	-11.2443
sis	-11.2448
▁relation	-11.2455
▁relegation	-11.2458
▁vex	-11.246
▁scientific	-11.2462
▁shoe	-11.2466
▁ply	-11.2467
▁charm	-11.247
▁addict	-11.247
▁forensic	-11.2473
▁Senator	-11.2474
▁handgun	-11.2476
▁adjust	-11.2479
rader	-11.2481
▁Hurricane	-11.2481
▁Portugues	-11.2481
▁tumour	-11.2482
if	-11.2482
ge	-11.2485
▁wreck	-11.2487
uch	-11.2488
▁Athletic	-11.2489
CC	-11.2491
▁nightmare	-11.2491
ks	-11.2491
▁feeding	-11.2493
▁startle	-11.2494
ested	-11.2494
▁conceal	-11.2504
▁Bieber	-11.2504
▁cartoon	-11.2504
▁Nancy	-11.2505
▁sponsor	-11.2505
▁disabl	-11.2507
stein	-11.2509
▁quater	-11.2519
har	-11.2521
ER	-11.2523
▁Hitler	-11.2527
inhua	-11.2529
▁feedback	-11.2535
▁limb	-11.254
▁Mas	-11.2541
▁hollo	-11.2541
▁derb	-11.2542
▁Rogers	-11.2543
AD	-11.2544
▁jewel	-11.2548
▁steel	-11.255
▁DJ	-11.2552
▁eBay	-11.2558
▁explanation	-11.2558
▁pattern	-11.2558
▁everyday	-11.2562
ison	-11.2562
▁Sex	-11.2563
▁Bor	-11.2565
▁slay	-11.2567
▁chaos	-11.2574
▁grip	-11.2576
▁cm	-11.2581
▁Nico	-11.2583
▁Angela	-11.2586
band	-11.2591
▁sink	-11.2594
▁angle	-11.2595
▁renown	-11.2596
▁frighten	-11.2601
are	-11.2603
▁Lincoln	-11.2603
▁romantic	-11.2606
▁stated	-11.2609
▁sensitive	-11.2609
▁privilege	-11.261
▁mud	-11.2611
▁intervention	-11.2612
▁Samantha	-11.2612
▁Lynn	-11.2612
▁Todd	-11.2614
tel	-11.2614
▁Katie	-11.2622
▁Nippon	-11.2627
▁Information	-11.2627
▁description	-11.2627
▁Er	-11.263
▁downtown	-11.2636
bel	-11.2636
▁Fish	-11.2636
▁Holmes	-11.2639
▁Jet	-11.2646
▁caps	-11.2647
▁equate	-11.2648
▁Hero	-11.265
▁unspoil	-11.2651
▁Brady	-11.2655
▁dive	-11.2657
▁Mason	-11.2658
▁Province	-11.2658
▁preferr	-11.2662
▁span	-11.2665
▁grandson	-11.267
▁beef	-11.267
▁Source	-11.2671
▁Pre	-11.2671
▁Fat	-11.2674
mate	-11.2675
▁dropping	-11.2679
▁stem	-11.2681
47	-11.2682
▁democrac	-11.2683
▁Richardson	-11.269
▁shew	-11.2693
▁woke	-11.2693
ology	-11.2694
▁insect	-11.2695
▁oxygen	-11.2697
▁depth	-11.2697
▁squall	-11.2699
▁camps	-11.2701
▁pinch	-11.2704
▁hurricane	-11.2705
▁ceiling	-11.2705
▁Energy	-11.2707
▁gunmen	-11.2709
▁institute	-11.271
dressed	-11.271
▁Global	-11.2714
▁Ad	-11.2715
everal	-11.2716
woman	-11.2717
standing	-11.2721
▁Bow	-11.2725
▁cops	-11.2727
▁insurgent	-11.2728
▁recognition	-11.2728
▁covering	-11.2729
▁brush	-11.2735
▁prosecut	-11.2736
▁phase	-11.2737
▁sweep	-11.2737
▁trans	-11.274
▁Perth	-11.2741
▁Claire	-11.2741
tro	-11.2743
▁Baltimore	-11.2744
▁nervous	-11.2744
▁repli	-11.2746
▁scam	-11.2747
▁spectator	-11.2752
▁admonish	-11.2752
nes	-11.2753
▁Haiti	-11.2754
ala	-11.2757
nell	-11.2757
ux	-11.276
▁banner	-11.276
wash	-11.2761
▁fitt	-11.2764
residential	-11.2764
▁tons	-11.2771
▁92	-11.2772
▁topic	-11.2773
▁frozen	-11.2773
▁Treasury	-11.2775
▁Tyler	-11.2777
▁Hope	-11.278
▁Eto	-11.2781
▁Halloween	-11.2783
▁Rugby	-11.2783
▁drag	-11.2785
ich	-11.2785
▁Lloyd	-11.279
▁Click	-11.2796
worthy	-11.2798
▁creative	-11.2799
▁supporter	-11.2801
ston	-11.2803
▁unfair	-11.2808
▁subway	-11.2808
▁stab	-11.2811
summate	-11.2813
▁inspect	-11.2815
▁counsel	-11.2819
▁grim	-11.2824
▁kitten	-11.2824
▁Chamber	-11.2825
zy	-11.2826
mond	-11.2827
▁Organization	-11.2831
▁cargo	-11.2833
▁stair	-11.2836
▁ranking	-11.2845
▁Sierra	-11.2847
▁samples	-11.2848
▁Base	-11.2849
▁conduc	-11.2852
▁FOR	-11.2852
▁beard	-11.2853
▁massacre	-11.2855
▁jar	-11.2856
▁Christ	-11.2862
▁Division	-11.2862
▁ferment	-11.2864
isation	-11.2866
▁legion	-11.2868
▁View	-11.2869
aver	-11.2869
aux	-11.287
▁Gas	-11.2873
my	-11.2874
▁Bru	-11.2874
▁Online	-11.2875
▁forebod	-11.2878
▁firearms	-11.2885
▁Ask	-11.2886
▁Sarkozy	-11.2886
▁Silver	-11.2892
▁hack	-11.2894
▁precaution	-11.2894
▁absent	-11.2894
▁combin	-11.2895
▁Hussein	-11.2895
bra	-11.2898
▁dig	-11.2901
▁core	-11.2903
▁Mus	-11.2904
▁Age	-11.2909
▁Fred	-11.291
▁performer	-11.2914
▁fool	-11.2917
una	-11.2917
▁invasion	-11.292
▁silence	-11.2922
▁gown	-11.2928
▁1950	-11.2934
▁Fo	-11.2934
▁Woznia	-11.2934
▁bulge	-11.2937
▁Hunter	-11.2939
▁newborn	-11.294
▁Disease	-11.2942
▁tire	-11.2942
▁Venezuela	-11.2943
▁firearm	-11.2945
ovic	-11.2949
NS	-11.2951
▁gathering	-11.2956
▁slap	-11.2956
▁panda	-11.2958
▁turns	-11.296
▁mob	-11.2969
▁Rev	-11.2974
▁issu	-11.2974
▁retreat	-11.2975
▁apprehend	-11.2979
lets	-11.298
▁formation	-11.298
▁Dhabi	-11.2982
▁89	-11.2982
▁coma	-11.2985
▁prognosticat	-11.2986
▁Match	-11.2986
iest	-11.2986
▁slim	-11.2999
▁Zimbabwe	-11.3
▁garner	-11.3001
▁urban	-11.3003
▁Kil	-11.3004
▁Dead	-11.3006
▁quarterfinal	-11.3014
▁restore	-11.3016
▁Foster	-11.3023
▁tent	-11.3026
CH	-11.303
▁twenty	-11.303
▁Tampa	-11.303
▁Attack	-11.3032
▁Thatcher	-11.3034
▁Kenyan	-11.3037
▁homosexual	-11.3038
ven	-11.3038
▁admitt	-11.3041
▁burger	-11.3041
▁sharks	-11.3041
▁Jar	-11.3042
▁93	-11.3042
▁bitter	-11.3043
reserved	-11.3043
▁prey	-11.3044
▁dementia	-11.3046
▁Ky	-11.3047
▁slump	-11.3047
▁Napoli	-11.3048
hu	-11.3049
▁sneak	-11.305
▁oversee	-11.3058
▁liken	-11.3061
▁Mali	-11.3062
ark	-11.3063
cited	-11.3063
uestion	-11.3064
▁mortgage	-11.3066
gather	-11.3066
▁stabbing	-11.3068
▁Congo	-11.3069
▁Lebanon	-11.307
▁Fra	-11.3072
▁forgot	-11.3074
▁Dorset	-11.3074
▁Tor	-11.3074
▁painful	-11.3076
▁Chavez	-11.3078
▁filing	-11.308
▁pupil	-11.3087
▁relieve	-11.3087
▁lur	-11.3088
▁brick	-11.3089
▁Hot	-11.3092
▁beaches	-11.3092
▁fatigue	-11.3095
▁revolution	-11.3099
▁bucket	-11.3103
▁interrupt	-11.3104
▁marathon	-11.3105
▁Ice	-11.3108
▁wax	-11.3111
▁Soviet	-11.3111
▁Blackburn	-11.3112
▁accompani	-11.3114
▁commissioner	-11.3116
▁violate	-11.3118
▁polite	-11.3119
▁Serena	-11.3122
OS	-11.3129
▁ence	-11.3129
gg	-11.3136
▁Boris	-11.3136
▁playact	-11.3136
▁uncom	-11.3141
▁visits	-11.3143
▁devastating	-11.3144
▁hamstring	-11.3144
▁Sol	-11.3145
▁happi	-11.3145
▁Ramos	-11.3145
▁bow	-11.3157
▁Ill	-11.316
▁Critics	-11.3162
▁Woman	-11.3162
▁Den	-11.3164
▁unrest	-11.3164
▁hospitalize	-11.3165
▁Tur	-11.3165
▁Tru	-11.3166
▁Pass	-11.3167
▁Leader	-11.3172
▁Webb	-11.3175
▁Lang	-11.3178
▁Mat	-11.3182
▁overly	-11.3183
▁lotter	-11.3183
▁copie	-11.3184
tability	-11.3184
▁Kat	-11.3187
ink	-11.3189
▁whistle	-11.3189
viation	-11.3191
▁evoke	-11.3192
▁tissue	-11.3193
▁ignor	-11.3196
▁towns	-11.3197
▁astronaut	-11.3199
▁trim	-11.3202
▁Ol	-11.3204
▁ineffectual	-11.3207
▁Governor	-11.3209
▁Hazard	-11.3212
▁Too	-11.3213
▁familiar	-11.3214
▁pedestrian	-11.3217
fighters	-11.3219
▁Portland	-11.3219
▁strengthen	-11.3219
▁phrase	-11.3224
▁instrument	-11.3227
▁mourn	-11.3232
rin	-11.3232
▁Honda	-11.3234
▁ignore	-11.3236
▁injection	-11.3237
▁addiction	-11.3239
bound	-11.324
▁fed	-11.3241
▁Alzheimer	-11.3242
▁Brussel	-11.3242
▁crowds	-11.3245
▁proportion	-11.3247
▁Photographer	-11.325
▁bend	-11.3251
▁Hol	-11.3251
leigh	-11.3252
▁affidavit	-11.3253
raki	-11.3254
▁Pr	-11.3262
▁renew	-11.3263
▁Pra	-11.3265
▁Jenkins	-11.3266
12	-11.3268
▁Maine	-11.3268
divid	-11.3268
▁Linda	-11.3269
IP	-11.3274
headed	-11.3276
▁educate	-11.3276
▁pin	-11.3278
▁Sel	-11.3283
▁Sunni	-11.3283
▁regulator	-11.3284
▁burden	-11.3284
▁RAF	-11.3286
▁seeming	-11.3289
negate	-11.329
▁Denmark	-11.3291
▁solo	-11.3292
▁McCain	-11.3292
▁Nicholas	-11.3295
▁owe	-11.33
ui	-11.33
▁pour	-11.3304
▁Gal	-11.3305
cock	-11.3305
ot	-11.3306
▁Factor	-11.3306
ridge	-11.3307
▁handcuff	-11.3308
▁nest	-11.3309
ery	-11.3312
unny	-11.3312
ill	-11.3316
kar	-11.3319
▁flop	-11.3321
▁tens	-11.3325
PA	-11.3326
ach	-11.3327
▁equall	-11.333
▁starts	-11.3332
▁swell	-11.3333
▁confessed	-11.3335
▁indecent	-11.3336
▁pip	-11.3338
▁decisive	-11.3339
▁Karen	-11.3341
▁Unit	-11.3342
▁revenge	-11.3351
▁Diamond	-11.3358
▁Cap	-11.3359
▁furniture	-11.3366
▁Gr	-11.3369
▁demonstrator	-11.337
▁secur	-11.3372
▁toxic	-11.3374
▁fiancee	-11.3375
▁magnitude	-11.3383
▁faster	-11.3383
▁Executive	-11.3383
aries	-11.3389
▁AS	-11.3391
▁click	-11.3393
▁progressive	-11.3393
▁tired	-11.3395
▁slide	-11.3397
▁Berry	-11.3401
▁rapper	-11.3403
▁Broad	-11.3404
▁Bart	-11.3405
▁Hannah	-11.3408
▁Ye	-11.341
▁handful	-11.3411
ei	-11.3412
▁Firefighter	-11.3416
▁Arkansas	-11.3425
▁rage	-11.3425
▁litre	-11.3427
▁prostitute	-11.3427
▁Song	-11.3428
▁aunt	-11.3429
ika	-11.343
▁juror	-11.3433
▁Liam	-11.3436
▁bat	-11.3439
▁usher	-11.3446
▁Criminal	-11.345
▁Lennon	-11.3451
▁Trade	-11.3454
▁jeans	-11.3455
▁Number	-11.3457
▁tsunami	-11.346
▁sensation	-11.3463
plete	-11.3463
▁prohibit	-11.3464
▁Model	-11.3464
▁neat	-11.3465
▁administrator	-11.3467
▁freak	-11.3467
▁enforce	-11.3471
▁supplier	-11.3472
▁autumn	-11.3475
▁Senior	-11.3475
▁Ramsey	-11.3475
▁seizure	-11.3477
▁scrutin	-11.3478
BA	-11.3482
▁cinema	-11.3484
▁Roll	-11.3485
▁adventure	-11.3485
▁currency	-11.3486
coaches	-11.3491
▁prop	-11.3491
▁surprising	-11.3495
employment	-11.3497
▁rankings	-11.3498
light	-11.35
▁Prevention	-11.35
▁Thanksgiving	-11.3501
▁surveil	-11.3501
▁Iceland	-11.3501
▁partial	-11.3502
mon	-11.3503
▁Ab	-11.3507
▁Mun	-11.3508
▁Ibrahimovic	-11.3509
▁fingers	-11.3509
▁Warner	-11.3513
▁collaps	-11.3516
▁Zo	-11.3517
AC	-11.3518
▁skill	-11.352
▁fiddle	-11.3521
▁sheet	-11.3527
▁Fisher	-11.3533
▁Pay	-11.3533
▁incessant	-11.3534
▁miracle	-11.3534
▁suffice	-11.3535
RS	-11.3536
▁hind	-11.3536
▁motorcycle	-11.3539
▁cultural	-11.3542
▁Current	-11.3543
▁Persian	-11.3543
▁hometown	-11.3544
lton	-11.3546
▁Wild	-11.3549
▁acid	-11.355
ationwide	-11.3551
▁DOWN	-11.3551
▁prosper	-11.3553
▁vow	-11.356
▁admission	-11.3562
▁defect	-11.3565
▁unacceptabl	-11.3569
▁Yard	-11.3569
▁McC	-11.3572
▁unemploy	-11.3573
▁corroborate	-11.3574
▁Challenge	-11.358
▁vowed	-11.358
▁Lou	-11.3585
▁compatriot	-11.3585
▁firework	-11.3589
▁spar	-11.3592
▁Rey	-11.3598
▁marine	-11.3599
▁rescuer	-11.3605
von	-11.3605
▁soul	-11.3606
▁sits	-11.3609
▁bout	-11.3609
CO	-11.361
▁Bin	-11.361
▁Have	-11.361
▁polar	-11.3613
▁intercept	-11.3615
▁SCR	-11.362
▁disturb	-11.362
▁ATP	-11.3621
▁Hai	-11.3623
▁numb	-11.3624
▁disappointing	-11.3624
▁Battle	-11.3626
▁bind	-11.3631
air	-11.3632
ello	-11.3632
▁Dec	-11.3635
ries	-11.3636
▁Jerry	-11.3639
▁whales	-11.3639
▁thrust	-11.364
▁hug	-11.3642
CA	-11.3645
▁perplex	-11.3645
▁diplomat	-11.3646
▁Corp	-11.365
15	-11.3651
▁Casey	-11.3652
▁edit	-11.3653
of	-11.3657
▁Mountain	-11.3662
▁Brits	-11.3663
▁shooter	-11.3669
▁coastal	-11.367
▁Patrol	-11.3672
▁ferry	-11.3674
▁controller	-11.3679
▁participat	-11.3681
uck	-11.3682
▁cycling	-11.3686
▁Northampton	-11.3688
▁Fen	-11.3692
▁Var	-11.3692
▁Hamas	-11.3693
agian	-11.3696
con	-11.3698
▁cart	-11.3698
▁concentrate	-11.3698
▁Hi	-11.3701
▁accommodation	-11.3701
▁protein	-11.3702
▁misdemeanor	-11.3705
▁anxiet	-11.3709
▁Bryan	-11.3709
▁excess	-11.3711
aya	-11.3715
▁newly	-11.3715
▁rumor	-11.3717
▁Phillip	-11.3718
ned	-11.372
▁graphic	-11.372
▁Liberal	-11.3723
▁jam	-11.3725
▁FDA	-11.3725
▁Such	-11.373
▁Management	-11.3731
ninth	-11.3733
era	-11.3741
▁Bolt	-11.3743
▁Maurici	-11.3744
▁heighten	-11.3747
chi	-11.3748
▁premise	-11.3748
▁deer	-11.3748
▁Bennett	-11.375
▁abus	-11.3752
▁litter	-11.3754
▁Sch	-11.3755
▁Worker	-11.3756
▁Liberia	-11.3758
▁Torie	-11.3759
▁smooth	-11.376
du	-11.3763
▁shit	-11.377
eh	-11.3771
▁judgment	-11.3773
ated	-11.3774
▁Hal	-11.3775
▁Paulo	-11.3778
▁Isle	-11.3783
▁puddle	-11.3783
▁Germain	-11.3783
▁calf	-11.3785
▁Brun	-11.3787
▁wet	-11.3787
▁shelve	-11.3791
▁op	-11.3793
▁deposit	-11.3799
▁magic	-11.38
989	-11.3801
▁racism	-11.3801
▁commuter	-11.3801
▁stool	-11.3802
▁Dream	-11.3804
▁adjoin	-11.3809
▁Take	-11.3809
▁Preston	-11.381
eaten	-11.3813
▁im	-11.3816
rey	-11.3817
loaded	-11.3818
▁Lyon	-11.3819
▁commute	-11.382
▁Change	-11.3821
▁Valentine	-11.3825
▁scrap	-11.3825
▁peach	-11.3831
ua	-11.3833
▁Support	-11.3839
cross	-11.3842
▁Jacob	-11.3842
▁slot	-11.3845
▁doesnt	-11.3847
▁micro	-11.3851
▁shortage	-11.3852
▁demolish	-11.3853
▁detach	-11.3854
▁beloved	-11.3855
iro	-11.3856
▁appearing	-11.3859
▁idle	-11.386
▁drought	-11.3862
▁indisputabl	-11.3863
▁Ever	-11.3863
▁appli	-11.3865
▁amateur	-11.3869
▁750	-11.387
lie	-11.3875
▁Em	-11.3877
▁Coleman	-11.3879
▁Appeal	-11.3879
▁weak	-11.3884
▁imput	-11.3884
MC	-11.3884
▁dose	-11.3885
▁Grey	-11.389
▁Gor	-11.3893
▁fertil	-11.3894
▁eager	-11.3897
▁wreckage	-11.3898
▁Prize	-11.3902
▁temporari	-11.3904
▁cancell	-11.3904
▁Village	-11.3904
▁Durham	-11.3906
nick	-11.3906
▁cure	-11.3909
▁tooth	-11.3914
▁Unfortunate	-11.3914
▁Kha	-11.3914
▁Gonzalez	-11.3915
▁superstar	-11.3915
▁rig	-11.3917
▁dread	-11.3918
▁Norfolk	-11.3923
▁Drogba	-11.3923
▁promising	-11.3923
▁elite	-11.3926
▁Guy	-11.3926
▁Through	-11.3932
▁HERE	-11.3933
bble	-11.3934
▁kidnapp	-11.3939
▁confrontation	-11.3941
▁Joshua	-11.3941
exploded	-11.3953
▁Journalist	-11.3953
▁Ber	-11.3954
▁companion	-11.3954
▁chill	-11.3958
▁Raheem	-11.3958
▁trap	-11.3959
▁Ay	-11.3961
▁flick	-11.3964
▁instant	-11.3965
▁Sometime	-11.3967
▁laughing	-11.3968
ft	-11.397
▁Cesc	-11.3977
▁amend	-11.3978
▁Mass	-11.398
▁dependabl	-11.398
▁decrease	-11.3982
▁Harvey	-11.3985
▁min	-11.3987
▁nude	-11.399
hen	-11.399
ock	-11.3992
▁dreams	-11.3993
▁Ran	-11.3994
▁trousers	-11.3998
▁nowhere	-11.4003
▁Jeffrey	-11.4003
▁Herrera	-11.4003
▁friendship	-11.4011
▁Eden	-11.4011
▁taxpayer	-11.4012
▁prank	-11.402
rum	-11.4023
▁upgrade	-11.4024
▁heal	-11.4025
▁manufactur	-11.4026
arrow	-11.4026
▁tribunal	-11.4029
▁Colin	-11.4033
cho	-11.4037
▁Mumbai	-11.4038
▁Rihanna	-11.4038
▁Thames	-11.4039
▁Cairo	-11.4039
AN	-11.4044
▁sailor	-11.4044
▁removal	-11.4045
▁Shane	-11.4047
▁Ivan	-11.4047
▁carrie	-11.4049
RT	-11.4053
▁interviews	-11.4053
▁Win	-11.4055
▁brace	-11.4055
▁valuable	-11.4055
▁prince	-11.4056
▁premier	-11.4056
bi	-11.4056
▁Financial	-11.4056
▁legac	-11.406
▁Dog	-11.4061
▁BMW	-11.4065
▁Patriot	-11.4065
▁Harper	-11.4069
▁readers	-11.407
▁prosecute	-11.4071
▁Somali	-11.4071
per	-11.4073
▁Tre	-11.4074
ledge	-11.4077
▁gambl	-11.4082
▁Amerind	-11.4083
▁mysterious	-11.4085
ada	-11.4092
▁Romania	-11.4096
▁thankful	-11.4101
▁protrude	-11.4106
▁volume	-11.4113
ego	-11.4119
▁Toyota	-11.4119
▁reduction	-11.412
ummy	-11.4123
▁sovereign	-11.4126
▁Sevilla	-11.4128
▁Julia	-11.4129
▁Santos	-11.4131
▁hinder	-11.4131
▁alike	-11.4134
▁Pearson	-11.4137
tting	-11.4145
▁Abdullah	-11.4147
▁untri	-11.4148
▁org	-11.4148
▁nonplus	-11.4155
▁Hudson	-11.4155
▁tale	-11.416
aki	-11.4163
▁Dakota	-11.4164
▁urinate	-11.4164
▁sic	-11.4167
▁posture	-11.4169
▁piss	-11.4171
▁Tehran	-11.4173
▁wield	-11.4174
monish	-11.4176
▁junior	-11.4182
▁sheep	-11.4183
▁Serbia	-11.4185
seeing	-11.4186
▁isolat	-11.4187
▁Moss	-11.4192
▁Search	-11.4196
▁Salt	-11.4198
diagnosis	-11.4198
▁sufficient	-11.42
▁psychological	-11.42
▁councillor	-11.4201
▁northwest	-11.4205
▁Bee	-11.4205
▁Sao	-11.4206
▁redact	-11.4206
▁Half	-11.4209
▁academic	-11.4209
▁accent	-11.4209
▁Hard	-11.4209
ON	-11.421
leap	-11.4211
66	-11.4214
▁nursing	-11.4218
▁Floyd	-11.4218
▁Staffordshire	-11.4218
▁Istanbul	-11.4219
DI	-11.4223
▁Seoul	-11.4228
▁denote	-11.4229
ato	-11.4233
ters	-11.4234
▁chamber	-11.4234
▁tonne	-11.4236
▁Opinion	-11.4236
▁organise	-11.4238
▁Pep	-11.4241
▁courts	-11.4243
▁lobby	-11.4244
▁Rebecca	-11.4246
▁perpetual	-11.4246
ata	-11.4251
▁GB	-11.4252
▁omit	-11.4253
▁parliamentar	-11.4255
▁palace	-11.4255
▁complication	-11.4258
▁navy	-11.4261
▁ordinar	-11.4261
EL	-11.4263
▁bargain	-11.4264
▁ghost	-11.4264
▁airplane	-11.4265
▁upright	-11.4265
▁Jun	-11.4265
▁flower	-11.4266
▁III	-11.4269
▁ladder	-11.4269
▁Target	-11.4271
ail	-11.4273
▁Bla	-11.4274
▁Series	-11.4274
▁Rich	-11.4277
eau	-11.4277
onic	-11.4286
▁Chairman	-11.4292
▁questioning	-11.4294
▁shipp	-11.43
▁Schumacher	-11.43
▁Corps	-11.4304
▁lad	-11.4306
▁steady	-11.4313
▁wedge	-11.4313
institutionalize	-11.4314
oni	-11.4316
LE	-11.4317
▁Pop	-11.4317
▁McCarthy	-11.4319
▁Poyet	-11.4319
▁damaging	-11.4319
▁civic	-11.4319
▁Until	-11.432
▁arise	-11.4323
▁Koeman	-11.4328
cker	-11.433
hap	-11.433
▁cabinet	-11.433
▁coup	-11.4332
▁frustrat	-11.4332
▁clinical	-11.4332
▁Driver	-11.4334
▁Portsmouth	-11.4337
▁sighting	-11.4338
▁sprint	-11.4339
▁Assistant	-11.434
▁Heather	-11.4341
▁Francois	-11.4344
ken	-11.4345
▁Ge	-11.4347
▁Liz	-11.4348
▁Snow	-11.4348
▁Robertson	-11.435
▁feat	-11.4352
▁stance	-11.4352
▁wager	-11.4352
▁tone	-11.4353
▁MH	-11.4354
▁asterisk	-11.4355
▁barrel	-11.4356
▁turtle	-11.4357
▁stupid	-11.4361
ucci	-11.4361
▁Kings	-11.4364
va	-11.4366
▁gene	-11.4367
▁incorrect	-11.437
▁gig	-11.4372
▁Kardashian	-11.4374
▁Louise	-11.4376
▁125	-11.4377
▁popp	-11.4386
bed	-11.4389
▁speaker	-11.4392
▁Melissa	-11.4392
▁incite	-11.4402
▁pursuit	-11.4402
▁casual	-11.4404
sville	-11.4407
▁slash	-11.4407
▁Pictures	-11.4409
▁Ok	-11.4409
▁00	-11.4409
▁Gates	-11.441
▁Bloomberg	-11.4411
▁Jorge	-11.4412
▁bicycle	-11.4414
lam	-11.4416
▁Cam	-11.4417
▁Brook	-11.4417
▁Sheikh	-11.4419
bank	-11.4421
ulate	-11.4423
racious	-11.4425
▁Sad	-11.4427
90	-11.4428
▁Lancaster	-11.443
▁Carol	-11.4431
▁Ren	-11.4437
▁Neighbour	-11.4439
▁Cost	-11.444
DF	-11.4447
▁recession	-11.4448
▁passage	-11.4454
▁Connor	-11.4455
▁unprecedented	-11.4457
▁wheels	-11.4457
▁Audi	-11.4458
raging	-11.4461
▁infrastructure	-11.4467
▁scientist	-11.4467
▁distinctive	-11.4467
▁Dutchman	-11.4467
▁laser	-11.4471
ning	-11.4472
▁DC	-11.4473
▁cancel	-11.4475
som	-11.4475
▁None	-11.4482
▁uk	-11.4482
▁resemble	-11.4484
▁Kh	-11.4485
▁mor	-11.4485
▁Travel	-11.4486
waves	-11.4486
▁Homeland	-11.4489
▁wishe	-11.4494
▁evince	-11.4494
illo	-11.4495
▁relevant	-11.4496
▁stall	-11.4497
▁gentle	-11.4501
aq	-11.4501
▁heel	-11.4502
▁rust	-11.4505
▁intemperate	-11.4506
▁blank	-11.4512
▁Scholes	-11.4514
▁minuscul	-11.4514
ipped	-11.4519
ual	-11.4524
ins	-11.4524
▁basement	-11.4525
HD	-11.4525
▁attendance	-11.4525
▁cl	-11.4529
▁96	-11.4532
ache	-11.4536
hearted	-11.4537
▁stupefy	-11.4538
▁Sho	-11.454
▁Custom	-11.4544
top	-11.4546
▁acted	-11.455
▁grenade	-11.4552
▁assail	-11.4554
TC	-11.4555
▁propos	-11.4558
▁sway	-11.4558
▁sensational	-11.456
▁Farage	-11.4562
▁unharm	-11.4566
und	-11.4567
▁staggering	-11.4567
▁shin	-11.4568
▁foods	-11.4571
▁Ror	-11.4571
▁nock	-11.4573
▁Dani	-11.4581
▁Luiz	-11.4581
hard	-11.4582
▁cock	-11.4582
▁Zh	-11.4586
▁Survey	-11.4588
▁Stanley	-11.459
▁nephew	-11.4598
▁premiere	-11.4598
▁reckless	-11.4599
▁depress	-11.4604
▁shatter	-11.4611
▁loyal	-11.4612
▁indicat	-11.4615
▁Mur	-11.4616
▁cocktail	-11.4617
▁capabilit	-11.4618
▁scorer	-11.4621
ave	-11.4621
▁lick	-11.4622
▁script	-11.4624
▁Reports	-11.4626
▁phenomenon	-11.4626
▁booking	-11.4629
▁consult	-11.4631
▁wipe	-11.4631
▁evident	-11.4635
▁enclosure	-11.4635
▁Schalke	-11.4636
▁fri	-11.4637
▁sounds	-11.4639
▁ammunition	-11.4639
▁crap	-11.464
▁rubber	-11.4641
▁Reds	-11.4641
lade	-11.4644
▁disregard	-11.4645
▁Stephanie	-11.4646
▁Moon	-11.4647
MS	-11.4651
▁vary	-11.4654
turate	-11.4655
▁Brooks	-11.4656
▁rabbit	-11.466
feld	-11.4663
▁Walsh	-11.4669
▁Lance	-11.4671
▁pistol	-11.4673
37	-11.4675
▁450	-11.4678
▁Capt	-11.468
▁vest	-11.4681
▁rip	-11.4683
▁chip	-11.4684
▁qualification	-11.4688
▁verbal	-11.4689
▁Hugh	-11.469
▁combine	-11.4696
▁treasure	-11.4697
▁freed	-11.4698
▁Madison	-11.4699
▁Middlesbrough	-11.4702
▁rib	-11.4705
▁maneuver	-11.4712
▁BT	-11.4717
iel	-11.4717
zer	-11.4717
▁schoolgirl	-11.4718
▁Haram	-11.472
▁Suffolk	-11.4721
▁inhabit	-11.4721
yne	-11.4723
▁Montana	-11.4724
▁persuade	-11.4724
▁Scot	-11.4725
▁dumbfound	-11.4731
▁Gibson	-11.4731
▁ascrib	-11.4732
▁appreciate	-11.4736
▁quest	-11.474
▁Ajax	-11.474
▁Fletcher	-11.474
institutionalise	-11.4744
▁superb	-11.4745
▁Guinness	-11.4747
ime	-11.4747
▁Kurdish	-11.475
▁1988	-11.4752
▁birdie	-11.4755
▁deplorabl	-11.4756
eb	-11.4757
▁dip	-11.476
▁mountains	-11.476
▁Dad	-11.4765
▁encouraging	-11.4769
BE	-11.477
mi	-11.4771
▁Button	-11.4771
▁Chad	-11.4772
▁brawl	-11.4773
▁ballot	-11.4776
sson	-11.4778
▁radar	-11.4779
▁Les	-11.4781
▁root	-11.4782
▁kni	-11.4783
▁letting	-11.4786
▁swimmer	-11.4787
▁Lucy	-11.4788
▁Tragic	-11.4788
▁Harvard	-11.4788
▁trunk	-11.4789
▁Pol	-11.4789
▁Command	-11.479
▁distribution	-11.4793
▁Bournemouth	-11.4798
▁Gran	-11.4798
brook	-11.4807
▁exclude	-11.4807
▁Bangkok	-11.4807
▁perspective	-11.4809
▁Sharon	-11.4812
▁Made	-11.4814
▁Kra	-11.4815
▁Veteran	-11.4817
▁Moslem	-11.4817
▁surrender	-11.482
▁evacuate	-11.4821
▁Bever	-11.4822
▁Boko	-11.4824
▁Sophie	-11.4827
▁flesh	-11.4827
▁collector	-11.4831
▁stumble	-11.4832
▁Girls	-11.4833
▁recipe	-11.4836
▁represented	-11.4836
▁aviation	-11.484
▁corporation	-11.4846
▁Nepal	-11.4851
▁Twenty	-11.4852
65	-11.4853
▁bless	-11.4854
▁inject	-11.4855
▁Walmart	-11.4856
▁Cricket	-11.4856
▁Claim	-11.4857
▁musician	-11.4859
▁evacuation	-11.4859
▁ownership	-11.4859
▁BP	-11.4861
▁habits	-11.4866
▁Band	-11.4868
▁organizer	-11.487
▁Study	-11.487
▁tow	-11.4871
AP	-11.4871
▁consideration	-11.4872
▁CLICK	-11.4875
▁cord	-11.4878
▁erect	-11.4881
TE	-11.4882
▁hacking	-11.4888
rich	-11.489
▁improv	-11.4893
▁McG	-11.4894
▁tribal	-11.4895
▁qualifi	-11.4901
▁traveler	-11.4904
▁Mirror	-11.4904
▁disappointment	-11.4907
▁Come	-11.4911
▁Rat	-11.4914
▁Bryant	-11.4915
▁Giant	-11.4917
▁defeated	-11.4918
▁agenda	-11.4921
▁institutions	-11.4921
▁Mors	-11.4924
▁concentration	-11.4925
▁jumper	-11.493
oon	-11.4932
▁Pistorius	-11.4933
▁Lisbon	-11.4933
▁generous	-11.4937
ax	-11.4941
▁Development	-11.4943
▁portray	-11.4948
▁Kath	-11.495
▁ridiculous	-11.4953
▁Wallace	-11.4953
DA	-11.4954
▁forms	-11.4958
▁preterm	-11.4958
▁ears	-11.4959
▁Liberty	-11.496
ura	-11.4961
▁Nobel	-11.4966
▁Dal	-11.4969
satisfied	-11.4975
▁iReport	-11.4977
▁southwest	-11.4978
▁fitting	-11.4979
lic	-11.498
▁dramatical	-11.4981
▁forbid	-11.4981
▁hunger	-11.4981
▁enhance	-11.4984
front	-11.4985
▁musical	-11.4985
▁Manning	-11.4987
▁Pap	-11.4987
▁Prior	-11.4989
▁Joel	-11.499
mp	-11.4991
▁Berlusconi	-11.4992
▁electrical	-11.4995
▁Shin	-11.4997
▁mic	-11.4998
▁fi	-11.5
▁repay	-11.5
▁pad	-11.5004
▁lens	-11.5004
▁Latin	-11.5008
▁Barnes	-11.5008
▁Od	-11.501
▁stopping	-11.5011
▁Did	-11.5012
▁Ph	-11.5022
ripped	-11.5022
▁poison	-11.5024
▁Ellis	-11.5025
formed	-11.5026
▁adoption	-11.5029
teenth	-11.5029
raped	-11.503
▁ray	-11.5033
▁Thanks	-11.5036
▁overwhelm	-11.5037
▁Danish	-11.5038
ela	-11.5041
▁crusade	-11.5041
▁comic	-11.5044
▁Airbu	-11.5044
▁Rou	-11.5045
▁colli	-11.5051
▁trifle	-11.5051
▁Dublin	-11.5052
▁slice	-11.5052
▁Kee	-11.5058
45	-11.506
▁flummox	-11.5061
▁Dozen	-11.5061
▁evacuat	-11.5065
▁Chen	-11.507
▁math	-11.5071
▁Lil	-11.5072
▁courtroom	-11.5078
▁motorbike	-11.5081
▁fairly	-11.5081
▁Yaya	-11.5082
▁Tat	-11.5083
▁jets	-11.5084
▁Iron	-11.5086
▁Mack	-11.509
▁Pippa	-11.5091
▁administrative	-11.5096
▁Mick	-11.5097
ians	-11.5097
nut	-11.5097
▁Merseyside	-11.51
voted	-11.5107
▁strick	-11.5108
▁Hale	-11.511
▁Ivanovic	-11.5111
▁Eye	-11.5119
▁compliment	-11.5119
▁Consumer	-11.5121
▁Jur	-11.5122
▁Militar	-11.5124
▁wings	-11.5127
▁ladies	-11.5129
▁architect	-11.513
▁premium	-11.513
neous	-11.5131
▁Speaker	-11.5132
▁monumental	-11.5134
▁Doug	-11.5138
▁curve	-11.5139
▁Tomas	-11.514
▁designers	-11.5142
bu	-11.5146
▁enemy	-11.5148
▁policeman	-11.5148
▁Cruise	-11.5148
quet	-11.5151
▁bo	-11.5152
lay	-11.5153
▁column	-11.5159
▁Jews	-11.516
▁embark	-11.516
▁tenacious	-11.5161
▁earmark	-11.5161
gue	-11.5161
kov	-11.5165
▁spur	-11.5165
▁clutch	-11.5165
▁butter	-11.5166
▁passionate	-11.5168
▁romance	-11.5171
▁Jake	-11.5175
▁wrap	-11.5176
▁eruption	-11.5176
▁drift	-11.5176
▁Ecuador	-11.5179
▁Myanmar	-11.518
▁Horse	-11.5182
▁Horn	-11.5182
▁clouds	-11.5183
▁knockout	-11.5187
▁Finn	-11.5189
▁Body	-11.519
married	-11.5193
▁polls	-11.5195
▁shak	-11.5196
▁commentary	-11.5197
▁Pas	-11.5198
▁peril	-11.5198
▁Bat	-11.5199
▁Mini	-11.5203
▁Lawson	-11.5204
▁tide	-11.5207
ME	-11.5209
▁Standards	-11.5211
▁Couple	-11.5211
▁Yemeni	-11.5212
▁genetic	-11.5212
▁everywhere	-11.5213
▁Holder	-11.5216
▁achiev	-11.5216
67	-11.5217
▁aren	-11.5217
▁guitar	-11.5219
dally	-11.5219
▁freez	-11.5219
▁Jerusalem	-11.522
▁unanimous	-11.522
▁maturat	-11.5224
▁commemorate	-11.5229
▁insert	-11.5231
▁refus	-11.5232
▁flip	-11.5233
▁entrepreneur	-11.5235
▁grid	-11.5238
▁transcript	-11.524
▁Giggs	-11.5247
▁Got	-11.5257
▁Hay	-11.526
▁seller	-11.526
▁Vick	-11.5261
▁Arthur	-11.5261
▁communicate	-11.5269
▁Porto	-11.527
rate	-11.5273
▁1987	-11.5273
ets	-11.5275
▁Kara	-11.5276
rified	-11.5278
▁Des	-11.5278
▁furnish	-11.5281
▁Sergeant	-11.5281
▁purple	-11.5282
▁requir	-11.5282
▁Beth	-11.5283
▁Everything	-11.5283
lmost	-11.5287
▁backpack	-11.5288
▁certificate	-11.5291
▁gro	-11.5291
▁golfer	-11.5298
55	-11.5299
▁vaccine	-11.5299
▁casino	-11.5301
eira	-11.5306
cat	-11.5306
▁outdoors	-11.5308
▁Sn	-11.5309
uri	-11.531
▁Standard	-11.531
▁bragg	-11.5311
▁hashtag	-11.5311
▁touching	-11.5312
▁Jobs	-11.5314
▁Stevens	-11.5314
▁invoke	-11.5315
▁tug	-11.5319
▁Marathon	-11.5321
▁potato	-11.5321
▁Franklin	-11.5322
▁Cher	-11.5324
kins	-11.5325
tis	-11.5326
▁scenario	-11.5332
▁poisoning	-11.5338
▁Reading	-11.5338
▁360	-11.5341
▁decid	-11.5342
▁timing	-11.5344
▁fond	-11.5346
▁breaks	-11.5347
▁contender	-11.5351
▁coif	-11.5351
▁bikini	-11.5352
▁glamour	-11.5352
▁barrack	-11.5354
▁riders	-11.5354
▁heavyweight	-11.5355
▁disrupt	-11.5358
ef	-11.5358
▁carriage	-11.5361
bal	-11.5361
▁infamous	-11.5362
▁quarterback	-11.5364
▁advisor	-11.5367
▁propel	-11.5367
▁beneficial	-11.5372
▁Marshall	-11.5373
▁Gross	-11.5375
▁medic	-11.5375
▁distribute	-11.5375
▁Vol	-11.5378
▁mon	-11.538
▁Lallana	-11.5382
▁Merkel	-11.5382
▁Scots	-11.5382
▁chemotherap	-11.5383
▁disciplinar	-11.5388
▁stiff	-11.539
▁Hammers	-11.539
▁airstrike	-11.5392
▁dominat	-11.5392
▁Pin	-11.5393
▁Talk	-11.5397
▁hill	-11.5402
▁heritage	-11.5402
▁Kabul	-11.5403
▁proficient	-11.5403
▁Jam	-11.5404
ona	-11.5406
▁Yan	-11.5407
▁cleaner	-11.5408
History	-11.5409
▁prostituti	-11.541
▁mainten	-11.5412
▁suitcase	-11.5414
odor	-11.5414
▁console	-11.5416
▁habit	-11.5416
▁diplomatic	-11.5418
▁Wang	-11.5418
▁Marines	-11.5422
▁Adelaide	-11.5423
AS	-11.5424
▁Remy	-11.5428
▁northeast	-11.543
iness	-11.543
▁Newton	-11.5431
▁theatre	-11.5433
▁hale	-11.5434
▁mega	-11.5439
ST	-11.5439
cam	-11.544
▁Son	-11.5441
▁Rad	-11.5442
▁queue	-11.5446
▁boarding	-11.5447
▁hike	-11.5447
penny	-11.5452
▁Amsterdam	-11.5454
▁boil	-11.5454
▁altercation	-11.5456
▁j	-11.5462
▁suburban	-11.5463
▁Radamel	-11.5464
▁pal	-11.5465
hart	-11.5469
▁grocer	-11.547
▁cultivate	-11.5471
▁Wo	-11.5471
▁rehabilitation	-11.5474
▁immun	-11.5476
▁overtake	-11.5478
▁91	-11.5478
▁Dark	-11.5479
say	-11.5481
aga	-11.5481
▁roadside	-11.5481
▁purse	-11.5485
▁Stra	-11.5487
▁checkpoint	-11.5487
▁skipper	-11.5488
▁ramp	-11.5489
▁Fast	-11.549
▁successive	-11.5493
▁supervisor	-11.5496
▁hood	-11.5498
▁majestic	-11.5505
▁traumatic	-11.5506
▁minimal	-11.5507
iff	-11.5507
▁contribution	-11.5508
▁Dame	-11.552
▁Page	-11.5524
ack	-11.5525
▁eliminate	-11.5525
wing	-11.5525
▁Samaritan	-11.5525
▁App	-11.5526
▁constant	-11.5532
▁audio	-11.5533
▁Peterson	-11.5536
▁speeds	-11.5536
▁Shabaa	-11.5537
terim	-11.5537
▁Never	-11.5539
▁NY	-11.554
▁Along	-11.554
▁08	-11.554
▁Wars	-11.554
▁Say	-11.5542
▁Line	-11.5542
pl	-11.5545
▁terrified	-11.5548
▁Design	-11.5554
▁blade	-11.5554
▁crawl	-11.5555
▁centuri	-11.5555
▁classified	-11.5558
▁Blatter	-11.5558
▁haunt	-11.5558
▁Card	-11.5561
▁Storm	-11.5564
▁powder	-11.5564
▁realis	-11.5564
▁Easter	-11.5566
▁reassert	-11.5567
▁feather	-11.5569
▁Mall	-11.5574
▁Logan	-11.5576
▁monolithic	-11.5578
▁Benedict	-11.5578
▁nominee	-11.5578
▁improper	-11.5579
▁juice	-11.5579
992	-11.5579
▁gloves	-11.558
▁Muller	-11.5584
ph	-11.5584
▁organize	-11.5586
▁leopard	-11.5588
▁showcase	-11.5588
▁experienc	-11.5591
▁confused	-11.5591
▁crystal	-11.56
▁Nou	-11.5603
▁Oak	-11.5606
▁administer	-11.5609
▁aisle	-11.5609
▁Trent	-11.5611
▁Mol	-11.5612
sman	-11.5613
spiel	-11.5614
▁Chan	-11.5616
▁invent	-11.5618
▁onlooker	-11.5619
IN	-11.5619
▁pipeline	-11.5621
izing	-11.5622
▁Cold	-11.5622
▁Store	-11.5623
▁Later	-11.5627
▁Michel	-11.5629
ray	-11.5633
▁Chase	-11.5633
▁Globe	-11.5634
▁runners	-11.5637
▁patch	-11.5639
arms	-11.564
▁Capitol	-11.5641
▁Coroner	-11.5641
▁Fernandez	-11.5641
▁94	-11.5648
▁Market	-11.5649
▁goodbye	-11.5651
▁unaware	-11.5651
▁Eddie	-11.5653
▁Crew	-11.5653
▁Train	-11.5654
▁simpl	-11.5663
ista	-11.5663
▁Cla	-11.5664
▁Palin	-11.5665
▁situations	-11.5665
▁Shaun	-11.5668
▁glory	-11.567
▁Wool	-11.5671
▁mistrust	-11.5672
▁defecate	-11.5673
▁universit	-11.5674
▁Rossi	-11.5677
▁Gea	-11.5677
▁horribl	-11.5679
itz	-11.568
▁relinquish	-11.5682
▁invariabl	-11.5683
▁Indonesian	-11.5686
foot	-11.5686
▁Cox	-11.5686
▁driveway	-11.569
▁pepper	-11.5691
▁beside	-11.5692
▁granddaughter	-11.5693
▁monster	-11.5694
qui	-11.5698
ire	-11.5699
▁flare	-11.5699
lyn	-11.5699
▁motorway	-11.5705
▁forgive	-11.5706
▁101	-11.5708
▁comprise	-11.5709
nna	-11.5713
▁Monk	-11.5714
▁Coalition	-11.5714
▁medium	-11.5714
▁arouse	-11.5714
ai	-11.572
▁spat	-11.5725
▁Dawson	-11.5725
▁countryside	-11.5729
▁Maybe	-11.5731
▁cautious	-11.5735
LL	-11.5736
sworth	-11.5737
▁Elementar	-11.574
▁unco	-11.574
▁parachute	-11.5741
▁Buck	-11.5745
▁harsh	-11.5746
▁Magn	-11.5746
▁Christine	-11.5747
rell	-11.5751
▁Mart	-11.5756
▁Tsarnaev	-11.5756
▁magnanimous	-11.5756
▁Swift	-11.5756
▁harbour	-11.5756
▁remand	-11.5757
▁temple	-11.5758
▁Omar	-11.5761
▁Actor	-11.5763
▁Mis	-11.5765
▁Maj	-11.5765
▁tobacco	-11.5767
▁corporate	-11.5767
▁trucks	-11.5768
▁Nik	-11.5768
▁Creek	-11.5768
▁provision	-11.5769
▁workplace	-11.5769
▁Help	-11.577
▁pup	-11.5771
▁replica	-11.5774
▁Gabriel	-11.5776
▁98	-11.5777
▁divert	-11.5777
▁scramble	-11.5779
▁Char	-11.5779
▁Within	-11.5783
▁sympath	-11.5784
▁Zi	-11.5786
▁Wells	-11.5788
▁uncommon	-11.5788
▁Place	-11.5789
▁mystify	-11.5789
▁Money	-11.5791
▁999	-11.5793
▁balcony	-11.5793
ide	-11.5793
▁smiling	-11.5794
sha	-11.5794
▁bury	-11.5795
▁Pur	-11.5796
cz	-11.5796
▁terrific	-11.5798
▁manoeuvre	-11.5799
▁fulfil	-11.5804
car	-11.5805
▁detainee	-11.5806
▁stir	-11.5808
▁Mag	-11.5809
68	-11.581
▁coiffe	-11.581
▁steep	-11.581
▁sadden	-11.5812
▁washing	-11.5818
▁Transcript	-11.582
boy	-11.5822
▁Which	-11.5824
▁membership	-11.5825
▁occasional	-11.5825
TI	-11.5825
▁lions	-11.5831
bert	-11.5832
▁Gerard	-11.5836
▁thug	-11.5837
▁Hand	-11.5838
ied	-11.5839
▁serial	-11.5842
▁Champion	-11.5844
▁Boo	-11.5845
▁cerebra	-11.5845
▁Catalan	-11.5845
▁Leone	-11.5846
▁Nike	-11.5846
▁courage	-11.5847
PL	-11.5848
▁loves	-11.5849
lies	-11.585
▁Podolski	-11.5852
▁Vogue	-11.5853
▁Parkinson	-11.5853
▁Shu	-11.5853
ula	-11.5853
▁Side	-11.5854
OR	-11.5854
mail	-11.5856
▁authentic	-11.5859
▁pastor	-11.5861
▁militia	-11.5862
▁MI	-11.5863
▁Owner	-11.5864
▁ultra	-11.5866
▁Heat	-11.5869
▁bunk	-11.587
▁hub	-11.5873
▁Tommy	-11.5876
▁servant	-11.5883
▁Born	-11.5884
▁patterns	-11.5884
▁Arctic	-11.5884
▁Grim	-11.5884
▁Bear	-11.5885
IL	-11.5885
▁Richards	-11.5886
21	-11.5889
arn	-11.5891
▁Berg	-11.5895
▁Alberto	-11.5895
▁Walter	-11.5895
▁submitt	-11.5895
▁Albion	-11.5895
▁whereabout	-11.5896
elli	-11.59
▁Technology	-11.5901
▁Motor	-11.5905
▁tempt	-11.5905
▁Meh	-11.5906
unch	-11.5906
▁nab	-11.5907
▁Famili	-11.5909
▁Theresa	-11.5911
zhou	-11.5912
▁athletic	-11.5912
▁arts	-11.5913
▁User	-11.5913
▁suite	-11.5915
▁humanitarian	-11.5916
▁grandparent	-11.5917
▁admir	-11.5917
oli	-11.5918
▁soap	-11.5918
▁shotgun	-11.5919
bone	-11.592
▁heroic	-11.5921
▁gloss	-11.5927
▁complicat	-11.5928
▁organis	-11.5929
NC	-11.5929
▁Sochi	-11.5929
▁instructor	-11.5932
uff	-11.5934
▁Ei	-11.5934
▁Customer	-11.5935
▁Cra	-11.5936
▁Glass	-11.5936
▁sued	-11.5937
▁Raymond	-11.5938
▁absorb	-11.5944
▁Mai	-11.5945
▁neighboring	-11.5948
▁Nat	-11.5948
▁Chamberlain	-11.5949
▁Janeiro	-11.5949
▁Dick	-11.595
rank	-11.5952
▁Hat	-11.5954
▁void	-11.5955
▁Youth	-11.5959
▁lip	-11.596
▁Didier	-11.596
▁NSA	-11.5961
▁Arnold	-11.5961
▁Scout	-11.5965
▁Zara	-11.5966
▁Tyne	-11.5967
▁Norwegian	-11.597
▁jaunt	-11.5973
▁Bangladesh	-11.5974
▁dealer	-11.5977
▁Falcon	-11.5978
▁Metro	-11.598
▁collide	-11.5983
▁mo	-11.5987
▁Marcos	-11.599
▁Asda	-11.599
▁Ambulance	-11.5992
TON	-11.5994
ep	-11.5995
▁examiner	-11.5998
▁Anton	-11.5998
▁executed	-11.6001
▁plough	-11.6001
▁Kill	-11.6003
▁profound	-11.6003
▁Hamburg	-11.6004
▁Room	-11.6005
ked	-11.6005
▁Lukas	-11.6006
▁constitution	-11.6006
▁accessor	-11.6007
▁loft	-11.6009
▁reasonable	-11.6009
▁censor	-11.6009
▁Burn	-11.601
▁hearts	-11.601
▁champagne	-11.6013
▁Sab	-11.6014
▁Previous	-11.6014
▁Cahill	-11.6014
▁barricade	-11.6016
ida	-11.6016
▁practise	-11.6017
▁Coach	-11.6019
▁appealing	-11.6019
▁beast	-11.6019
▁sue	-11.602
Hopefully	-11.6021
▁inner	-11.6023
▁Yahoo	-11.6024
▁epidemic	-11.6024
nam	-11.6026
▁savage	-11.6027
▁Sharp	-11.6027
▁fabric	-11.6028
▁IT	-11.6029
▁condolences	-11.6031
ND	-11.6031
▁stint	-11.6032
ciate	-11.6034
▁Everybody	-11.6035
▁elbow	-11.6035
▁pleasure	-11.6035
▁enroll	-11.6036
rina	-11.6036
▁Bahrain	-11.6036
▁bloody	-11.6042
▁Springs	-11.6043
▁vitamin	-11.6043
▁presidenc	-11.6044
▁Pictured	-11.6045
07	-11.6046
▁Fiorentina	-11.6046
▁mono	-11.6047
▁salute	-11.6048
▁Blind	-11.6048
▁screens	-11.6049
zing	-11.6052
▁Wor	-11.6053
hr	-11.6054
▁Kai	-11.6054
▁syndrome	-11.6057
▁Junior	-11.6057
▁Pablo	-11.6057
▁wrongdoing	-11.6059
▁hormone	-11.6062
▁bubble	-11.6064
▁Area	-11.6066
▁modell	-11.6068
▁uncomfortable	-11.6068
▁Corporation	-11.6068
▁log	-11.6069
▁holidaymaker	-11.6069
▁fend	-11.607
nunciate	-11.607
▁198	-11.6071
▁robb	-11.6075
▁glow	-11.6076
▁Run	-11.6077
uprise	-11.6077
▁flush	-11.6078
ica	-11.6087
▁Pietersen	-11.609
▁sore	-11.6095
▁coiffure	-11.6101
▁eject	-11.6101
▁delineate	-11.6102
▁Rojo	-11.6102
▁Netflix	-11.6112
▁circular	-11.6112
▁slogan	-11.6113
▁jokes	-11.6114
▁Kru	-11.6115
▁chips	-11.6115
▁inauspicious	-11.6123
▁Beyonce	-11.6124
▁classmate	-11.6124
▁tenth	-11.6127
▁incline	-11.6127
▁ward	-11.6131
ob	-11.6132
▁harbinger	-11.6134
▁Nigerian	-11.6135
▁worsen	-11.6135
vi	-11.6137
▁dawn	-11.6141
▁unhapp	-11.6144
▁fortunate	-11.6145
▁Forbe	-11.6147
▁Gat	-11.6159
▁mechanical	-11.6161
fold	-11.6163
▁Dale	-11.6164
▁Classic	-11.6168
▁terrifying	-11.6169
ular	-11.617
▁Gibb	-11.6172
atory	-11.6172
lough	-11.6177
▁Pyongyang	-11.6178
▁predecessor	-11.6178
▁burial	-11.6178
▁visual	-11.6179
▁sweat	-11.6181
▁Sar	-11.6182
▁enthusiast	-11.6185
▁Kor	-11.6185
▁Megan	-11.6186
▁measured	-11.6188
▁vomit	-11.6189
▁embarrassing	-11.6191
▁dishe	-11.6191
▁Gill	-11.6193
▁Tai	-11.6194
▁breeding	-11.6196
▁handbag	-11.6197
uz	-11.6198
icient	-11.62
▁Lohan	-11.6201
▁embarrass	-11.6201
fied	-11.6203
▁BA	-11.621
▁Plymouth	-11.6211
▁Miranda	-11.6211
▁streak	-11.6212
▁unpaid	-11.6213
▁lyric	-11.6213
▁Arabian	-11.6215
▁Laurent	-11.6215
ut	-11.6216
▁Dol	-11.6219
▁citizenship	-11.6223
▁Kid	-11.6224
▁humiliat	-11.6225
▁Copa	-11.6225
▁prompting	-11.6226
gil	-11.6227
▁leftover	-11.6228
▁fields	-11.6228
▁Robben	-11.6234
▁habitat	-11.6235
▁obscure	-11.624
▁flags	-11.624
▁stray	-11.6241
▁Bernabe	-11.6243
▁Mitt	-11.6243
▁irre	-11.6244
▁organs	-11.6245
▁Chu	-11.6245
▁Serbian	-11.6253
▁Winston	-11.6255
▁Cambodia	-11.6255
▁improbabl	-11.6255
TMZ	-11.6256
▁Barkley	-11.6256
▁Nothing	-11.6256
▁Pension	-11.6257
▁eagle	-11.6263
▁Maid	-11.6264
▁stark	-11.6264
made	-11.6266
▁fiance	-11.6267
anne	-11.6268
986	-11.6269
▁decorat	-11.6269
▁Labor	-11.627
▁Devil	-11.6271
▁Mission	-11.6272
▁organ	-11.6274
▁ads	-11.6275
▁Reporter	-11.6277
▁bas	-11.6277
▁glimpse	-11.6278
▁Pittsburgh	-11.6278
▁Primar	-11.628
▁hungr	-11.6283
▁ESPN	-11.6284
▁AFP	-11.6285
▁Bible	-11.6286
▁squirrel	-11.6286
▁splash	-11.6286
▁ID	-11.6289
▁Being	-11.6293
acon	-11.6295
ari	-11.6295
▁Pulis	-11.6296
▁sauce	-11.6296
▁Bir	-11.6298
▁versions	-11.6299
storm	-11.6299
▁proffer	-11.63
▁catwalk	-11.63
▁minded	-11.6301
▁harmful	-11.6303
▁testifie	-11.6304
▁Fall	-11.631
▁Argentinian	-11.6311
▁determination	-11.6312
▁marking	-11.6313
▁suits	-11.6313
▁Starbucks	-11.632
▁launder	-11.6322
star	-11.6325
ante	-11.6329
▁Economic	-11.6335
▁construe	-11.6336
▁blockade	-11.6336
▁clinch	-11.6337
▁entitl	-11.6342
▁anyway	-11.6343
▁Liu	-11.6344
▁frog	-11.6344
▁Fellow	-11.6345
▁database	-11.6345
▁Petr	-11.6349
AL	-11.635
▁submarine	-11.635
▁lingeri	-11.6352
EE	-11.6353
▁McCartney	-11.6356
▁Muhammad	-11.6356
▁bn	-11.6366
sburg	-11.6368
▁dirt	-11.6373
▁shuttle	-11.6373
ber	-11.6373
▁Jesse	-11.6376
▁clay	-11.6376
▁fo	-11.6378
▁acute	-11.6379
▁Hassan	-11.6379
▁Reagan	-11.6379
▁Romanian	-11.638
safe	-11.638
▁regulate	-11.6381
▁Christians	-11.6382
▁justify	-11.6384
▁stripped	-11.6384
▁breasts	-11.6385
▁insight	-11.6387
▁steam	-11.6389
▁chapter	-11.639
▁expel	-11.6391
▁rhino	-11.6395
▁Said	-11.6399
▁Venezuelan	-11.6399
▁juvenile	-11.6401
▁revel	-11.6404
▁Action	-11.6405
tch	-11.6406
▁170	-11.6406
▁lit	-11.6406
▁hatch	-11.641
▁Hur	-11.641
▁cling	-11.6411
▁Madonna	-11.6412
▁Clare	-11.6414
▁Mills	-11.6415
▁Tel	-11.6415
▁Building	-11.6416
▁lethal	-11.6418
▁deplete	-11.6421
▁prosp	-11.6421
▁Grammy	-11.6421
▁woods	-11.6422
▁abduction	-11.6422
▁euro	-11.6423
▁vintage	-11.6424
▁Shan	-11.6424
▁gorilla	-11.6424
nka	-11.6425
▁handset	-11.6427
57	-11.6428
▁pavement	-11.6436
▁airlift	-11.6438
▁Lawyer	-11.644
▁hazard	-11.6442
ila	-11.6443
▁millionaire	-11.6444
power	-11.6447
▁Fabio	-11.6449
▁Hugo	-11.6449
▁Fla	-11.6449
ama	-11.645
▁Race	-11.6453
▁Est	-11.6455
▁grief	-11.6458
▁Celebrity	-11.6459
pin	-11.6461
▁Kal	-11.6467
▁Mubarak	-11.6469
▁pundit	-11.6469
▁pioneer	-11.6469
iva	-11.6471
▁Wilfri	-11.6471
▁snipe	-11.6472
▁princess	-11.6475
▁Fri	-11.6476
▁sandwich	-11.6476
▁soak	-11.6479
▁storey	-11.648
boriginal	-11.6481
▁cruel	-11.6481
▁Alt	-11.6482
▁efficient	-11.6484
▁Lead	-11.6485
▁bur	-11.6487
▁pupp	-11.6489
▁spike	-11.649
▁Holy	-11.6491
▁adjourn	-11.6492
▁ratify	-11.6492
enko	-11.6493
▁Constable	-11.6493
▁innovation	-11.6493
die	-11.6494
moor	-11.6495
▁crane	-11.6498
▁fete	-11.6498
zzy	-11.6498
▁Small	-11.6498
▁Rain	-11.6499
▁exception	-11.6499
▁activate	-11.6499
▁Reed	-11.6503
▁Holiday	-11.6503
▁receipt	-11.6503
44	-11.6504
▁List	-11.6505
▁conservation	-11.6508
▁economi	-11.651
▁Worth	-11.651
▁provoke	-11.6512
sters	-11.6518
▁mistaken	-11.6518
▁MLS	-11.6519
▁bagg	-11.652
▁Johnny	-11.652
▁mice	-11.6524
▁pope	-11.6524
▁respondent	-11.6529
▁delete	-11.6529
▁Beau	-11.6529
▁borrow	-11.6529
▁unbeaten	-11.653
▁shade	-11.653
ced	-11.6531
▁mod	-11.6532
▁Superior	-11.6538
▁comprehensive	-11.6538
▁echo	-11.6539
iah	-11.654
ological	-11.6541
vine	-11.6542
▁keeps	-11.6546
▁identification	-11.6548
▁congressional	-11.6549
aw	-11.6549
▁foster	-11.655
▁unlawful	-11.655
▁Regional	-11.6551
▁Clear	-11.6553
▁canvas	-11.6556
▁Amnesty	-11.6557
▁Intelligence	-11.656
▁Austrian	-11.6561
▁remorse	-11.6562
▁Natural	-11.6562
▁frontward	-11.6565
▁drunken	-11.6566
▁Main	-11.6569
SB	-11.6571
▁passe	-11.6572
▁emission	-11.6573
▁tumble	-11.6574
▁Kens	-11.6574
▁relish	-11.6575
▁addressed	-11.6576
ub	-11.6577
▁assassination	-11.6577
market	-11.6577
▁Gregory	-11.6578
▁hu	-11.6581
▁engender	-11.6583
▁Lindsay	-11.6584
▁rehab	-11.6585
▁Heritage	-11.6586
▁Mobile	-11.6586
▁apple	-11.659
and	-11.6591
▁lecture	-11.6592
▁curl	-11.6592
romit	-11.6596
lept	-11.6597
nce	-11.6599
oxide	-11.6599
▁Dawn	-11.6603
hol	-11.6603
▁Arrest	-11.6608
▁Lock	-11.6609
▁tee	-11.6612
▁finalist	-11.6613
▁survivor	-11.6615
▁Ground	-11.6617
▁Peninsula	-11.6618
▁Representative	-11.6618
▁modify	-11.6618
▁Charlton	-11.6618
▁Inside	-11.6619
▁blogger	-11.6621
▁spa	-11.6623
eva	-11.6623
▁sofa	-11.6628
▁blonde	-11.6629
▁volley	-11.663
▁Suspect	-11.663
▁wardrobe	-11.663
▁Nobody	-11.663
▁shootout	-11.663
▁Knox	-11.663
▁evil	-11.6631
▁mortem	-11.6631
pt	-11.6633
▁paedophile	-11.6635
▁Aberdeen	-11.6641
trophie	-11.6641
▁Victorian	-11.6644
▁Spa	-11.6644
▁deaden	-11.6646
▁Associat	-11.6651
▁toast	-11.6653
▁disastrous	-11.6653
suit	-11.6659
anda	-11.6662
▁Bird	-11.6664
▁Neighbor	-11.6664
▁Karzai	-11.6664
▁Trump	-11.6665
▁skillful	-11.6669
▁bay	-11.6669
▁drum	-11.6674
▁precious	-11.6676
he	-11.6678
▁credib	-11.6678
▁urging	-11.6679
▁Alice	-11.6679
OU	-11.668
▁bunch	-11.6681
▁mm	-11.6685
▁Fur	-11.6686
▁rolling	-11.6688
▁Sandra	-11.6691
▁veil	-11.6693
▁Glenn	-11.6693
▁Der	-11.6694
anna	-11.6696
ice	-11.6698
▁cute	-11.6699
▁Puerto	-11.67
▁Unlike	-11.6701
▁stagnan	-11.6706
▁Wear	-11.6707
▁lawn	-11.6707
▁withdrawal	-11.6708
combe	-11.671
▁Daley	-11.6711
▁Election	-11.6711
▁hedge	-11.6712
▁Shar	-11.6712
▁audit	-11.6712
▁Million	-11.6715
▁headache	-11.6715
▁vie	-11.6715
▁du	-11.6716
▁manifest	-11.6717
▁Petra	-11.6719
▁Pal	-11.6719
▁blo	-11.672
▁Holly	-11.6721
▁influential	-11.6722
▁Barton	-11.6728
▁dirty	-11.6729
▁rebuild	-11.673
▁Sk	-11.6733
▁lesbian	-11.6734
SH	-11.6735
▁Oakland	-11.6735
OC	-11.6736
adventure	-11.6738
▁jihadist	-11.6739
▁Lyn	-11.6739
▁CPR	-11.674
▁rely	-11.6744
▁Giroud	-11.6746
▁shield	-11.6746
▁Mohammad	-11.6746
lsewhere	-11.6748
uba	-11.6749
▁prom	-11.675
▁unsuccessful	-11.6757
▁overhaul	-11.6758
ification	-11.6758
MT	-11.6758
▁Fan	-11.6761
sque	-11.6763
▁1985	-11.6764
stock	-11.6765
▁Neal	-11.6768
▁disjoin	-11.6769
▁humanity	-11.6769
▁Coventry	-11.6769
▁examin	-11.677
rates	-11.6771
▁hyper	-11.6772
▁Hayes	-11.6772
▁Chuck	-11.6773
▁Dis	-11.6774
▁Stefan	-11.6775
▁materialise	-11.6777
▁charg	-11.6778
▁accomplice	-11.6778
▁Vel	-11.6778
▁bidd	-11.6779
▁Earl	-11.678
▁unremarkabl	-11.6781
▁Sherwood	-11.6782
▁Raul	-11.6783
▁Il	-11.6784
farmers	-11.6786
▁Count	-11.6788
etti	-11.6789
▁reminder	-11.6791
▁Sham	-11.6791
▁Initial	-11.6793
▁Lukaku	-11.6793
▁altitude	-11.6793
▁inflation	-11.6794
▁hurl	-11.6795
▁Beatles	-11.6797
▁Brit	-11.68
▁jockey	-11.6804
979	-11.6805
▁cooperation	-11.6805
om	-11.6811
▁Fury	-11.6814
▁Deep	-11.6816
▁Honduras	-11.6816
▁turkey	-11.6816
▁reclaim	-11.6817
▁Lego	-11.6818
▁Eli	-11.6823
▁wallet	-11.6824
▁Southwest	-11.6825
▁Karim	-11.6828
▁Fraser	-11.6829
▁peck	-11.6829
▁1981	-11.6832
▁commend	-11.6834
▁Fame	-11.6836
▁diner	-11.6836
▁villager	-11.6838
▁ritual	-11.684
▁Conference	-11.684
broken	-11.6841
▁memorabl	-11.6841
ug	-11.6843
▁margin	-11.6843
▁Stock	-11.6843
▁utilit	-11.6845
▁motivation	-11.6847
tty	-11.6848
▁conscious	-11.6849
▁podium	-11.6852
▁mammal	-11.6853
▁innocen	-11.6863
▁breakthrough	-11.6863
▁Tax	-11.6868
ility	-11.6871
▁Lan	-11.6871
settled	-11.6875
▁expansion	-11.6876
▁Kla	-11.6878
▁WHO	-11.6879
▁Ashton	-11.688
jah	-11.6882
net	-11.6884
▁sculpture	-11.6884
▁Kol	-11.6886
▁dismay	-11.6887
▁DVD	-11.6887
▁spacecraft	-11.6888
▁disgrace	-11.6896
fe	-11.6897
owed	-11.69
▁gradual	-11.69
▁antibiotic	-11.6901
▁firefighter	-11.6905
▁organiz	-11.6906
▁overdose	-11.691
▁Bronx	-11.6911
▁dolphins	-11.6915
▁introduction	-11.6918
FA	-11.6924
▁Concern	-11.6924
▁asteroid	-11.6924
▁Pont	-11.6925
▁aggress	-11.6931
tree	-11.6932
▁Yang	-11.6933
▁weren	-11.6934
▁Richmond	-11.6935
▁collaboration	-11.6937
▁dart	-11.6937
▁Drive	-11.6938
▁Hoy	-11.6939
▁Rico	-11.6941
▁organiser	-11.6943
▁Bil	-11.6944
▁southeast	-11.6945
▁fossil	-11.6947
▁Janet	-11.6947
▁dictator	-11.6947
▁Front	-11.6949
▁swan	-11.6951
▁Pitt	-11.6951
▁Natalie	-11.6952
▁wander	-11.6955
irk	-11.6956
▁explicit	-11.6958
▁190	-11.696
▁auster	-11.6963
▁pint	-11.6967
sk	-11.6968
▁fundrais	-11.6969
ali	-11.697
▁deserved	-11.6971
▁scout	-11.6971
▁weaken	-11.6976
▁Cesar	-11.6977
▁infer	-11.6977
▁prais	-11.698
Kenny	-11.6982
▁sober	-11.6983
▁Dow	-11.6984
▁salon	-11.6987
▁Stein	-11.6989
▁flock	-11.6991
▁indoors	-11.6992
▁prestigious	-11.6994
yard	-11.6995
▁crashing	-11.6995
CR	-11.6997
▁Tin	-11.6997
▁mal	-11.6997
▁Scar	-11.7002
▁Sound	-11.7003
▁playoff	-11.7005
▁gallon	-11.7009
▁patron	-11.7012
▁episodes	-11.7013
▁AIDS	-11.7014
▁Image	-11.7016
▁Travis	-11.7016
▁System	-11.7019
▁singular	-11.7019
▁dissent	-11.7019
▁salvage	-11.702
pping	-11.7021
spoon	-11.7022
we	-11.7024
▁unw	-11.7024
vo	-11.7025
▁revive	-11.7027
▁Chang	-11.7027
▁innovative	-11.703
▁inadequate	-11.7032
▁Gand	-11.7034
▁keys	-11.7037
▁Cop	-11.7038
▁rude	-11.704
▁Ipswich	-11.7042
▁fume	-11.7044
fix	-11.7044
ody	-11.7045
▁Vince	-11.7047
▁discontinue	-11.7049
▁segment	-11.7054
▁Felix	-11.7055
▁Gang	-11.7056
▁Warwick	-11.7056
▁Garner	-11.7056
▁rice	-11.7056
▁accus	-11.7057
udge	-11.7066
▁intruder	-11.7073
▁satisfy	-11.7074
▁exceed	-11.7074
MP	-11.7075
PT	-11.7078
▁Campaign	-11.7078
▁integral	-11.7079
▁unnecessar	-11.7079
▁Alexandra	-11.7081
▁shr	-11.7082
erson	-11.7083
▁disturbing	-11.7087
EC	-11.7088
SHING	-11.7089
▁claw	-11.709
▁penis	-11.7091
▁Timothy	-11.7091
▁obese	-11.7092
▁Speed	-11.7092
tt	-11.7092
▁rejoin	-11.7093
▁Bud	-11.7094
▁Neill	-11.7094
▁Dunn	-11.7095
ral	-11.7096
▁Zuckerberg	-11.7103
▁Hell	-11.7104
▁animated	-11.7109
▁canceled	-11.7109
▁nomination	-11.711
kova	-11.7112
▁buzz	-11.7113
▁Stars	-11.7114
▁Kenneth	-11.7116
▁Ibrahim	-11.7117
▁confession	-11.7119
PO	-11.712
▁amass	-11.7121
▁extradition	-11.7127
▁Malaysian	-11.713
▁Westwood	-11.713
▁Ju	-11.7133
▁supplement	-11.7133
▁gangs	-11.7137
NT	-11.7138
▁ligament	-11.7139
▁dire	-11.714
▁component	-11.7143
▁materialize	-11.7148
ootage	-11.7149
skies	-11.7149
▁visitor	-11.715
▁precede	-11.7151
▁Bang	-11.7151
▁Resort	-11.7151
▁distrust	-11.7152
▁Racing	-11.7152
▁Len	-11.7154
▁happiness	-11.7155
▁insider	-11.7156
zo	-11.7156
▁sire	-11.7157
▁commentator	-11.716
▁savour	-11.716
▁Exeter	-11.7164
ku	-11.7164
▁thread	-11.7165
▁Ivor	-11.7167
▁equaliser	-11.7167
▁Reserve	-11.7171
▁Tech	-11.7171
▁backyard	-11.7171
▁Amber	-11.7172
▁rep	-11.7173
▁intact	-11.7176
▁correspondent	-11.7176
▁pest	-11.7177
▁assemble	-11.7177
▁Robbie	-11.7178
piece	-11.7183
▁Discovery	-11.7183
▁Nan	-11.7185
▁Malcolm	-11.7188
psy	-11.7188
abi	-11.7188
▁wandering	-11.7194
▁intervene	-11.7197
▁deepen	-11.7199
▁shun	-11.72
▁Cheryl	-11.7201
▁distinct	-11.7203
▁sophisticat	-11.7205
ations	-11.7207
▁deflect	-11.7209
▁interaction	-11.721
▁undercover	-11.7213
▁tri	-11.7214
most	-11.7215
itis	-11.7216
cible	-11.7217
▁Mediterranean	-11.7225
▁sock	-11.7225
▁Tra	-11.7225
▁Medicine	-11.7226
▁recipient	-11.7226
▁blew	-11.7227
▁lionize	-11.7228
▁Gove	-11.723
▁Porter	-11.7233
▁arson	-11.7236
arian	-11.7236
▁Maz	-11.7242
▁Rosa	-11.7242
▁slumber	-11.7245
▁overwhelming	-11.7246
och	-11.7247
▁Memphis	-11.7247
▁Hispanic	-11.7249
▁torn	-11.7249
▁Merc	-11.7251
augh	-11.7252
▁seeker	-11.7253
▁Gul	-11.7253
▁elder	-11.7254
MI	-11.7255
▁successor	-11.7255
▁cattle	-11.7257
▁Ag	-11.726
▁inevitabl	-11.7265
yl	-11.7266
▁Wade	-11.7266
▁Riley	-11.7266
▁chant	-11.7274
▁Cheshire	-11.7275
hole	-11.7276
▁setback	-11.7277
▁reunite	-11.7277
▁cull	-11.7279
elle	-11.7281
▁97	-11.7284
▁Kompany	-11.7286
▁breathe	-11.7286
▁selfies	-11.7287
▁Nasa	-11.7289
▁disruption	-11.729
▁banker	-11.7294
stage	-11.7295
▁formula	-11.7295
▁Reddit	-11.7296
▁Superintendent	-11.7298
▁publisher	-11.7303
▁corpse	-11.7303
▁entertain	-11.7304
ero	-11.7309
▁miserabl	-11.7309
lick	-11.731
▁Wing	-11.731
▁confusion	-11.7311
▁warehouse	-11.7312
▁skeleton	-11.7316
▁bolt	-11.7319
dan	-11.7319
▁Hotspur	-11.7323
▁Sociedad	-11.7323
▁Sou	-11.7324
▁assort	-11.7325
▁Butler	-11.7326
▁Ted	-11.7329
▁Premiership	-11.733
▁correspond	-11.7332
SE	-11.7333
arijuana	-11.7333
▁comparative	-11.7337
▁slaying	-11.7338
▁Dy	-11.7341
▁Visitor	-11.7342
isha	-11.7343
▁Tracy	-11.7343
▁sketch	-11.7344
▁cockpit	-11.7348
▁Cohen	-11.7349
▁volatile	-11.735
▁Pea	-11.7353
▁lets	-11.7356
ene	-11.7357
▁Monroe	-11.7358
▁Fin	-11.7363
▁Sutton	-11.7363
mply	-11.7365
narrowly	-11.7366
▁existent	-11.7369
▁spree	-11.7369
▁McCo	-11.7371
▁acquit	-11.7371
▁shy	-11.7373
▁dialogue	-11.7373
▁remarkabl	-11.7374
▁Bab	-11.7375
▁obsess	-11.7378
lot	-11.7378
▁Rud	-11.7381
▁Rh	-11.7383
▁playground	-11.7383
▁Sainsbury	-11.7385
▁Idaho	-11.7385
▁Gloucestershire	-11.7386
▁Patient	-11.7386
▁Christina	-11.7387
▁smuggle	-11.7389
mark	-11.739
▁rubbl	-11.7391
▁educational	-11.7391
▁Statistic	-11.7398
corn	-11.7403
49	-11.7404
▁triple	-11.7406
▁WTA	-11.7408
wider	-11.7409
▁observer	-11.7412
▁consum	-11.7413
uma	-11.7414
▁professionals	-11.7415
▁plague	-11.7416
▁Close	-11.7417
▁appall	-11.7417
▁arena	-11.7419
boat	-11.7419
▁quantit	-11.7419
▁para	-11.7423
▁Benfica	-11.7423
▁adjudge	-11.7423
▁bishop	-11.7423
▁Amir	-11.7423
▁Poll	-11.7423
▁flaw	-11.7424
▁Tyson	-11.7424
▁groin	-11.7424
▁Pedro	-11.7425
▁Archbishop	-11.7427
etic	-11.7429
▁Paula	-11.7431
▁kidnap	-11.7434
▁integrit	-11.7435
▁context	-11.7435
▁vivid	-11.7435
▁transaction	-11.7436
sby	-11.7439
nzo	-11.7445
▁Burger	-11.7445
▁Toni	-11.7447
▁deceased	-11.7447
▁AT	-11.7448
▁awkward	-11.7448
▁Ott	-11.745
usk	-11.745
▁acclaim	-11.7453
▁array	-11.7453
▁Chester	-11.7456
▁Cab	-11.7459
▁oust	-11.746
ating	-11.746
▁institution	-11.7466
AG	-11.7467
▁libert	-11.7475
▁Alliance	-11.7475
▁Style	-11.7476
▁Blood	-11.7476
▁Joint	-11.7476
uru	-11.7478
▁Irvine	-11.7488
▁Hopkins	-11.7491
▁dependent	-11.7499
gh	-11.7499
▁Jolie	-11.7499
▁Assembly	-11.7499
▁pur	-11.75
▁clause	-11.7501
▁cherr	-11.7502
▁Eagles	-11.7503
▁awesome	-11.7504
uda	-11.7506
▁Burgess	-11.7506
▁constitutional	-11.7507
▁shouldn	-11.7508
▁badge	-11.7508
risen	-11.7509
▁Estonia	-11.7511
▁disagree	-11.7511
▁potent	-11.7516
▁urine	-11.752
▁ethic	-11.7521
▁labell	-11.7523
▁chains	-11.7524
▁prolong	-11.7524
▁Bri	-11.7525
▁luxurious	-11.7525
▁criticiz	-11.7525
▁h	-11.7532
▁Reuter	-11.7536
antas	-11.7537
smith	-11.7538
CT	-11.7538
▁cra	-11.7538
▁electro	-11.7542
▁Thor	-11.7544
tion	-11.7544
ij	-11.7547
▁Griffin	-11.7549
ao	-11.7549
▁plight	-11.7552
▁gravit	-11.7553
oy	-11.7553
▁reptile	-11.7553
▁scatter	-11.7554
▁awe	-11.7555
uinn	-11.7556
▁GM	-11.7556
▁whi	-11.7559
▁Hook	-11.7559
▁marital	-11.7561
▁Murdoch	-11.7561
▁coffin	-11.7562
▁watche	-11.7563
64	-11.7565
bin	-11.7569
dar	-11.757
▁Spirit	-11.7572
▁awake	-11.7574
ith	-11.7574
▁obligation	-11.7575
ising	-11.7577
▁installation	-11.7579
▁Ricky	-11.758
▁Wind	-11.7585
▁primitive	-11.7587
▁backlash	-11.7588
▁returns	-11.7592
▁Slam	-11.7592
▁File	-11.7593
wide	-11.7595
▁Pierre	-11.7597
▁ash	-11.7598
▁puts	-11.7599
▁Above	-11.7599
▁Soccer	-11.7599
▁Walcott	-11.7599
ustrious	-11.76
▁Cincinnat	-11.76
▁Master	-11.7601
▁explode	-11.7603
▁UKIP	-11.7603
▁Johannes	-11.7603
OT	-11.7603
▁pertain	-11.7604
▁Rum	-11.7608
▁condom	-11.7609
▁inherit	-11.7611
▁esteem	-11.7612
▁Casilla	-11.7612
▁relat	-11.7613
▁Hertford	-11.7613
▁defin	-11.7614
▁deform	-11.7616
▁analyse	-11.7618
▁invitation	-11.762
24	-11.7625
▁physician	-11.7626
▁Late	-11.7633
▁Try	-11.7633
▁holy	-11.7634
qa	-11.7638
▁Marseille	-11.7638
▁Shannon	-11.7638
▁AM	-11.764
▁jol	-11.7642
▁entitle	-11.7645
oda	-11.7645
▁distract	-11.7647
▁Jin	-11.7652
▁mode	-11.7652
▁bounc	-11.7652
▁vaporize	-11.7653
▁torch	-11.7653
▁Hin	-11.7655
▁operative	-11.7655
▁bullie	-11.7661
▁Lille	-11.7661
▁Monica	-11.7664
▁Ryanair	-11.7664
▁Warnock	-11.7664
▁Correction	-11.7665
▁Tal	-11.7665
▁suck	-11.7669
mus	-11.767
▁Tha	-11.7671
LS	-11.7671
ullah	-11.7673
ech	-11.768
▁Bet	-11.768
▁Burton	-11.7683
▁KC	-11.7684
▁hackers	-11.7685
13	-11.7685
▁mistreat	-11.7689
going	-11.7689
▁stimul	-11.7694
▁Century	-11.7694
ches	-11.77
▁weary	-11.7701
▁lighting	-11.7702
▁forum	-11.7704
▁neuro	-11.7707
vet	-11.7708
▁Pine	-11.771
▁Bak	-11.7712
▁adorabl	-11.7712
▁reduc	-11.7712
▁lump	-11.7712
uth	-11.7717
▁Striker	-11.7718
▁Gus	-11.7719
▁whip	-11.7719
▁Ski	-11.772
▁homeland	-11.7722
▁Barker	-11.7723
▁Joan	-11.7725
▁Latino	-11.7726
▁Kin	-11.7727
▁Delaware	-11.7728
▁protocol	-11.7728
▁Sue	-11.7728
▁Singer	-11.7729
▁pickup	-11.7731
▁recruitment	-11.7732
▁Lamb	-11.7732
menical	-11.7733
kh	-11.7734
▁Wu	-11.7734
▁Bron	-11.7739
▁Between	-11.774
▁Blanc	-11.7741
▁penguin	-11.7741
▁fr	-11.7741
▁Jackie	-11.7743
33	-11.7745
▁Teacher	-11.7751
osis	-11.7752
06	-11.7752
nforcement	-11.7753
ddle	-11.7754
▁Tribun	-11.7755
▁surfer	-11.7759
▁interact	-11.7759
▁dismissal	-11.7761
▁savor	-11.7764
▁bother	-11.7764
▁Porsche	-11.7766
▁Lac	-11.7768
wal	-11.7769
▁Batman	-11.777
▁Found	-11.777
▁pett	-11.7773
▁Much	-11.7775
▁Sin	-11.7775
▁humor	-11.7776
▁recycl	-11.7777
▁Bali	-11.7779
log	-11.778
▁Order	-11.778
▁Heath	-11.7781
post	-11.7781
▁towel	-11.7783
▁Given	-11.7786
CL	-11.7787
▁Senegal	-11.7792
▁Katherine	-11.7792
▁Wonder	-11.7796
▁Make	-11.7798
▁ache	-11.7798
▁Din	-11.7799
▁purchas	-11.7801
▁angel	-11.7805
▁Mancini	-11.7805
▁Circuit	-11.7808
▁Nice	-11.7809
▁Lind	-11.7813
▁encompass	-11.7818
▁regulation	-11.7819
▁tyre	-11.7821
▁Leonardo	-11.7823
raft	-11.7824
HE	-11.7825
▁haz	-11.7825
▁solicitor	-11.7828
▁donat	-11.7831
▁Immigration	-11.7831
▁Benzema	-11.7831
▁cough	-11.7832
▁mutual	-11.7832
uddy	-11.7833
rose	-11.7836
▁Estate	-11.7836
rus	-11.7837
zzi	-11.7838
▁Tennis	-11.7838
▁roots	-11.7838
uka	-11.784
LI	-11.7842
▁nuts	-11.7844
▁Dylan	-11.7845
PI	-11.7845
naval	-11.7848
▁basket	-11.7849
▁Kris	-11.7849
mal	-11.7856
bby	-11.7858
▁touchdown	-11.7859
▁Ny	-11.786
▁siege	-11.7862
▁Sid	-11.7863
▁ju	-11.7864
▁fuss	-11.787
▁convenience	-11.787
▁Morocco	-11.7871
▁trivial	-11.7871
▁boycott	-11.7871
▁bankruptcy	-11.7871
▁Marquez	-11.7872
▁Hilton	-11.7872
▁lava	-11.7874
TSB	-11.7874
▁snakes	-11.7878
▁Berahino	-11.7883
vel	-11.7884
▁disgust	-11.7884
▁Sakho	-11.7886
▁leaf	-11.7886
teen	-11.7886
▁antic	-11.7887
▁allowance	-11.789
▁Tam	-11.7891
▁Erik	-11.7893
▁scooter	-11.7893
▁Plus	-11.7894
▁lounge	-11.7895
illiputian	-11.7897
▁Nissan	-11.7897
▁Windsor	-11.7897
▁Alp	-11.7897
▁inde	-11.7903
▁Slovenia	-11.7903
cio	-11.7903
▁strapp	-11.7906
▁indefinite	-11.7912
▁Stre	-11.7912
▁enterprise	-11.7914
ched	-11.7914
pton	-11.7919
▁scu	-11.792
▁Nebraska	-11.7923
▁spic	-11.7925
▁Auto	-11.7927
▁junk	-11.7928
▁Left	-11.7929
▁dim	-11.7929
▁Carson	-11.793
▁chin	-11.7934
▁foreigner	-11.7934
▁Mil	-11.7935
▁rental	-11.7936
▁Figure	-11.7937
▁Af	-11.7938
▁filter	-11.7943
▁Environment	-11.7945
▁perception	-11.7946
▁dub	-11.7948
▁UPDATE	-11.7949
▁Serge	-11.7952
▁Gro	-11.7953
▁Barr	-11.7953
▁proven	-11.796
▁Mesut	-11.7962
▁unfit	-11.7964
bach	-11.7966
▁Rosie	-11.7969
▁vocal	-11.7971
▁carve	-11.7973
▁Fellaini	-11.7976
▁prosthetic	-11.7976
▁flunk	-11.7976
▁alligator	-11.7978
▁Malik	-11.7979
sch	-11.798
▁Cech	-11.7981
IT	-11.7982
▁swear	-11.7982
▁Medal	-11.7983
▁yog	-11.7985
▁Nicola	-11.7987
▁Banks	-11.7988
▁graffiti	-11.7989
▁convoy	-11.7989
▁niece	-11.7989
▁upstair	-11.7989
▁dial	-11.7993
▁deplum	-11.7996
▁IM	-11.7996
▁rings	-11.8
▁jug	-11.8
▁format	-11.8003
▁pod	-11.8005
▁loans	-11.8007
▁dye	-11.8011
xel	-11.8015
▁propagand	-11.8015
▁Ahmadinejad	-11.8015
▁Cut	-11.8016
▁Sign	-11.8017
▁eld	-11.8017
▁Jamaica	-11.8022
▁sew	-11.8025
tan	-11.8026
▁mascot	-11.8029
▁Derek	-11.8029
▁Lea	-11.803
▁consultation	-11.8031
▁slender	-11.8036
▁implicat	-11.8036
▁playmaker	-11.8036
▁Patricia	-11.8036
ncy	-11.8037
▁dug	-11.804
▁harvest	-11.8042
▁Emmanuel	-11.8042
▁Wiggins	-11.8042
ologist	-11.8043
▁Zar	-11.8044
BO	-11.8045
▁Downton	-11.8046
▁males	-11.8048
rak	-11.8048
370	-11.8049
▁Constitution	-11.805
▁conquer	-11.8053
▁Ep	-11.8053
lake	-11.8054
▁cottage	-11.8055
ima	-11.8057
▁tier	-11.8058
▁viewing	-11.8059
▁terrace	-11.8062
tner	-11.8064
agh	-11.8064
traught	-11.8065
982	-11.8067
▁Lazio	-11.807
▁wrestl	-11.8072
▁stroll	-11.8074
▁Bruno	-11.8077
▁Ferrer	-11.8079
▁Lorenzo	-11.8079
▁trooper	-11.8081
▁arch	-11.8081
ique	-11.8081
▁PE	-11.8082
▁concede	-11.8083
▁111	-11.8089
▁Years	-11.809
▁Prof	-11.809
▁Canter	-11.8093
▁sufferer	-11.8094
▁Netanyahu	-11.8095
▁Conservation	-11.8096
▁heroes	-11.8097
▁sleeve	-11.8103
HA	-11.8104
▁banish	-11.8108
▁swift	-11.8109
▁Zhang	-11.8109
▁pond	-11.8111
▁Morale	-11.8115
▁aggregate	-11.8115
eous	-11.8116
▁Diet	-11.8117
▁Johnston	-11.8119
▁glu	-11.8121
▁Vancouver	-11.8122
▁Rush	-11.8122
▁philosoph	-11.8122
▁lapse	-11.8122
▁wildfire	-11.8125
▁branche	-11.8126
dge	-11.8127
▁castle	-11.8128
nard	-11.8129
▁sheets	-11.8129
▁fist	-11.8131
▁Pete	-11.8132
▁Rubi	-11.8134
▁relay	-11.8135
▁scent	-11.8136
▁mining	-11.8136
▁garment	-11.8138
▁breakdown	-11.8139
▁kilometre	-11.8139
▁Kan	-11.814
▁Lau	-11.814
▁Lew	-11.814
▁Montgomery	-11.8143
ale	-11.8144
▁Ste	-11.8144
ICE	-11.8146
inder	-11.8148
▁frantic	-11.8149
▁landslide	-11.815
lance	-11.815
▁Wendy	-11.8151
▁lips	-11.8151
uan	-11.8153
▁tense	-11.8154
▁lavish	-11.8155
▁schoolboy	-11.8155
▁mainland	-11.8157
▁Vu	-11.8158
▁estim	-11.8158
▁poly	-11.816
▁equipp	-11.8161
▁Parish	-11.8162
▁skilful	-11.8162
▁gel	-11.8163
▁mild	-11.8168
▁varnish	-11.8169
▁fascinate	-11.817
aka	-11.8171
▁Brother	-11.8175
▁Charge	-11.8175
▁Bony	-11.8175
▁fortnight	-11.8176
▁vacate	-11.8176
▁landlord	-11.8177
▁Gin	-11.8177
1972	-11.8179
▁sidewalk	-11.8179
▁Sales	-11.8182
vetch	-11.8182
▁affecting	-11.8185
fight	-11.8186
▁Berdych	-11.8189
▁surmise	-11.8189
void	-11.8189
04	-11.819
▁neighbourhood	-11.8191
▁salad	-11.8192
▁curt	-11.8192
▁swoop	-11.8193
▁clever	-11.8193
▁shareholder	-11.8199
▁crow	-11.82
▁fog	-11.82
▁Should	-11.8203
ET	-11.8203
cardiac	-11.8203
rkshire	-11.8204
▁Chloe	-11.8204
▁Cosby	-11.8204
▁Upper	-11.8204
▁Rickie	-11.8206
▁Phel	-11.821
▁splice	-11.8215
▁pointing	-11.8218
▁slur	-11.8218
▁lo	-11.8218
▁Photos	-11.822
▁abusive	-11.8221
▁Boss	-11.8221
▁bedrooms	-11.8223
gged	-11.8223
▁showdown	-11.8225
▁Nasri	-11.8226
adi	-11.8228
▁Massa	-11.8229
▁Traged	-11.8231
▁evaluation	-11.8231
▁unlock	-11.8234
lor	-11.8239
▁levy	-11.824
▁convention	-11.8243
▁Obvious	-11.8244
▁Pogba	-11.8244
▁dynamic	-11.8244
▁Gomez	-11.8244
PD	-11.8244
▁Loft	-11.8246
▁Nas	-11.8246
otti	-11.8247
▁decree	-11.8247
▁cows	-11.825
▁Algeria	-11.8251
▁WW	-11.8251
anny	-11.8253
▁Things	-11.8254
▁Rand	-11.8255
▁Dai	-11.8256
▁Olivier	-11.8257
IS	-11.8258
ecu	-11.8259
▁Genev	-11.826
▁fridge	-11.8261
▁Farah	-11.8263
▁Dart	-11.8263
▁collective	-11.8264
▁Roland	-11.8266
▁Studio	-11.8266
▁beget	-11.8269
zed	-11.8271
ishu	-11.8273
▁irregular	-11.8275
▁Diane	-11.8277
▁befall	-11.828
▁Abe	-11.8282
osh	-11.8282
▁elevator	-11.8286
▁1974	-11.8286
▁outskirt	-11.8286
▁Guest	-11.8288
▁Panama	-11.8289
▁kip	-11.8294
▁tackl	-11.8297
▁Gardner	-11.8298
▁Dixon	-11.8299
▁Kit	-11.83
▁explor	-11.8301
OM	-11.8303
IF	-11.8304
▁Ale	-11.8311
▁Mugabe	-11.8312
▁Tunisia	-11.8312
▁Pink	-11.8313
▁1976	-11.8314
yke	-11.8316
ace	-11.8317
will	-11.8317
▁fag	-11.832
hem	-11.8325
▁Leverkusen	-11.8325
▁Watford	-11.8326
▁adept	-11.8327
▁Mogad	-11.8327
ymore	-11.8329
▁Juda	-11.833
▁Cl	-11.8333
39	-11.8336
ISK	-11.8337
▁universal	-11.8339
po	-11.8339
▁Convention	-11.8339
▁filling	-11.8349
rigid	-11.8352
▁Thierry	-11.8353
▁cleric	-11.8355
▁Chapman	-11.8355
▁kilogram	-11.8355
▁Barrett	-11.8356
▁stitche	-11.8357
▁nursery	-11.8359
gi	-11.8359
▁takeaway	-11.8359
▁wrench	-11.8367
tle	-11.8368
SW	-11.8369
mel	-11.8369
▁cement	-11.8371
▁flipp	-11.8371
▁tenant	-11.8372
▁coal	-11.8374
▁collid	-11.8376
▁Mul	-11.8378
▁Lily	-11.8378
▁Tweet	-11.8378
rie	-11.8378
▁horrifi	-11.838
▁Television	-11.838
asco	-11.8381
utter	-11.8381
▁Hague	-11.8381
▁Milner	-11.8382
▁embarrassment	-11.8382
py	-11.8383
▁Hammond	-11.8383
▁voluntary	-11.8386
viate	-11.8387
▁prototype	-11.8387
▁definition	-11.8388
spinal	-11.8389
▁Sav	-11.839
duct	-11.8392
▁miscarry	-11.8394
fresco	-11.8395
▁bacon	-11.8395
▁Zu	-11.8396
▁Actress	-11.8396
▁Boyd	-11.8397
▁Moreno	-11.8398
hall	-11.8399
▁cemetery	-11.8402
▁Fran	-11.8404
▁Mum	-11.8404
▁uprising	-11.8405
▁jackpot	-11.8408
lett	-11.8409
▁Fry	-11.841
▁Jud	-11.8411
▁resistan	-11.8412
▁throne	-11.8413
related	-11.8415
▁Mut	-11.8415
▁Face	-11.8416
▁goat	-11.8417
▁240	-11.8418
▁hugg	-11.8419
▁aerial	-11.8419
dia	-11.8419
▁Naval	-11.8421
▁daylight	-11.8421
▁Saleh	-11.8422
▁unhurt	-11.8423
tor	-11.8423
▁strive	-11.8426
▁rays	-11.8429
ige	-11.8432
▁Leonard	-11.8434
try	-11.8434
▁Villarreal	-11.8435
▁efficacious	-11.8436
▁Falkland	-11.8436
illy	-11.8439
▁Leo	-11.8441
▁liberate	-11.8442
▁Curtis	-11.8443
RO	-11.8443
▁wont	-11.8444
▁Ballon	-11.8445
decompose	-11.8448
via	-11.8448
▁Holt	-11.8448
▁Sally	-11.8449
▁Cur	-11.8449
▁Mathieu	-11.8449
▁Gavin	-11.8451
▁derail	-11.8451
dical	-11.8452
▁banana	-11.8453
▁texts	-11.8456
▁Bosnia	-11.8456
▁Ah	-11.8458
▁Mill	-11.8459
▁Ring	-11.8462
VI	-11.8462
▁harbor	-11.8463
▁Would	-11.8464
▁devoted	-11.8466
▁Brien	-11.8467
▁Save	-11.8471
▁Tyr	-11.8472
lar	-11.8474
▁tast	-11.8474
▁nutrition	-11.8482
▁bounce	-11.8485
▁Kel	-11.8487
▁establishment	-11.8488
▁departments	-11.8488
▁laborator	-11.8489
▁Fir	-11.8489
▁publicist	-11.849
▁Cowboy	-11.8491
▁bulk	-11.8492
▁Henri	-11.8493
▁alternate	-11.8493
▁Cash	-11.8495
▁Bran	-11.8497
▁contention	-11.85
▁Defender	-11.8501
▁Chiellini	-11.8505
▁Zurich	-11.8505
▁Shadow	-11.8505
▁Leslie	-11.8505
▁bogey	-11.8505
▁meth	-11.8506
▁mindful	-11.8508
▁Kids	-11.8508
▁guilt	-11.8508
▁Ramirez	-11.851
▁grill	-11.8511
lands	-11.8511
▁negotiate	-11.8515
▁primari	-11.8516
stle	-11.8516
▁unexp	-11.8518
▁650	-11.8519
▁Maradona	-11.8519
▁Dragon	-11.8522
ris	-11.8531
▁endorse	-11.8531
▁Boys	-11.8535
▁Domin	-11.8537
▁tomb	-11.8538
SO	-11.8539
▁intentional	-11.8541
▁trends	-11.8542
▁TO	-11.8545
▁restor	-11.8548
▁CB	-11.8549
▁temper	-11.855
▁Shore	-11.855
▁milestone	-11.8551
▁Walk	-11.8552
▁filmmaker	-11.8553
▁pel	-11.8554
▁menace	-11.8557
▁Magic	-11.856
▁Baldwin	-11.8561
▁ordinari	-11.8561
▁Wolfsburg	-11.8561
▁tropical	-11.8561
▁Mann	-11.8565
ome	-11.8567
▁Friend	-11.8568
▁Ris	-11.8571
jiang	-11.8571
16	-11.8574
▁Moor	-11.8575
▁biting	-11.8575
▁Salvador	-11.8575
▁shorts	-11.8575
▁thwart	-11.8577
▁Broadwa	-11.8577
▁Siberia	-11.8583
▁Due	-11.8584
▁Ry	-11.8584
▁Crouch	-11.8589
▁index	-11.8591
▁Jill	-11.8592
▁Bulgarian	-11.8596
▁swap	-11.8596
view	-11.8597
dated	-11.8598
▁pageant	-11.86
▁heir	-11.8602
▁Magazine	-11.8603
▁bespeak	-11.8604
▁presentation	-11.8606
▁hi	-11.8607
▁dental	-11.8607
▁artificial	-11.8608
▁cookie	-11.861
eta	-11.8617
▁farms	-11.8619
▁diverse	-11.8624
▁Gaga	-11.8626
▁Arg	-11.8628
29	-11.863
▁poke	-11.863
nie	-11.8631
▁retort	-11.8631
▁clerk	-11.8631
apolis	-11.8631
▁Burns	-11.8635
▁ha	-11.8636
▁Joy	-11.8637
▁Bou	-11.8642
siatic	-11.8642
TL	-11.8644
▁plummet	-11.8645
▁Overall	-11.8647
oline	-11.8649
▁Cay	-11.865
▁Hood	-11.8651
oya	-11.8651
▁KT	-11.8653
▁Range	-11.8656
▁worrying	-11.8657
▁maximal	-11.8662
▁tin	-11.8662
▁ranger	-11.8664
▁incorporate	-11.8666
rab	-11.867
▁sentiment	-11.8672
▁hadn	-11.8672
▁Lucky	-11.8674
▁Review	-11.8674
▁colon	-11.8676
▁crater	-11.8678
▁Inn	-11.8681
▁Ellen	-11.8681
▁ensur	-11.8682
▁reef	-11.8685
▁Shock	-11.8687
▁Brotherhood	-11.8688
▁fantasy	-11.8689
▁confidential	-11.8691
▁UAE	-11.8691
▁Arts	-11.8695
▁disguise	-11.8696
▁implication	-11.8696
▁Aid	-11.8699
▁Lynch	-11.8703
▁ranch	-11.8704
▁Tibetan	-11.8706
▁cosm	-11.871
saw	-11.8712
ashi	-11.8713
▁isolation	-11.8717
verse	-11.8719
▁beg	-11.8722
▁Dav	-11.8726
▁Pilot	-11.8727
▁honey	-11.8727
own	-11.8729
▁mouse	-11.873
OL	-11.8731
▁peanut	-11.8731
984	-11.8732
▁applaud	-11.8736
▁Luther	-11.8738
▁baker	-11.8738
▁pharmac	-11.8738
▁Kon	-11.8738
▁char	-11.8738
▁Tab	-11.8743
▁Canyon	-11.8745
▁engulf	-11.8745
▁wives	-11.8749
▁comport	-11.8749
▁evaluate	-11.875
▁legitimate	-11.8753
stra	-11.8754
▁Yar	-11.8756
▁Vine	-11.8757
▁Tro	-11.8758
▁Belfast	-11.8759
▁Communist	-11.8759
eep	-11.8761
▁rampage	-11.8762
▁Marin	-11.8762
▁Kas	-11.8763
▁Dogs	-11.8763
sell	-11.8767
▁disgusting	-11.8773
▁hoax	-11.8773
▁Brea	-11.8778
▁Mand	-11.878
▁beds	-11.878
▁Protest	-11.8782
wi	-11.8783
▁Know	-11.8783
▁arresting	-11.8783
▁hitch	-11.8783
load	-11.8785
▁conceded	-11.8786
▁pigs	-11.8786
zh	-11.8788
▁iOS	-11.8788
▁flagship	-11.8789
lop	-11.8789
▁flats	-11.879
▁participation	-11.879
▁broker	-11.8791
scape	-11.8792
▁strap	-11.8796
▁surpass	-11.8796
▁grapple	-11.8797
▁194	-11.8806
▁wag	-11.8807
wry	-11.8808
▁McA	-11.8809
▁escalat	-11.881
▁handler	-11.8811
▁Hobb	-11.8813
▁fatalit	-11.8814
walk	-11.8815
▁pe	-11.8818
▁perch	-11.8818
▁weird	-11.882
mine	-11.8823
▁lamb	-11.8824
▁biological	-11.8825
las	-11.8825
▁whisk	-11.8826
▁hoard	-11.8826
▁modifi	-11.8827
▁jo	-11.8831
▁Lindsey	-11.8831
▁Montreal	-11.8831
▁footstep	-11.8831
bab	-11.8831
▁dinosaur	-11.8831
▁Zlatan	-11.8831
▁Nam	-11.8837
believing	-11.8838
▁rapist	-11.8839
▁Oz	-11.8841
▁Sami	-11.8841
▁Miguel	-11.8845
▁believabl	-11.8845
▁gossip	-11.8845
tangible	-11.8845
▁Ecclestone	-11.8846
▁Pul	-11.8849
oko	-11.8851
▁Gy	-11.8851
▁chiefs	-11.8852
▁rack	-11.8855
▁respirator	-11.886
▁shave	-11.886
▁Emmy	-11.886
▁bak	-11.8861
▁manhunt	-11.8862
▁Warrior	-11.8866
▁stack	-11.8866
▁Sina	-11.887
▁notable	-11.8871
dou	-11.8872
▁capsule	-11.8875
▁tranquil	-11.8876
▁Bashar	-11.8878
▁packag	-11.8881
▁Matthews	-11.8884
▁lag	-11.8884
zz	-11.8885
▁faithful	-11.8885
▁tighten	-11.8888
▁sheer	-11.8889
▁cult	-11.8891
kan	-11.8892
▁deportation	-11.8892
▁thrash	-11.8893
▁wool	-11.8896
▁bell	-11.8897
▁till	-11.8898
▁dop	-11.8898
▁inventor	-11.89
vil	-11.8902
▁Pepe	-11.8903
▁illicit	-11.8903
▁fugitive	-11.8903
otta	-11.8904
38	-11.8905
▁authors	-11.8908
▁Winner	-11.8915
▁Tevez	-11.8918
▁Hungary	-11.8919
▁ensue	-11.892
▁Skype	-11.8921
▁foil	-11.8922
▁flex	-11.8924
▁originat	-11.8927
▁Patt	-11.8929
▁Carey	-11.893
urriculum	-11.8932
▁spiral	-11.8933
▁spine	-11.8934
▁sniff	-11.8935
320	-11.8938
▁Marcus	-11.8943
▁zip	-11.8944
▁sprout	-11.8947
▁humour	-11.8947
▁twentie	-11.8947
od	-11.895
▁Webber	-11.8953
▁Kroo	-11.8954
▁bold	-11.8955
▁Wiltshire	-11.8961
▁identical	-11.8961
▁provincial	-11.8961
▁Malaga	-11.8962
▁tumor	-11.8962
▁representation	-11.8962
▁Barb	-11.8962
▁Bueno	-11.8963
▁repel	-11.8971
▁Vas	-11.8972
▁underage	-11.8972
▁HS	-11.8972
▁profession	-11.8973
▁Mahmoud	-11.8976
▁Santiago	-11.8976
▁Kasem	-11.8976
▁Jefferson	-11.8977
▁Library	-11.8979
▁crisp	-11.898
lung	-11.898
▁Environmental	-11.898
▁meteor	-11.8981
▁exceeding	-11.8982
▁murderer	-11.8985
▁Esp	-11.8986
▁Mia	-11.8989
▁pleading	-11.8989
▁Wawrinka	-11.899
▁flavor	-11.8991
▁Case	-11.8992
▁salut	-11.8997
▁reliabl	-11.9001
▁apologis	-11.9003
▁Agent	-11.9003
▁jade	-11.9005
▁roam	-11.9005
▁Dw	-11.9006
▁Finland	-11.9006
▁myth	-11.9006
▁battles	-11.9007
▁strateg	-11.9008
▁dictate	-11.9009
▁skier	-11.9012
▁bowler	-11.9012
SD	-11.9015
otund	-11.9015
▁decoration	-11.9015
▁Shark	-11.9017
▁verge	-11.9019
ea	-11.9019
▁Lovren	-11.902
▁replicate	-11.902
▁Cardinal	-11.902
raping	-11.902
▁counties	-11.902
▁Alfred	-11.9021
▁wig	-11.9024
▁getaway	-11.9024
▁tanker	-11.9026
▁Aldi	-11.9026
▁hoop	-11.9027
bag	-11.9027
▁oblige	-11.9028
gy	-11.9028
▁disposal	-11.9029
▁miner	-11.9032
▁compile	-11.9033
▁abrupt	-11.9034
▁hilarious	-11.9034
▁delicate	-11.9035
▁Ligue	-11.9036
▁Add	-11.9036
▁Empire	-11.9036
▁lam	-11.9036
▁Smart	-11.9037
▁bann	-11.9039
▁grace	-11.9043
▁Myers	-11.9043
63	-11.9043
▁upside	-11.9043
▁chunk	-11.9047
▁womb	-11.9048
▁Ruth	-11.9049
▁intersection	-11.905
▁outspoken	-11.9053
▁psychologist	-11.9053
▁poet	-11.906
llo	-11.906
▁mentor	-11.9061
▁Gloucester	-11.9063
▁Sylv	-11.9064
zen	-11.9066
enberg	-11.9066
kara	-11.9069
▁Rid	-11.907
▁penn	-11.9075
▁courtes	-11.9075
▁outdoor	-11.9076
48	-11.9076
▁glamorous	-11.9078
59	-11.9078
▁Tripoli	-11.9079
▁Cyprus	-11.9079
▁tricks	-11.908
▁Sim	-11.908
▁unarm	-11.9081
▁Bloom	-11.9082
▁prevention	-11.9082
▁Fear	-11.9085
aday	-11.9087
▁notic	-11.9087
dell	-11.909
▁Wick	-11.9091
23	-11.9093
▁Ontario	-11.9093
▁retweet	-11.9093
▁swarm	-11.9097
▁plott	-11.91
▁canal	-11.91
▁ugly	-11.9102
▁Dominican	-11.9102
yah	-11.9102
▁intelligent	-11.9106
▁tuck	-11.9108
▁adjunct	-11.9108
DS	-11.911
▁outlaw	-11.9111
▁Boot	-11.9116
vory	-11.9116
▁captiv	-11.9117
▁Story	-11.9117
▁Plat	-11.9118
▁heated	-11.9119
▁dolphin	-11.9119
tious	-11.912
hoe	-11.912
▁Sever	-11.912
▁Guatemala	-11.9123
▁clamber	-11.9123
▁Artist	-11.9123
▁2022	-11.9125
▁Share	-11.9127
▁critic	-11.9129
▁HBO	-11.9132
▁reflection	-11.9133
▁lessen	-11.9135
▁Culture	-11.9137
▁dignity	-11.914
▁ple	-11.9141
ote	-11.9142
▁overhead	-11.9142
▁distribut	-11.9144
▁surgeri	-11.9147
▁supportive	-11.9149
bah	-11.915
▁Nov	-11.9151
▁stylish	-11.9152
▁Mom	-11.9153
▁perpetrator	-11.9153
▁der	-11.9157
▁Ruby	-11.9158
cht	-11.9158
tton	-11.9159
rup	-11.9163
▁Ashe	-11.9164
▁sunshine	-11.9164
▁chatter	-11.9166
▁Saunders	-11.9167
▁trillion	-11.9168
▁Incident	-11.9168
▁Churchill	-11.9169
▁packet	-11.9169
▁cav	-11.9172
▁flank	-11.9172
▁quiz	-11.9174
▁knit	-11.9175
▁Bulgaria	-11.9176
▁enchant	-11.9181
▁wr	-11.9182
▁middling	-11.9183
▁mechanism	-11.9183
▁nego	-11.9183
▁NO	-11.9186
▁mighty	-11.9186
▁satisfaction	-11.9187
▁reactor	-11.9187
▁Koh	-11.9187
▁frontman	-11.9187
▁Less	-11.9189
▁Brothers	-11.919
▁disgraceful	-11.9201
cle	-11.9202
▁adolescent	-11.9204
cos	-11.9204
obi	-11.9205
▁Zach	-11.9207
▁reprehensibl	-11.9209
▁beguile	-11.921
▁condo	-11.9212
▁Rudd	-11.9212
▁Tree	-11.9212
▁Paramedic	-11.9212
▁predominate	-11.9212
▁Assange	-11.9212
▁Detail	-11.9216
▁Could	-11.9216
▁Brett	-11.9219
bil	-11.922
▁Gate	-11.9221
ru	-11.9222
▁prescribe	-11.9222
▁gust	-11.9222
▁barr	-11.9223
▁knead	-11.9227
▁fingerprint	-11.9228
▁paperwork	-11.9229
▁Dancing	-11.9235
▁sailing	-11.9235
▁1000	-11.9236
▁kinda	-11.9236
tham	-11.9237
▁lace	-11.9237
▁Rovers	-11.9241
▁jab	-11.9241
amba	-11.9242
▁stepping	-11.9242
iao	-11.9242
▁Froch	-11.9243
▁Wellington	-11.9243
▁empire	-11.9244
lift	-11.9246
▁genital	-11.9246
36	-11.9249
▁Lav	-11.9257
▁manoeuver	-11.9257
▁Private	-11.9258
▁Kei	-11.9258
▁Darwin	-11.9258
awn	-11.9259
umble	-11.9259
▁Windows	-11.926
▁shutdown	-11.9261
▁Brewer	-11.9269
▁challenger	-11.9272
▁Malala	-11.9275
▁tit	-11.9277
▁Cel	-11.9278
zel	-11.9284
▁Mau	-11.9284
▁trader	-11.9285
▁Supporter	-11.9286
▁Soldier	-11.9287
▁Hou	-11.9288
▁tractor	-11.9288
▁preferabl	-11.9289
▁Fowler	-11.9289
inho	-11.9289
▁Payne	-11.9292
▁advertise	-11.9294
▁monk	-11.9294
▁epic	-11.9295
onia	-11.9296
▁payout	-11.9297
onnie	-11.9301
▁congratulate	-11.9301
▁Bern	-11.9303
▁transgender	-11.9304
▁Gos	-11.9304
▁bask	-11.9305
▁outrageous	-11.931
eddy	-11.9311
▁MO	-11.9316
▁circus	-11.9319
▁Carney	-11.932
▁fundraiser	-11.9322
▁advertisement	-11.9324
▁Chanel	-11.9325
▁qualit	-11.9325
SI	-11.9326
▁PA	-11.9326
▁replay	-11.9328
▁Gilbert	-11.9328
▁stun	-11.9331
▁Goals	-11.9331
▁elevate	-11.9332
▁recoup	-11.9333
▁Shepherd	-11.9333
▁Olivia	-11.9333
▁reconstruct	-11.9336
▁Warning	-11.9339
▁billboard	-11.9341
win	-11.9342
▁Third	-11.9343
▁vers	-11.9343
mish	-11.9344
84	-11.9344
▁USS	-11.9345
▁Hut	-11.9347
▁Auckland	-11.9348
▁caretaker	-11.9348
▁trespass	-11.9348
▁Flint	-11.9349
▁groov	-11.9349
▁Rover	-11.935
▁Program	-11.9351
▁Chilean	-11.9353
ife	-11.9353
▁dedicat	-11.9354
▁Sagna	-11.9354
▁useful	-11.9358
EP	-11.9358
▁Cats	-11.9358
▁migration	-11.9359
▁captivate	-11.9362
▁delegation	-11.9363
▁concussion	-11.9363
▁Interstate	-11.9363
▁accumulate	-11.9364
▁Salford	-11.9366
▁minds	-11.9367
▁Wha	-11.9368
▁silk	-11.9369
▁somehow	-11.9369
▁Dominic	-11.9371
▁Moment	-11.9373
▁Sto	-11.9374
▁covers	-11.9376
▁exile	-11.9377
aker	-11.9377
▁matrimon	-11.9378
▁cork	-11.9379
▁choos	-11.938
▁slaughter	-11.938
▁surplus	-11.9381
eces	-11.9382
▁quet	-11.9384
▁separatist	-11.9384
▁measl	-11.9385
▁tub	-11.9386
osa	-11.9388
▁Byr	-11.9393
▁technician	-11.9393
▁FREE	-11.9394
▁mixture	-11.9394
▁dual	-11.9396
▁minus	-11.9397
move	-11.94
▁05	-11.9404
▁Alison	-11.9404
▁Ble	-11.9406
▁placing	-11.9407
▁seaside	-11.9407
▁Theatre	-11.9409
▁Sacramento	-11.9409
▁eyebrow	-11.9409
▁Tina	-11.9411
▁knees	-11.9411
▁piano	-11.9411
▁Ty	-11.9418
▁prod	-11.9419
▁Keep	-11.9423
▁contaminat	-11.9423
▁Crow	-11.9424
▁observation	-11.9424
▁Rwanda	-11.9424
▁IVF	-11.9424
ments	-11.9426
▁ME	-11.9431
▁Uganda	-11.9432
▁Lama	-11.9433
NG	-11.9433
▁palm	-11.9434
▁niggl	-11.9435
ude	-11.9437
▁Bilbao	-11.9439
▁Tea	-11.9439
▁sunglasses	-11.944
▁transit	-11.9441
trovert	-11.9441
addy	-11.9442
▁carer	-11.9446
▁Columbu	-11.9446
▁barren	-11.9449
▁Taking	-11.9455
▁pillow	-11.9456
quin	-11.9456
▁Pic	-11.9457
▁deployment	-11.9458
▁tra	-11.946
▁Dane	-11.9461
▁tolerance	-11.9461
▁slapp	-11.9462
▁smoker	-11.9462
800	-11.9463
▁rot	-11.9464
▁Cycl	-11.9465
▁SN	-11.9466
▁115	-11.9468
▁Prosecution	-11.947
▁genocide	-11.9471
▁Joyce	-11.9474
▁ICC	-11.9474
raught	-11.9474
▁Deal	-11.9474
ert	-11.9476
▁scat	-11.9482
▁hung	-11.9482
▁Elvis	-11.9482
▁Kuwait	-11.9485
▁airspace	-11.9487
▁rains	-11.9487
▁journalism	-11.9488
28	-11.9489
▁diver	-11.949
▁rallie	-11.9491
▁105	-11.9494
▁tailor	-11.9494
▁ashamed	-11.9494
▁Sanders	-11.9498
▁sights	-11.95
pur	-11.95
▁universe	-11.9501
cal	-11.9506
▁Hir	-11.951
▁Oprah	-11.9516
▁Nashville	-11.9516
▁Spark	-11.9517
▁sanctuary	-11.952
▁rover	-11.9521
▁Brooke	-11.9521
▁understandabl	-11.9521
chen	-11.9522
▁heaven	-11.9523
▁Allan	-11.9523
▁Osam	-11.9527
▁inadvertent	-11.9531
▁Benitez	-11.9531
▁Ralph	-11.9532
▁Guan	-11.9535
▁pumpkin	-11.9536
▁reunit	-11.9537
iq	-11.9539
▁Neuer	-11.9539
▁spouse	-11.954
▁nanny	-11.9542
▁Height	-11.9543
▁LONDON	-11.9547
▁drastic	-11.9547
ex	-11.9548
▁silent	-11.955
▁Ltd	-11.9551
ually	-11.9552
▁Cli	-11.9554
eus	-11.9554
▁Denise	-11.9556
▁Rene	-11.9556
▁stud	-11.9556
state	-11.9558
lord	-11.956
▁Cast	-11.9562
uro	-11.9562
▁necklace	-11.9563
▁Kiev	-11.9564
▁Lar	-11.9564
▁gauge	-11.9565
▁sponsors	-11.9565
▁captive	-11.9566
▁Ji	-11.9567
▁Injur	-11.957
ender	-11.9572
▁Av	-11.9573
▁Cai	-11.9576
▁Clement	-11.9576
▁Maps	-11.9577
▁Agricultur	-11.9578
▁terrier	-11.9581
▁mandate	-11.9581
ag	-11.9582
▁Corn	-11.9582
▁Tracey	-11.9583
gem	-11.9584
▁Chat	-11.9585
▁saddle	-11.9586
35	-11.9587
▁belly	-11.9589
▁reunion	-11.9593
▁Petersburg	-11.9595
▁necessaril	-11.9596
▁speculate	-11.9597
▁Tol	-11.9597
gie	-11.9602
sty	-11.9603
▁Nav	-11.9603
▁generat	-11.9605
anamo	-11.9607
▁Step	-11.9607
▁detonate	-11.9608
▁brains	-11.9608
▁Sat	-11.9609
▁folks	-11.9609
▁Vienna	-11.961
▁craze	-11.961
key	-11.961
▁shallow	-11.9612
▁stereotype	-11.9613
1930	-11.9614
▁finale	-11.9615
▁McCa	-11.9615
▁Nature	-11.9615
▁nast	-11.9616
▁Marshal	-11.9616
fty	-11.9618
▁Ministers	-11.9621
▁outline	-11.9621
▁va	-11.9621
▁chit	-11.9622
owing	-11.9624
▁Venus	-11.9624
▁Cyrus	-11.9625
pi	-11.9627
plane	-11.9629
▁Davidson	-11.9632
disputed	-11.9639
▁Abraham	-11.9641
▁Tonight	-11.9641
ebanese	-11.9641
hom	-11.9642
▁objective	-11.9642
▁Creat	-11.9647
▁Falls	-11.9649
▁Yankee	-11.965
▁Cheltenham	-11.9656
▁Defoe	-11.9656
▁dissembl	-11.9656
▁Studie	-11.9661
▁Reynolds	-11.9662
FL	-11.9667
▁pric	-11.9668
▁blessing	-11.9668
▁particle	-11.9669
▁candid	-11.9669
▁barrister	-11.9671
▁Adebayor	-11.9671
▁Mountains	-11.9673
▁batsman	-11.9674
▁revert	-11.9676
non	-11.9676
▁realistic	-11.9677
owski	-11.9678
▁Kos	-11.9679
▁beak	-11.9681
cha	-11.9682
gony	-11.9687
▁knight	-11.9688
▁Martha	-11.9688
▁Kindle	-11.9688
▁conventional	-11.9689
▁ga	-11.9691
▁Sentenc	-11.9691
▁valid	-11.9693
▁horn	-11.9695
▁Ac	-11.9699
meliorate	-11.97
▁lamp	-11.9702
▁emphatic	-11.9703
▁blunder	-11.9703
▁bystander	-11.9703
▁Raj	-11.9706
▁senesce	-11.9706
▁situated	-11.9708
▁Urban	-11.971
OW	-11.9716
▁vigil	-11.9718
sie	-11.9718
▁Ul	-11.9718
▁iPod	-11.9718
▁unearth	-11.9718
▁joking	-11.9719
▁Jonny	-11.972
▁unchang	-11.972
iki	-11.972
▁Hansen	-11.9721
▁sincere	-11.9722
opyright	-11.9723
▁Someone	-11.9724
child	-11.9728
mit	-11.9728
▁anonym	-11.9729
▁prostate	-11.973
▁rive	-11.9731
▁Hang	-11.9733
▁Judy	-11.9734
▁Frankfurt	-11.9734
▁magnificent	-11.9735
▁Mash	-11.9735
bourne	-11.9736
▁subsid	-11.9736
▁reluctant	-11.9737
hog	-11.974
lines	-11.974
▁concur	-11.9741
▁Lima	-11.9742
▁categorie	-11.9743
▁Start	-11.9744
▁Eagle	-11.9745
▁Policy	-11.9746
▁plat	-11.9748
Newport	-11.9749
▁voluntari	-11.975
yuan	-11.975
▁Cod	-11.9754
▁jibe	-11.9754
hut	-11.9755
▁crie	-11.9755
▁clo	-11.9757
▁marriages	-11.9758
▁Lad	-11.9759
▁Katy	-11.9759
ien	-11.9765
▁applicant	-11.9765
▁gallant	-11.9766
▁tycoon	-11.9767
bell	-11.9767
static	-11.9768
▁workout	-11.977
him	-11.9773
▁pie	-11.9777
▁Fresh	-11.9777
▁passers	-11.9779
▁Buffalo	-11.9782
▁fet	-11.9783
▁cheque	-11.9785
▁allerg	-11.9785
▁median	-11.9788
acious	-11.979
▁kicks	-11.9794
NI	-11.9794
▁Bomb	-11.9794
active	-11.9794
▁stat	-11.9795
izz	-11.9795
▁obstacle	-11.9797
▁Juarez	-11.9797
▁Legend	-11.9799
▁Alvaro	-11.98
▁bureau	-11.9804
▁Robson	-11.9805
▁jeopardize	-11.9807
▁supermodel	-11.9807
ora	-11.9808
▁cue	-11.9813
▁plaintiff	-11.9814
▁curriculum	-11.9814
tical	-11.9814
AM	-11.9814
▁forecaster	-11.9815
▁wireless	-11.982
▁Cowell	-11.9821
▁scrub	-11.9822
▁McLe	-11.9822
▁Darling	-11.9823
chenko	-11.9824
▁Walt	-11.9824
▁revere	-11.9826
▁hover	-11.9826
▁server	-11.9828
▁Rivera	-11.9828
▁Hamid	-11.9829
▁Isaac	-11.983
▁Fukushi	-11.9831
▁bracelet	-11.9832
▁Marsh	-11.9832
▁Valerie	-11.9832
▁Cola	-11.9836
▁Belle	-11.9836
tta	-11.9837
▁Vidal	-11.9841
craft	-11.9841
ester	-11.9845
▁Nairobi	-11.9845
▁Tara	-11.9846
▁addresse	-11.9847
▁Desert	-11.9848
79	-11.9851
▁standardise	-11.9852
▁Roth	-11.9853
▁220	-11.9854
▁pals	-11.9855
▁memo	-11.9857
▁VA	-11.9858
▁noon	-11.9859
▁fraternity	-11.9859
▁Madeleine	-11.9861
Jenny	-11.9863
▁Midfielder	-11.9864
▁attribute	-11.9873
▁admire	-11.9873
▁Swan	-11.9873
▁Getting	-11.9875
▁Vonn	-11.9877
lington	-11.9878
▁registration	-11.9878
▁destitut	-11.9878
▁corrode	-11.9878
▁molest	-11.988
▁McE	-11.9884
▁confirmation	-11.9886
▁fa	-11.9886
▁responder	-11.9886
▁Brent	-11.9888
▁enlist	-11.989
nia	-11.989
▁da	-11.989
▁descent	-11.9891
▁Betty	-11.9894
▁defi	-11.9894
▁Besik	-11.9895
▁Philippe	-11.9896
eman	-11.9897
▁Clay	-11.9897
▁Sale	-11.9901
▁Cass	-11.9903
▁polluti	-11.9904
▁pollut	-11.9905
▁Wyoming	-11.9909
▁calamit	-11.9909
▁flourish	-11.991
▁cellphone	-11.991
▁Oxla	-11.9911
▁hijack	-11.9914
▁Raw	-11.9915
bly	-11.9916
▁Sugar	-11.9917
▁shameful	-11.9917
▁monarch	-11.9919
▁lid	-11.992
ito	-11.9922
odo	-11.9924
▁Galatasaray	-11.9925
▁Giorgio	-11.9926
▁woe	-11.9926
▁relegate	-11.9926
▁Gamb	-11.9926
▁Buy	-11.9926
▁Township	-11.9927
wen	-11.9927
▁economist	-11.9928
▁Bea	-11.9928
oul	-11.993
▁mesh	-11.9934
▁wav	-11.9935
▁Wolve	-11.9939
▁fixing	-11.9941
▁plunk	-11.9941
▁bark	-11.9941
▁Pad	-11.9942
▁prediction	-11.9945
▁Protester	-11.9949
bow	-11.9949
▁arraign	-11.9956
icular	-11.9957
▁constituenc	-11.9957
▁Donetsk	-11.9957
▁convincing	-11.9957
▁grain	-11.9963
rift	-11.9963
scale	-11.9964
▁Cow	-11.9964
▁raft	-11.9966
bility	-11.9967
▁Burke	-11.997
▁slid	-11.997
▁enhanc	-11.9971
▁Shades	-11.9971
mic	-11.9973
▁neutral	-11.9973
▁curfew	-11.9973
▁scarper	-11.9974
▁rodent	-11.9974
▁Talent	-11.9975
▁Calderon	-11.9976
▁briefing	-11.9977
▁Leigh	-11.9982
▁witch	-11.9987
▁Arn	-11.9989
▁plume	-11.9989
▁Randy	-11.9989
▁Sinclair	-11.999
▁jungle	-11.999
▁Stella	-11.999
▁tele	-11.9992
▁hurdle	-11.9997
▁175	-12.0001
lashes	-12.0005
▁unjust	-12.0005
▁Sotheby	-12.0006
▁Venice	-12.0006
▁Jurgen	-12.0006
▁Watkins	-12.0007
▁redeem	-12.0007
leen	-12.0008
▁Dam	-12.001
▁summar	-12.0011
▁Swa	-12.0018
▁Bog	-12.0018
▁ostensibl	-12.0022
▁vacuum	-12.0022
▁Schi	-12.0025
▁sword	-12.0026
▁Future	-12.0026
▁distraction	-12.0027
hunky	-12.003
pies	-12.003
▁standardiz	-12.0031
▁Mackay	-12.0032
link	-12.0033
69	-12.0035
▁Athens	-12.0036
▁Ambassador	-12.0038
▁Mickelson	-12.0038
▁garbage	-12.0039
aust	-12.0042
▁Dress	-12.0044
▁Gian	-12.0045
▁Spider	-12.0046
▁unblock	-12.0049
▁roommate	-12.005
fleck	-12.005
▁taunt	-12.005
nder	-12.0052
▁Controversial	-12.0055
▁fishermen	-12.0055
▁damn	-12.0056
▁avalanche	-12.0058
▁Safe	-12.0058
▁flie	-12.0059
▁midwa	-12.0059
didas	-12.0059
▁Rus	-12.0059
oga	-12.0065
ota	-12.0067
▁bands	-12.0067
▁Evan	-12.0067
CB	-12.007
▁staple	-12.007
▁Hussain	-12.0071
thinking	-12.0079
▁Nolan	-12.008
▁blistering	-12.0084
▁fragment	-12.0087
▁terrain	-12.0087
▁ameliorate	-12.0089
how	-12.009
▁Zin	-12.0091
▁vari	-12.0092
▁Pole	-12.0093
▁Job	-12.0093
▁handicapp	-12.0093
ines	-12.0094
shot	-12.0095
▁Pett	-12.0098
▁pok	-12.01
▁wad	-12.0106
▁Put	-12.0107
▁observ	-12.011
▁versatil	-12.011
qua	-12.0114
wald	-12.0115
▁Harbor	-12.0117
proving	-12.0119
▁rag	-12.0119
▁Baptist	-12.012
▁Deportivo	-12.012
▁sprain	-12.012
▁Lincolnshire	-12.0121
▁colourful	-12.0121
▁Guang	-12.0122
▁pencil	-12.0122
vey	-12.0122
ls	-12.0125
▁unloosen	-12.0128
▁Miley	-12.0129
▁hunters	-12.0133
▁honeymoon	-12.0136
▁crude	-12.0136
GO	-12.0138
▁Stones	-12.0143
▁Bau	-12.0145
▁contributions	-12.0147
▁Sub	-12.0148
tter	-12.0149
▁roast	-12.015
roy	-12.0151
▁Early	-12.0151
▁Tex	-12.0151
▁provider	-12.0152
▁Commander	-12.0152
▁hockey	-12.0153
▁Jaguar	-12.0153
▁technologi	-12.0154
▁cont	-12.0154
▁Buddhist	-12.0154
▁Kieran	-12.0155
▁pervert	-12.0157
bate	-12.0159
Tune	-12.0161
▁ounce	-12.0161
▁Vir	-12.0162
zzle	-12.0163
87	-12.0164
▁occupation	-12.0168
▁Tribute	-12.0169
▁Graeme	-12.0169
▁Tian	-12.0169
▁ransom	-12.017
▁mechanic	-12.017
▁axe	-12.017
▁hygien	-12.017
etto	-12.0172
▁Garry	-12.0174
▁Gallery	-12.0174
dorf	-12.0176
▁Waitrose	-12.0179
▁nap	-12.0179
▁Highland	-12.0179
▁disc	-12.0181
kindle	-12.0182
▁Amendment	-12.0186
uce	-12.0186
▁Professional	-12.0186
idi	-12.0188
▁Wid	-12.0192
len	-12.0192
emia	-12.0192
ign	-12.0193
▁Azare	-12.0197
▁Au	-12.0198
▁flavour	-12.0201
▁rationalise	-12.0203
▁gray	-12.0205
▁stalk	-12.0208
▁dated	-12.0208
▁mat	-12.021
▁MTV	-12.021
▁Sala	-12.0213
▁Litera	-12.0213
▁Rit	-12.0214
▁assured	-12.0214
xon	-12.0218
▁Townsend	-12.0219
▁unresponsive	-12.022
▁Milton	-12.0221
▁enquirie	-12.0222
dent	-12.0226
▁Fah	-12.0227
▁Foot	-12.0227
▁costing	-12.0228
▁recogniz	-12.0228
uke	-12.023
oster	-12.0233
▁Lowe	-12.0234
hold	-12.0235
▁speakers	-12.0236
▁quell	-12.0236
▁Bentley	-12.0237
▁qu	-12.0241
▁Ce	-12.0241
▁bundle	-12.0242
▁radiati	-12.0243
▁Franco	-12.025
▁shortlist	-12.0251
▁hybrid	-12.0252
▁culprit	-12.0252
▁Violence	-12.0253
goer	-12.0253
▁outcr	-12.0254
▁thump	-12.0255
▁Abbas	-12.0255
▁Taser	-12.0258
▁temp	-12.0258
▁ok	-12.0261
ati	-12.0264
▁fiddl	-12.0267
▁estrange	-12.0269
▁sponsorship	-12.0271
▁Royce	-12.0272
▁eleven	-12.0273
▁cordon	-12.0274
wind	-12.0275
val	-12.0276
▁Lower	-12.0278
itter	-12.0278
stow	-12.0281
▁NC	-12.0284
▁Recent	-12.0286
▁mastermind	-12.0286
▁knocking	-12.0288
ruck	-12.0288
▁Rhode	-12.0289
rov	-12.0289
▁Hawk	-12.0289
▁Use	-12.029
▁embroil	-12.029
safer	-12.0291
▁apologiz	-12.0294
▁Abd	-12.0294
▁printer	-12.0295
▁Flag	-12.0295
nar	-12.0298
▁snug	-12.0298
brand	-12.0299
▁engaging	-12.0302
▁vodka	-12.0302
▁empower	-12.0302
▁Filipino	-12.0302
▁locks	-12.0302
▁Foley	-12.0305
▁compil	-12.0305
▁cramp	-12.0305
law	-12.0305
gio	-12.0306
▁Helman	-12.0307
▁walker	-12.0309
▁Lucki	-12.031
▁Koch	-12.031
▁dentist	-12.0312
▁shipment	-12.0313
▁entr	-12.0314
far	-12.0315
▁justificat	-12.0316
▁hay	-12.0317
▁Crawford	-12.0318
▁ti	-12.0319
▁verify	-12.032
▁UFO	-12.032
▁Conte	-12.0323
▁HM	-12.0325
▁cooperate	-12.0329
issa	-12.0331
bee	-12.0331
ac	-12.0332
▁Joey	-12.0335
▁mogul	-12.0335
▁roar	-12.0336
▁accredit	-12.0336
▁punt	-12.0338
fi	-12.0339
▁Gan	-12.034
▁Ridge	-12.034
▁villa	-12.0346
OP	-12.0347
▁Deborah	-12.0352
list	-12.0352
▁Voice	-12.0353
▁Turn	-12.0354
▁fights	-12.0354
▁Bald	-12.0355
▁worrie	-12.0355
▁Milk	-12.0356
▁Mara	-12.0357
▁Double	-12.0362
▁snor	-12.0364
▁amputate	-12.0369
▁WikiLeak	-12.0369
eth	-12.0371
▁Pack	-12.0371
▁amendment	-12.0372
▁Elia	-12.0374
46	-12.0375
ami	-12.0377
shop	-12.0379
yune	-12.0379
▁tout	-12.038
▁chatt	-12.0381
▁epi	-12.0381
bus	-12.0385
▁Dundee	-12.0385
▁Referee	-12.0386
▁Sentinel	-12.0386
▁rationalize	-12.0386
▁Florence	-12.0386
▁Erin	-12.0388
▁Living	-12.039
ssa	-12.0391
▁gen	-12.0394
▁Sla	-12.0401
978	-12.0401
▁turbine	-12.0404
▁Cumbria	-12.0404
▁idol	-12.0405
▁salarie	-12.0405
▁scoop	-12.0407
beat	-12.0408
▁mobil	-12.0408
war	-12.0413
awi	-12.0414
▁unf	-12.0414
▁Universal	-12.0415
uki	-12.0417
▁pursu	-12.0418
▁malicious	-12.0419
▁Piers	-12.0419
▁clown	-12.0419
▁blockbuster	-12.042
▁Move	-12.042
IM	-12.042
▁Carrick	-12.042
▁Daisy	-12.0421
▁disturbance	-12.0422
▁Bot	-12.0422
▁infra	-12.0425
▁Data	-12.0426
▁Evening	-12.0429
▁rebound	-12.043
▁taint	-12.043
▁untimel	-12.0433
aven	-12.0433
▁Autumn	-12.0436
▁Traffic	-12.0436
▁eurozone	-12.0436
roll	-12.0437
gent	-12.0438
tofore	-12.0439
▁Klein	-12.0439
▁Pastor	-12.0439
▁Pav	-12.0439
▁Bend	-12.044
▁problematic	-12.044
▁transmitt	-12.0441
▁09	-12.0444
▁Mei	-12.0445
▁gut	-12.0448
▁Marion	-12.0448
▁inquiri	-12.0448
▁Ferr	-12.045
ieri	-12.0451
▁breastfeed	-12.0451
▁fork	-12.0451
▁dribble	-12.0452
▁Bod	-12.0452
worn	-12.0452
▁pigeon	-12.0453
▁gloom	-12.0454
▁Wilkinson	-12.0454
▁dispatcher	-12.0455
▁intensit	-12.0455
ria	-12.0458
▁canine	-12.0459
▁programm	-12.0461
innings	-12.0461
▁ph	-12.0462
▁Rak	-12.0463
▁Uber	-12.0463
ogen	-12.0465
▁Clinic	-12.0465
▁mandator	-12.047
▁tribe	-12.047
▁resurrect	-12.047
sprung	-12.0473
▁Moses	-12.0474
▁entertaining	-12.0475
▁summon	-12.0475
▁Lords	-12.0477
▁ambush	-12.0478
ttle	-12.048
▁Ai	-12.0481
▁Simmons	-12.0483
▁devise	-12.0484
iri	-12.0485
▁playful	-12.0486
▁negotiat	-12.0487
▁McCann	-12.0487
▁robust	-12.0487
▁Rail	-12.0487
▁Harbour	-12.0488
▁Cart	-12.0489
▁Nash	-12.0492
▁feast	-12.0492
enne	-12.0494
▁Eventual	-12.0495
▁Dev	-12.0495
▁cede	-12.0496
▁Kumar	-12.0496
▁bount	-12.0497
▁pic	-12.05
▁lucr	-12.05
▁providers	-12.05
▁earnest	-12.05
▁Coll	-12.0501
▁scram	-12.0502
gor	-12.0503
▁germinate	-12.0504
▁python	-12.0504
▁Kr	-12.0505
▁Ribery	-12.0505
chat	-12.0509
▁sweeping	-12.051
▁Clive	-12.051
chy	-12.0513
▁curious	-12.0514
▁Frei	-12.0514
▁indoor	-12.0517
hull	-12.0518
▁Drew	-12.0519
▁Stuttgart	-12.0521
▁Hom	-12.0521
▁carcass	-12.0521
▁occupi	-12.0521
▁Rigby	-12.0521
▁Slovakia	-12.0522
▁rouse	-12.0524
▁barge	-12.0525
▁ashes	-12.0527
▁elementar	-12.053
sel	-12.0532
▁MS	-12.0535
ndra	-12.0536
▁bearing	-12.0536
▁dorm	-12.0537
▁Ing	-12.0537
▁caliber	-12.0538
▁Rocky	-12.0538
astir	-12.0544
▁psycho	-12.0546
▁Yeo	-12.0546
▁Edin	-12.0548
ripping	-12.0552
▁lure	-12.0552
▁Twi	-12.0555
▁Benghazi	-12.0555
▁LeBron	-12.0555
▁kibo	-12.0555
▁Popular	-12.0555
▁historian	-12.0555
▁Ut	-12.0558
▁Mine	-12.0559
▁notify	-12.0561
lermo	-12.0561
▁Scha	-12.0562
tuary	-12.0562
▁intake	-12.0563
▁fiction	-12.0564
▁Net	-12.0565
▁Hindu	-12.0566
▁Touch	-12.0568
▁Donna	-12.0568
▁brink	-12.0569
▁Nad	-12.0572
▁Schurrle	-12.0572
▁Danielle	-12.0572
▁Lotus	-12.0573
▁Hayden	-12.0574
▁Sei	-12.0578
▁AD	-12.0579
▁unloose	-12.0582
nautic	-12.0584
▁merchandise	-12.0585
oof	-12.0589
▁cognisan	-12.0589
▁beverage	-12.0589
▁Chin	-12.059
▁mainstream	-12.059
▁transmission	-12.0591
▁editorial	-12.0591
▁recognis	-12.0592
▁intern	-12.0592
pus	-12.0594
▁anxious	-12.0595
shi	-12.0595
lbs	-12.0595
atti	-12.0595
illard	-12.06
▁Denis	-12.06
lour	-12.06
▁unfreez	-12.0602
▁Grow	-12.0605
Against	-12.0605
ories	-12.0605
▁sequence	-12.0605
phor	-12.0605
▁expedition	-12.0608
▁maternity	-12.0608
▁enrich	-12.0609
▁puff	-12.0614
▁umbrella	-12.062
▁camel	-12.0622
▁undermine	-12.0623
▁felonious	-12.0625
▁Clayton	-12.0625
▁accelerat	-12.0627
▁stern	-12.0629
▁safeguard	-12.063
▁sadness	-12.0631
▁Java	-12.0632
ike	-12.0634
▁promoter	-12.0635
▁lists	-12.0641
▁embo	-12.0641
▁Reus	-12.0642
▁Minute	-12.0642
▁invad	-12.0643
wire	-12.0644
▁envelope	-12.0644
▁psychiatric	-12.0647
▁monument	-12.0651
▁regale	-12.0651
▁distant	-12.0652
▁archive	-12.0653
▁Trierweiler	-12.0658
▁methamphetamine	-12.0658
▁provocative	-12.0658
easy	-12.0658
▁fraudulent	-12.0658
▁imperil	-12.0659
▁Noble	-12.0659
▁Manila	-12.0661
▁hats	-12.0661
mes	-12.0661
ously	-12.0663
▁Manny	-12.0664
fected	-12.0665
▁Courtney	-12.0667
▁tables	-12.0668
▁Cath	-12.0668
▁Canal	-12.0669
estall	-12.0671
biography	-12.0672
▁reel	-12.0672
▁treble	-12.0672
▁preferent	-12.0673
▁Boehner	-12.0676
▁Stockholm	-12.0676
▁Communication	-12.0676
HO	-12.0676
inner	-12.0677
▁Whitehall	-12.0677
▁thumb	-12.0678
▁Full	-12.0679
▁doss	-12.068
▁backdrop	-12.068
▁Hit	-12.068
▁shall	-12.068
uin	-12.0681
TS	-12.0682
▁Eu	-12.0683
▁braver	-12.0684
kovic	-12.0686
kel	-12.0686
▁Dee	-12.0687
▁uncertaint	-12.0689
▁Basil	-12.0691
eclamat	-12.0691
lia	-12.0691
esh	-12.0692
▁Uni	-12.0695
▁trait	-12.0698
▁Jamaican	-12.0702
▁Olympia	-12.0704
▁limp	-12.0704
▁Gerald	-12.0705
▁230	-12.0706
space	-12.0706
▁Robb	-12.0706
▁Greene	-12.0707
▁Dems	-12.0707
▁Plain	-12.0709
▁Shawn	-12.0709
▁Schwartz	-12.071
▁imminent	-12.071
▁Wan	-12.071
▁Chronicle	-12.071
sler	-12.0711
▁Beauty	-12.0711
▁unsound	-12.0711
▁Uruguayan	-12.0715
▁snub	-12.0716
56	-12.0717
▁reservation	-12.0719
ming	-12.0721
▁Pearl	-12.0722
▁rooftop	-12.0725
khar	-12.0725
▁invention	-12.0729
▁Sheen	-12.073
▁Protect	-12.0731
eiger	-12.0731
▁solicit	-12.0732
grove	-12.0733
▁quarantine	-12.0735
▁Dod	-12.0735
▁deteriorat	-12.074
uber	-12.0741
▁owl	-12.0741
▁subdue	-12.0741
kes	-12.0742
▁rash	-12.0745
▁Tanzania	-12.0745
▁stretcher	-12.0745
▁chronic	-12.0745
II	-12.0746
▁Pit	-12.0746
▁graduation	-12.0746
▁feline	-12.0747
ition	-12.0747
▁viewer	-12.0747
▁sexy	-12.0748
▁distressing	-12.0748
▁Clarkson	-12.075
▁veri	-12.0751
▁surprisingly	-12.0752
▁Kir	-12.0752
▁Bayer	-12.0753
oslav	-12.076
▁richest	-12.0762
▁Alastair	-12.0762
▁Ortiz	-12.0762
▁sitcom	-12.0763
▁Arlington	-12.0763
▁feud	-12.0764
▁communist	-12.0764
▁reelect	-12.0765
charm	-12.0767
▁Diaz	-12.0768
▁scrapp	-12.0768
▁Stake	-12.0773
yre	-12.0773
▁Pot	-12.0774
▁plung	-12.078
▁Branson	-12.0782
▁Mik	-12.0782
eria	-12.0783
▁panick	-12.0787
▁Fabian	-12.0788
▁Ronnie	-12.0789
▁Ley	-12.079
▁veto	-12.0792
▁cro	-12.0792
▁Kun	-12.0794
▁frost	-12.0794
▁fraction	-12.0794
▁autograph	-12.0794
▁rotat	-12.0795
▁Jerome	-12.0798
▁Thirty	-12.0798
▁Strauss	-12.0798
▁Paterson	-12.0798
▁Alder	-12.0798
▁strangl	-12.0799
cathed	-12.0799
turgi	-12.0799
leg	-12.0802
▁opera	-12.0803
▁Toby	-12.0804
▁Shir	-12.0804
allah	-12.0806
▁Duck	-12.0808
eal	-12.081
luck	-12.081
▁Twin	-12.0811
ogo	-12.0811
▁McN	-12.0811
sdale	-12.0815
▁Renault	-12.0815
▁calorie	-12.0815
▁Budget	-12.0816
▁vaccination	-12.0816
▁tramp	-12.0819
▁splendid	-12.0819
▁Th	-12.0819
▁Kristin	-12.0819
▁flap	-12.082
▁Scu	-12.0821
▁Check	-12.0822
▁1971	-12.0823
▁contra	-12.0824
mpton	-12.0826
▁blur	-12.0828
▁bash	-12.083
racking	-12.0832
▁Vall	-12.0832
keeper	-12.0833
▁incarcerate	-12.0833
▁negligence	-12.0833
▁ominous	-12.0833
▁Gatwick	-12.0833
▁cognizan	-12.0834
▁occupant	-12.0834
azi	-12.0834
istan	-12.0834
manja	-12.0835
▁musicians	-12.0836
path	-12.0836
▁vendor	-12.0837
ahl	-12.0839
▁CPS	-12.084
▁frequenc	-12.0842
▁Holoc	-12.0843
▁Avon	-12.0844
▁applau	-12.0844
▁1940	-12.0845
▁Cafe	-12.0846
▁scarf	-12.0847
▁Mind	-12.0849
vu	-12.0849
▁Canberra	-12.085
▁Bulger	-12.085
▁Debbie	-12.0851
▁scant	-12.0851
▁destruct	-12.0853
▁lodged	-12.0853
estuous	-12.0854
▁lash	-12.0855
▁courthouse	-12.0857
▁snaps	-12.0857
▁colorful	-12.0859
▁Shocking	-12.0861
▁chopp	-12.0861
▁diplomatical	-12.0863
lum	-12.0865
▁Beg	-12.0865
▁clamp	-12.0866
▁Observatory	-12.0868
▁Shakespeare	-12.0869
umid	-12.0873
▁Temple	-12.0873
ucker	-12.0873
▁PS	-12.0874
▁Electric	-12.0875
▁Poole	-12.0877
▁grams	-12.0877
bber	-12.0881
▁Sepp	-12.0884
▁Nur	-12.0885
ouf	-12.0885
▁Scho	-12.0886
▁preclude	-12.0886
▁Ship	-12.0886
▁disclosure	-12.0886
▁Lineker	-12.0886
▁260	-12.0887
▁trafficker	-12.0887
▁vent	-12.0887
▁retard	-12.0889
▁Barn	-12.089
embarrass	-12.0891
▁stash	-12.0892
▁confess	-12.0899
11	-12.0899
▁rivers	-12.0899
▁Guide	-12.09
▁Clar	-12.09
chester	-12.0902
iang	-12.0903
▁Bh	-12.0903
▁Restaurant	-12.0903
▁incisive	-12.0904
▁Freddie	-12.0905
▁Movement	-12.0905
▁outage	-12.0905
ID	-12.0908
▁cerebr	-12.0909
▁acknowledg	-12.0909
▁babble	-12.0911
EN	-12.0913
iac	-12.0913
hy	-12.0915
▁dun	-12.0915
▁mineral	-12.0915
▁Mach	-12.0916
▁sexist	-12.0917
pinning	-12.0918
quez	-12.0921
▁comprehend	-12.0921
▁repeal	-12.0922
▁Groves	-12.0922
▁galax	-12.0923
▁consciousness	-12.0923
▁Gael	-12.0924
igan	-12.0925
▁Seahawk	-12.0925
▁refresh	-12.0927
▁duplicate	-12.0931
ritten	-12.0931
▁Bent	-12.0934
▁slew	-12.0934
▁bombast	-12.0935
▁McKin	-12.0939
▁fractur	-12.0939
▁Scolari	-12.0939
▁sequel	-12.0939
▁bruising	-12.0939
▁massage	-12.0939
▁workshop	-12.0943
▁Debuchy	-12.0944
▁Kho	-12.0945
▁Cars	-12.0945
▁Accident	-12.0948
VE	-12.0951
▁handwrit	-12.0952
▁marvellous	-12.0957
▁mushroom	-12.0957
▁Jacque	-12.0957
unlight	-12.0957
▁Fact	-12.0957
▁Vermont	-12.0957
▁Zaha	-12.0957
▁blunt	-12.0957
▁forehead	-12.0957
▁queer	-12.0961
▁stag	-12.0961
▁stride	-12.0961
asper	-12.0963
▁takeover	-12.0963
break	-12.0964
▁touchline	-12.0965
▁judgement	-12.0965
▁atop	-12.0966
▁frenz	-12.0969
ame	-12.0972
▁Kerr	-12.0973
▁Jnr	-12.0974
▁Frozen	-12.0974
▁dwarf	-12.0975
▁clot	-12.0976
▁Grove	-12.0977
▁corn	-12.0978
ruffle	-12.0978
▁Sweet	-12.0981
▁alight	-12.0981
▁CD	-12.0981
27	-12.0988
▁helpful	-12.0989
▁extinguish	-12.0992
▁Milo	-12.0993
▁associat	-12.0993
▁Code	-12.0995
▁resilien	-12.0995
▁Flores	-12.0998
▁affection	-12.1001
▁stoppage	-12.1001
▁Going	-12.1003
▁rides	-12.1003
▁rend	-12.1005
wright	-12.1007
▁handsome	-12.1008
▁riposte	-12.101
▁Murder	-12.1011
WI	-12.1014
▁Aire	-12.1016
▁detector	-12.1016
▁northward	-12.1016
▁educator	-12.1017
opo	-12.1019
vina	-12.1019
▁Newtown	-12.1019
▁Does	-12.1023
▁Planet	-12.1023
78	-12.1023
▁Nar	-12.1023
bold	-12.1026
▁blab	-12.1026
▁autobiography	-12.1026
▁Maxim	-12.1027
▁corridor	-12.1028
▁Thibau	-12.1029
▁Callum	-12.103
▁hurry	-12.103
▁acquitt	-12.103
din	-12.103
▁Wei	-12.1032
llie	-12.1033
▁rein	-12.1035
▁deter	-12.1036
▁TH	-12.1036
▁unfor	-12.104
▁Barone	-12.1043
▁Kingston	-12.1043
▁soup	-12.1045
▁trance	-12.1048
▁budd	-12.1049
▁Fantasy	-12.105
aro	-12.1053
▁financially	-12.1056
▁Geoff	-12.1056
▁isnt	-12.1056
▁Aero	-12.1057
▁Cable	-12.1059
▁Tip	-12.1059
▁Freeman	-12.106
▁Mae	-12.106
▁discern	-12.1061
▁Kimber	-12.1062
973	-12.1063
lpha	-12.1064
▁shroud	-12.1067
▁Hampton	-12.1067
uge	-12.1067
▁Cle	-12.1068
▁declaration	-12.107
ib	-12.1073
▁kilo	-12.1076
▁incentive	-12.1081
▁Farrell	-12.1085
nic	-12.1087
▁rescu	-12.109
achi	-12.1091
▁Ahmad	-12.1093
▁dissipate	-12.1097
▁Cathedral	-12.11
▁repulse	-12.1101
▁caravan	-12.1101
▁Atkinson	-12.1102
▁curtain	-12.1102
AB	-12.1104
▁eco	-12.1104
▁hunter	-12.1105
▁glacier	-12.1106
▁naming	-12.1108
its	-12.1108
▁spectacle	-12.1109
▁Kyr	-12.111
▁unre	-12.1113
glio	-12.1116
▁Clooney	-12.1118
▁concise	-12.1119
▁Collection	-12.1119
▁Ox	-12.1122
done	-12.1125
▁Dew	-12.1126
▁weakness	-12.1126
put	-12.1127
wy	-12.1129
jar	-12.1131
▁Hello	-12.1131
ator	-12.1132
▁chic	-12.1132
▁focal	-12.1132
▁chor	-12.1133
▁Kis	-12.1135
▁Khedira	-12.1136
▁Pair	-12.1136
▁memoir	-12.1137
▁preference	-12.1138
▁conspir	-12.1139
▁Gear	-12.1141
▁Further	-12.1142
▁135	-12.1143
noble	-12.1146
▁grati	-12.115
sensible	-12.1151
▁Miles	-12.1153
▁merc	-12.1154
▁microphone	-12.1154
▁Juve	-12.1155
▁Tamil	-12.1155
▁thirty	-12.1156
▁solutions	-12.1156
▁Fuller	-12.1156
▁pardon	-12.1156
▁separation	-12.1158
▁Zoe	-12.116
▁cancellation	-12.116
drift	-12.1162
▁Ava	-12.1163
▁Els	-12.1165
▁whoever	-12.1166
▁patien	-12.1166
tine	-12.1166
oo	-12.1166
▁Coca	-12.1167
▁transformation	-12.1168
▁candy	-12.117
▁Croatian	-12.1171
▁Typhoon	-12.1173
▁exhort	-12.1173
▁Eva	-12.1175
▁characteristic	-12.1175
▁listing	-12.1176
▁Dud	-12.1176
▁heating	-12.1177
▁uncertain	-12.1178
oak	-12.118
▁Parr	-12.1181
▁Wen	-12.1186
▁ambitious	-12.1186
▁Rap	-12.1186
rated	-12.1187
decipherabl	-12.1189
sexual	-12.1189
ughton	-12.1191
▁vacant	-12.1194
▁slack	-12.1196
▁Lion	-12.1197
▁quash	-12.1202
▁Starr	-12.1203
▁Shak	-12.1203
▁Editor	-12.1205
▁Fried	-12.1205
wives	-12.1207
apping	-12.1207
▁kingdom	-12.121
▁exotic	-12.121
▁ignite	-12.121
▁Noah	-12.1211
▁theyre	-12.122
aimed	-12.1221
▁Tut	-12.1221
▁Toy	-12.1222
▁mint	-12.1224
▁Tah	-12.1227
▁rick	-12.1228
▁Brennan	-12.1229
▁miniature	-12.123
▁Lag	-12.1231
rard	-12.1232
▁Bernie	-12.1232
racy	-12.1233
▁Cheng	-12.1234
▁Geno	-12.1237
▁Juli	-12.1237
▁Opera	-12.1238
▁Salmond	-12.1238
▁Round	-12.1239
▁chew	-12.1243
▁ruler	-12.1244
▁Klitschko	-12.1246
▁gibe	-12.1246
▁Calais	-12.1246
▁Organisation	-12.1246
▁Deila	-12.1248
▁dedication	-12.1248
▁ivor	-12.1248
rock	-12.1249
▁pork	-12.125
▁contradict	-12.125
▁stain	-12.125
▁lawful	-12.1251
▁Set	-12.1253
▁Anders	-12.1253
rang	-12.1255
▁pause	-12.1255
▁Bio	-12.1256
▁voucher	-12.1258
▁Fun	-12.1258
▁Hoffman	-12.1261
▁Jen	-12.1261
▁sank	-12.1261
▁pinn	-12.1262
ollen	-12.1262
mid	-12.1264
▁McCl	-12.1266
▁tactical	-12.1268
▁batt	-12.1269
▁perpetrate	-12.127
vert	-12.1271
cas	-12.1271
mere	-12.1271
icy	-12.1271
▁vandal	-12.1272
▁Bag	-12.1275
26	-12.128
▁pooch	-12.1283
▁escap	-12.1285
▁Bos	-12.1285
▁Zel	-12.1288
ake	-12.1288
▁judicial	-12.1288
zan	-12.129
tour	-12.1291
▁spaces	-12.1293
▁Fil	-12.1294
▁republic	-12.1296
▁Rupert	-12.1301
▁Nazis	-12.1302
▁Rolls	-12.1302
▁invalidate	-12.1302
lli	-12.1303
▁recreational	-12.1304
▁Bolivia	-12.1305
▁frightening	-12.1309
▁Accus	-12.1311
HS	-12.1312
▁foam	-12.1314
▁anthem	-12.1314
▁Dana	-12.1316
▁drip	-12.1317
▁architecture	-12.1317
▁rant	-12.1317
ees	-12.1319
▁Wolverhampton	-12.1319
▁pneumonia	-12.1319
▁Thomson	-12.132
▁Pearce	-12.132
▁nausea	-12.132
▁Direction	-12.1321
▁Joa	-12.1324
▁Stev	-12.1326
▁Alve	-12.1327
rize	-12.1328
▁Rom	-12.1329
DC	-12.1329
▁motivat	-12.133
▁forrad	-12.1332
▁Kad	-12.1335
▁instinct	-12.1336
▁Pier	-12.1337
▁arter	-12.1342
rest	-12.1342
▁Shell	-12.1343
▁Kaka	-12.1346
▁obsession	-12.1349
▁wearer	-12.135
face	-12.1351
▁revers	-12.1356
▁homeowners	-12.1357
▁Tell	-12.1357
▁resemblance	-12.1357
▁Viking	-12.1358
▁Levi	-12.1358
▁assembly	-12.1358
▁Observer	-12.1359
▁Jenson	-12.1359
▁succession	-12.1362
▁SA	-12.1365
▁mag	-12.1366
▁intelligibl	-12.1367
▁Blasio	-12.1367
▁Crash	-12.1368
lifting	-12.1368
▁jeopardise	-12.1369
▁Luton	-12.137
phal	-12.1372
▁Fro	-12.1372
▁volcanic	-12.1375
▁Paralympic	-12.1375
▁Burberry	-12.1375
▁Zen	-12.1376
▁fisherman	-12.1376
▁recoil	-12.1377
▁Nicky	-12.1384
▁detection	-12.1387
▁hydro	-12.1387
▁Seth	-12.139
▁Huddersfield	-12.1393
▁regress	-12.1394
▁Belarus	-12.1396
▁Mystery	-12.1396
▁gener	-12.1397
▁reasonabl	-12.1398
▁Blacks	-12.1398
▁imagin	-12.1404
bilities	-12.1404
sitani	-12.1407
▁denounce	-12.1408
▁Hawthorn	-12.1412
▁elicit	-12.1412
▁Camilla	-12.1414
▁Summit	-12.1415
▁raced	-12.1419
▁dot	-12.1419
▁Chap	-12.142
▁turf	-12.1423
▁troubl	-12.1424
▁Madd	-12.1424
▁Brave	-12.1425
▁polish	-12.1426
▁Word	-12.1427
▁leisure	-12.1431
▁Naomi	-12.1431
▁Jagger	-12.1432
▁accrue	-12.1432
▁Cord	-12.1434
amount	-12.1435
▁Beat	-12.1436
▁gentleman	-12.1436
▁Original	-12.1437
▁coerce	-12.1437
rthodox	-12.1437
▁Fly	-12.1439
▁refuge	-12.144
▁DA	-12.1443
▁autonomous	-12.1445
rano	-12.1446
base	-12.1446
rant	-12.1447
ugh	-12.1448
▁MotoGP	-12.1449
▁gratuitous	-12.1449
▁junction	-12.145
▁unravel	-12.145
▁McKenzie	-12.145
▁persistent	-12.1451
▁annoy	-12.1452
mash	-12.1456
▁evolve	-12.1456
▁meddl	-12.1457
▁Dell	-12.1459
▁Abdel	-12.146
▁Rout	-12.1463
▁warship	-12.1465
▁Simeone	-12.1465
▁secretive	-12.1465
▁Leah	-12.1467
▁Hicks	-12.1468
▁desolate	-12.1468
▁Kashmir	-12.1468
▁optimistic	-12.1469
rwin	-12.1469
▁enact	-12.147
▁Angelina	-12.1471
▁Nag	-12.1471
▁Moni	-12.1471
▁Flam	-12.1472
▁Hann	-12.1473
▁Marcel	-12.1473
GA	-12.1473
unga	-12.1474
oose	-12.1476
ml	-12.1479
▁fable	-12.148
▁Very	-12.1481
▁Male	-12.1482
loa	-12.1482
▁fragil	-12.1483
▁disperse	-12.1483
▁scanner	-12.1484
▁pledg	-12.1485
▁impos	-12.1485
▁aero	-12.1485
▁Ant	-12.1487
▁sergeant	-12.1487
▁Froome	-12.1487
▁Ricardo	-12.1487
▁Thur	-12.1491
▁Vis	-12.1492
▁marshal	-12.1496
▁dumb	-12.1499
▁diesel	-12.1502
unda	-12.1503
▁Kazakhstan	-12.1506
nock	-12.1506
▁Gene	-12.1506
lch	-12.1506
▁Beatrice	-12.1507
▁Derbyshire	-12.1507
otto	-12.1507
▁Think	-12.1513
miss	-12.1516
▁nift	-12.1517
▁maul	-12.1519
yll	-12.1523
▁jealous	-12.1523
▁Delevingne	-12.1524
▁brew	-12.1525
▁inclusive	-12.1525
mie	-12.1525
▁Fit	-12.1526
▁productive	-12.1526
▁Political	-12.1528
▁Paddy	-12.1529
▁dec	-12.1529
▁Aug	-12.153
▁IP	-12.1531
▁laughter	-12.1533
▁sperm	-12.1534
▁genes	-12.1536
▁Fol	-12.1537
anga	-12.1539
▁nobble	-12.154
▁Sau	-12.1543
▁Pri	-12.1543
▁immunit	-12.1543
▁credential	-12.1543
▁foreclose	-12.1543
▁memorabil	-12.1543
▁Marilyn	-12.1543
▁martial	-12.1544
▁Gemma	-12.1545
▁McM	-12.1545
iam	-12.1546
▁Para	-12.1546
▁Rebel	-12.1547
bot	-12.155
▁Indie	-12.155
▁Huffing	-12.1551
▁bog	-12.1552
▁crims	-12.1552
▁bankrupt	-12.1558
apped	-12.1558
▁bl	-12.1559
stones	-12.1561
▁AP	-12.1561
▁surcharge	-12.1562
▁criteria	-12.1562
▁Sandu	-12.1564
▁closet	-12.1565
▁Mao	-12.1567
▁colored	-12.1567
▁devil	-12.1568
▁stump	-12.1568
zzo	-12.1569
▁telescope	-12.1572
ares	-12.1572
▁inhal	-12.1575
▁extradite	-12.1575
zie	-12.1577
zar	-12.1578
itzer	-12.1582
▁Chip	-12.1582
▁Trans	-12.1583
▁Lip	-12.1583
▁Mari	-12.1584
▁swelling	-12.1584
▁rupture	-12.1585
▁notabl	-12.1589
▁Breaking	-12.1594
▁purported	-12.1594
▁Niger	-12.1596
▁ornament	-12.1598
vision	-12.1598
▁predominant	-12.16
▁Fiona	-12.1601
▁alliance	-12.1601
▁Pizza	-12.1601
▁mimic	-12.1602
89	-12.1605
▁Trek	-12.1605
ushi	-12.1605
iba	-12.1606
▁sausage	-12.1606
▁helm	-12.1606
▁Hind	-12.1608
▁booze	-12.1609
▁radi	-12.1609
watch	-12.1609
▁Map	-12.161
fil	-12.161
▁shap	-12.1611
▁carat	-12.1612
ammar	-12.1613
▁Nest	-12.1617
▁rigorous	-12.1619
▁marvelous	-12.162
▁Samoa	-12.162
rene	-12.162
▁stockpile	-12.1621
▁Rapid	-12.1622
▁Luci	-12.1622
▁Faith	-12.1622
▁standoff	-12.1623
▁coco	-12.1624
ardo	-12.1625
IC	-12.1627
hani	-12.1627
▁tours	-12.1629
▁Fal	-12.1632
▁thirst	-12.1635
▁Lieutenant	-12.1638
▁gruesome	-12.1638
idy	-12.1639
tland	-12.1641
▁Soli	-12.1641
strom	-12.1644
▁enthusiastic	-12.1644
▁narcotic	-12.1645
▁postpone	-12.1646
▁Dome	-12.1647
▁Stephan	-12.1648
▁crunch	-12.1649
ower	-12.165
Caught	-12.1655
03	-12.1656
▁Chance	-12.1657
▁Ramadan	-12.1658
▁gum	-12.1659
▁Lankan	-12.166
▁Colt	-12.166
▁Fallon	-12.1663
▁lining	-12.1663
▁dispose	-12.1664
hipping	-12.1665
▁secrete	-12.1665
▁Shop	-12.1665
art	-12.1666
eur	-12.1667
▁warden	-12.1669
▁bias	-12.1669
▁bewitch	-12.1673
ggle	-12.1675
▁Alvarez	-12.1676
▁Dmitr	-12.1677
▁makeshift	-12.1677
▁Hon	-12.1678
▁Duff	-12.1679
▁ginger	-12.1679
▁annul	-12.1683
▁Jacobs	-12.1683
▁Samir	-12.1686
▁adaptation	-12.1686
▁goalscorer	-12.169
direct	-12.1692
▁Sig	-12.1693
▁evolution	-12.1693
▁towers	-12.1694
▁appease	-12.1697
[...]
