<pad>	0
<unk>	0
<s>	0
</s>	0
▁.	-3.00838
▁the	-3.18985
▁,	-3.25812
▁to	-3.76541
▁'	-3.81419
▁a	-3.94675
▁of	-3.94823
▁and	-3.96284
▁in	-4.0707
▁-	-4.34158
▁was	-4.75985
▁for	-4.84959
▁s	-4.87863
▁on	-4.89554
▁that	-4.93143
▁is	-4.9573
▁The	-5.00124
▁"	-5.09775
▁with	-5.12917
▁his	-5.26241
▁he	-5.2937
▁:	-5.31338
▁at	-5.31343
▁as	-5.4271
▁it	-5.42843
▁have	-5.48523
▁from	-5.50423
▁I	-5.51344
▁has	-5.52765
▁by	-5.54955
▁be	-5.58108
▁her	-5.5961
▁said	-5.61927
▁are	-5.69648
▁had	-5.8257
▁an	-5.84103
▁who	-5.85493
▁not	-5.87576
▁were	-5.91958
▁been	-5.92057
▁after	-5.92307
▁they	-5.96698
▁she	-5.9728
▁their	-5.97319
▁but	-5.99592
▁will	-6.06244
▁this	-6.09038
▁year	-6.18223
▁up	-6.28903
▁which	-6.29133
▁He	-6.31449
▁one	-6.32631
▁out	-6.34389
▁)	-6.35823
▁(	-6.36535
▁when	-6.3662
▁It	-6.41869
▁about	-6.4556
▁more	-6.45663
▁or	-6.49759
▁would	-6.49892
▁t	-6.51081
▁we	-6.52484
▁two	-6.53954
▁A	-6.54417
▁him	-6.55885
▁people	-6.58294
▁you	-6.59671
▁time	-6.61399
▁can	-6.62806
▁into	-6.65479
▁than	-6.71567
▁all	-6.73168
▁years	-6.74067
▁over	-6.74472
▁could	-6.79193
▁its	-6.80626
▁But	-6.82188
▁Mr	-6.83848
▁them	-6.83952
▁do	-6.84231
▁so	-6.84771
▁also	-6.88896
▁before	-6.89228
▁being	-6.90609
▁down	-6.9475
▁In	-6.94831
▁home	-6.95426
▁like	-6.95427
▁police	-6.97001
▁there	-6.97215
▁no	-6.97454
▁last	-7.00024
▁what	-7.00117
▁We	-7.01599
▁000	-7.02307
▁She	-7.02862
▁my	-7.04049
▁three	-7.05965
▁told	-7.07439
▁off	-7.08153
▁just	-7.10347
▁because	-7.11652
▁if	-7.12344
▁where	-7.13355
▁some	-7.13556
▁1	-7.14675
▁get	-7.15979
▁family	-7.16621
▁first	-7.18025
▁old	-7.1869
▁against	-7.19866
▁n	-7.20164
▁while	-7.20643
▁during	-7.22243
▁did	-7.23747
▁day	-7.26663
▁2	-7.31688
▁other	-7.32049
▁our	-7.32357
▁They	-7.32647
▁back	-7.33926
▁me	-7.3472
▁left	-7.34851
▁$	-7.36078
▁say	-7.3618
▁?	-7.36182
▁how	-7.3718
▁U	-7.37565
▁now	-7.3757
▁man	-7.37786
▁life	-7.37809
▁new	-7.39732
▁take	-7.39785
▁million	-7.40773
▁S	-7.41527
▁world	-7.41643
▁New	-7.41823
▁This	-7.43507
▁through	-7.43799
▁any	-7.44137
▁found	-7.44216
▁state	-7.44461
▁children	-7.445
▁week	-7.4461
▁says	-7.44762
▁only	-7.44853
▁around	-7.45053
▁make	-7.46017
▁right	-7.47348
▁since	-7.48059
▁former	-7.48186
▁way	-7.52231
▁four	-7.53196
▁work	-7.54491
▁m	-7.56192
▁team	-7.56552
▁many	-7.56815
▁made	-7.57385
▁most	-7.58075
▁then	-7.5815
▁well	-7.588
▁go	-7.60273
▁place	-7.61375
▁still	-7.61425
▁United	-7.61622
▁video	-7.61938
▁those	-7.62267
▁should	-7.62822
▁mother	-7.63297
▁10	-7.64148
▁between	-7.64239
▁death	-7.64634
▁court	-7.65561
▁see	-7.65607
▁per	-7.65708
▁part	-7.66181
▁3	-7.67465
▁5	-7.69731
▁night	-7.70602
▁under	-7.70677
▁five	-7.70823
▁such	-7.71102
▁country	-7.71695
▁month	-7.72077
▁very	-7.72268
▁may	-7.73354
▁And	-7.7359
▁government	-7.75369
▁women	-7.76438
▁Police	-7.76446
▁days	-7.76709
▁your	-7.77498
▁another	-7.77981
▁months	-7.78028
▁show	-7.78604
▁car	-7.79891
▁report	-7.80171
▁There	-7.80645
▁today	-7.80911
▁re	-7.81368
▁London	-7.81909
▁too	-7.8282
▁school	-7.82909
▁case	-7.83262
▁order	-7.833
▁CNN	-7.83556
▁think	-7.85293
▁early	-7.85747
▁20	-7.86225
▁even	-7.86754
▁good	-7.88061
▁group	-7.88258
▁woman	-7.88348
▁both	-7.88471
▁cent	-7.88484
▁4	-7.88789
▁much	-7.89043
▁public	-7.90314
▁look	-7.90559
▁long	-7.9077
▁wife	-7.91014
▁6	-7.91524
▁top	-7.91716
▁help	-7.92529
▁these	-7.92848
▁men	-7.92919
▁us	-7.93481
▁need	-7.94064
▁number	-7.94253
▁going	-7.94458
▁six	-7.94954
▁season	-7.95091
▁father	-7.9609
▁near	-7.96432
▁30	-7.97396
▁know	-7.97547
▁game	-7.98122
▁away	-7.98968
▁set	-7.99139
▁World	-7.9971
▁When	-7.99882
▁want	-8.00042
▁come	-8.00855
▁head	-8.01
▁end	-8.01368
▁next	-8.01725
▁really	-8.01784
▁son	-8.0194
▁used	-8.02016
▁called	-8.02191
▁house	-8.02318
▁Obama	-8.02702
▁One	-8.03416
▁England	-8.03441
▁York	-8.03554
▁side	-8.03905
▁Sunday	-8.04209
▁If	-8.04213
▁face	-8.05371
▁hospital	-8.05602
▁money	-8.05622
▁body	-8.06465
▁including	-8.06865
▁City	-8.06887
▁Monday	-8.07081
▁child	-8.07471
▁British	-8.08178
▁later	-8.08505
▁use	-8.08631
▁hours	-8.08643
▁took	-8.08756
▁pictured	-8.09084
▁high	-8.09629
▁until	-8.09909
▁Tuesday	-8.10166
▁tell	-8.10391
▁company	-8.10713
▁second	-8.1087
▁attack	-8.10942
▁according	-8.1116
▁ve	-8.11357
▁half	-8.12113
▁without	-8.12412
▁every	-8.12472
▁give	-8.1251
▁;	-8.12522
▁Friday	-8.13
▁daughter	-8.13024
▁12	-8.13101
▁League	-8.1323
▁read	-8.13333
▁ago	-8.1438
▁statement	-8.14866
▁support	-8.1498
▁am	-8.15173
▁times	-8.15217
▁15	-8.15589
▁does	-8.16428
▁far	-8.16476
▁city	-8.16959
▁South	-8.17029
▁find	-8.17347
▁Saturday	-8.17376
▁club	-8.17501
▁As	-8.17569
▁added	-8.17647
▁American	-8.17801
▁Wednesday	-8.18625
▁area	-8.18802
▁Cup	-8.18816
▁each	-8.19707
▁across	-8.19859
▁own	-8.19907
▁!	-8.19931
▁President	-8.20173
▁7	-8.20283
▁run	-8.20567
▁seen	-8.20582
▁That	-8.20708
▁His	-8.20876
▁name	-8.20883
▁couple	-8.20936
▁officials	-8.21023
▁outside	-8.21038
▁put	-8.21222
▁UK	-8.21356
▁few	-8.21356
▁again	-8.21871
▁never	-8.22417
▁Ms	-8.22419
▁taken	-8.22931
▁young	-8.23251
▁deal	-8.23485
▁Thursday	-8.23677
▁David	-8.23939
▁already	-8.24792
▁got	-8.25213
▁parents	-8.25505
▁law	-8.25802
▁friends	-8.25804
▁weeks	-8.25835
▁win	-8.25863
▁went	-8.26054
▁water	-8.26097
▁something	-8.26118
▁th	-8.26504
▁2012	-8.26533
▁11	-8.26745
▁You	-8.273
▁After	-8.27344
▁yet	-8.27344
▁died	-8.27431
▁front	-8.27533
▁same	-8.27535
▁move	-8.27817
▁Scroll	-8.28553
▁On	-8.29004
▁came	-8.29074
▁West	-8.29248
▁At	-8.30004
▁start	-8.30592
▁care	-8.30597
▁husband	-8.30756
▁incident	-8.30946
▁Manchester	-8.31087
▁evidence	-8.31265
▁members	-8.31837
▁health	-8.3205
▁John	-8.3209
▁lot	-8.32221
▁Mrs	-8.32677
▁local	-8.32814
▁behind	-8.3284
▁players	-8.33232
▁*	-8.33534
▁spokesman	-8.33749
▁late	-8.33774
▁officers	-8.33957
▁president	-8.34067
▁news	-8.34941
▁Court	-8.35149
▁hit	-8.35444
▁least	-8.3564
▁play	-8.35915
▁killed	-8.36071
▁security	-8.36493
▁whether	-8.36589
▁point	-8.37339
▁military	-8.37423
▁fire	-8.37583
▁murder	-8.37761
▁following	-8.37874
▁50	-8.38383
▁able	-8.38423
▁media	-8.39098
▁8	-8.39111
▁18	-8.39182
▁100	-8.39316
▁d	-8.40861
▁lead	-8.41144
▁final	-8.41364
▁girl	-8.41488
▁Facebook	-8.41495
▁minutes	-8.4172
▁investigation	-8.41767
▁University	-8.41857
▁North	-8.42097
▁person	-8.42486
▁himself	-8.43251
▁morning	-8.43579
▁nt	-8.43579
▁reported	-8.43682
▁party	-8.43914
▁match	-8.43989
▁16	-8.44058
▁enjoin	-8.44098
▁believe	-8.44265
▁2011	-8.44506
▁star	-8.44528
▁authorities	-8.44608
▁admit	-8.44838
▁best	-8.45294
▁line	-8.4568
▁decision	-8.45767
▁Miss	-8.45867
▁25	-8.45956
▁No	-8.46029
▁must	-8.46043
▁include	-8.46203
▁friend	-8.46254
▁thought	-8.46274
▁might	-8.46602
▁phone	-8.46711
▁suppose	-8.47405
▁system	-8.47485
▁become	-8.47801
▁past	-8.47803
▁charges	-8.47806
▁hand	-8.47828
▁prison	-8.47864
▁campaign	-8.48458
▁staff	-8.48612
▁things	-8.4877
▁House	-8.48809
▁allege	-8.48868
▁experience	-8.48874
▁along	-8.4892
▁live	-8.4892
▁er	-8.49016
▁shot	-8.49214
▁seven	-8.49393
▁information	-8.49682
▁job	-8.49789
▁sex	-8.49943
▁claims	-8.4995
▁9	-8.50067
▁food	-8.50436
▁among	-8.50815
▁likewise	-8.50941
▁aver	-8.51127
▁break	-8.51198
▁service	-8.51245
▁always	-8.51606
▁site	-8.51622
▁call	-8.51655
▁eight	-8.51964
▁known	-8.52143
▁having	-8.52192
▁less	-8.52321
▁real	-8.52559
▁love	-8.52582
▁besides	-8.52588
▁Dr	-8.53065
▁For	-8.5314
▁equally	-8.53172
▁leave	-8.53208
▁hold	-8.53284
▁saying	-8.53559
▁record	-8.53882
▁Michael	-8.53961
▁States	-8.5414
▁others	-8.54348
▁baby	-8.54984
▁14	-8.55188
▁boy	-8.55467
▁here	-8.55958
▁room	-8.55965
▁why	-8.56671
▁little	-8.56689
▁keep	-8.56759
▁Britain	-8.56914
▁National	-8.56967
▁trial	-8.57044
▁full	-8.57127
▁An	-8.57201
▁asked	-8.57251
▁40	-8.5757
▁pronounce	-8.57582
▁articulate	-8.57699
▁manager	-8.58349
▁future	-8.58663
▁enounce	-8.58987
▁fans	-8.59198
▁13	-8.59412
▁enunciate	-8.59528
▁charge	-8.5957
▁age	-8.59872
▁officer	-8.59907
▁pay	-8.60002
▁control	-8.6001
▁given	-8.60234
▁picture	-8.60622
▁January	-8.60636
▁change	-8.61101
▁business	-8.61374
▁May	-8.61418
▁2010	-8.61528
▁office	-8.61929
▁close	-8.62092
▁pass	-8.6231
▁China	-8.62456
▁scene	-8.62504
▁17	-8.62592
▁stop	-8.62608
▁County	-8.62929
▁0	-8.6327
▁film	-8.63492
▁2013	-8.63551
▁goal	-8.63751
▁air	-8.63982
▁action	-8.64507
▁ground	-8.64578
▁Twitter	-8.65072
▁study	-8.65126
▁arrested	-8.65205
▁return	-8.65283
▁State	-8.65364
▁inside	-8.65396
▁power	-8.65449
▁working	-8.65809
▁despite	-8.66044
▁What	-8.66148
▁taking	-8.66173
▁don	-8.66267
▁big	-8.66295
▁allegedly	-8.66464
▁Australia	-8.6663
▁24	-8.6668
▁heard	-8.66849
▁won	-8.67116
▁result	-8.67122
▁making	-8.67228
▁great	-8.6737
▁TV	-8.6748
▁player	-8.67631
▁/	-8.67664
▁judge	-8.677
▁football	-8.67778
▁shows	-8.6781
▁using	-8.67894
▁official	-8.68172
▁Liverpool	-8.68334
▁earlier	-8.68393
▁free	-8.68445
▁released	-8.6854
▁within	-8.68677
▁started	-8.68782
▁Chelsea	-8.68808
▁Her	-8.68855
▁due	-8.68915
▁though	-8.68961
▁thing	-8.69011
▁September	-8.69093
▁Department	-8.69352
▁enough	-8.69379
▁hard	-8.69451
▁lost	-8.69596
▁dead	-8.69646
▁require	-8.6966
▁issue	-8.69665
▁community	-8.70229
▁heart	-8.70346
▁%	-8.7036
▁James	-8.70412
▁clear	-8.7045
▁chance	-8.70665
▁feel	-8.70738
▁training	-8.70918
▁several	-8.71022
▁almost	-8.71116
▁website	-8.71288
▁drug	-8.72458
▁victim	-8.72858
▁yesterday	-8.73116
▁try	-8.73162
▁ever	-8.73267
▁lives	-8.73318
▁political	-8.73421
▁wanted	-8.73759
▁19	-8.73768
▁event	-8.74002
▁June	-8.7407
▁claim	-8.74175
▁someone	-8.74388
▁California	-8.7495
▁While	-8.74989
▁war	-8.75042
▁December	-8.75307
▁students	-8.75579
▁summer	-8.75706
▁sure	-8.75803
▁turn	-8.75906
▁reports	-8.76027
▁Premier	-8.76049
▁looking	-8.76156
▁cause	-8.76286
▁saw	-8.76343
▁21	-8.76368
▁victims	-8.76517
▁third	-8.76617
▁search	-8.76783
▁post	-8.76985
▁better	-8.77339
▁series	-8.77459
▁risk	-8.77501
▁miles	-8.77737
▁treatment	-8.7803
▁America	-8.78105
▁November	-8.7828
▁history	-8.78287
▁All	-8.78468
▁News	-8.78493
▁fight	-8.78575
▁potential	-8.78869
▁trying	-8.79019
▁April	-8.79062
▁continue	-8.7923
▁bring	-8.79269
▁director	-8.79484
▁July	-8.79507
▁open	-8.79596
▁major	-8.79753
▁claimed	-8.79815
▁story	-8.79953
▁October	-8.80303
▁process	-8.80499
▁Minister	-8.80501
▁account	-8.8057
▁rights	-8.80638
▁dog	-8.80707
▁human	-8.80801
▁cancer	-8.80979
▁revealed	-8.80982
▁centre	-8.80994
▁likely	-8.81028
▁held	-8.81174
▁leader	-8.81228
▁March	-8.81255
▁building	-8.8127
▁Washington	-8.81274
▁anything	-8.81382
▁online	-8.81405
▁games	-8.81449
▁Park	-8.81763
▁European	-8.81804
▁August	-8.81837
▁fact	-8.81877
▁brother	-8.81945
▁condition	-8.8215
▁However	-8.82272
▁Some	-8.82535
▁500	-8.82753
▁My	-8.82757
▁role	-8.8278
▁image	-8.83005
▁total	-8.83322
▁nothing	-8.83463
▁town	-8.83471
▁small	-8.83483
▁walk	-8.83575
▁22	-8.83735
▁course	-8.83743
▁based	-8.8411
▁once	-8.84228
▁release	-8.84367
▁flight	-8.84458
▁level	-8.84605
▁2009	-8.84858
▁billion	-8.85057
▁light	-8.85161
▁previous	-8.85651
▁road	-8.85752
▁visit	-8.85856
▁property	-8.85874
▁different	-8.85903
▁rest	-8.86211
▁project	-8.86259
▁cover	-8.86366
▁form	-8.86387
▁problem	-8.86423
▁whose	-8.86423
▁nearly	-8.86539
▁countries	-8.86622
▁cut	-8.86788
▁member	-8.86934
▁pair	-8.86965
▁wrote	-8.86977
▁recent	-8.87018
▁together	-8.8715
▁nine	-8.87193
▁moment	-8.87297
▁began	-8.87335
▁round	-8.87346
▁often	-8.87487
▁accused	-8.87579
▁stay	-8.87685
▁force	-8.87728
▁career	-8.87745
▁US	-8.87747
▁girls	-8.87804
▁problems	-8.87825
▁sent	-8.88032
▁arrest	-8.88096
▁White	-8.88283
▁plan	-8.88767
▁interview	-8.89367
▁hour	-8.8945
▁injuries	-8.89484
▁St	-8.89546
▁driver	-8.8963
▁blood	-8.9
▁France	-8.90107
▁charged	-8.90195
▁Paul	-8.90321
▁Christmas	-8.90334
▁Two	-8.90464
▁expected	-8.90604
▁race	-8.90819
▁plane	-8.90959
▁plans	-8.90995
▁class	-8.91026
▁[	-8.91048
▁]	-8.91421
▁book	-8.91623
▁abuse	-8.91662
▁became	-8.917
▁ahead	-8.91843
▁appear	-8.91984
▁ne	-8.92275
▁station	-8.92323
▁Its	-8.92641
▁comments	-8.92945
▁safety	-8.93033
▁crash	-8.931
▁cost	-8.9354
▁student	-8.93836
▁relationship	-8.9391
▁violence	-8.94155
▁black	-8.94168
▁al	-8.9429
▁consider	-8.94512
▁23	-8.94711
▁cases	-8.94713
▁ll	-8.94945
▁research	-8.94971
▁forward	-8.95061
▁didn	-8.9511
▁sentence	-8.9511
▁happened	-8.95364
▁crime	-8.95382
▁tried	-8.95391
▁George	-8.95523
▁living	-8.95523
▁term	-8.95534
▁families	-8.95541
▁workers	-8.95594
▁60	-8.95614
▁present	-8.95865
▁international	-8.95885
▁watch	-8.96005
▁rather	-8.9605
▁thousands	-8.96364
▁injury	-8.96373
▁allow	-8.964
▁With	-8.9666
▁hearing	-8.96803
▁weekend	-8.96808
▁Arsenal	-8.96943
▁anyone	-8.96992
▁further	-8.97111
▁February	-8.97149
▁2008	-8.97244
▁assault	-8.97262
▁received	-8.97269
▁getting	-8.97307
▁&	-8.97592
▁position	-8.97964
▁done	-8.98004
▁doing	-8.98225
▁list	-8.98364
▁spent	-8.98368
▁hope	-8.98439
▁chief	-8.98473
▁hands	-8.98505
▁points	-8.98601
▁social	-8.98693
▁comes	-8.98919
▁large	-8.98931
▁simply	-8.9894
▁Africa	-8.98981
▁provide	-8.99016
▁fall	-8.99043
▁themselves	-8.99064
▁led	-8.9908
▁attacks	-8.99094
▁forces	-8.99114
▁images	-8.99204
▁message	-8.99266
▁believed	-8.99349
▁meet	-8.99376
▁Hospital	-8.99699
▁everything	-8.99912
▁gun	-9.00009
▁trip	-9.00104
▁photo	-9.00218
▁increase	-9.00337
▁com	-9.00521
▁important	-9.00535
▁2014	-9.00553
▁Australian	-9.00814
▁described	-9.01069
▁bear	-9.01079
▁immediately	-9.01081
▁26	-9.01088
▁Florida	-9.01231
▁200	-9.01252
▁bit	-9.01642
▁patients	-9.01654
▁ain	-9.01819
▁Europe	-9.01961
▁East	-9.02127
▁jail	-9.02273
▁ask	-9.02387
▁played	-9.0261
▁To	-9.02615
▁involved	-9.02627
▁sister	-9.02701
▁desire	-9.02739
▁Iraq	-9.02887
▁space	-9.03063
▁ball	-9.03231
▁page	-9.03449
▁possible	-9.03629
▁drugs	-9.03809
▁act	-9.04045
▁tax	-9.04212
▁let	-9.04311
▁minute	-9.0457
▁shooting	-9.0459
▁Smith	-9.04663
▁27	-9.04757
▁gave	-9.0484
▁victory	-9.04925
▁white	-9.05254
▁reach	-9.05376
▁travel	-9.05496
▁view	-9.05567
▁damage	-9.05587
▁idea	-9.05594
▁self	-9.05766
▁28	-9.058
▁trust	-9.05918
▁seem	-9.06034
▁services	-9.0611
▁owner	-9.06125
▁kind	-9.06263
▁situation	-9.06703
▁train	-9.06864
▁areas	-9.07026
▁test	-9.07192
▁net	-9.07434
▁ca	-9.07457
▁learn	-9.07576
▁check	-9.07624
▁above	-9.07634
▁admitted	-9.07687
▁turned	-9.07747
▁door	-9.07987
▁draw	-9.0799
▁board	-9.08057
▁market	-9.08304
▁doctors	-9.08307
▁hither	-9.08415
▁carry	-9.08918
▁pressure	-9.08935
▁defeat	-9.08963
▁street	-9.09009
▁bed	-9.09019
▁current	-9.09039
▁personal	-9.0906
▁Union	-9.09072
▁hotel	-9.09237
▁Brown	-9.09306
▁practice	-9.09382
▁nation	-9.09461
▁playing	-9.09474
▁camera	-9.09573
▁Russian	-9.09691
▁vehicle	-9.10156
▁pm	-9.10295
▁range	-9.10514
▁feet	-9.10568
▁everyone	-9.10583
▁School	-9.1065
▁International	-9.10666
▁amount	-9.1082
▁model	-9.10849
▁store	-9.10919
▁Syria	-9.10975
▁Royal	-9.11167
▁These	-9.11188
▁Russia	-9.11312
▁meeting	-9.1177
▁serious	-9.11806
▁title	-9.11851
▁finally	-9.11861
▁guilty	-9.12054
▁Prime	-9.12065
▁matter	-9.12203
▁follow	-9.12256
▁surgery	-9.12287
▁capital	-9.12371
▁goals	-9.12397
▁vote	-9.12784
▁attempt	-9.12849
▁contract	-9.12939
▁coach	-9.12992
▁pictures	-9.1315
▁appeared	-9.13153
▁agency	-9.13203
▁groups	-9.13227
▁Americans	-9.13272
▁letter	-9.13285
▁national	-9.13319
▁Germany	-9.13325
▁Texas	-9.13325
▁accident	-9.13357
▁Day	-9.13563
▁BBC	-9.13606
▁election	-9.13616
▁receive	-9.13757
▁Cameron	-9.13808
▁English	-9.13824
▁users	-9.13936
▁forced	-9.1404
▁issues	-9.1404
▁expect	-9.14149
▁leaders	-9.14181
▁policy	-9.14518
▁stage	-9.14529
▁discover	-9.14601
▁bid	-9.14913
▁Martin	-9.15487
▁Madrid	-9.15498
▁thither	-9.1553
▁anti	-9.1578
▁caused	-9.1578
▁According	-9.15861
▁data	-9.15997
▁coming	-9.16059
▁People	-9.16068
▁Street	-9.16247
▁alone	-9.1625
▁So	-9.16283
▁low	-9.16329
▁medical	-9.16408
▁address	-9.16449
▁legal	-9.16515
▁press	-9.166
▁Mark	-9.16613
▁co	-9.16632
▁remains	-9.16717
▁disease	-9.16756
▁photos	-9.16992
▁nigh	-9.17041
▁demand	-9.17121
▁Williams	-9.17134
▁strong	-9.17291
▁suffered	-9.17346
▁worked	-9.17396
▁key	-9.17573
▁driving	-9.17622
▁aid	-9.17783
▁homes	-9.1793
▁birth	-9.17966
▁percent	-9.18096
▁posted	-9.18138
▁red	-9.18196
▁attorney	-9.18263
▁short	-9.18282
▁region	-9.18519
▁sign	-9.18578
▁question	-9.18678
▁killing	-9.18801
▁figure	-9.18821
▁interest	-9.18868
▁French	-9.18941
▁Despite	-9.19045
▁striker	-9.1909
▁price	-9.19393
▁access	-9.19429
▁loss	-9.19472
▁talk	-9.1952
▁pop	-9.19632
▁firm	-9.1966
▁Prince	-9.19833
▁remain	-9.19844
▁Secretary	-9.19889
▁establish	-9.19915
▁born	-9.19917
▁date	-9.19943
▁showed	-9.20025
▁2007	-9.20184
▁comment	-9.20334
▁boss	-9.20365
▁although	-9.20587
▁More	-9.2065
▁operation	-9.20752
▁King	-9.20775
▁San	-9.20844
▁strike	-9.20852
▁gain	-9.20872
▁e	-9.20906
▁announced	-9.20929
▁contact	-9.20995
▁29	-9.21029
▁program	-9.21118
▁currently	-9.21124
▁protect	-9.21488
▁weight	-9.21548
▁recently	-9.21822
▁create	-9.21949
▁offer	-9.22159
▁however	-9.22333
▁passengers	-9.22716
▁kill	-9.22725
▁brain	-9.22745
▁floor	-9.22812
▁reportedly	-9.22856
▁reason	-9.23037
▁drive	-9.23098
▁honest	-9.23218
▁popular	-9.23337
▁whole	-9.23399
▁running	-9.23422
▁size	-9.23496
▁alleged	-9.23701
▁soon	-9.23886
▁residents	-9.23916
▁marriage	-9.23927
▁stand	-9.23942
▁serve	-9.24013
▁decided	-9.24134
▁happy	-9.24134
▁paid	-9.24148
▁met	-9.24234
▁cars	-9.24269
▁missing	-9.2429
▁means	-9.24476
▁source	-9.24482
▁discovered	-9.24669
▁partner	-9.24897
▁executive	-9.25016
▁older	-9.25016
▁towards	-9.25082
▁battle	-9.25219
▁35	-9.25228
▁customers	-9.25344
▁calls	-9.25437
▁response	-9.25637
▁conditions	-9.25661
▁sense	-9.25661
▁Labour	-9.25715
▁hear	-9.25739
▁Real	-9.25784
▁produce	-9.25877
▁failed	-9.26018
▁base	-9.26136
▁sexual	-9.26235
▁attention	-9.26259
▁actually	-9.2631
▁emergency	-9.26377
▁details	-9.26434
▁technology	-9.26437
▁save	-9.26476
▁period	-9.26546
▁determine	-9.26564
▁hair	-9.26597
▁minister	-9.26688
▁land	-9.26703
▁named	-9.26773
▁German	-9.2697
▁music	-9.26976
▁herself	-9.26982
▁beat	-9.27015
▁Another	-9.27024
▁looked	-9.27088
▁allegations	-9.27097
▁bad	-9.27121
▁Office	-9.27176
▁happen	-9.27389
▁African	-9.27707
▁moved	-9.27814
▁suit	-9.27838
▁sound	-9.28013
▁conference	-9.28142
▁Los	-9.28215
▁Chris	-9.28234
▁Last	-9.28514
▁private	-9.28662
▁drop	-9.28773
▁de	-9.28782
▁host	-9.28838
▁south	-9.29082
▁ten	-9.29089
▁knew	-9.29206
▁kids	-9.29253
▁Brazil	-9.29278
▁park	-9.29359
▁brought	-9.29365
▁felt	-9.29642
▁Council	-9.2977
▁Afghanistan	-9.29795
▁average	-9.2981
▁impact	-9.2982
▁terminal	-9.29845
▁Scotland	-9.29938
▁lawyer	-9.30013
▁directly	-9.30079
▁India	-9.30157
▁huge	-9.30161
▁45	-9.30189
▁Spain	-9.30214
▁eye	-9.30333
▁suspect	-9.30427
▁Now	-9.3044
▁Johnson	-9.30735
▁girlfriend	-9.30792
▁animals	-9.30881
▁afternoon	-9.30899
▁rise	-9.30969
▁latest	-9.31114
▁foot	-9.31336
▁D	-9.31349
▁results	-9.31418
▁wedding	-9.31434
▁holiday	-9.31453
▁Jones	-9.31488
▁van	-9.31526
▁rattling	-9.3159
▁Sir	-9.31863
▁events	-9.31883
▁words	-9.31921
▁Daily	-9.31937
▁style	-9.31981
▁wide	-9.32189
▁states	-9.32285
▁special	-9.32371
▁Al	-9.32477
▁Apple	-9.32548
▁hundreds	-9.32573
▁Google	-9.3267
▁Wales	-9.3274
▁wrong	-9.3274
▁nearby	-9.32773
▁either	-9.32979
▁Angeles	-9.33017
▁boys	-9.33224
▁animal	-9.3323
▁bill	-9.33259
▁companies	-9.3346
▁similar	-9.33638
▁fell	-9.33752
▁War	-9.338
▁jury	-9.33807
▁squad	-9.3382
▁leaving	-9.33878
▁difficult	-9.33953
▁needed	-9.3409
▁31	-9.34168
▁Mexico	-9.34185
▁border	-9.34194
▁Clinton	-9.34263
▁step	-9.34495
▁mean	-9.34557
▁die	-9.34711
▁injured	-9.3479
▁Sydney	-9.34885
▁needs	-9.34928
▁footage	-9.35069
▁field	-9.35435
▁90	-9.35508
▁arrived	-9.35663
▁quite	-9.3567
▁ex	-9.35749
▁pain	-9.35805
▁allowed	-9.36001
▁weather	-9.36041
▁O	-9.36064
▁married	-9.36108
▁encounter	-9.36314
▁figures	-9.36351
▁Korea	-9.36501
▁beginning	-9.36551
▁parts	-9.36571
▁Peter	-9.36587
▁wants	-9.36601
▁questions	-9.36674
▁evening	-9.36966
▁energy	-9.37063
▁Many	-9.37184
▁cash	-9.37409
▁Center	-9.37467
▁ft	-9.37598
▁north	-9.37868
▁During	-9.37879
▁challenge	-9.37953
▁Health	-9.38007
▁center	-9.38126
▁st	-9.38167
▁performance	-9.38184
▁makes	-9.38262
▁rate	-9.38326
▁troops	-9.38401
▁80	-9.38418
▁single	-9.38418
▁onto	-9.38469
▁70	-9.38558
▁schools	-9.38561
▁design	-9.38609
▁gone	-9.38742
▁Iran	-9.38831
▁Crown	-9.38844
▁Champions	-9.38913
▁success	-9.38974
▁captain	-9.39026
▁charity	-9.39056
▁federal	-9.39115
▁High	-9.39132
▁Government	-9.39152
▁penalty	-9.39173
▁presently	-9.39255
▁opening	-9.39355
▁describe	-9.39358
▁threat	-9.39386
▁confirmed	-9.39403
▁32	-9.3954
▁Barcelona	-9.39626
▁else	-9.39661
▁industry	-9.39771
▁returned	-9.39902
▁Judge	-9.39926
▁300	-9.3993
▁bank	-9.40099
▁observe	-9.40193
▁various	-9.402
▁Italy	-9.40345
▁caught	-9.40349
▁Robert	-9.40456
▁Thomas	-9.40477
▁suffer	-9.40588
▁Richard	-9.40602
▁C	-9.407
▁William	-9.40741
▁lose	-9.40839
▁airport	-9.40853
▁concluding	-9.41
▁touch	-9.41003
▁Our	-9.41062
▁Times	-9.41286
▁helped	-9.41454
▁looks	-9.41475
▁fresh	-9.41482
▁Jackson	-9.41525
▁oil	-9.41535
▁doctor	-9.41553
▁fighting	-9.41869
▁wait	-9.42045
▁soldiers	-9.42095
▁apply	-9.42183
▁worth	-9.42339
▁build	-9.42604
▁merely	-9.42629
▁ship	-9.42825
▁catch	-9.43588
▁concerns	-9.4361
▁direct	-9.4361
▁2006	-9.4371
▁aircraft	-9.43732
▁television	-9.43991
▁ready	-9.44423
▁By	-9.44441
▁fit	-9.4447
▁Republican	-9.44546
▁begin	-9.44568
▁fellow	-9.44698
▁Queen	-9.44734
▁rules	-9.44858
▁wearing	-9.44858
▁opportunity	-9.44916
▁buy	-9.44927
▁newspaper	-9.4501
▁suicide	-9.45061
▁bus	-9.45086
▁skin	-9.45192
▁costs	-9.45196
▁witness	-9.45261
▁storm	-9.45265
▁Lee	-9.45331
▁gas	-9.45341
▁spot	-9.45425
▁effort	-9.45433
▁understand	-9.45487
▁weapons	-9.45549
▁eyes	-9.45571
▁experts	-9.4563
▁council	-9.45747
▁aged	-9.45791
▁track	-9.45993
▁available	-9.46011
▁raise	-9.46022
▁nd	-9.46176
▁efforts	-9.46202
▁dress	-9.46349
▁acquire	-9.46471
▁changes	-9.4653
▁NHS	-9.46703
▁individual	-9.46789
▁crew	-9.46851
▁sold	-9.46855
▁speed	-9.47003
▁speech	-9.47007
▁instead	-9.47059
▁apartment	-9.47111
▁dogs	-9.47111
▁secret	-9.47196
▁Paris	-9.47259
▁spend	-9.47271
▁share	-9.47408
▁leg	-9.47423
▁kept	-9.47449
▁competition	-9.4749
▁levels	-9.47636
▁foremost	-9.47688
▁non	-9.47792
▁exact	-9.47815
▁lack	-9.47976
▁shoot	-9.48092
▁attend	-9.48099
▁alcohol	-9.48107
▁Chinese	-9.48174
▁finish	-9.48332
▁sale	-9.48336
▁created	-9.48339
▁longer	-9.48358
▁arrive	-9.48362
▁separate	-9.48385
▁custody	-9.48637
▁erstwhile	-9.48735
▁deaths	-9.4878
▁senior	-9.48908
▁messages	-9.48912
▁exit	-9.49067
▁exactly	-9.49071
▁leading	-9.49082
▁Not	-9.4909
▁terms	-9.49177
▁general	-9.4926
▁target	-9.49367
▁documents	-9.49393
▁Justice	-9.49462
▁economy	-9.49515
▁answer	-9.4953
▁bodies	-9.49701
▁significant	-9.498
▁teacher	-9.49819
▁ISIS	-9.49865
▁appeal	-9.49877
▁female	-9.49884
▁mind	-9.49984
▁Congress	-9.50462
▁teams	-9.5055
▁Pakistan	-9.50608
▁VIDEO	-9.50616
▁midfielder	-9.50616
▁winner	-9.50723
▁rape	-9.50727
▁advance	-9.50747
▁Both	-9.50785
▁criminal	-9.50793
▁Israel	-9.51001
▁lowest	-9.5104
▁Today	-9.51055
▁sea	-9.5107
▁General	-9.51082
▁champion	-9.5109
▁ice	-9.51124
▁winning	-9.51179
▁involve	-9.51209
▁Although	-9.51264
▁expend	-9.51275
▁crisis	-9.51341
▁speak	-9.51422
▁crowd	-9.51659
▁seat	-9.51702
▁heavy	-9.51912
▁carried	-9.51916
▁defense	-9.51923
▁extend	-9.5199
▁ban	-9.52193
▁safe	-9.52286
▁tour	-9.52306
▁example	-9.52314
▁Army	-9.52596
▁actions	-9.52709
▁ill	-9.52733
▁send	-9.52764
▁Italian	-9.52847
▁degree	-9.52894
▁illegal	-9.52941
▁league	-9.52961
▁launch	-9.53122
▁streets	-9.53367
▁launched	-9.5345
▁gold	-9.53608
▁Islamic	-9.53644
▁church	-9.53664
▁arm	-9.53687
▁appearance	-9.53707
▁throughout	-9.53731
▁trade	-9.53826
▁prove	-9.53906
▁alongside	-9.53938
▁jobs	-9.53949
▁education	-9.53993
▁Harry	-9.54001
▁movie	-9.54001
▁takes	-9.54132
▁miss	-9.54208
▁reporters	-9.54312
▁Spanish	-9.54408
▁main	-9.54539
▁complete	-9.54615
▁previously	-9.54691
▁Mail	-9.54784
▁conduct	-9.54812
▁quick	-9.54848
▁fear	-9.5488
▁Since	-9.54944
▁Service	-9.5496
▁warned	-9.5498
▁extra	-9.55064
▁quickly	-9.55064
▁faces	-9.55072
▁continued	-9.55077
▁entirely	-9.55157
▁spending	-9.55237
▁Japan	-9.55266
▁33	-9.55298
▁giving	-9.55366
▁unitedly	-9.55544
▁refused	-9.5556
▁network	-9.55693
▁stars	-9.55847
▁intimate	-9.5607
▁believes	-9.5609
▁millions	-9.56229
▁normal	-9.56277
▁justice	-9.56334
▁double	-9.56379
▁Van	-9.56383
▁numbers	-9.56428
▁scored	-9.56477
▁utmost	-9.56538
▁convicted	-9.56677
▁piece	-9.56726
▁successful	-9.56775
▁included	-9.56889
▁supporters	-9.57341
▁administration	-9.57579
▁effect	-9.57608
▁Andrew	-9.57687
▁works	-9.57802
▁Earth	-9.57959
▁Three	-9.58092
▁rule	-9.58146
▁render	-9.58237
▁teenager	-9.5834
▁population	-9.58357
▁products	-9.5844
▁completely	-9.58449
▁shop	-9.58577
▁original	-9.58607
▁FBI	-9.58615
▁bar	-9.58627
▁boyfriend	-9.58848
▁traffic	-9.58857
▁rescue	-9.58878
▁computer	-9.5889
▁box	-9.58924
▁How	-9.58953
▁device	-9.59041
▁p	-9.59061
▁restaurant	-9.59216
▁benefits	-9.59304
▁itself	-9.5946
▁middle	-9.59523
▁department	-9.59527
▁records	-9.59552
▁endure	-9.5967
▁lived	-9.59779
▁art	-9.59805
▁fine	-9.59809
▁impart	-9.59838
▁built	-9.60032
▁accept	-9.60201
▁denied	-9.60218
▁decades	-9.60244
▁notice	-9.60248
▁Bill	-9.60311
▁Newcastle	-9.6054
▁Kim	-9.60566
▁sport	-9.60681
▁2005	-9.60685
▁contributed	-9.60719
▁sell	-9.60723
▁instantly	-9.60732
▁ensure	-9.60838
▁shortly	-9.60868
▁score	-9.60881
▁scientists	-9.6094
▁concern	-9.60991
▁investigators	-9.61085
▁fourth	-9.61248
▁ring	-9.61252
▁capable	-9.61303
▁mission	-9.61307
▁chairman	-9.61376
▁Air	-9.61402
▁laws	-9.61427
▁window	-9.6153
▁dangerous	-9.61607
▁biggest	-9.6174
▁Security	-9.61762
▁pilot	-9.61839
▁probably	-9.6193
▁assist	-9.62089
▁Louis	-9.62123
▁majority	-9.62201
▁century	-9.62383
▁Senate	-9.62538
▁card	-9.62543
▁shown	-9.62733
▁Their	-9.62755
▁growing	-9.62881
▁bomb	-9.62903
▁joined	-9.62911
▁island	-9.62946
▁mark	-9.63103
▁debate	-9.6319
▁transfer	-9.63199
▁ended	-9.63277
▁word	-9.63338
▁internet	-9.63461
▁tournament	-9.63539
▁especially	-9.63605
▁survey	-9.63618
▁whom	-9.63732
▁entire	-9.63842
▁Of	-9.64145
▁telling	-9.64268
▁researchers	-9.64409
▁pre	-9.6452
▁conceive	-9.64612
▁join	-9.64825
▁sales	-9.64834
▁straightaway	-9.6494
▁Ebola	-9.64993
▁choice	-9.65011
▁Authorities	-9.65162
▁aim	-9.65211
▁table	-9.6526
▁reasons	-9.65264
▁@	-9.65331
▁owners	-9.65331
▁fashion	-9.6534
▁count	-9.65447
▁fly	-9.65447
▁raised	-9.6546
▁Lord	-9.65465
▁paper	-9.65505
▁armed	-9.65536
▁spread	-9.65585
▁400	-9.65648
▁raw	-9.65706
▁34	-9.65755
▁Daniel	-9.65769
▁extremely	-9.65854
▁betimes	-9.65867
▁village	-9.65876
▁items	-9.65885
▁MP	-9.66082
▁Palace	-9.66082
▁Scott	-9.66145
▁wish	-9.66194
▁ordered	-9.66329
▁suffering	-9.66338
▁collection	-9.66343
▁myself	-9.66478
▁west	-9.66491
▁stopped	-9.6659
▁novel	-9.6664
▁stock	-9.66649
▁Barack	-9.66685
▁Open	-9.66726
▁eventually	-9.66726
▁doesn	-9.6673
▁worker	-9.66757
▁bedroom	-9.66766
▁boat	-9.6683
▁supply	-9.66947
▁row	-9.66988
▁file	-9.6706
▁spokeswoman	-9.67219
▁opened	-9.67224
▁societal	-9.67242
▁quality	-9.67251
▁foreign	-9.67333
▁remember	-9.67378
▁app	-9.6741
▁development	-9.67446
▁grant	-9.67469
▁Steve	-9.67528
▁First	-9.67546
▁Old	-9.67569
▁treated	-9.67597
▁fan	-9.67665
▁Former	-9.67692
▁pose	-9.67706
▁followed	-9.67783
▁counts	-9.67843
▁offered	-9.67843
▁Party	-9.67975
▁Tom	-9.68058
▁grow	-9.68246
▁concerned	-9.68264
▁signs	-9.68291
▁magazine	-9.68305
▁twice	-9.68351
▁employees	-9.68452
▁east	-9.68521
▁remove	-9.68558
▁Bush	-9.68585
▁talks	-9.68595
▁value	-9.68599
▁passed	-9.68613
▁N	-9.68774
▁loan	-9.68797
▁bottom	-9.68811
▁pitch	-9.68816
▁defender	-9.6882
▁names	-9.68825
▁brand	-9.68862
▁broke	-9.68862
▁initially	-9.68959
▁professional	-9.69051
▁signed	-9.69232
▁financial	-9.69306
▁below	-9.6937
▁presidential	-9.69477
▁Most	-9.69528
▁Murray	-9.69579
▁patient	-9.69589
▁appears	-9.69677
▁secure	-9.69691
▁common	-9.69765
▁drink	-9.69826
▁beach	-9.69835
▁spoke	-9.69877
▁certain	-9.69956
▁snow	-9.70134
▁Red	-9.70237
▁Charles	-9.70401
▁crimes	-9.70419
▁version	-9.70485
▁reckon	-9.70593
▁birthday	-9.70607
▁character	-9.70616
▁survive	-9.70649
▁published	-9.70771
▁Alex	-9.70832
▁backwards	-9.70861
▁arms	-9.70889
▁hopes	-9.70974
▁sometime	-9.71021
▁Chief	-9.71068
▁coast	-9.71077
▁loved	-9.71129
▁block	-9.71214
▁Post	-9.71271
▁link	-9.71313
▁mouth	-9.71328
▁progress	-9.71455
▁2004	-9.71493
▁Boston	-9.71512
▁places	-9.7156
▁EU	-9.71569
▁develop	-9.71669
▁plenty	-9.71669
▁display	-9.71678
▁Gaal	-9.7174
▁sports	-9.71754
▁actor	-9.71759
▁particularly	-9.71792
▁36	-9.7183
▁beautiful	-9.71854
▁showing	-9.71892
▁Association	-9.72054
▁ceremony	-9.7213
▁ran	-9.7213
▁MailOnline	-9.7214
▁commit	-9.72187
▁therefore	-9.72416
▁screen	-9.72522
▁approach	-9.72589
▁unable	-9.72622
▁seek	-9.7279
▁cross	-9.72876
▁agreed	-9.72905
▁clubs	-9.72944
▁wasn	-9.72953
▁jailed	-9.7317
▁Muslim	-9.73266
▁via	-9.73358
▁ability	-9.73367
▁prosecutors	-9.73367
▁Joe	-9.73454
▁District	-9.73464
▁Taylor	-9.7357
▁type	-9.73633
▁profile	-9.73638
▁operations	-9.73706
▁sometimes	-9.73715
▁ways	-9.73735
▁behaviour	-9.73764
▁identified	-9.73788
▁forthwith	-9.73851
▁Jersey	-9.74016
▁distinguish	-9.7404
▁opposition	-9.74113
▁goes	-9.74128
▁prevent	-9.74206
▁tests	-9.74211
▁removed	-9.7425
▁blue	-9.74352
▁assure	-9.74376
▁necessitate	-9.74376
▁rearward	-9.74479
▁prices	-9.74508
▁succeed	-9.74532
▁university	-9.74571
▁pounds	-9.74606
▁wall	-9.74674
▁agree	-9.74801
▁seconds	-9.74816
▁sentenced	-9.74938
▁fun	-9.75002
▁shock	-9.75012
▁college	-9.75032
▁From	-9.75071
▁request	-9.75174
▁bought	-9.75179
▁postulate	-9.75307
▁placed	-9.75405
▁add	-9.75425
▁straight	-9.75504
▁designed	-9.75558
▁God	-9.75671
▁issued	-9.75746
▁multiple	-9.75751
▁Syrian	-9.7576
▁review	-9.7576
▁views	-9.75844
▁calling	-9.75953
▁occur	-9.75958
▁central	-9.75963
▁journey	-9.76008
▁mail	-9.76072
▁quarter	-9.76246
▁immigration	-9.76256
▁FA	-9.76455
▁Group	-9.76455
▁feeling	-9.7648
▁changed	-9.76495
▁poor	-9.765
▁Under	-9.76579
▁clean	-9.76594
▁matches	-9.76654
▁Island	-9.76674
▁decade	-9.76674
▁contain	-9.76789
▁cell	-9.76914
▁seems	-9.77174
▁moving	-9.77239
▁barely	-9.77294
▁terrorist	-9.77325
▁reality	-9.77355
▁feature	-9.77375
▁legs	-9.77395
▁shirt	-9.7741
▁Tottenham	-9.77415
▁founder	-9.77425
▁severe	-9.7747
▁intelligence	-9.77495
▁famous	-9.77505
▁focus	-9.77526
▁push	-9.77752
▁male	-9.77782
▁reveal	-9.77813
▁lots	-9.77833
▁cannot	-9.77853
▁attacked	-9.77944
▁managed	-9.7801
▁bail	-9.78126
▁Christian	-9.78182
▁initiative	-9.78222
▁responsibility	-9.78283
▁backward	-9.78354
▁deep	-9.78369
▁Jack	-9.78395
▁largest	-9.7841
▁E	-9.7842
▁Wilson	-9.78456
▁broken	-9.78511
▁estate	-9.787
▁depart	-9.78842
▁expert	-9.78949
▁Tony	-9.78954
▁bag	-9.79118
▁Qaeda	-9.79138
▁warning	-9.79154
▁pulled	-9.79179
▁virtually	-9.7923
▁Ireland	-9.79261
▁ones	-9.79271
▁struck	-9.79287
▁controversial	-9.79292
▁emerged	-9.79481
▁district	-9.79543
▁planning	-9.79548
▁considered	-9.79579
▁deliver	-9.79743
▁economic	-9.79836
▁easy	-9.79944
▁onetime	-9.80347
▁truck	-9.80368
▁fast	-9.80373
▁drivers	-9.80456
▁beyond	-9.80507
▁growth	-9.80518
▁vehicles	-9.80528
▁gang	-9.80606
▁gay	-9.80658
▁note	-9.8071
▁Home	-9.80757
▁ride	-9.80793
▁dont	-9.8085
▁afterwards	-9.80902
▁indeed	-9.80928
▁peace	-9.81064
▁surface	-9.8109
▁rearwards	-9.81173
▁Mike	-9.81215
▁quondam	-9.8122
▁lawsuit	-9.81424
▁camp	-9.81455
▁activity	-9.81487
▁cities	-9.81591
▁singer	-9.81602
▁traditional	-9.81717
▁Coast	-9.81728
▁solely	-9.81912
▁Ryan	-9.81917
▁escape	-9.81948
▁Republicans	-9.81959
▁easily	-9.81969
▁150	-9.81975
▁terror	-9.82022
▁parties	-9.8208
▁Korean	-9.82148
▁agreement	-9.82159
▁material	-9.82217
▁features	-9.82254
▁duty	-9.82423
▁Man	-9.82454
▁Chicago	-9.82528
▁subject	-9.8255
▁employ	-9.82936
▁sit	-9.83037
▁38	-9.83064
▁enforcement	-9.83186
▁true	-9.83208
▁related	-9.83298
▁mobile	-9.8332
▁article	-9.83368
▁Jose	-9.83378
▁Airport	-9.83421
▁#	-9.83581
▁hurt	-9.83603
▁fired	-9.83624
▁global	-9.83661
▁guide	-9.83865
▁Ben	-9.8387
▁movement	-9.83967
▁higher	-9.83977
▁throw	-9.83994
▁yield	-9.84074
▁37	-9.84112
▁Lewis	-9.8416
▁Kevin	-9.84225
▁wear	-9.84225
▁visitors	-9.84246
▁upon	-9.84381
▁fund	-9.84451
▁42	-9.84483
▁pick	-9.84526
▁walking	-9.84607
▁kick	-9.84645
▁mph	-9.84645
▁recovery	-9.84721
▁adding	-9.84737
▁write	-9.84791
▁Family	-9.84894
▁Ukraine	-9.84894
▁Those	-9.85013
▁exercise	-9.85013
▁shape	-9.85062
▁society	-9.851
▁videos	-9.85122
▁ruling	-9.85187
▁Hall	-9.85285
▁Georgia	-9.85437
▁voice	-9.85437
▁carrying	-9.85459
▁Canada	-9.85633
▁doubt	-9.85748
▁fail	-9.8578
▁artist	-9.85808
▁served	-9.85846
▁waiting	-9.86218
▁defence	-9.86367
▁knife	-9.86383
▁2003	-9.864
▁rain	-9.86405
▁hot	-9.86416
▁subsequently	-9.86559
▁unit	-9.86576
▁addition	-9.86675
▁holding	-9.86725
▁Southampton	-9.86752
▁Maria	-9.86763
▁function	-9.86802
▁measures	-9.86802
▁handed	-9.86813
▁Games	-9.86818
▁protest	-9.86874
▁contribute	-9.86912
▁thus	-9.86957
▁asking	-9.86979
▁sites	-9.8699
▁thanks	-9.87051
▁tree	-9.87056
▁Grand	-9.87073
▁passenger	-9.87073
▁repeatedly	-9.87117
▁aesculapian	-9.8715
▁culture	-9.87294
▁retrieve	-9.87294
▁clothes	-9.87394
▁location	-9.87394
▁respective	-9.87439
▁Israeli	-9.87483
▁expensive	-9.87539
▁pregnant	-9.87544
▁Hill	-9.8765
▁48	-9.87678
▁award	-9.87678
▁programme	-9.87678
▁Andy	-9.87694
▁positive	-9.87895
▁tie	-9.8804
▁ascertain	-9.88085
▁neck	-9.88102
▁exchange	-9.88147
▁respect	-9.8818
▁Modern	-9.88186
▁fix	-9.88242
▁Professor	-9.88399
▁budget	-9.88404
▁responsible	-9.88427
▁avoid	-9.88449
▁user	-9.88567
▁reached	-9.88657
▁dropped	-9.88674
▁connection	-9.88702
▁2015	-9.88736
▁agent	-9.88758
▁dark	-9.88888
▁pretty	-9.89034
▁written	-9.89051
▁Victoria	-9.89085
▁talking	-9.89091
▁rare	-9.89097
▁highest	-9.8917
▁nowadays	-9.89193
▁obtain	-9.89193
▁hardly	-9.89232
▁closed	-9.89311
▁Mary	-9.89345
▁seeing	-9.89345
▁committee	-9.89504
▁Year	-9.89515
▁fish	-9.89538
▁protests	-9.89618
▁Road	-9.89663
▁language	-9.89771
▁YouTube	-9.89777
▁scandal	-9.89833
▁iPhone	-9.89845
▁proceed	-9.89862
▁Taliban	-9.8989
▁giant	-9.89896
▁Rooney	-9.89936
▁75	-9.89993
▁equipment	-9.90004
▁sleep	-9.90061
▁trouble	-9.90101
▁guy	-9.9029
▁Olympic	-9.90324
▁Carolina	-9.90553
▁voters	-9.90748
▁stomach	-9.91001
▁Virginia	-9.91012
▁captured	-9.91035
▁College	-9.91093
▁organization	-9.91128
▁treat	-9.91145
▁protesters	-9.91266
▁choose	-9.9137
▁text	-9.91382
▁credit	-9.91393
▁radio	-9.91474
▁Mourinho	-9.91486
▁nature	-9.91509
▁plant	-9.91515
▁shots	-9.91636
▁influence	-9.91688
▁commence	-9.91694
▁Attorney	-9.91764
▁43	-9.91793
▁pool	-9.91822
▁amid	-9.91891
▁operate	-9.91932
▁Birmingham	-9.91938
▁filed	-9.91979
▁sustain	-9.91979
▁product	-9.91996
▁daughters	-9.92008
▁affect	-9.92031
▁Green	-9.92043
▁Kate	-9.92043
▁alive	-9.92165
▁worst	-9.92206
▁scale	-9.92223
▁precisely	-9.92235
▁gets	-9.92246
▁confidence	-9.92275
▁Hollywood	-9.92299
▁photographs	-9.92305
▁Steven	-9.92521
▁realise	-9.92526
▁conflict	-9.92544
▁Committee	-9.92567
▁insurance	-9.92661
▁pull	-9.92696
▁eat	-9.92878
▁drinking	-9.92889
▁grade	-9.92931
▁nonetheless	-9.9296
▁funeral	-9.92978
▁Church	-9.93107
▁Ronaldo	-9.93119
▁tough	-9.93148
▁guard	-9.93172
▁rock	-9.93242
▁planned	-9.93348
▁Club	-9.9349
▁band	-9.93496
▁spotted	-9.93596
▁bodied	-9.93631
▁sources	-9.93679
▁Everton	-9.9372
▁Argentina	-9.93767
▁fuel	-9.93809
▁Im	-9.93827
▁apparently	-9.9388
▁includes	-9.93898
▁surprise	-9.93933
▁Stadium	-9.94016
▁Great	-9.94034
▁Star	-9.94081
▁claiming	-9.94123
▁standing	-9.94147
▁Diego	-9.94159
▁nevertheless	-9.94194
▁garden	-9.94218
▁unlike	-9.94278
▁advice	-9.94313
▁sort	-9.94313
▁suspended	-9.94331
▁River	-9.94373
▁Jordan	-9.94444
▁arrogate	-9.94444
▁Tory	-9.94456
▁Why	-9.94474
▁virus	-9.94516
▁hence	-9.94528
▁adult	-9.94558
▁Sarah	-9.94564
▁civil	-9.94683
▁meaning	-9.94856
▁utilise	-9.94856
▁green	-9.94874
▁covered	-9.9488
▁sides	-9.94898
▁devices	-9.94982
▁cold	-9.94994
▁complex	-9.95006
▁Anthony	-9.95018
▁causing	-9.95054
▁cast	-9.9506
▁stress	-9.95174
▁600	-9.95258
▁notwithstanding	-9.95264
▁utilize	-9.95306
▁dream	-9.95396
▁session	-9.95402
▁failure	-9.9545
▁scoring	-9.95492
▁meant	-9.95517
▁difference	-9.95571
▁Suarez	-9.95655
▁shared	-9.95722
▁Stephen	-9.95812
▁Bank	-9.95885
▁aside	-9.95897
▁runs	-9.95951
▁withal	-9.95957
▁flights	-9.95981
▁suspects	-9.95987
▁shopping	-9.95993
▁celebrate	-9.96024
▁39	-9.96048
▁lawyers	-9.96066
▁Democrats	-9.96078
▁identify	-9.96169
▁Sam	-9.96175
▁rates	-9.96181
▁citizens	-9.96284
▁suggested	-9.96284
▁Ferguson	-9.96309
▁Costa	-9.96321
▁ruled	-9.96333
▁thinking	-9.96394
▁actress	-9.96442
▁fraud	-9.96442
▁Zealand	-9.96539
▁realize	-9.96546
▁starting	-9.96546
▁Even	-9.96588
▁lines	-9.96649
▁toward	-9.96698
▁Ham	-9.96747
▁appropriate	-9.96759
▁pleaded	-9.9682
▁feed	-9.96863
▁books	-9.96875
▁Morgan	-9.96893
▁photographer	-9.9693
▁helping	-9.96997
▁clash	-9.97009
▁forget	-9.97034
▁Central	-9.97058
▁army	-9.97089
▁Nations	-9.9715
▁Internet	-9.97199
▁production	-9.97199
▁Just	-9.97205
▁thence	-9.97266
▁MPs	-9.97297
▁Kelly	-9.97309
▁flat	-9.97413
▁Eric	-9.97444
▁tragedy	-9.97444
▁Cambridge	-9.97555
▁stories	-9.97555
▁Nick	-9.97567
▁55	-9.97585
▁linked	-9.97591
▁cuts	-9.97616
▁colleagues	-9.97739
▁secretary	-9.97739
▁luxury	-9.97788
▁perfect	-9.97844
▁enjoy	-9.97955
▁stimulate	-9.98128
▁threatening	-9.98177
▁harm	-9.98338
▁newfangled	-9.98338
▁unexampled	-9.98382
▁machine	-9.98413
▁nuclear	-9.98468
▁glass	-9.98549
▁Before	-9.98568
▁47	-9.98593
▁Watch	-9.98661
▁wo	-9.98661
▁250	-9.98667
▁flying	-9.98742
▁winter	-9.98767
▁income	-9.98804
▁militants	-9.98816
▁complaint	-9.98929
▁Alan	-9.99016
▁Then	-9.99053
▁2001	-9.99066
▁cameras	-9.99328
▁adults	-9.99428
▁violent	-9.99453
▁La	-9.99591
▁Adam	-9.99604
▁Miami	-9.99616
▁Middle	-9.99641
▁CEO	-9.99692
▁afterward	-9.99736
▁massive	-9.99742
▁41	-9.99798
▁accounts	-9.99842
▁mid	-9.99855
▁sons	-9.9988
▁expressed	-9.99924
▁tight	-9.99943
▁Bay	-9.99981
▁44	-10.0008
▁recall	-10.0008
▁compared	-10.0008
▁regime	-10.0008
▁aware	-10.0014
▁Act	-10.0021
▁Milan	-10.0021
▁moments	-10.0022
▁species	-10.0023
▁becoming	-10.0024
▁facing	-10.0027
▁Beach	-10.0035
▁publish	-10.004
▁scarce	-10.0044
▁photograph	-10.0045
▁NEW	-10.0046
▁watching	-10.0047
▁selling	-10.0066
▁dinner	-10.0066
▁jump	-10.0067
▁status	-10.0075
▁benefit	-10.0077
▁limit	-10.0084
▁2002	-10.0089
▁circumstances	-10.0096
▁800	-10.0098
▁mile	-10.0098
▁teen	-10.01
▁criticism	-10.0101
▁continues	-10.0103
▁affected	-10.011
▁tally	-10.0112
▁46	-10.0115
▁illness	-10.0115
▁losing	-10.0115
▁occurred	-10.012
▁lower	-10.0131
▁Arizona	-10.0132
▁Ford	-10.0135
▁Black	-10.0142
▁powerful	-10.0145
▁cat	-10.0153
▁candidate	-10.0161
▁eating	-10.0166
▁Big	-10.0169
▁relatives	-10.0171
▁Agency	-10.0176
▁65	-10.0177
▁Turkey	-10.0179
▁fears	-10.0183
▁prepare	-10.0191
▁sun	-10.0193
▁finger	-10.0205
▁Young	-10.0206
▁Medical	-10.0206
▁Davis	-10.0212
▁walked	-10.0221
▁Do	-10.0224
▁signing	-10.0225
▁threats	-10.0226
▁hole	-10.0234
▁Navy	-10.0247
▁B	-10.0253
▁Supreme	-10.0257
▁agents	-10.0262
▁maiden	-10.0264
▁ABC	-10.0267
▁leadership	-10.0271
▁struggle	-10.0279
▁farm	-10.0284
▁thusly	-10.0286
▁standards	-10.0304
▁register	-10.0304
▁clearly	-10.0306
▁welcome	-10.0307
▁investigating	-10.031
▁couldn	-10.0317
▁attempted	-10.0325
▁purchase	-10.0328
▁Gary	-10.0331
▁natural	-10.0331
▁committed	-10.0334
▁effects	-10.034
▁sexually	-10.034
▁enter	-10.0341
▁wake	-10.0342
▁protection	-10.0348
▁respond	-10.0352
▁debut	-10.0355
▁banned	-10.0358
▁Villa	-10.036
▁inaugural	-10.0367
▁Fox	-10.0368
▁Yorkshire	-10.0368
▁Force	-10.0368
▁suggest	-10.037
▁DNA	-10.0378
▁temperatures	-10.0378
▁Simon	-10.0386
▁Children	-10.0387
▁T	-10.0398
▁fifth	-10.0403
▁corner	-10.0412
▁explained	-10.0417
▁author	-10.0427
▁inquest	-10.0437
▁o	-10.0439
▁usually	-10.0446
▁convict	-10.0448
▁scarcely	-10.0452
▁Four	-10.0454
▁faced	-10.0459
▁insisted	-10.0467
▁facility	-10.0473
▁regularly	-10.0478
▁nurse	-10.048
▁strange	-10.0485
▁mass	-10.0486
▁Romney	-10.0507
▁ambulance	-10.0516
▁prescribed	-10.0526
▁utter	-10.0528
▁obliterate	-10.053
▁finding	-10.054
▁49	-10.054
▁guests	-10.054
▁danger	-10.0543
▁reaction	-10.0554
▁steps	-10.0555
▁putting	-10.0556
▁dance	-10.0569
▁healthy	-10.0582
▁dad	-10.0587
▁Hong	-10.059
▁individuals	-10.0591
▁bang	-10.0592
▁induce	-10.0592
▁stick	-10.0596
▁await	-10.0597
▁Hamilton	-10.0618
▁highly	-10.0618
▁afford	-10.0621
▁Egypt	-10.0627
▁buildings	-10.0627
▁Foreign	-10.063
▁god	-10.0645
▁Press	-10.0646
▁2000	-10.0654
▁decide	-10.0658
▁examine	-10.0659
▁hop	-10.0663
▁certainly	-10.0669
▁babies	-10.0671
▁Messi	-10.0674
▁fully	-10.0679
▁weapon	-10.0679
▁helicopter	-10.0684
▁spell	-10.0687
▁engage	-10.0694
▁lay	-10.0706
▁email	-10.0715
▁habituate	-10.0715
▁recover	-10.0725
▁tribute	-10.0727
▁defend	-10.073
▁wing	-10.074
▁Ministry	-10.0746
▁brothers	-10.0746
▁soldier	-10.0757
▁phones	-10.0762
▁2016	-10.0765
▁represent	-10.0772
▁environment	-10.0776
▁Instagram	-10.0777
▁smoke	-10.0782
▁audience	-10.0782
▁capture	-10.0791
▁blame	-10.0794
▁Speaking	-10.0804
▁suspected	-10.0804
▁intend	-10.0819
▁Centre	-10.0823
▁necessary	-10.0829
▁affair	-10.0838
▁elections	-10.0847
▁Ed	-10.0848
▁management	-10.0856
▁Miller	-10.0859
▁estimated	-10.0866
▁R	-10.0875
▁Putin	-10.0876
▁mistake	-10.0902
▁provided	-10.0904
▁killer	-10.0904
▁freedom	-10.0913
▁skip	-10.0913
▁succeeding	-10.0915
▁Wayne	-10.0918
▁assistant	-10.092
▁transport	-10.0934
▁regard	-10.0937
▁Colorado	-10.0949
▁maintain	-10.0951
▁heat	-10.0957
▁Ohio	-10.0958
▁critical	-10.0959
▁Meanwhile	-10.096
▁recognise	-10.0968
▁perform	-10.097
▁systems	-10.0972
▁rd	-10.0974
▁1990	-10.0975
▁Commission	-10.0975
▁province	-10.0976
▁activities	-10.0979
▁Kong	-10.0983
▁kitchen	-10.0994
▁song	-10.0999
▁Research	-10.101
▁bump	-10.1012
▁recognize	-10.1013
▁Championship	-10.1017
▁Indian	-10.1023
▁attended	-10.1024
▁particular	-10.1035
▁commercial	-10.1038
▁Lake	-10.1043
▁annual	-10.1044
▁settle	-10.1045
▁stone	-10.1064
▁witnesses	-10.1066
▁Kennedy	-10.107
▁Northern	-10.1073
▁Sen	-10.1076
▁assume	-10.108
▁wild	-10.1086
▁internal	-10.1094
▁climate	-10.1098
▁exclusively	-10.1101
▁memory	-10.1105
▁politics	-10.1106
▁Melbourne	-10.1109
▁symptoms	-10.1112
▁combat	-10.1116
▁scheme	-10.1119
▁chest	-10.1125
▁initiatory	-10.1125
▁forth	-10.113
▁inches	-10.113
▁shut	-10.1133
▁employee	-10.1139
▁horse	-10.114
▁Other	-10.1144
▁fare	-10.115
▁marijuana	-10.115
▁seemed	-10.1151
▁grand	-10.1154
▁primary	-10.1157
▁hoping	-10.1164
▁businesses	-10.1167
▁tweeted	-10.1171
▁Ali	-10.1177
▁sitting	-10.1188
▁wind	-10.1196
▁possession	-10.1201
▁anniversary	-10.121
▁missed	-10.1213
▁threatened	-10.1215
▁beauty	-10.1215
▁convey	-10.1224
▁rent	-10.1228
▁findings	-10.1232
▁improve	-10.1235
▁Atlanta	-10.1237
▁diagnosed	-10.1239
▁pieces	-10.1243
▁mayor	-10.1247
▁visited	-10.1253
▁guns	-10.1255
▁diet	-10.1257
▁watched	-10.1258
▁airline	-10.1267
▁bars	-10.1268
▁sick	-10.1272
▁poll	-10.1275
▁developed	-10.1277
▁acknowledge	-10.1282
▁deputy	-10.1292
▁announcement	-10.1295
▁potentially	-10.1295
▁truly	-10.1297
▁essay	-10.1309
▁Women	-10.1318
▁nations	-10.1325
▁Institute	-10.1328
▁Because	-10.1331
▁FIFA	-10.1334
▁offences	-10.134
▁debt	-10.1343
▁absolutely	-10.1346
▁handle	-10.1353
▁prosecutor	-10.1354
▁auction	-10.1359
▁increased	-10.1362
▁Democratic	-10.1368
▁terrorism	-10.1373
▁Anderson	-10.1382
▁presence	-10.1388
▁indicate	-10.1388
▁serving	-10.1392
▁Bayern	-10.1393
▁52	-10.1395
▁speaking	-10.1401
▁identity	-10.1405
▁Harris	-10.1406
▁picked	-10.1413
▁dozens	-10.1414
▁required	-10.1417
▁shocked	-10.1424
▁stores	-10.1425
▁II	-10.143
▁champions	-10.1431
▁advantage	-10.1437
▁gift	-10.1438
▁Frank	-10.1448
▁Western	-10.1452
▁grandmother	-10.1473
▁Defense	-10.1476
▁initial	-10.1478
▁Bridge	-10.1479
▁Francisco	-10.1482
▁incidents	-10.1488
▁modern	-10.1488
▁fighters	-10.1492
▁seeking	-10.1492
▁strength	-10.1497
▁disaster	-10.1504
▁models	-10.1511
▁mental	-10.1511
▁semi	-10.1516
▁Officers	-10.152
▁younger	-10.1526
▁Wenger	-10.1552
▁incur	-10.1558
▁governor	-10.1566
▁Saudi	-10.1576
▁Football	-10.1583
▁amazing	-10.1586
▁F	-10.1586
▁measure	-10.1586
▁generation	-10.1589
▁thank	-10.1591
▁Luis	-10.1595
▁Olympics	-10.1595
▁houses	-10.1599
▁funding	-10.1604
▁letters	-10.1606
▁designer	-10.161
▁daily	-10.1611
▁advert	-10.1614
▁NFL	-10.1617
▁knows	-10.1625
▁metal	-10.1625
▁facilitate	-10.1631
▁independent	-10.1635
▁housing	-10.1638
▁complaints	-10.1646
▁preserve	-10.1651
▁Over	-10.166
▁Manhattan	-10.1663
▁Elizabeth	-10.1665
▁youth	-10.1669
▁Tim	-10.1677
▁Tour	-10.1681
▁prosecution	-10.1683
▁Sterling	-10.1686
▁knee	-10.1687
▁policies	-10.1687
▁cease	-10.1688
▁Sheriff	-10.169
▁farther	-10.1702
▁funds	-10.1702
▁Kent	-10.1704
▁Gallic	-10.1709
▁goodness	-10.1713
▁cells	-10.1717
▁J	-10.1722
▁surveillance	-10.1722
▁mate	-10.1733
▁seriously	-10.1734
▁content	-10.1737
▁Mayor	-10.1744
▁panel	-10.1744
▁promise	-10.1744
▁Human	-10.175
▁NBC	-10.1752
▁domestic	-10.1766
▁Rodgers	-10.1767
▁devote	-10.177
▁finished	-10.1776
▁correct	-10.1782
▁sorry	-10.1784
▁specific	-10.1788
▁ticket	-10.179
▁totally	-10.1794
▁excuse	-10.18
▁goalkeeper	-10.1801
▁pitched	-10.1804
▁remained	-10.1804
▁Evans	-10.1807
▁stadium	-10.1807
▁parking	-10.1808
▁dollars	-10.1822
▁CCTV	-10.1824
▁Beijing	-10.1833
▁warm	-10.1839
▁skills	-10.184
▁intimately	-10.1843
▁slip	-10.1847
▁antecedently	-10.1847
▁couples	-10.1847
▁inquiry	-10.185
▁Massachusetts	-10.1851
▁listen	-10.1859
▁pro	-10.1859
▁rival	-10.1863
▁crucial	-10.1869
▁teachers	-10.1878
▁vast	-10.1879
▁owned	-10.1882
▁divorce	-10.1883
▁physical	-10.1887
▁Is	-10.1892
▁edge	-10.1892
▁plead	-10.1905
▁Mexican	-10.1909
▁possibility	-10.1909
▁avail	-10.1912
▁route	-10.1912
▁determined	-10.1927
▁boost	-10.1931
▁tourists	-10.1935
▁connect	-10.1936
▁Michelle	-10.1941
▁chances	-10.1945
▁investigate	-10.1947
▁express	-10.1948
▁fiscal	-10.1952
▁humans	-10.1953
▁recorded	-10.1954
▁refuse	-10.1954
▁Henry	-10.1955
▁uses	-10.1962
▁Brian	-10.1964
▁fair	-10.1972
▁Fire	-10.1974
▁mothers	-10.1985
▁cards	-10.1986
▁collapse	-10.1994
▁explain	-10.1996
▁Channel	-10.2
▁pack	-10.2003
▁dispute	-10.2007
▁option	-10.2008
▁science	-10.2008
▁Leicester	-10.201
▁mostly	-10.2012
▁schedule	-10.2019
▁Ian	-10.2022
▁Foundation	-10.2028
▁smile	-10.2029
▁Once	-10.2054
▁deny	-10.2059
▁wee	-10.2061
▁journalist	-10.2066
▁legislation	-10.2072
▁lights	-10.2073
▁vice	-10.2078
▁tears	-10.2083
▁truth	-10.2083
▁roughly	-10.2083
▁learned	-10.2089
▁Moscow	-10.2092
▁chain	-10.2092
▁stands	-10.2093
▁1980	-10.2093
▁decent	-10.2093
▁Duchess	-10.2095
▁likes	-10.2099
▁deadly	-10.2101
▁upset	-10.2111
▁breast	-10.2129
▁proud	-10.2129
▁depict	-10.2132
▁worse	-10.2138
▁attempts	-10.2139
▁scheduled	-10.2139
▁worldwide	-10.214
▁Trust	-10.2145
▁imagine	-10.2146
▁Dutch	-10.215
▁blog	-10.215
▁verdict	-10.2156
▁bet	-10.2173
▁approximately	-10.2174
▁El	-10.2176
▁knowledge	-10.2179
▁decisions	-10.2184
▁didnt	-10.2184
▁films	-10.2185
▁grave	-10.2197
▁background	-10.2201
▁earn	-10.2208
▁split	-10.2208
▁jet	-10.2211
▁golf	-10.2215
▁Officials	-10.222
▁cocaine	-10.2223
▁river	-10.2223
▁union	-10.2227
▁viewers	-10.223
▁Hotel	-10.2233
▁client	-10.2236
▁lift	-10.2243
▁broadcast	-10.2244
▁plus	-10.2246
▁chosen	-10.2252
▁planet	-10.2253
▁landing	-10.2258
▁adopt	-10.2263
▁vulnerable	-10.2275
▁flag	-10.2283
▁path	-10.2283
▁trace	-10.2286
▁section	-10.2287
▁external	-10.2288
▁gives	-10.229
▁guess	-10.2297
▁document	-10.23
▁journalists	-10.2304
▁perhaps	-10.2318
▁L	-10.2342
▁X	-10.2346
▁northern	-10.2355
▁regular	-10.2359
▁contend	-10.2363
▁simple	-10.2365
▁Airlines	-10.2369
▁Patrick	-10.2371
▁conversation	-10.2372
▁nose	-10.2373
▁Pennsylvania	-10.2385
▁isn	-10.2386
▁personnel	-10.2387
▁minor	-10.239
▁Sunderland	-10.2391
▁behavior	-10.2393
▁communities	-10.2395
▁attain	-10.2398
▁wine	-10.2398
▁firstly	-10.2399
▁Asia	-10.2399
▁Hull	-10.2406
▁construction	-10.2407
▁pupils	-10.2411
▁effective	-10.242
▁clothing	-10.2423
▁interested	-10.2429
▁blow	-10.2431
▁betray	-10.2441
▁confirm	-10.2444
▁reform	-10.2446
▁Matthew	-10.2448
▁paying	-10.2448
▁waste	-10.245
▁infection	-10.2477
▁bin	-10.2477
▁Charlie	-10.2478
▁trees	-10.2483
▁Abu	-10.2485
▁wound	-10.2485
▁Scottish	-10.2488
▁descend	-10.2489
▁consort	-10.2491
▁dissimilar	-10.2506
▁54	-10.2509
▁heads	-10.251
▁Sorry	-10.2512
▁breaking	-10.2516
▁resort	-10.2517
▁metres	-10.2519
▁overall	-10.252
▁keeping	-10.2521
▁bottle	-10.2523
▁engine	-10.2523
▁inquire	-10.2526
▁Terry	-10.2532
▁pee	-10.2533
▁strain	-10.2536
▁investment	-10.2541
▁limited	-10.2545
▁Oscar	-10.2549
▁offers	-10.2557
▁elderly	-10.2558
▁Jr	-10.2561
▁Super	-10.2562
▁Khan	-10.2562
▁manage	-10.2566
▁master	-10.2567
▁700	-10.2572
▁celebrity	-10.2579
▁confront	-10.2579
▁hat	-10.2579
▁tomorrow	-10.2579
▁53	-10.2584
▁bond	-10.2589
▁51	-10.259
▁acts	-10.2593
▁Matt	-10.26
▁retain	-10.2602
▁distance	-10.2608
▁adjacent	-10.2611
▁bridge	-10.2611
▁responded	-10.2617
▁false	-10.2619
▁conviction	-10.2623
▁tennis	-10.2626
▁Alexander	-10.2633
▁seats	-10.2633
▁enquire	-10.2651
▁resolve	-10.2652
▁meat	-10.2654
▁undergo	-10.2654
▁bags	-10.266
▁plastic	-10.267
▁professor	-10.2675
▁Public	-10.2685
▁appearances	-10.2687
▁slow	-10.2694
▁basis	-10.2698
▁terminate	-10.2706
▁Earlier	-10.2707
▁prime	-10.271
▁scenes	-10.2712
▁map	-10.2713
▁hail	-10.2716
▁Republic	-10.2717
▁reduce	-10.2729
▁southern	-10.273
▁Princess	-10.2732
▁Jim	-10.2735
▁veteran	-10.2741
▁testing	-10.2744
▁Among	-10.2746
▁agencies	-10.2746
▁taste	-10.2752
▁accord	-10.2758
▁hero	-10.2758
▁Every	-10.2765
▁Miliband	-10.2766
▁surprised	-10.2769
▁anger	-10.2775
▁keen	-10.2778
▁doors	-10.278
▁rooms	-10.278
▁joint	-10.2781
▁Hughes	-10.2783
▁resources	-10.2785
▁Houston	-10.2791
▁chair	-10.2796
▁opinion	-10.2796
▁retired	-10.2799
▁Sun	-10.2806
▁options	-10.2806
▁Jason	-10.2808
▁Swansea	-10.2818
▁angry	-10.282
▁faith	-10.282
▁prepared	-10.282
▁causes	-10.2833
▁pet	-10.2836
▁mates	-10.2836
▁privacy	-10.2836
▁Graham	-10.2838
▁pocket	-10.2844
▁Lady	-10.2846
▁Trafford	-10.285
▁GOP	-10.2856
▁withdraw	-10.2859
▁plea	-10.286
▁Bob	-10.2861
▁coverage	-10.2861
▁Sea	-10.2877
▁meantime	-10.2877
▁stolen	-10.288
▁parent	-10.2881
▁shift	-10.2883
▁religious	-10.2889
▁Phil	-10.289
▁Valley	-10.289
▁prisoners	-10.289
▁delay	-10.2895
▁fill	-10.2896
▁Christopher	-10.2897
▁promote	-10.2897
▁writing	-10.2916
▁explosion	-10.2917
▁Prosecutors	-10.292
▁grown	-10.293
▁choke	-10.2934
▁politicians	-10.2937
▁Vegas	-10.2939
▁moon	-10.2953
▁prize	-10.2975
▁Sky	-10.2978
▁active	-10.2985
▁customer	-10.2986
▁stuff	-10.2987
▁Like	-10.3001
▁Each	-10.3003
▁interior	-10.3005
▁neighborhood	-10.3014
▁discovery	-10.3015
▁passing	-10.3021
▁Michigan	-10.3022
▁eminent	-10.3023
▁gamy	-10.3028
▁inspired	-10.3036
▁persist	-10.3036
▁supposed	-10.3042
▁blast	-10.3046
▁tweet	-10.3047
▁authority	-10.3048
▁Web	-10.3066
▁roof	-10.3066
▁Doctors	-10.307
▁unusual	-10.3077
▁Canadian	-10.3082
▁theft	-10.3084
▁Hernandez	-10.3085
▁select	-10.309
▁mum	-10.3099
▁M	-10.3108
▁followers	-10.3108
▁produced	-10.3112
▁favourite	-10.3116
▁gamey	-10.3118
▁mellow	-10.3128
▁rivals	-10.3141
▁suspicion	-10.3142
▁nor	-10.3153
▁Rights	-10.3154
▁Who	-10.3162
▁Muslims	-10.3163
▁detect	-10.3165
▁opinions	-10.3165
▁fat	-10.3176
▁Francis	-10.3178
▁declined	-10.3179
▁entered	-10.3182
▁maybe	-10.3186
▁Santa	-10.3187
▁cry	-10.319
▁spring	-10.3197
▁terrorists	-10.3201
▁Duke	-10.321
▁sky	-10.3214
▁decline	-10.3217
▁discuss	-10.3217
▁dozen	-10.3222
▁hospitals	-10.3223
▁emotional	-10.3224
▁Brazilian	-10.3239
▁km	-10.3241
▁Danny	-10.3248
▁Team	-10.3248
▁resident	-10.325
▁Federal	-10.3252
▁Long	-10.3256
▁square	-10.3274
▁defendant	-10.3283
▁Cook	-10.3284
▁struggling	-10.3288
▁56	-10.3295
▁roads	-10.33
▁zone	-10.3302
▁remarks	-10.3305
▁permission	-10.3307
▁plot	-10.331
▁targeted	-10.3313
▁controversy	-10.3314
▁Leeds	-10.3321
▁beating	-10.3321
▁Allen	-10.3323
▁worried	-10.3327
▁coffee	-10.3328
▁remaining	-10.333
▁Las	-10.3339
▁fancy	-10.334
▁Joseph	-10.3344
▁frame	-10.335
▁shoes	-10.3364
▁additional	-10.3367
▁closely	-10.3369
▁differentiate	-10.337
▁compensation	-10.3371
▁banks	-10.3373
▁flow	-10.3374
▁swimming	-10.3379
▁noted	-10.3387
▁challenges	-10.3389
▁Arab	-10.3392
▁dating	-10.3398
▁headed	-10.3398
▁concord	-10.3399
▁rebels	-10.3401
▁considerably	-10.3405
▁expire	-10.3405
▁99	-10.3408
▁tickets	-10.3414
▁arrival	-10.3417
▁joke	-10.342
▁Sports	-10.3427
▁neglect	-10.3428
▁telephone	-10.3429
▁waters	-10.3438
▁bills	-10.3442
▁rifle	-10.3442
▁1970	-10.3454
▁Parliament	-10.3459
▁falling	-10.3459
▁Stoke	-10.3465
▁argument	-10.3474
▁whatever	-10.3474
▁loose	-10.3475
▁recount	-10.3482
▁reading	-10.3482
▁offering	-10.3483
▁911	-10.3488
▁Rodriguez	-10.3488
▁Life	-10.349
▁Japanese	-10.3493
▁Rio	-10.3495
▁Jonathan	-10.35
▁inch	-10.3507
▁receiving	-10.3507
▁Essex	-10.3509
▁Moore	-10.3509
▁Will	-10.3513
▁locomote	-10.3522
▁relations	-10.3522
▁questioned	-10.3524
▁returning	-10.3529
▁raid	-10.3533
▁Abbott	-10.3538
▁reputation	-10.3552
▁declared	-10.3565
▁rich	-10.3566
▁allowing	-10.3568
▁string	-10.3568
▁procedure	-10.3568
▁wave	-10.3569
▁pregnancy	-10.357
▁setting	-10.3572
▁USA	-10.3579
▁mom	-10.3579
▁bike	-10.3586
▁empty	-10.3588
▁comfortably	-10.359
▁crashed	-10.3592
▁expose	-10.3592
▁allot	-10.3594
▁robbery	-10.3595
▁fee	-10.3604
▁completed	-10.3607
▁statements	-10.3608
▁thoughts	-10.3613
▁substantially	-10.3616
▁Square	-10.3628
▁distaff	-10.3645
▁grounds	-10.3646
▁pursue	-10.3647
▁lie	-10.3651
▁tolerate	-10.3653
▁incredible	-10.3658
▁Ashley	-10.3661
▁lady	-10.3664
▁switch	-10.3664
▁exist	-10.3666
▁activists	-10.3684
▁possibly	-10.3688
▁memorial	-10.369
▁recite	-10.3698
▁none	-10.3699
▁winds	-10.3699
▁proper	-10.3704
▁Wright	-10.3706
▁badly	-10.3707
▁pen	-10.372
▁properly	-10.3724
▁Pakistani	-10.3732
▁candidates	-10.3732
▁critics	-10.3734
▁leaves	-10.374
▁Cardiff	-10.3743
▁jazz	-10.3745
▁Cooper	-10.3746
▁Holland	-10.3752
▁urged	-10.3757
▁beaten	-10.3767
▁atmosphere	-10.3768
▁substantial	-10.3775
▁shoulder	-10.3786
▁rushed	-10.3794
▁perish	-10.3805
▁targets	-10.3805
▁guys	-10.3807
▁profit	-10.3807
▁civilians	-10.3816
▁Walker	-10.3818
▁stood	-10.382
▁Gordon	-10.3827
▁spoken	-10.3831
▁sets	-10.3842
▁Scientists	-10.3844
▁Roy	-10.3846
▁excited	-10.3853
▁lend	-10.3859
▁affiliate	-10.3861
▁sending	-10.3861
▁halt	-10.3862
▁fitness	-10.3866
▁apart	-10.3869
▁welfare	-10.387
▁drove	-10.3873
▁Balotelli	-10.3875
▁alert	-10.3879
▁1999	-10.389
▁fled	-10.3895
▁friendly	-10.39
▁Jamie	-10.3902
▁generate	-10.3903
▁wounds	-10.391
▁direction	-10.3924
▁deserving	-10.393
▁confident	-10.3932
▁severalize	-10.3933
▁mountain	-10.3939
▁Campbell	-10.3943
▁disappearance	-10.3946
▁De	-10.3948
▁principal	-10.3952
▁paint	-10.3955
▁Robin	-10.3956
▁Six	-10.3956
▁narrate	-10.3956
▁everybody	-10.3957
▁unique	-10.396
▁studies	-10.3962
▁prior	-10.3965
▁Christie	-10.3967
▁teeth	-10.3978
▁turning	-10.398
▁Instead	-10.3989
▁Munich	-10.3989
▁construct	-10.399
▁battery	-10.3993
▁tells	-10.3995
▁croak	-10.3996
▁offence	-10.3997
▁software	-10.4002
▁courts	-10.4003
▁Investigators	-10.4004
▁nice	-10.4005
▁survived	-10.4008
▁Watson	-10.4012
▁Five	-10.4016
▁damaged	-10.4017
▁Dallas	-10.4018
▁pub	-10.4023
▁involving	-10.4027
▁unless	-10.4033
▁secern	-10.4039
▁secernate	-10.4042
▁mention	-10.4044
▁Nigeria	-10.4048
▁Oklahoma	-10.4057
▁conk	-10.4059
▁detail	-10.4059
▁sight	-10.4064
▁conspiracy	-10.4065
▁tiny	-10.4067
▁corruption	-10.4076
▁somebody	-10.4076
▁failing	-10.4077
▁tea	-10.408
▁effectual	-10.409
▁medal	-10.4105
▁changing	-10.4106
▁strategy	-10.4108
▁Thompson	-10.4112
▁Catholic	-10.4114
▁behalf	-10.4116
▁Gerrard	-10.412
▁episode	-10.4124
▁steal	-10.4124
▁Edward	-10.4131
▁filmed	-10.4134
▁Woods	-10.4137
▁harmonize	-10.4143
▁saved	-10.4146
▁lease	-10.415
▁consumers	-10.416
▁heavily	-10.416
▁royal	-10.4162
▁Bristol	-10.4164
▁57	-10.4171
▁severalise	-10.4173
▁Yes	-10.4177
▁ancient	-10.4179
▁laugh	-10.4179
▁Mars	-10.4188
▁decease	-10.4192
▁honor	-10.4206
▁Pope	-10.4211
▁filled	-10.4212
▁task	-10.4212
▁bathroom	-10.4221
▁QPR	-10.4225
▁bright	-10.423
▁harmonise	-10.4237
▁Local	-10.424
▁birds	-10.4243
▁balance	-10.4249
▁immigrants	-10.4252
▁learning	-10.4254
▁compensate	-10.4257
▁code	-10.4262
▁Mother	-10.4265
▁suggests	-10.4267
▁contacted	-10.4272
▁lying	-10.4276
▁anticipate	-10.4277
▁dressed	-10.43
▁lifestyle	-10.4304
▁Assad	-10.4306
▁reserve	-10.431
▁campus	-10.4312
▁derive	-10.4321
▁reporter	-10.4327
▁Irish	-10.4329
▁Museum	-10.4333
▁lucky	-10.4333
▁toy	-10.4334
▁commentary	-10.4335
▁involvement	-10.4335
▁sum	-10.4338
▁Services	-10.4345
▁adjudicate	-10.4349
▁originally	-10.4351
▁risks	-10.4353
▁driven	-10.4359
▁era	-10.436
▁wouldn	-10.4361
▁Radio	-10.4362
▁arrests	-10.4368
▁solar	-10.4372
▁relief	-10.4376
▁Clark	-10.4382
▁standard	-10.4397
▁introduced	-10.4399
▁permit	-10.4402
▁disorder	-10.4404
▁Roberts	-10.4407
▁assistance	-10.4407
▁operating	-10.441
▁wounded	-10.441
▁digital	-10.4423
▁arrange	-10.4432
▁pushed	-10.4436
▁propose	-10.4437
▁tear	-10.4439
▁orders	-10.444
▁execute	-10.4443
▁Director	-10.4444
▁interests	-10.4447
▁Atlantic	-10.4458
▁Missouri	-10.4464
▁Philadelphia	-10.4466
▁trend	-10.4472
▁channel	-10.4479
▁Gulf	-10.448
▁screw	-10.4483
▁Pacific	-10.4486
▁probable	-10.449
▁proposal	-10.4492
▁Islam	-10.45
▁tip	-10.45
▁volunteer	-10.4501
▁fence	-10.4503
▁vital	-10.4505
▁democratic	-10.4519
▁Mario	-10.4531
▁meal	-10.4533
▁unknown	-10.4536
▁Show	-10.4538
▁fatal	-10.4541
▁super	-10.4541
▁tech	-10.4549
▁Marine	-10.4556
▁teenagers	-10.4557
▁colour	-10.4562
▁wins	-10.4562
▁regain	-10.4563
▁destroyed	-10.4564
▁Time	-10.4567
▁consume	-10.4574
▁Hampshire	-10.4575
▁spokesperson	-10.4575
▁apology	-10.4581
▁solution	-10.4583
▁talent	-10.4585
▁larger	-10.459
▁Turkish	-10.4593
▁Test	-10.4594
▁documentary	-10.4595
▁yourself	-10.4595
▁Wall	-10.4597
▁purpose	-10.4602
▁Jennifer	-10.4607
▁CIA	-10.4609
▁planes	-10.4609
▁presenter	-10.4611
▁strikes	-10.4614
▁feels	-10.4618
▁Wimbledon	-10.4621
▁busy	-10.4622
▁resist	-10.4625
▁partners	-10.4627
▁judges	-10.4628
▁Brooklyn	-10.4629
▁acting	-10.4629
▁contrive	-10.4643
▁Only	-10.4649
▁knock	-10.4651
▁bringing	-10.4658
▁enjoyed	-10.4658
▁Atletico	-10.4663
▁flee	-10.4664
▁notes	-10.4668
▁yards	-10.4669
▁alarm	-10.467
▁Researchers	-10.4673
▁counter	-10.4673
▁Palestinian	-10.4677
▁62	-10.4679
▁understood	-10.4682
▁specialist	-10.4685
▁programs	-10.469
▁calculate	-10.4691
▁Mitchell	-10.4693
▁payments	-10.4693
▁Ray	-10.4697
▁Cross	-10.4702
▁properties	-10.4707
▁backed	-10.471
▁Jessica	-10.4723
▁deeply	-10.4724
▁64	-10.4725
▁Justin	-10.4725
▁Hillary	-10.4731
▁Martinez	-10.4735
▁sat	-10.4736
▁58	-10.4744
▁allows	-10.4744
▁advantageously	-10.4748
▁assay	-10.4748
▁bestow	-10.4752
▁hunt	-10.4756
▁greater	-10.4757
▁tertiary	-10.4758
▁recovered	-10.4759
▁encourage	-10.4763
▁worry	-10.4767
▁facilities	-10.477
▁Gov	-10.4774
▁Academy	-10.4778
▁festival	-10.4778
▁retiring	-10.4788
▁Philip	-10.4792
▁drinks	-10.4794
▁mansion	-10.4794
▁glad	-10.4798
▁lunch	-10.4799
▁editor	-10.4802
▁Davies	-10.4804
▁depression	-10.4809
▁hump	-10.4809
▁1998	-10.4813
▁Jeremy	-10.4815
▁iconic	-10.4815
▁Jimmy	-10.4819
▁Well	-10.4822
▁Aston	-10.4831
▁Rose	-10.4833
▁Portugal	-10.4835
▁announce	-10.4835
▁largely	-10.4845
▁outbreak	-10.4851
▁silver	-10.4851
▁waves	-10.4851
▁outrage	-10.4858
▁Neil	-10.486
▁entrust	-10.4871
▁punishment	-10.4874
▁economical	-10.4876
▁neighbours	-10.4882
▁structure	-10.4887
▁recede	-10.4894
▁59	-10.4897
▁W	-10.4897
▁Yet	-10.4904
▁extreme	-10.4905
▁firms	-10.4905
▁holds	-10.4907
▁bombing	-10.4917
▁travelling	-10.4921
▁rural	-10.4923
▁Stewart	-10.4936
▁belong	-10.4943
▁sparked	-10.4948
▁Greece	-10.495
▁commission	-10.4951
▁Luke	-10.4952
▁bird	-10.4953
▁surrounding	-10.4956
▁Perry	-10.4958
▁Society	-10.4958
▁tackle	-10.4959
▁Bruce	-10.4965
▁Gaza	-10.4975
▁grew	-10.4975
▁Libya	-10.4981
▁tape	-10.4981
▁ongoing	-10.4984
▁sanctions	-10.4993
▁labor	-10.4994
▁vessel	-10.5
▁practically	-10.5012
▁smoking	-10.502
▁signal	-10.5025
▁providing	-10.5027
▁noticed	-10.5029
▁warrant	-10.5029
▁argued	-10.5033
▁Lisa	-10.5037
▁museum	-10.5039
▁coalition	-10.505
▁adequate	-10.5052
▁legend	-10.5052
▁constitute	-10.5054
▁unbelievable	-10.5056
▁plays	-10.5058
▁windows	-10.5067
▁ad	-10.5068
▁Hart	-10.5069
▁experienced	-10.5069
▁Garcia	-10.5071
▁sisters	-10.5071
▁Fort	-10.5073
▁nail	-10.5095
▁chemical	-10.5098
▁neighbor	-10.5098
▁fees	-10.5101
▁walls	-10.5106
▁Experts	-10.5111
▁eastern	-10.5111
▁stabbed	-10.5111
▁tragic	-10.5111
▁Roger	-10.5132
▁located	-10.5133
▁fuck	-10.5135
▁Belgium	-10.5136
▁remote	-10.5137
▁Carter	-10.5138
▁grandfather	-10.5138
▁Mohammed	-10.5144
▁Rangers	-10.5146
▁Kerry	-10.5148
▁demonstrate	-10.5159
▁ministers	-10.5163
▁Top	-10.5164
▁corrupt	-10.5165
▁fault	-10.5166
▁struggled	-10.5172
▁temperature	-10.5172
▁wheel	-10.5177
▁Officer	-10.5178
▁bonk	-10.5178
▁discharge	-10.5183
▁fallen	-10.5186
▁pleased	-10.5189
▁increasingly	-10.5193
▁drama	-10.5199
▁fake	-10.5199
▁pound	-10.5199
▁Crystal	-10.5201
▁milk	-10.5201
▁85	-10.5209
▁gap	-10.5209
▁Friends	-10.5214
▁Yesterday	-10.5214
▁eff	-10.5214
▁stuck	-10.5214
▁submit	-10.5218
▁bench	-10.5219
▁minimum	-10.5224
▁length	-10.5228
▁celebrities	-10.5229
▁attract	-10.5231
▁pace	-10.5234
▁firefighters	-10.5239
▁67	-10.5244
▁Laura	-10.5244
▁rocket	-10.5247
▁plants	-10.5249
▁contest	-10.5251
▁wreak	-10.5253
▁Deputy	-10.5254
▁quit	-10.5266
▁Afghan	-10.5271
▁Illinois	-10.5271
▁forever	-10.528
▁analysis	-10.5284
▁performed	-10.5286
▁abroad	-10.5292
▁gym	-10.5293
▁63	-10.5303
▁wore	-10.531
▁accepted	-10.5316
▁exhibit	-10.5316
▁visiting	-10.5318
▁racing	-10.5329
▁Guard	-10.5332
▁awareness	-10.5334
▁constantly	-10.5339
▁trained	-10.5342
▁obviously	-10.5343
▁sheriff	-10.5344
▁beer	-10.5351
▁prominent	-10.5353
▁formerly	-10.5355
▁hang	-10.5355
▁Seattle	-10.5357
▁featured	-10.5364
▁intended	-10.5365
▁yellow	-10.5365
▁scores	-10.5367
▁Rep	-10.5368
▁widely	-10.5369
▁offensive	-10.537
▁neighbour	-10.5373
▁historic	-10.5378
▁72	-10.5381
▁hate	-10.5381
▁ultimately	-10.5382
▁immediate	-10.5383
▁Here	-10.5385
▁Mercedes	-10.5385
▁creating	-10.5388
▁fighter	-10.54
▁Russell	-10.5405
▁Sanchez	-10.5405
▁consequences	-10.5418
▁verbalize	-10.5418
▁Switzerland	-10.542
▁breach	-10.542
▁complained	-10.542
▁Iraqi	-10.5421
▁Lane	-10.5428
▁shark	-10.5428
▁papers	-10.543
▁posts	-10.5433
▁bigger	-10.5434
▁opportunities	-10.5437
▁platform	-10.5439
▁bone	-10.544
▁occasion	-10.5441
▁petition	-10.5448
▁snap	-10.5451
▁unlikely	-10.5458
▁sad	-10.5466
▁priority	-10.5468
▁shops	-10.547
▁dramatic	-10.5476
▁Dubai	-10.5485
▁detectives	-10.5485
▁exclusive	-10.5485
▁terrible	-10.5487
▁proved	-10.5493
▁spirit	-10.5493
▁Sean	-10.5498
▁Jean	-10.5502
▁dwell	-10.5506
▁ties	-10.5512
▁powers	-10.5513
▁imply	-10.5519
▁killings	-10.552
▁sentencing	-10.552
▁ocean	-10.5522
▁fought	-10.553
▁referee	-10.5541
▁Utah	-10.5542
▁Good	-10.5544
▁understanding	-10.5551
▁rejected	-10.5554
▁finals	-10.5557
▁county	-10.5562
▁hire	-10.5565
▁unite	-10.5567
▁sought	-10.5569
▁Ross	-10.557
▁commitment	-10.557
▁CBS	-10.5573
▁G	-10.5585
▁drone	-10.5585
▁capacity	-10.5592
▁locations	-10.5595
▁Connecticut	-10.5599
▁rising	-10.56
▁Amazon	-10.561
▁NASA	-10.561
▁chocolate	-10.5611
▁honour	-10.5618
▁titles	-10.5618
▁landed	-10.5622
▁characters	-10.5625
▁normally	-10.5632
▁ordeal	-10.5634
▁Hodgson	-10.5637
▁application	-10.5641
▁creditworthy	-10.5643
▁murdered	-10.5643
▁childhood	-10.5645
▁pink	-10.565
▁tonight	-10.5659
▁gather	-10.5664
▁sized	-10.5668
▁Dan	-10.567
▁celebrates	-10.5671
▁Glasgow	-10.5674
▁Craig	-10.5676
▁vision	-10.5679
▁verbalise	-10.568
▁innocent	-10.5686
▁thrown	-10.5686
▁occasions	-10.5688
▁achieve	-10.5692
▁Second	-10.5693
▁Commons	-10.5694
▁Sheffield	-10.5696
▁conducted	-10.57
▁teenage	-10.57
▁flowers	-10.5712
▁About	-10.572
▁moves	-10.5728
▁proposed	-10.5729
▁tank	-10.5733
▁Aaron	-10.5734
▁Robinson	-10.5734
▁buying	-10.5734
▁Thailand	-10.5737
▁Hunt	-10.5738
▁120	-10.5743
▁settlement	-10.5743
▁tourist	-10.5748
▁Also	-10.5752
▁controlled	-10.5753
▁parliament	-10.5755
▁1997	-10.5759
▁probe	-10.5765
▁taxes	-10.5774
▁blaze	-10.5775
▁governments	-10.5775
▁clients	-10.5779
▁Alabama	-10.5781
▁branch	-10.5785
▁foretell	-10.5788
▁accuse	-10.5792
▁aboard	-10.5806
▁votes	-10.5807
▁Swiss	-10.5813
▁abandoned	-10.5815
▁cook	-10.5821
▁devastated	-10.5823
▁goods	-10.5829
▁afraid	-10.5838
▁headquarters	-10.5838
▁cleared	-10.5839
▁stake	-10.5842
▁Little	-10.5843
▁delivery	-10.5856
▁package	-10.5859
▁Cole	-10.5874
▁f	-10.5874
▁Howard	-10.5883
▁Oxford	-10.5894
▁prefer	-10.5897
▁sector	-10.5899
▁closer	-10.5909
▁earned	-10.591
▁delivered	-10.5916
▁testify	-10.5919
▁entrance	-10.5924
▁Though	-10.5926
▁winners	-10.5926
▁visualize	-10.5928
▁specially	-10.5931
▁plunge	-10.5934
▁iPad	-10.5938
▁warn	-10.5938
▁album	-10.5944
▁exposed	-10.5944
▁testimony	-10.5947
▁abide	-10.5949
▁criminals	-10.5949
▁drunk	-10.5951
▁developing	-10.5952
▁severely	-10.5952
▁striking	-10.5959
▁bombs	-10.596
▁variety	-10.596
▁execution	-10.5963
▁dispatch	-10.5964
▁print	-10.5965
▁rugby	-10.5967
▁taxi	-10.5967
▁sample	-10.597
▁projects	-10.5971
▁interesting	-10.5972
▁praise	-10.5975
▁bequeath	-10.598
▁envision	-10.598
▁moderate	-10.599
▁cap	-10.5991
▁emails	-10.6002
▁66	-10.6004
▁ideas	-10.6004
▁athletes	-10.6006
▁Stuart	-10.6011
▁1960	-10.6025
▁Co	-10.6025
▁toilet	-10.6027
▁overly	-10.6029
▁Egyptian	-10.6032
▁matters	-10.604
▁Adams	-10.6041
▁mine	-10.6041
▁naked	-10.6041
▁publicly	-10.6047
▁NATO	-10.605
▁happens	-10.605
▁independence	-10.605
▁disappeared	-10.606
▁sharing	-10.606
▁entry	-10.6062
▁hoped	-10.6073
▁trophy	-10.6073
▁cup	-10.6075
▁Blair	-10.6078
▁drawn	-10.6078
▁gender	-10.608
▁clip	-10.6081
▁68	-10.6082
▁reply	-10.6084
▁considering	-10.6086
▁raising	-10.6086
▁replace	-10.6086
▁blamed	-10.6087
▁emerge	-10.6088
▁numerous	-10.6094
▁web	-10.6094
▁dependable	-10.6102
▁Clegg	-10.6103
▁dismissed	-10.6107
▁Journal	-10.611
▁factor	-10.6116
▁hide	-10.6116
▁listed	-10.6116
▁gunman	-10.6117
▁interpret	-10.6118
▁Federer	-10.6126
▁Roma	-10.6131
▁gathered	-10.6144
▁donate	-10.6145
▁Love	-10.6146
▁exciting	-10.6146
▁successfully	-10.615
▁Video	-10.6154
▁clinic	-10.6154
▁Read	-10.6156
▁fruit	-10.6164
▁recollect	-10.6167
▁definitely	-10.6168
▁disclose	-10.6182
▁insists	-10.6187
▁Administration	-10.6196
▁frequently	-10.6196
▁focused	-10.62
▁multi	-10.6202
▁tested	-10.6207
▁burst	-10.621
▁degrees	-10.6213
▁visualise	-10.6215
▁Dave	-10.6217
▁garage	-10.622
▁Sgt	-10.6221
▁sixth	-10.6229
▁crack	-10.6232
▁cricket	-10.6233
▁Jay	-10.6234
▁Spurs	-10.6236
▁links	-10.6245
▁Your	-10.6255
▁teens	-10.6255
▁K	-10.6259
▁guards	-10.6259
▁cutting	-10.626
▁Juan	-10.6262
▁genuinely	-10.6263
▁flames	-10.6272
▁stages	-10.6288
▁yes	-10.6288
▁Duncan	-10.629
▁outfit	-10.6296
▁Ocean	-10.6298
▁Everyone	-10.6302
▁update	-10.6306
▁prompt	-10.6313
▁satellite	-10.6313
▁crews	-10.6321
▁bound	-10.6326
▁colleague	-10.6326
▁locked	-10.6326
▁factory	-10.6331
▁checks	-10.6332
▁probation	-10.6333
▁Space	-10.6335
▁Zimmerman	-10.6338
▁happening	-10.6338
▁stayed	-10.6347
▁Cornwall	-10.635
▁altogether	-10.6351
▁seed	-10.6356
▁regional	-10.6357
▁PM	-10.6359
▁error	-10.636
▁types	-10.6364
▁Don	-10.6365
▁buried	-10.6365
▁alternatively	-10.6366
▁summit	-10.6366
▁Southern	-10.6372
▁carbon	-10.6374
▁broad	-10.6377
▁ripe	-10.6377
▁tied	-10.6377
▁substitute	-10.6381
▁typically	-10.6381
▁basketball	-10.6383
▁kid	-10.6387
▁Education	-10.6388
▁presented	-10.6388
▁Chancellor	-10.6395
▁declare	-10.64
▁organisation	-10.64
▁promised	-10.64
▁predict	-10.6401
▁horror	-10.6402
▁collapsed	-10.6406
▁Jane	-10.6409
▁painting	-10.6411
▁communications	-10.6414
▁seized	-10.6414
▁overseas	-10.6415
▁restaurants	-10.6417
▁elect	-10.6418
▁Men	-10.6426
▁movies	-10.6426
▁McDonald	-10.6433
▁investigations	-10.6438
▁staying	-10.6446
▁excessively	-10.6451
▁heading	-10.6456
▁shore	-10.6456
▁escaped	-10.6457
▁roll	-10.6461
▁overnight	-10.6463
▁solid	-10.6463
▁Westminster	-10.6464
▁rally	-10.6466
▁famed	-10.6472
▁smaller	-10.6472
▁shocking	-10.6477
▁positions	-10.648
▁Collins	-10.6484
▁cant	-10.6496
▁elsewhere	-10.6496
▁atomic	-10.6497
▁conjoin	-10.6498
▁impossible	-10.6502
▁accusations	-10.6503
▁marry	-10.6503
▁procedures	-10.6503
▁demands	-10.6504
▁Magistrates	-10.6505
▁affairs	-10.6505
▁medication	-10.6505
▁trail	-10.6522
▁materials	-10.6525
▁shelter	-10.6528
▁approved	-10.6531
▁Father	-10.6534
▁collision	-10.6542
▁stroke	-10.6542
▁Or	-10.6544
▁criticised	-10.6545
▁commander	-10.6547
▁favour	-10.6548
▁approval	-10.6549
▁horrific	-10.6553
▁compete	-10.6555
▁hitting	-10.6556
▁Amy	-10.6561
▁replaced	-10.6562
▁willing	-10.6566
▁react	-10.6568
▁Brendan	-10.6573
▁quiet	-10.6574
▁Detroit	-10.6576
▁Safety	-10.6576
▁object	-10.6576
▁volunteers	-10.6578
▁patrol	-10.659
▁tracks	-10.659
▁wealth	-10.659
▁labour	-10.6596
▁deals	-10.6599
▁continuing	-10.6602
▁palpate	-10.6604
▁Burnley	-10.6607
▁Ive	-10.6609
▁command	-10.6615
▁sugar	-10.6615
▁Board	-10.6618
▁alternative	-10.6629
▁hosts	-10.6632
▁license	-10.6634
▁desperate	-10.6638
▁viral	-10.6642
▁Edinburgh	-10.6649
▁pretend	-10.665
▁native	-10.6651
▁1996	-10.6654
▁spiritual	-10.666
▁engaged	-10.6667
▁Susan	-10.6669
▁Authority	-10.6671
▁Emma	-10.6671
▁rebel	-10.6671
▁relationships	-10.6671
▁Ukrainian	-10.6673
▁conservative	-10.6673
▁helps	-10.6677
▁historical	-10.6678
▁marks	-10.6683
▁originate	-10.6684
▁Kenya	-10.6688
▁invest	-10.6689
▁Queensland	-10.6691
▁subscribe	-10.6691
▁poverty	-10.6692
▁cruise	-10.6697
▁meals	-10.6698
▁plain	-10.67
▁95	-10.6704
▁clock	-10.6704
▁attacking	-10.6705
▁meetings	-10.6708
▁monitor	-10.6715
▁Can	-10.6716
▁tweets	-10.6716
▁dry	-10.6719
▁ambassador	-10.672
▁misplace	-10.6721
▁racial	-10.6723
▁Inter	-10.6725
▁stunning	-10.6726
▁awarded	-10.674
▁bosses	-10.6757
▁bust	-10.676
▁felony	-10.676
▁classes	-10.6761
▁comfortable	-10.6761
▁apps	-10.6762
▁studio	-10.6765
▁please	-10.6767
▁writer	-10.677
▁Iranian	-10.6772
▁scan	-10.6776
▁cool	-10.6778
▁approached	-10.6781
▁HIV	-10.6785
▁Phillips	-10.6785
▁Commissioner	-10.6792
▁Bailey	-10.6794
▁immense	-10.6796
▁chat	-10.6797
▁jumped	-10.6802
▁threw	-10.6803
▁negative	-10.6804
▁wonder	-10.6806
▁seasons	-10.6807
▁increasing	-10.6811
▁granted	-10.6812
▁smart	-10.6812
▁resolution	-10.6817
▁oppose	-10.6819
▁migrants	-10.6824
▁cats	-10.6827
▁territory	-10.6829
▁actual	-10.6832
▁shares	-10.6834
▁starts	-10.6834
▁Following	-10.6836
▁speculation	-10.6837
▁licence	-10.6841
▁detention	-10.6842
▁preceding	-10.6843
▁chicken	-10.6844
▁convert	-10.6846
▁reveals	-10.6846
▁Anne	-10.6847
▁Up	-10.6851
▁admits	-10.6851
▁Arabia	-10.6852
▁producer	-10.6852
▁Celtic	-10.6854
▁Law	-10.6854
▁bones	-10.6856
▁anybody	-10.6857
▁requests	-10.6858
▁reward	-10.6858
▁Sandy	-10.6863
▁stations	-10.6863
▁toll	-10.6863
▁Detective	-10.6864
▁celebration	-10.6864
▁Clarke	-10.6867
▁Cuba	-10.6867
▁insist	-10.6867
▁Wood	-10.6877
▁opponents	-10.6877
▁neither	-10.6879
▁racist	-10.6879
▁fundamental	-10.6884
▁height	-10.6884
▁Maryland	-10.6892
▁fantastic	-10.6892
▁1994	-10.6897
▁61	-10.6897
▁occupy	-10.6897
▁Manuel	-10.6899
▁Rice	-10.6899
▁flood	-10.6903
▁Snowden	-10.6904
▁coroner	-10.6904
▁cream	-10.6906
▁officially	-10.6908
▁throat	-10.6914
▁pilots	-10.6917
▁realised	-10.6919
▁impressive	-10.6926
▁yard	-10.6927
▁mislay	-10.6931
▁Democrat	-10.6932
▁depend	-10.6932
▁Amanda	-10.6937
▁mystery	-10.694
▁reference	-10.6941
▁Sport	-10.6942
▁absence	-10.6947
▁discrimination	-10.6952
▁raped	-10.6952
▁haven	-10.6954
▁insure	-10.6954
▁Cristiano	-10.6957
▁electricity	-10.6962
▁reporting	-10.6964
▁nobody	-10.6965
▁feared	-10.6966
▁Midlands	-10.6967
▁Ward	-10.6967
▁attorneys	-10.697
▁thinks	-10.697
▁Greg	-10.6975
▁guest	-10.6975
▁comfort	-10.6976
▁interviews	-10.6979
▁Food	-10.698
▁hell	-10.6983
▁established	-10.6985
▁fishing	-10.6989
▁spare	-10.6989
▁breathing	-10.6995
▁hidden	-10.6995
▁artists	-10.6998
▁smartphone	-10.7
▁Asian	-10.7003
▁veterans	-10.7003
▁wonderful	-10.7004
▁bullet	-10.7007
▁intent	-10.7012
▁celebrated	-10.7019
▁ministry	-10.7021
▁rescued	-10.7021
▁safely	-10.7023
▁Queens	-10.7026
▁advertising	-10.7032
▁maximum	-10.7033
▁McIlroy	-10.7036
▁possess	-10.7037
▁elected	-10.7041
▁inmates	-10.7041
▁leads	-10.7041
▁consecrate	-10.7042
▁routine	-10.7046
▁retirement	-10.7054
▁regulations	-10.7061
▁debris	-10.7064
▁Osborne	-10.7069
▁motion	-10.707
▁Devon	-10.7077
▁visits	-10.7077
▁values	-10.7079
▁Britains	-10.7082
▁Nelson	-10.7082
▁impress	-10.7082
▁GP	-10.709
▁brilliant	-10.709
▁lies	-10.709
▁Poland	-10.7092
▁genuine	-10.7095
▁beneath	-10.7096
▁searching	-10.7096
▁burn	-10.7098
▁69	-10.7102
▁northerly	-10.7104
▁Beckham	-10.7105
▁Disney	-10.7105
▁traverse	-10.7109
▁investigated	-10.7113
▁Reid	-10.7115
▁outcome	-10.7115
▁manslaughter	-10.7118
▁Barbara	-10.712
▁ships	-10.712
▁associated	-10.7124
▁ages	-10.7127
▁concluded	-10.7127
▁shout	-10.7129
▁offices	-10.7133
▁civilian	-10.7138
▁Austin	-10.7143
▁recording	-10.7145
▁nurses	-10.7147
▁Somalia	-10.7149
▁generally	-10.7149
▁mix	-10.7149
▁Surrey	-10.7154
▁Colombia	-10.7161
▁NBA	-10.7161
▁uniform	-10.7163
▁Defence	-10.7164
▁chose	-10.7169
▁bribe	-10.7176
▁noise	-10.7178
▁favorite	-10.7182
▁obvious	-10.7182
▁proceedings	-10.7182
▁accommodate	-10.7183
▁Ann	-10.7185
▁computers	-10.7185
▁Moyes	-10.7187
▁objects	-10.7187
▁Djokovic	-10.7192
▁theory	-10.7192
▁manner	-10.7195
▁kidnapping	-10.7196
▁discourse	-10.7198
▁organizations	-10.7198
▁adds	-10.7199
▁shed	-10.7199
▁pending	-10.7203
▁supporting	-10.7209
▁reduced	-10.7211
▁sole	-10.7211
▁advanced	-10.7212
▁supplies	-10.7212
▁Indonesia	-10.7213
▁experiences	-10.7213
▁Captain	-10.7218
▁supported	-10.7225
▁fold	-10.7227
▁Samsung	-10.7231
▁Stone	-10.7231
▁Castro	-10.7236
▁Edwards	-10.7239
▁associate	-10.724
▁immature	-10.7244
▁1995	-10.7249
▁referred	-10.7249
▁twins	-10.7253
▁races	-10.7257
▁abortion	-10.7265
▁representative	-10.7265
▁trusted	-10.7273
▁supermarket	-10.7278
▁posting	-10.7279
▁Britons	-10.7281
▁Shaw	-10.7281
▁behave	-10.7283
▁horses	-10.7283
▁abused	-10.7286
▁importance	-10.7286
▁Qatar	-10.7291
▁sees	-10.7291
▁torture	-10.7292
▁greatest	-10.7294
▁Around	-10.7299
▁managers	-10.7304
▁wholly	-10.7304
▁flew	-10.7307
▁peak	-10.7309
▁markets	-10.7321
▁sleeping	-10.7324
▁awards	-10.7328
▁factors	-10.7328
▁pointed	-10.7337
▁memories	-10.7349
▁Antonio	-10.7359
▁Staff	-10.7359
▁cannabis	-10.7359
▁espouse	-10.7362
▁uncover	-10.7362
▁rounds	-10.7366
▁Malaysia	-10.737
▁Murphy	-10.737
▁democracy	-10.7375
▁flooding	-10.7378
▁denies	-10.7383
▁knocked	-10.7384
▁Jesus	-10.7386
▁voted	-10.7391
▁Port	-10.7399
▁Best	-10.7401
▁Darren	-10.7401
▁defending	-10.7401
▁comedy	-10.7404
▁engineer	-10.7405
▁Flight	-10.7409
▁compose	-10.7413
▁Station	-10.7415
▁locals	-10.7417
▁religion	-10.742
▁winger	-10.742
▁plow	-10.7421
▁dying	-10.7423
▁fetch	-10.7429
▁networks	-10.7429
▁bottles	-10.7432
▁Neymar	-10.7441
▁leak	-10.7445
▁easier	-10.7446
▁gate	-10.7452
▁holidays	-10.7452
▁compound	-10.7457
▁nominate	-10.7457
▁Nazi	-10.7465
▁prompted	-10.7468
▁citizen	-10.747
▁posed	-10.7473
▁sealed	-10.7473
▁earthquake	-10.7481
▁ending	-10.7485
▁adopted	-10.749
▁Kyle	-10.7492
▁Sony	-10.7494
▁spectacular	-10.7494
▁Secret	-10.75
▁Hawaii	-10.7502
▁Where	-10.7502
▁Tennessee	-10.7505
▁units	-10.7508
▁convinced	-10.7509
▁Crime	-10.751
▁tradition	-10.751
▁Oregon	-10.7513
▁Town	-10.7513
▁stepped	-10.7516
▁Grant	-10.7517
▁websites	-10.7521
▁environmental	-10.7526
▁Care	-10.7528
▁Minnesota	-10.7529
▁Margaret	-10.7532
▁skull	-10.7532
▁strip	-10.7532
▁headlines	-10.754
▁physically	-10.7542
▁refer	-10.7542
▁trapped	-10.7544
▁Emirates	-10.7545
▁EST	-10.7548
▁Ferrari	-10.7548
▁genial	-10.7548
▁unveil	-10.7549
▁wildlife	-10.7553
▁harassment	-10.7556
▁Pentagon	-10.7558
▁collect	-10.7564
▁consent	-10.7564
▁item	-10.7567
▁Euro	-10.7572
▁calm	-10.7572
▁negotiations	-10.7577
▁Others	-10.758
▁donations	-10.7583
▁earth	-10.7583
▁eggs	-10.7585
▁extent	-10.7585
▁proof	-10.7585
▁Barclays	-10.7588
▁NSW	-10.7588
▁selection	-10.7588
▁tag	-10.7588
▁bite	-10.7589
▁Anna	-10.7591
▁Morning	-10.7591
▁Sussex	-10.7593
▁kicked	-10.76
▁uncle	-10.7607
▁informed	-10.7615
▁scream	-10.7618
▁cop	-10.7619
▁footballer	-10.762
▁pages	-10.762
▁unfold	-10.7623
▁Nigel	-10.7628
▁businessman	-10.7631
▁otherwise	-10.7633
▁Kansas	-10.7637
▁Sweden	-10.7639
▁charter	-10.7639
▁payment	-10.7639
▁personally	-10.7639
▁unmanageable	-10.7639
▁Alaska	-10.7645
▁division	-10.7647
▁suddenly	-10.7647
▁youngster	-10.7647
▁argue	-10.765
▁motor	-10.765
▁offenders	-10.765
▁unconscious	-10.765
▁extended	-10.7658
▁Angel	-10.7661
▁stretch	-10.7661
▁salary	-10.7664
▁therapy	-10.7675
▁grass	-10.7676
▁hits	-10.7677
▁joining	-10.768
▁unclear	-10.7683
▁warnings	-10.7684
▁cousin	-10.7691
▁Laden	-10.7692
▁residence	-10.7696
▁restrictions	-10.7696
▁Anfield	-10.7699
▁activist	-10.7699
▁defendants	-10.7699
▁rear	-10.7699
▁trains	-10.7699
▁youthful	-10.7702
▁neighbors	-10.7703
▁lately	-10.7704
▁fame	-10.7707
▁trigger	-10.7708
▁Sergio	-10.771
▁popularity	-10.7713
▁Keith	-10.7715
▁rush	-10.7722
▁Microsoft	-10.7723
▁detained	-10.7725
▁chase	-10.7732
▁shamed	-10.7732
▁Berlin	-10.7737
▁Roman	-10.7741
▁erst	-10.7743
▁sentences	-10.7758
▁accepting	-10.7759
▁tens	-10.7762
▁graduate	-10.7764
▁songs	-10.7764
▁western	-10.7764
▁facts	-10.777
▁scared	-10.7774
▁toddler	-10.7778
▁Di	-10.7789
▁amounts	-10.7789
▁knowing	-10.7795
▁nights	-10.78
▁lbs	-10.7803
▁seduce	-10.7804
▁Katie	-10.7806
▁vs	-10.7808
▁Lawrence	-10.7811
▁McCain	-10.7814
▁Mount	-10.7817
▁exhibition	-10.7819
▁turns	-10.7821
▁Oliver	-10.7822
▁dealing	-10.7825
▁Louisiana	-10.7833
▁Sportsmail	-10.7833
▁lawmakers	-10.7839
▁Hundreds	-10.7844
▁chef	-10.785
▁inspiration	-10.7852
▁Iowa	-10.7855
▁belief	-10.7866
▁theme	-10.7868
▁Forest	-10.7869
▁Formula	-10.7869
▁apparent	-10.7873
▁Jong	-10.7875
▁Nadal	-10.788
▁teaching	-10.7882
▁follows	-10.7883
▁solve	-10.7891
▁escort	-10.7897
▁Denver	-10.7902
▁trips	-10.7906
▁Student	-10.7911
▁championship	-10.7911
▁signify	-10.7912
▁teach	-10.7912
▁concept	-10.7913
▁Charlotte	-10.7919
▁Social	-10.7919
▁Welsh	-10.792
▁perfectly	-10.7922
▁panic	-10.7923
▁marketing	-10.7926
▁Lib	-10.7927
▁Max	-10.793
▁hunting	-10.793
▁Julie	-10.7936
▁Fernando	-10.7947
▁medicine	-10.7947
▁taxpayers	-10.7958
▁Jeff	-10.7964
▁Jewish	-10.7964
▁answers	-10.7964
▁employment	-10.7966
▁crop	-10.7968
▁label	-10.7968
▁preparing	-10.7972
▁performances	-10.7978
▁lb	-10.7979
▁Bradley	-10.7989
▁blend	-10.799
▁upper	-10.7992
▁Netherlands	-10.7994
▁flu	-10.7997
▁explicate	-10.7999
▁murders	-10.7999
▁Cleveland	-10.8
▁zero	-10.8003
▁Are	-10.8006
▁Bell	-10.8006
▁sporting	-10.8011
▁Avenue	-10.8017
▁Rob	-10.8017
▁Wembley	-10.8022
▁household	-10.8022
▁replied	-10.8028
▁contrast	-10.8029
▁prospect	-10.8035
▁Commonwealth	-10.8036
▁Lionel	-10.8039
▁hotels	-10.8045
▁connected	-10.8046
▁appointment	-10.8048
▁Rome	-10.8051
▁inward	-10.8051
▁Brisbane	-10.8053
▁Warren	-10.8053
▁Arsene	-10.8056
▁joy	-10.806
▁belt	-10.8062
▁youngsters	-10.8062
▁talked	-10.8063
▁concert	-10.8067
▁port	-10.807
▁domesticated	-10.8072
▁urge	-10.8072
▁Barry	-10.8076
▁odds	-10.8076
▁closing	-10.8079
▁jurors	-10.8082
▁Lambert	-10.8084
▁Simpson	-10.8084
▁Dean	-10.8087
▁guidelines	-10.8087
▁remark	-10.8096
▁impressed	-10.8097
▁lessons	-10.8099
▁climb	-10.8106
▁Conservative	-10.8107
▁attempting	-10.8108
▁heroin	-10.811
▁departure	-10.8116
▁towns	-10.8116
▁inwards	-10.812
▁westerly	-10.8126
▁attached	-10.8127
▁specifically	-10.8127
▁brown	-10.813
▁fortune	-10.813
▁Persie	-10.8133
▁71	-10.8141
▁reject	-10.8141
▁Baghdad	-10.8144
▁basic	-10.8147
▁forms	-10.8147
▁Live	-10.8148
▁squeeze	-10.8148
▁P	-10.8153
▁opponent	-10.816
▁reforms	-10.8161
▁trick	-10.8161
▁Met	-10.8162
▁freeze	-10.8164
▁Armstrong	-10.817
▁tend	-10.8171
▁Lt	-10.8172
▁passion	-10.8175
▁destination	-10.8181
▁Bolton	-10.8184
▁advise	-10.8188
▁rocks	-10.8191
▁rail	-10.8192
▁Downing	-10.8194
▁Douglas	-10.8198
▁Cabinet	-10.8204
▁Camp	-10.8204
▁brief	-10.8204
▁Bale	-10.8207
▁authoritative	-10.8207
▁regions	-10.8207
▁aimed	-10.821
▁feelings	-10.8212
▁tools	-10.8214
▁Golden	-10.8217
▁divulge	-10.8217
▁Prix	-10.8218
▁Tokyo	-10.8218
▁Gold	-10.8221
▁permanent	-10.8223
▁subsist	-10.8228
▁sour	-10.8231
▁outstanding	-10.8233
▁ITV	-10.8235
▁swim	-10.8235
▁Capital	-10.8237
▁Rock	-10.8237
▁baseball	-10.8238
▁intention	-10.8241
▁enjoying	-10.8243
▁slightly	-10.8247
▁keeper	-10.825
▁restrain	-10.8251
▁pushing	-10.8254
▁saving	-10.8256
▁Islamist	-10.8258
▁personality	-10.8258
▁Josh	-10.8261
▁core	-10.8263
▁Sierra	-10.8264
▁damages	-10.8264
▁provides	-10.8264
▁attitude	-10.8267
▁hundred	-10.8267
▁Biden	-10.8273
▁crossing	-10.828
▁lover	-10.8281
▁obtained	-10.8281
▁survival	-10.8281
▁worlds	-10.8284
▁Oh	-10.829
▁missile	-10.829
▁1992	-10.8293
▁Rachel	-10.8296
▁survivors	-10.8296
▁referendum	-10.8302
▁Yemen	-10.8307
▁tall	-10.8309
▁Telegraph	-10.831
▁desert	-10.832
▁Carlos	-10.8322
▁Ukip	-10.8322
▁tragical	-10.8322
▁disappointed	-10.8323
▁politician	-10.8328
▁unwrap	-10.8332
▁communication	-10.8333
▁soft	-10.8338
▁lifetime	-10.8339
▁relate	-10.8341
▁Business	-10.8342
▁incredibly	-10.8344
▁mistakes	-10.8344
▁bare	-10.8347
▁Thousands	-10.8348
▁ear	-10.8348
▁suspicious	-10.8351
▁Jon	-10.8354
▁reception	-10.8354
▁suspension	-10.836
▁electronic	-10.8363
▁roles	-10.8365
▁crying	-10.837
▁resign	-10.837
▁screaming	-10.8373
▁suburb	-10.8374
▁guarantee	-10.8376
▁entertainment	-10.8377
▁offend	-10.8379
▁Le	-10.8383
▁Monaco	-10.8389
▁assert	-10.8395
▁tool	-10.8396
▁Juventus	-10.8397
▁replacement	-10.84
▁Ahmed	-10.8403
▁Bowl	-10.8406
▁awful	-10.8406
▁cognize	-10.8406
▁spotlight	-10.8408
▁Donald	-10.8409
▁classic	-10.8409
▁venue	-10.8412
▁cope	-10.8414
▁wage	-10.8414
▁Lopez	-10.8415
▁arriving	-10.8415
▁ourselves	-10.8415
▁brutal	-10.8418
▁comply	-10.8421
▁designate	-10.8421
▁surrounded	-10.8421
▁latterly	-10.8424
▁secondly	-10.8425
▁Greater	-10.843
▁untested	-10.8434
▁vernal	-10.8438
▁grab	-10.8446
▁invited	-10.8447
▁Lancashire	-10.845
▁Turner	-10.8453
▁performing	-10.8456
▁spy	-10.8457
▁transplant	-10.8457
▁Emergency	-10.8471
▁tail	-10.8472
▁cognise	-10.8477
▁funny	-10.8477
▁kg	-10.8491
▁sudden	-10.8494
▁opine	-10.8496
▁Mandela	-10.8497
▁jacket	-10.8499
▁aggressive	-10.8502
▁shirts	-10.8502
▁gifts	-10.8503
▁minority	-10.8506
▁formally	-10.8509
▁Liga	-10.8521
▁hasn	-10.8528
▁discussion	-10.8533
▁tender	-10.8537
▁breakfast	-10.8538
▁Powell	-10.8541
▁convictions	-10.8541
▁Android	-10.8544
▁lasting	-10.8546
▁1993	-10.8547
▁indite	-10.8547
▁Project	-10.855
▁describes	-10.855
▁muscle	-10.8553
▁Singapore	-10.8556
▁formed	-10.8573
▁unseasoned	-10.8573
▁combination	-10.8577
▁laid	-10.8577
▁foods	-10.858
▁Brobdingnagian	-10.8583
▁Seven	-10.8583
▁asylum	-10.8586
▁Eve	-10.8589
▁supra	-10.8592
▁zoo	-10.8592
▁favor	-10.8602
▁countenance	-10.8605
▁Knight	-10.8607
▁improved	-10.8611
▁Mississippi	-10.8613
▁flash	-10.8617
▁See	-10.8619
▁investors	-10.8619
▁Brighton	-10.8622
▁Metropolitan	-10.8625
▁inform	-10.8626
▁travelled	-10.8631
▁digest	-10.8634
▁electric	-10.8635
▁odd	-10.8637
▁equivalent	-10.864
▁assets	-10.8643
▁substance	-10.8643
▁stated	-10.8644
▁73	-10.8649
▁crowds	-10.8649
▁relative	-10.8649
▁74	-10.8655
▁testified	-10.8655
▁Blue	-10.8659
▁Civil	-10.8666
▁designs	-10.8668
▁+	-10.867
▁luck	-10.8672
▁southerly	-10.8672
▁Major	-10.8675
▁liberal	-10.868
▁dollar	-10.8681
▁passport	-10.8681
▁tries	-10.8683
▁Parker	-10.8684
▁boast	-10.8684
▁crown	-10.8686
▁transmit	-10.8692
▁unveiled	-10.8694
▁button	-10.8695
▁rose	-10.8695
▁demanding	-10.8697
▁grievous	-10.8697
▁Baker	-10.87
▁Ferdinand	-10.87
▁Indiana	-10.87
▁Out	-10.87
▁begins	-10.8704
▁burns	-10.8704
▁obesity	-10.8706
▁exhaust	-10.871
▁untried	-10.8713
▁becomes	-10.8715
▁homicide	-10.8715
▁demanded	-10.8718
▁silence	-10.8722
▁ends	-10.8725
▁hostage	-10.8727
▁porn	-10.8727
▁instance	-10.8736
▁voting	-10.8737
▁900	-10.8739
▁Vice	-10.8742
▁Kentucky	-10.8745
▁monitoring	-10.8745
▁Rescue	-10.8746
▁recalled	-10.8748
▁contained	-10.8752
▁Sudan	-10.8757
▁participants	-10.876
▁Eastern	-10.8763
▁weigh	-10.877
▁peculiarly	-10.8773
▁Gareth	-10.8778
▁Zoo	-10.8781
▁trafficking	-10.8781
▁adviser	-10.8784
▁rough	-10.8786
▁defended	-10.8792
▁ankle	-10.8796
▁sand	-10.8801
▁except	-10.8802
▁machines	-10.8802
▁tap	-10.8802
▁Pistorius	-10.8808
▁Power	-10.8808
▁boxes	-10.8811
▁lake	-10.8814
▁reaching	-10.8814
▁uphold	-10.8817
▁appeals	-10.8824
▁relatively	-10.8825
▁Memorial	-10.8827
▁siblings	-10.883
▁bullying	-10.8831
▁sustained	-10.8833
▁QC	-10.8836
▁twist	-10.8836
▁expectant	-10.8843
▁dear	-10.8848
▁hiding	-10.8854
▁invite	-10.886
▁soil	-10.886
▁hangdog	-10.8862
▁usual	-10.8865
▁handling	-10.8866
▁airports	-10.8875
▁Boeing	-10.8878
▁Were	-10.8878
▁shoppers	-10.8878
▁okay	-10.888
▁burglary	-10.8882
▁soccer	-10.8882
▁practices	-10.8883
▁alien	-10.8886
▁bears	-10.8888
▁pit	-10.8889
▁midfield	-10.8894
▁wheelchair	-10.8894
▁Nancy	-10.8906
▁holes	-10.8908
▁gear	-10.8911
▁coat	-10.8912
▁Asked	-10.8918
▁Falcao	-10.8921
▁king	-10.8921
▁paramedics	-10.8921
▁industrial	-10.8928
▁toys	-10.8934
▁burning	-10.8938
▁Brom	-10.894
▁poses	-10.8943
▁enable	-10.8946
▁entail	-10.8949
▁tensions	-10.8949
▁hall	-10.8952
▁shamefaced	-10.8954
▁duo	-10.8955
▁diabetes	-10.8958
▁H	-10.8965
▁repair	-10.8969
▁engagement	-10.8971
▁Network	-10.8977
▁firing	-10.8977
▁cloud	-10.8983
▁Sri	-10.8986
▁scientific	-10.8986
▁unemployment	-10.8986
▁allies	-10.8997
▁lung	-10.8999
▁Still	-10.9002
▁dates	-10.9003
▁OK	-10.9009
▁UEFA	-10.9017
▁devastating	-10.9023
▁exposure	-10.9023
▁drew	-10.9027
▁modest	-10.903
▁boats	-10.9033
▁Ronald	-10.9036
▁advocate	-10.904
▁stole	-10.904
▁Uruguay	-10.9045
▁filming	-10.905
▁concrete	-10.9055
▁Back	-10.9064
▁apportion	-10.9065
▁delays	-10.9065
▁egress	-10.9073
▁sounds	-10.9078
▁77	-10.9083
▁attending	-10.9087
▁Special	-10.9089
▁dedicated	-10.9089
▁fires	-10.909
▁embassy	-10.9098
▁registered	-10.9098
▁Holmes	-10.9101
▁airlines	-10.9104
▁Media	-10.9108
▁Perez	-10.9108
▁infrastructure	-10.9114
▁assaulted	-10.9115
▁hearts	-10.9117
▁Dortmund	-10.9123
▁trauma	-10.9123
▁lone	-10.913
▁slam	-10.9131
▁conclude	-10.9139
▁dressing	-10.9139
▁couch	-10.9152
▁plump	-10.9153
▁partnership	-10.9155
▁grabbed	-10.9156
▁hap	-10.9156
▁Hills	-10.9158
▁Roberto	-10.917
▁founded	-10.917
▁hired	-10.9172
▁prayers	-10.9174
▁Company	-10.9177
▁Prosecutor	-10.9177
▁Several	-10.9177
▁Silva	-10.9177
▁delighted	-10.9183
▁Please	-10.9185
▁clashes	-10.9185
▁parole	-10.9189
▁Winter	-10.9196
▁opt	-10.9196
▁incriminate	-10.9197
▁estimate	-10.92
▁lock	-10.92
▁Hannah	-10.9202
▁copy	-10.9202
▁enemy	-10.9202
▁furious	-10.9202
▁storage	-10.9202
▁Savile	-10.9205
▁chaos	-10.9205
▁Let	-10.9207
▁Bureau	-10.9208
▁bacteria	-10.9208
▁treatments	-10.9208
▁Fabregas	-10.9215
▁smell	-10.9224
▁searched	-10.9226
▁brook	-10.9234
▁writes	-10.9235
▁collected	-10.9237
▁explore	-10.9242
▁brave	-10.9243
▁intensive	-10.9243
▁consultant	-10.9246
▁thin	-10.9246
▁foundation	-10.925
▁infected	-10.925
▁taught	-10.925
▁pride	-10.9251
▁Phoenix	-10.9253
▁Philippines	-10.9256
▁Tesco	-10.9256
▁extraordinary	-10.9264
▁profits	-10.9264
▁Virgin	-10.9265
▁Valencia	-10.9269
▁delight	-10.927
▁Vatican	-10.9272
▁dust	-10.9275
▁Spencer	-10.9278
▁examination	-10.9278
▁ram	-10.9278
▁plate	-10.9283
▁Inc	-10.9285
▁lodge	-10.9294
▁Alexis	-10.9297
▁Rick	-10.9297
▁Samantha	-10.9297
▁explains	-10.9297
▁midnight	-10.9297
▁breath	-10.93
▁overcome	-10.93
▁bizarre	-10.9304
▁ski	-10.9305
▁olds	-10.9307
▁Chile	-10.931
▁technique	-10.931
▁interviewed	-10.9316
▁Australians	-10.932
▁forecast	-10.9329
▁consumer	-10.9332
▁burned	-10.9334
▁Was	-10.934
▁condemn	-10.934
▁Hamas	-10.9342
▁finance	-10.9344
▁repeat	-10.9347
▁Tower	-10.9349
▁Rafael	-10.9355
▁misconduct	-10.9357
▁Wisconsin	-10.9358
▁samples	-10.9363
▁Affairs	-10.9365
▁Norway	-10.9365
▁opposite	-10.9369
▁Any	-10.9374
▁Islands	-10.9374
▁packed	-10.9374
▁Nevada	-10.9377
▁checked	-10.9377
▁pets	-10.9379
▁reverse	-10.9379
▁130	-10.9381
▁autopsy	-10.9381
▁boom	-10.9381
▁AC	-10.9384
▁Free	-10.9384
▁protective	-10.9387
▁dreams	-10.9392
▁Governor	-10.9394
▁Pardew	-10.9394
▁Without	-10.9397
▁anywhere	-10.94
▁marked	-10.94
▁discourage	-10.9405
▁Festival	-10.941
▁highway	-10.9413
▁riding	-10.9413
▁Vincent	-10.9423
▁attacker	-10.9423
▁hanging	-10.9423
▁storms	-10.9431
▁350	-10.9432
▁journal	-10.9432
▁Helen	-10.9436
▁Caroline	-10.9437
▁dubbed	-10.9437
▁Price	-10.9445
▁tremendous	-10.9445
▁gained	-10.9448
▁criminate	-10.945
▁Bishop	-10.9452
▁LA	-10.9452
▁revenue	-10.9458
▁polls	-10.946
▁Hollande	-10.9461
▁diagnosis	-10.9461
▁Head	-10.9463
▁Pellegrini	-10.9465
▁crazy	-10.9465
▁surgeon	-10.9465
▁widespread	-10.9466
▁Operation	-10.9471
▁destruction	-10.9471
▁extensive	-10.9474
▁impeach	-10.9474
▁homeless	-10.9476
▁Rebecca	-10.9478
▁fewer	-10.9479
▁Kingdom	-10.9481
▁fate	-10.9481
▁prevail	-10.9481
▁spill	-10.9481
▁Bull	-10.9484
▁1989	-10.9487
▁Cancer	-10.9491
▁surely	-10.9491
▁Lincoln	-10.9494
▁deserve	-10.9496
▁selfie	-10.95
▁inappropriate	-10.952
▁Lampard	-10.9523
▁Scene	-10.9523
▁courtroom	-10.9523
▁Diana	-10.9527
▁Treasury	-10.9527
▁accompany	-10.9527
▁loving	-10.9528
▁Herald	-10.953
▁eyed	-10.953
▁surge	-10.9531
▁aftermath	-10.9533
▁Catherine	-10.9536
▁facial	-10.9536
▁yell	-10.9536
▁forwards	-10.9538
▁supervise	-10.9545
▁naturally	-10.9546
▁CDC	-10.9549
▁shame	-10.9553
▁significantly	-10.9558
▁vicious	-10.9561
▁cake	-10.9567
▁analyst	-10.9569
▁penalties	-10.9569
▁Nicole	-10.9572
▁Somerset	-10.9576
▁Morris	-10.9579
▁Bond	-10.9582
▁athlete	-10.9582
▁wooden	-10.9585
▁Vladimir	-10.9592
▁challenging	-10.9594
▁Owen	-10.9599
▁Nottingham	-10.9602
▁newly	-10.9602
▁felicitous	-10.9604
▁Awards	-10.9605
▁Cosby	-10.9605
▁literally	-10.9605
▁temporary	-10.9605
▁stunt	-10.9609
▁Entertainment	-10.9615
▁Derby	-10.9625
▁oxygen	-10.9625
▁sacrifice	-10.9625
▁smashed	-10.9625
▁ingest	-10.963
▁dancing	-10.9635
▁color	-10.9638
▁explosives	-10.9638
▁cigarettes	-10.9642
▁anymore	-10.9645
▁balls	-10.965
▁tower	-10.9655
▁savings	-10.9661
▁association	-10.9665
▁walks	-10.9666
▁coma	-10.9671
▁difficulties	-10.9671
▁lastly	-10.9671
▁refugees	-10.9671
▁intense	-10.9676
▁82	-10.9678
▁Soviet	-10.9681
▁gestate	-10.9681
▁appointed	-10.9685
▁tumour	-10.9685
▁Fund	-10.9688
▁twin	-10.969
▁impose	-10.9693
▁ineffective	-10.9693
▁shell	-10.9693
▁tattoo	-10.9698
▁existing	-10.9701
▁differently	-10.9703
▁foul	-10.9703
▁Bobby	-10.9711
▁Marie	-10.9711
▁Right	-10.9719
▁destroy	-10.9721
▁experiment	-10.9728
▁acted	-10.9729
▁pole	-10.9731
▁commonly	-10.9734
▁worn	-10.9738
▁76	-10.9741
▁ethnic	-10.9744
▁78	-10.9748
▁Tories	-10.9751
▁globe	-10.9751
▁Rosberg	-10.9754
▁youngest	-10.9754
▁1991	-10.9758
▁Caribbean	-10.9758
▁march	-10.9759
▁retail	-10.9761
▁1950	-10.9764
▁Toronto	-10.9764
▁throwing	-10.977
▁Stamford	-10.9771
▁undertake	-10.9771
▁stable	-10.9775
▁Angela	-10.9781
▁legacy	-10.9781
▁expenses	-10.9783
▁Embassy	-10.9785
▁gravid	-10.9785
▁shadow	-10.979
▁intervention	-10.9791
▁Inspector	-10.9798
▁Opinion	-10.9798
▁introduce	-10.9798
▁farmers	-10.9801
▁agitate	-10.9803
▁offender	-10.9805
▁tourism	-10.9805
▁assessment	-10.9808
▁bride	-10.9808
▁controls	-10.9813
▁Members	-10.9818
▁massacre	-10.9818
▁advised	-10.982
▁Brussels	-10.9822
▁distress	-10.9823
▁partake	-10.9823
▁regarding	-10.9823
▁SUV	-10.9825
▁cabin	-10.9827
▁actuate	-10.9828
▁tot	-10.9833
▁specify	-10.984
▁whilst	-10.9842
▁v	-10.9843
▁mature	-10.9847
▁Parents	-10.9855
▁recognition	-10.9855
▁grandchildren	-10.9859
▁detailed	-10.986
▁shaped	-10.986
▁PC	-10.9862
▁widow	-10.987
▁Nasa	-10.9875
▁estimates	-10.9877
▁stunned	-10.9879
▁tablet	-10.9879
▁addiction	-10.9889
▁hopefully	-10.9889
▁methods	-10.9889
▁lean	-10.9891
▁puts	-10.9892
▁representatives	-10.9892
▁Residents	-10.9896
▁indictment	-10.9896
▁resignation	-10.9896
▁seventh	-10.9896
▁Aguero	-10.9899
▁jaw	-10.9899
▁proposals	-10.9899
▁attracted	-10.9901
▁Associated	-10.9904
▁Nine	-10.9906
▁celebrating	-10.9906
▁liver	-10.9906
▁Sometimes	-10.9909
▁Cruz	-10.9913
▁Emily	-10.9913
▁combined	-10.9913
▁comedian	-10.992
▁mold	-10.993
▁movements	-10.993
▁spite	-10.993
▁equal	-10.9931
▁radical	-10.9933
▁cite	-10.9935
▁entering	-10.9935
▁sensitive	-10.994
▁enceinte	-10.9942
▁Having	-10.9945
▁Mohamed	-10.9947
▁invasion	-10.9947
▁cycle	-10.9948
▁stealing	-10.995
▁loves	-10.9959
▁Protection	-10.9964
▁sweet	-10.9964
▁breaks	-10.9965
▁inspire	-10.9976
▁Senator	-10.9977
▁traveling	-10.9977
▁featuring	-10.9989
▁solitary	-10.9989
▁NYPD	-10.9995
▁ups	-10.9995
▁violation	-10.9995
▁Grace	-11
▁containing	-11
▁Lauren	-11.0005
▁sic	-11.0008
▁Animal	-11.0013
▁boots	-11.0013
▁aren	-11.0015
▁kilometers	-11.0015
▁smiles	-11.0015
▁colours	-11.0017
▁punch	-11.0017
▁Brooks	-11.0022
▁drawing	-11.0032
▁praised	-11.0032
▁F1	-11.0036
▁Knox	-11.0036
▁resulted	-11.0036
▁limits	-11.0037
▁runway	-11.0043
▁Control	-11.0048
▁islands	-11.0049
▁Larry	-11.0053
▁blocks	-11.0056
▁conversations	-11.0063
▁parade	-11.0063
▁Belgian	-11.0067
▁Bradford	-11.0067
▁mood	-11.0067
▁Torres	-11.007
▁Saint	-11.0074
▁cheese	-11.0082
▁racism	-11.0084
▁sharp	-11.0084
▁disabled	-11.0091
▁anxiety	-11.0094
▁Science	-11.0101
▁sessions	-11.0108
▁cafe	-11.0112
▁prisoner	-11.0115
▁mixed	-11.0117
▁Cape	-11.0119
▁diseases	-11.0119
▁method	-11.0119
▁chop	-11.0125
▁Orlando	-11.0139
▁Redknapp	-11.0143
▁wasnt	-11.0143
▁elements	-11.0146
▁fined	-11.0151
▁tissue	-11.0155
▁tips	-11.0157
▁RAF	-11.016
▁creation	-11.016
▁trading	-11.016
▁cardinal	-11.0167
▁everyday	-11.0167
▁requires	-11.0167
▁holler	-11.0169
▁sits	-11.0172
▁brands	-11.0176
▁UN	-11.0178
▁Freedom	-11.0181
▁chemotherapy	-11.0181
▁militant	-11.0181
▁shootings	-11.0181
▁meters	-11.0185
▁tactics	-11.0185
▁suggesting	-11.0186
▁Benjamin	-11.0188
▁hollo	-11.0192
▁shew	-11.0192
▁trio	-11.0192
▁ease	-11.0195
▁Such	-11.0202
▁mask	-11.0209
▁vacation	-11.0211
▁www	-11.0216
▁hacking	-11.0219
▁fields	-11.0227
▁Child	-11.023
▁campaigns	-11.023
▁runner	-11.023
▁applied	-11.0232
▁Witnesses	-11.0234
▁NSA	-11.0237
▁congressional	-11.0241
▁medals	-11.0241
▁unprecedented	-11.0244
▁Tiger	-11.0251
▁carrier	-11.0251
▁syndrome	-11.0255
▁Anyone	-11.0258
▁essential	-11.0258
▁Vietnam	-11.0262
▁nightmare	-11.0262
▁duties	-11.0269
▁append	-11.027
▁cogitate	-11.027
▁fleet	-11.0272
▁golden	-11.0274
▁Columbia	-11.0276
▁Baby	-11.0277
▁participate	-11.0279
▁Airways	-11.0286
▁deadline	-11.0297
▁eligible	-11.0297
▁curb	-11.03
▁wages	-11.0302
▁nightclub	-11.0304
▁screening	-11.0311
▁tone	-11.0311
▁increases	-11.0313
▁agenda	-11.0318
▁conclusion	-11.0332
▁grateful	-11.0332
▁recovering	-11.0332
▁Gen	-11.0336
▁encouraged	-11.0336
▁revolution	-11.0336
▁thats	-11.0336
▁shower	-11.0337
▁stronger	-11.0337
▁condemned	-11.0343
▁Community	-11.035
▁blocked	-11.035
▁Harrison	-11.0353
▁hes	-11.0357
▁pattern	-11.0357
▁questioning	-11.0359
▁explanation	-11.036
▁landscape	-11.036
▁Dennis	-11.0364
▁mentally	-11.0364
▁squall	-11.0366
▁79	-11.0368
▁Galaxy	-11.0368
▁branded	-11.0369
▁actors	-11.0378
▁acknowledged	-11.038
▁trials	-11.0382
▁oldest	-11.0385
▁pension	-11.0385
▁Forces	-11.0392
▁trainer	-11.0392
▁thick	-11.0398
▁generations	-11.04
▁Ron	-11.0403
▁wealthy	-11.0405
▁Carl	-11.0407
▁owns	-11.0409
▁pot	-11.041
▁formal	-11.0412
▁Jews	-11.0414
▁tablets	-11.0421
▁camps	-11.0423
▁celebrations	-11.0425
▁rapidly	-11.0425
▁Kurdish	-11.0428
▁defy	-11.0428
▁egg	-11.0428
▁witnessed	-11.0432
▁grey	-11.0439
▁bombings	-11.0442
▁glasses	-11.045
▁returns	-11.0453
▁technical	-11.0453
▁effectively	-11.0459
▁frightened	-11.0462
▁cable	-11.0464
▁hip	-11.0468
▁seize	-11.0471
▁differences	-11.0475
▁opener	-11.0475
▁cerebrate	-11.0477
▁covering	-11.048
▁ultimate	-11.0482
▁polite	-11.0484
▁waited	-11.0489
▁backing	-11.0493
▁spray	-11.0493
▁belated	-11.0496
▁easterly	-11.0496
▁lifted	-11.0496
▁fingers	-11.0498
▁Taiwanese	-11.0504
▁discussions	-11.0504
▁transferred	-11.0505
▁parked	-11.0509
▁tardy	-11.0509
▁applications	-11.0511
▁institutions	-11.0511
▁Investigation	-11.0514
▁visible	-11.0516
▁category	-11.0518
▁finds	-11.0518
▁operator	-11.0522
▁slowly	-11.0523
▁wood	-11.0525
▁cultural	-11.0531
▁Arena	-11.0532
▁Gunners	-11.0532
▁urban	-11.0532
▁exceptional	-11.0534
▁contains	-11.0538
▁Karen	-11.054
▁forensic	-11.054
▁premature	-11.0547
▁extremists	-11.055
▁Foster	-11.0554
▁entitled	-11.0558
▁Palmer	-11.0561
▁lap	-11.0561
▁engineering	-11.0569
▁kiss	-11.0569
▁Art	-11.0572
▁complain	-11.0576
▁Energy	-11.0579
▁impression	-11.0579
▁kit	-11.0583
▁openly	-11.0583
▁touched	-11.0583
▁Online	-11.0598
▁Sturridge	-11.0598
▁petrol	-11.0598
▁pledge	-11.0598
▁slight	-11.0603
▁Haiti	-11.0605
▁buyers	-11.0605
▁cigarette	-11.0605
▁fixed	-11.0605
▁represents	-11.0605
▁Lloyd	-11.0608
▁Liberia	-11.0616
▁consumption	-11.0616
▁Billy	-11.0619
▁cited	-11.0619
▁compare	-11.0619
▁Pictured	-11.0621
▁Tsarnaev	-11.0623
▁funded	-11.0625
▁qualifying	-11.0625
▁delayed	-11.0627
▁diagnose	-11.0627
▁poster	-11.0627
▁collar	-11.0632
▁puzzle	-11.0634
▁robot	-11.0634
▁doom	-11.0636
▁Marc	-11.0645
▁en	-11.0645
▁handful	-11.0649
▁Ryder	-11.0652
▁ply	-11.0652
▁Game	-11.0656
▁relation	-11.0656
▁Farage	-11.066
▁competitive	-11.0661
▁forge	-11.0661
▁Claire	-11.0663
▁flown	-11.0676
▁Louise	-11.0678
▁resigned	-11.0678
▁deficit	-11.0685
▁giants	-11.0685
▁statistics	-11.0689
▁reflect	-11.0691
▁faster	-11.0693
▁judgment	-11.0693
▁doesnt	-11.0698
▁Europa	-11.07
▁cops	-11.07
▁employers	-11.07
▁pronounced	-11.07
▁taxpayer	-11.07
▁Obamacare	-11.0704
▁evoke	-11.0704
▁dresses	-11.0705
▁Alonso	-11.0707
▁spirits	-11.0722
▁expecting	-11.0724
▁Girl	-11.0726
▁Greek	-11.0729
▁revenge	-11.0729
▁suffice	-11.0729
▁bleeding	-11.0731
▁Until	-11.0733
▁currency	-11.0733
▁Singh	-11.0737
▁Toure	-11.0737
▁81	-11.074
▁fluid	-11.074
▁unidentified	-11.074
▁accidentally	-11.0746
▁whale	-11.0746
▁Barnes	-11.0748
▁Robertson	-11.0748
▁calories	-11.0759
▁ruin	-11.0759
▁Bieber	-11.0763
▁trailer	-11.0766
▁spots	-11.0774
▁painful	-11.0779
▁library	-11.0781
▁demo	-11.0787
▁devolve	-11.0788
▁header	-11.0792
▁dash	-11.0794
▁Above	-11.0796
▁Leader	-11.08
▁Lucas	-11.08
▁edition	-11.08
▁140	-11.0803
▁Henderson	-11.0803
▁Orleans	-11.0803
▁situations	-11.0803
▁vex	-11.0805
▁choices	-11.0807
▁importune	-11.0807
▁burden	-11.0811
▁keeps	-11.0813
▁pulling	-11.0816
▁Lebanon	-11.0818
▁attackers	-11.0822
▁kidney	-11.0822
▁scientist	-11.0822
▁Night	-11.0826
▁translate	-11.0827
▁Heathrow	-11.0829
▁Independent	-11.0829
▁mini	-11.0829
▁protected	-11.0831
▁Swedish	-11.0833
▁appearing	-11.0835
▁summate	-11.0835
▁fatally	-11.0837
▁fiancee	-11.0837
▁forebode	-11.0837
▁Jan	-11.084
▁beam	-11.0842
▁ordinary	-11.0842
▁creatures	-11.0844
▁losses	-11.0844
▁unacceptable	-11.0844
▁firearms	-11.0848
▁vowed	-11.0852
▁Adrian	-11.0855
▁highlight	-11.0865
▁executives	-11.087
▁indicated	-11.087
▁remarkable	-11.0874
▁Down	-11.0878
▁dangers	-11.0878
▁mirror	-11.0878
▁rank	-11.0885
▁ineffectual	-11.0889
▁slay	-11.0889
▁waitress	-11.0889
▁governing	-11.0891
▁Delhi	-11.0893
▁closure	-11.0902
▁substantiate	-11.0904
▁familiar	-11.0906
▁acres	-11.0908
▁singing	-11.0911
▁apologise	-11.0913
▁sink	-11.0913
▁strict	-11.0915
▁admonish	-11.0917
▁repeated	-11.0919
▁Detectives	-11.0923
▁preliminary	-11.0923
▁Olympian	-11.0926
▁Masters	-11.093
▁loud	-11.093
▁gathering	-11.0934
▁percentage	-11.0934
▁liked	-11.0936
▁Keane	-11.0938
▁Samuel	-11.0938
▁merit	-11.094
▁Mayweather	-11.0941
▁embrace	-11.0945
▁portrait	-11.0949
▁mall	-11.0957
▁basement	-11.096
▁84	-11.0964
▁Me	-11.0964
▁dramatically	-11.0964
▁Todd	-11.0968
▁Joshua	-11.0987
▁fitted	-11.0987
▁predicted	-11.0994
▁Guardian	-11.0998
▁83	-11.1002
▁jewellery	-11.1006
▁metre	-11.1006
▁enormous	-11.1008
▁Castle	-11.1009
▁regret	-11.1011
▁typical	-11.1011
▁institute	-11.1015
▁Nathan	-11.1017
▁pornography	-11.1017
▁Bloomberg	-11.1025
▁hostages	-11.1025
▁maker	-11.1025
▁publication	-11.1025
▁alike	-11.1028
▁strongly	-11.1028
▁techniques	-11.1028
▁feeding	-11.103
▁diamond	-11.1032
▁symbol	-11.1036
▁demonstrators	-11.104
▁unnamed	-11.104
▁organs	-11.1044
▁seal	-11.1044
▁Thai	-11.1047
▁Global	-11.1049
▁abnegate	-11.1049
▁somewhat	-11.1049
▁Yard	-11.1051
▁radiation	-11.1051
▁surprising	-11.1059
▁Saints	-11.1063
▁transition	-11.1063
▁courage	-11.1066
▁forcing	-11.1072
▁mould	-11.1072
▁prognosticate	-11.1074
▁vessels	-11.1074
▁pupil	-11.1078
▁forest	-11.1082
▁Fulham	-11.1085
▁Hitler	-11.1085
▁Information	-11.1085
▁managing	-11.1087
▁Palin	-11.1089
▁downtown	-11.1089
▁hammer	-11.1089
▁networking	-11.1095
▁Holder	-11.1097
▁Nicholas	-11.1097
▁quarters	-11.1097
▁sacked	-11.1097
▁indisputable	-11.1099
▁FOR	-11.1105
▁elite	-11.1105
▁mainly	-11.1105
▁usable	-11.1105
▁Leone	-11.1116
▁Orange	-11.1118
▁briefly	-11.112
▁humble	-11.1129
▁iron	-11.1129
▁Brady	-11.1131
▁III	-11.1135
▁swing	-11.1147
▁underground	-11.1151
▁Next	-11.1156
▁Armed	-11.1158
▁Harvard	-11.1162
▁senator	-11.1162
▁wreckage	-11.1166
▁Libyan	-11.117
▁admitting	-11.1176
▁studying	-11.1178
▁sooner	-11.1187
▁lorry	-11.1189
▁Abbey	-11.1193
▁lane	-11.1193
▁dish	-11.1197
▁favorable	-11.1199
▁g	-11.1201
▁recreate	-11.1203
▁detective	-11.1205
▁frequent	-11.1205
▁haul	-11.1205
▁Bennett	-11.1208
▁grief	-11.1208
▁harder	-11.1208
▁Blues	-11.1212
▁donor	-11.1212
▁Guinea	-11.1216
▁Richardson	-11.1216
▁Stevens	-11.1216
▁opposed	-11.1216
▁booked	-11.1218
▁continent	-11.1218
▁Thank	-11.122
▁comparison	-11.122
▁fed	-11.122
▁clinical	-11.1228
▁Arthur	-11.1232
▁ferment	-11.1232
▁monish	-11.1234
▁mess	-11.1237
▁primal	-11.1237
▁posing	-11.1241
▁Albert	-11.1243
▁speaks	-11.1243
▁Hope	-11.1247
▁cm	-11.1249
▁attractive	-11.1251
▁confessed	-11.1251
▁dementia	-11.1251
▁traumatic	-11.1251
▁Rogers	-11.1259
▁spacecraft	-11.1263
▁Serie	-11.1266
▁comeback	-11.1266
▁promising	-11.1266
▁files	-11.1268
▁Critics	-11.1274
▁Casey	-11.1286
▁Land	-11.1286
▁relevant	-11.129
▁stabbing	-11.1292
▁onward	-11.1294
▁160	-11.1296
▁onwards	-11.1303
▁affidavit	-11.1305
▁hint	-11.1305
▁brings	-11.1311
▁rubbish	-11.1311
▁picking	-11.1325
▁watchdog	-11.1325
▁Victim	-11.1333
▁cure	-11.1333
▁drag	-11.1333
▁furniture	-11.1337
▁suspend	-11.1341
▁steel	-11.1343
▁Andrea	-11.1345
▁desk	-11.1345
▁eighth	-11.1345
▁tunnel	-11.1345
▁wishes	-11.1345
▁illegally	-11.1346
▁excess	-11.1348
▁bulge	-11.135
▁couldnt	-11.135
▁photographed	-11.1354
▁gallery	-11.1356
▁Peterson	-11.136
▁Colin	-11.1364
▁rating	-11.1364
▁treating	-11.1364
▁aggravated	-11.1368
▁boxing	-11.1368
▁gravel	-11.137
▁Happy	-11.1372
▁Polish	-11.1376
▁searches	-11.1382
▁Thames	-11.1384
▁k	-11.1386
▁Tyler	-11.1388
▁residential	-11.1388
▁86	-11.14
▁Sullivan	-11.14
▁begun	-11.1401
▁stab	-11.1401
▁accomplish	-11.1403
▁expectations	-11.1403
▁lovely	-11.1403
▁triumph	-11.1407
▁88	-11.1411
▁Transportation	-11.1411
▁Within	-11.1411
▁bullets	-11.1411
▁promotion	-11.1411
▁speeds	-11.1411
▁twenty	-11.1411
▁nursing	-11.1413
▁ranks	-11.1413
▁Jerry	-11.1415
▁phase	-11.1415
▁evince	-11.1417
▁stream	-11.1419
▁Baltimore	-11.1423
▁mountains	-11.1423
▁civic	-11.1425
▁creature	-11.1427
▁ratings	-11.1427
▁steady	-11.1429
▁discussed	-11.1431
▁liquid	-11.1433
▁lab	-11.1435
▁orbit	-11.1435
▁reads	-11.1435
▁corporate	-11.1437
▁Formosan	-11.1445
▁debar	-11.1447
▁legion	-11.1447
▁relaxed	-11.1447
▁represented	-11.1449
▁notorious	-11.1451
▁contracts	-11.1455
▁directed	-11.1457
▁snake	-11.1459
▁supporter	-11.1467
▁existence	-11.1471
▁vaccine	-11.1479
▁fines	-11.1485
▁gesture	-11.1485
▁rid	-11.1485
▁Welbeck	-11.1487
▁frozen	-11.1487
▁separated	-11.1489
▁shine	-11.1494
▁vanish	-11.1494
▁cargo	-11.1498
▁draft	-11.1498
▁Carroll	-11.1502
▁newspapers	-11.1502
▁Death	-11.1506
▁representing	-11.1506
▁Thatcher	-11.151
▁constant	-11.151
▁idle	-11.1512
▁dedicate	-11.1514
▁frustration	-11.1514
▁nervous	-11.1514
▁ranked	-11.1516
▁queen	-11.1522
▁craft	-11.1526
▁signature	-11.1526
▁wrapped	-11.1526
▁Melissa	-11.153
▁Neville	-11.153
▁cleaning	-11.153
▁Moslem	-11.1532
▁viewed	-11.1544
▁Support	-11.1546
▁coaches	-11.1546
▁damaging	-11.1548
▁load	-11.1548
▁commissioner	-11.155
▁underwear	-11.155
▁referring	-11.1552
▁Maine	-11.1558
▁presidency	-11.1558
▁accompanied	-11.1566
▁competitions	-11.1566
▁thirds	-11.1566
▁consist	-11.1568
▁deemed	-11.157
▁passes	-11.1572
▁Blackpool	-11.1574
▁underneath	-11.1574
▁renowned	-11.1576
▁dismiss	-11.158
▁incessantly	-11.158
▁Battle	-11.1582
▁chemicals	-11.1582
▁disability	-11.1582
▁Wigan	-11.159
▁tribunal	-11.159
▁Peace	-11.1594
▁sheet	-11.1598
▁equate	-11.16
▁guidance	-11.1606
▁makers	-11.1606
▁convince	-11.161
▁expand	-11.161
▁par	-11.1614
▁painted	-11.1617
▁deck	-11.1631
▁nationwide	-11.1637
▁sing	-11.1637
▁deport	-11.1639
▁recession	-11.1639
▁yacht	-11.1639
▁FC	-11.1647
▁cheap	-11.1647
▁weak	-11.1649
▁fever	-11.1651
▁180	-11.1653
▁Argentine	-11.1653
▁Li	-11.1655
▁billionaire	-11.1659
▁removal	-11.1659
▁View	-11.1667
▁coastal	-11.1667
▁useable	-11.1669
▁deploy	-11.1673
▁Merkel	-11.1675
▁Richards	-11.1675
▁gunshot	-11.1679
▁pizza	-11.1679
▁marathon	-11.1683
▁Durham	-11.1687
▁aunt	-11.1691
▁psychological	-11.1691
▁Work	-11.1695
▁diving	-11.1697
▁reign	-11.1697
▁ads	-11.1699
▁crossed	-11.1699
▁defensive	-11.1703
▁Staffordshire	-11.1707
▁pants	-11.1707
▁complicated	-11.1712
▁texts	-11.1712
▁dragged	-11.172
▁traveled	-11.172
▁Middleton	-11.1724
▁demonstrations	-11.1724
▁smash	-11.1726
▁underwent	-11.1726
▁ET	-11.1728
▁Liberal	-11.1728
▁isolated	-11.173
▁stem	-11.1734
▁utterly	-11.1734
▁Federation	-11.1736
▁achieved	-11.1736
▁crackdown	-11.1736
▁lesson	-11.1736
▁donated	-11.174
▁initiate	-11.174
▁infant	-11.1744
▁mm	-11.1746
▁salt	-11.1746
▁Brad	-11.1752
▁Cairo	-11.1756
▁Music	-11.1756
▁forrader	-11.1756
▁targeting	-11.1762
▁Gadhafi	-11.1765
▁cooking	-11.1765
▁drones	-11.1765
▁Andre	-11.1769
▁Lancaster	-11.1769
▁nickname	-11.1769
▁discipline	-11.1771
▁subsequent	-11.1773
▁battling	-11.1775
▁bomber	-11.1777
▁fierce	-11.1779
▁wed	-11.1779
▁Berry	-11.1781
▁bread	-11.1783
▁bull	-11.1783
▁qualify	-11.1783
▁nowhere	-11.1785
▁indication	-11.1789
▁progressively	-11.1789
▁Hunter	-11.1793
▁affirm	-11.1793
▁mosque	-11.1797
▁orange	-11.1797
▁alter	-11.1799
▁yearly	-11.1801
▁studied	-11.1803
▁Interior	-11.1807
▁motive	-11.1807
▁nerve	-11.181
▁professionals	-11.1814
▁aims	-11.1816
▁recruit	-11.1816
▁Boehner	-11.1818
▁portion	-11.1818
▁Christine	-11.1822
▁displace	-11.1822
▁harness	-11.1822
▁DOWN	-11.1824
▁Sophie	-11.1826
▁mortgage	-11.1826
▁replete	-11.1826
▁vegetables	-11.1826
▁upcoming	-11.1828
▁apologised	-11.1834
▁blind	-11.1834
▁Hurricane	-11.1838
▁motorists	-11.1838
▁travellers	-11.1847
▁dining	-11.1849
▁statue	-11.1851
▁overlook	-11.1853
▁Homeland	-11.1855
▁1988	-11.1859
▁Dorset	-11.1859
▁Speaker	-11.1859
▁instructions	-11.1859
▁Manager	-11.1863
▁Preston	-11.1863
▁downward	-11.1865
▁Report	-11.1869
▁perpetually	-11.1871
▁tune	-11.1875
▁Norwich	-11.188
▁Buckingham	-11.1884
▁Jeffrey	-11.1884
▁ward	-11.1884
▁seemingly	-11.1888
▁shake	-11.1888
▁shooter	-11.1892
▁wet	-11.1894
▁Gates	-11.1896
▁Mason	-11.1896
▁analysts	-11.1896
▁Alice	-11.19
▁bath	-11.1909
▁circuit	-11.1909
▁patterns	-11.1909
▁1986	-11.1921
▁violations	-11.1921
▁Award	-11.1925
▁pall	-11.1925
▁academy	-11.1933
▁rage	-11.1933
▁realized	-11.194
▁slammed	-11.194
▁Wildlife	-11.1942
▁grandson	-11.1942
▁Liam	-11.1946
▁Mitt	-11.1946
▁classroom	-11.1954
▁rarely	-11.1956
▁charities	-11.1958
▁inner	-11.196
▁promises	-11.196
▁baffle	-11.1963
▁Austria	-11.1967
▁stops	-11.1973
▁suits	-11.1975
▁shit	-11.1977
▁warming	-11.1977
▁enforce	-11.1981
▁radar	-11.1983
▁Fans	-11.1988
▁helmet	-11.1988
▁recommended	-11.199
▁beaches	-11.1996
▁heels	-11.1996
▁Senior	-11.1998
▁firmly	-11.1998
▁infections	-11.2
▁revelations	-11.2004
▁theater	-11.2008
▁parks	-11.2011
▁SCROLL	-11.2013
▁everywhere	-11.2013
▁producers	-11.2013
▁teammate	-11.2013
▁addressed	-11.2015
▁leaked	-11.2015
▁slap	-11.2015
▁elephant	-11.2017
▁engineers	-11.2017
▁powered	-11.2019
▁asleep	-11.2021
▁87	-11.2025
▁Division	-11.2025
▁beside	-11.2025
▁dig	-11.2025
▁ranking	-11.2025
▁110	-11.2027
▁campaigners	-11.2029
▁grim	-11.2032
▁difficulty	-11.2034
▁Czech	-11.2038
▁Lucy	-11.2038
▁minuscule	-11.2038
▁diplomatic	-11.204
▁Chairman	-11.2042
▁imposed	-11.2042
▁jets	-11.2044
▁Ramsey	-11.2046
▁bedrooms	-11.205
▁loaded	-11.2053
▁Arkansas	-11.2055
▁Border	-11.2055
▁decisive	-11.2057
▁purchased	-11.2057
▁emotions	-11.2059
▁commute	-11.2061
▁calendar	-11.2065
▁pile	-11.2065
▁Stanley	-11.2071
▁assign	-11.2074
▁Linda	-11.208
▁Pochettino	-11.208
▁TSA	-11.208
▁perspective	-11.208
▁veracious	-11.208
▁Warner	-11.2084
▁peaceful	-11.2084
▁Hayes	-11.2097
▁Morrison	-11.2097
▁executed	-11.2097
▁tons	-11.2097
▁accurate	-11.2099
▁bewilder	-11.2099
▁Capitol	-11.2101
▁arguments	-11.2101
▁trucks	-11.2101
▁unexpected	-11.2101
▁hopeful	-11.2107
▁posture	-11.2107
▁ceiling	-11.2109
▁Jo	-11.2114
▁hosted	-11.2114
▁persons	-11.2114
▁History	-11.2118
▁Military	-11.2118
▁moral	-11.2118
▁ignored	-11.2122
▁arts	-11.2126
▁wanting	-11.2126
▁i	-11.2131
▁Lanka	-11.2135
▁borders	-11.2135
▁preparation	-11.2135
▁employed	-11.2137
▁Potter	-11.2139
▁blanket	-11.2139
▁engines	-11.2139
▁exploit	-11.2139
▁mad	-11.2139
▁retailers	-11.2139
▁arise	-11.2143
▁prescription	-11.2143
▁readers	-11.2143
▁Fashion	-11.2152
▁Norfolk	-11.2152
▁Persian	-11.2152
▁Perth	-11.2152
▁org	-11.2156
▁recommend	-11.2158
▁Ministers	-11.2165
▁startle	-11.2165
▁reasonable	-11.2167
▁scratch	-11.2167
▁Cuban	-11.2169
▁boot	-11.2169
▁allegation	-11.2173
▁adventure	-11.2175
▁involves	-11.2175
▁demonstration	-11.2177
▁scrutiny	-11.2177
▁Executive	-11.2182
▁banking	-11.2182
▁narrow	-11.219
▁GB	-11.2192
▁compromise	-11.2197
▁railway	-11.2199
▁stance	-11.2199
▁welcomed	-11.2199
▁wire	-11.2203
▁criticized	-11.2207
▁improvement	-11.2207
▁toxic	-11.2207
▁elaborate	-11.2209
▁Rory	-11.2211
▁Assistant	-11.2214
▁cheer	-11.2214
▁explosive	-11.2214
▁creative	-11.2216
▁sub	-11.2216
▁centuries	-11.222
▁missions	-11.222
▁punched	-11.222
▁fairly	-11.2224
▁carpet	-11.2226
▁Boris	-11.2229
▁Transport	-11.2229
▁aide	-11.2241
▁anonymous	-11.2241
▁tired	-11.2241
▁trash	-11.2241
▁Highway	-11.2246
▁deputies	-11.2246
▁menu	-11.2254
▁quoted	-11.2254
▁raging	-11.2256
▁watches	-11.2256
▁humanitarian	-11.2259
▁uk	-11.2259
▁extremist	-11.2261
▁lets	-11.2261
▁Girls	-11.2263
▁Coroner	-11.2267
▁Victor	-11.2267
▁Water	-11.2267
▁missiles	-11.2267
▁stability	-11.2267
▁circle	-11.2271
▁invariably	-11.2274
▁Prison	-11.228
▁Webb	-11.228
▁Prevention	-11.2284
▁Thanksgiving	-11.2284
▁interchange	-11.2284
▁uncommitted	-11.2284
▁retreat	-11.2286
▁secured	-11.2289
▁visa	-11.2289
▁Way	-11.2293
▁falls	-11.2295
▁Ted	-11.2297
▁longtime	-11.2302
▁oftentimes	-11.2304
▁Julia	-11.2306
▁hometown	-11.2306
▁Arctic	-11.2308
▁1982	-11.231
▁cliff	-11.231
▁lightning	-11.231
▁tube	-11.231
▁universities	-11.2314
▁unions	-11.2319
▁citing	-11.2321
▁Barca	-11.2323
▁helicopters	-11.2323
▁smartphones	-11.2323
▁weren	-11.233
▁Whether	-11.2332
▁ignore	-11.2332
▁settled	-11.2336
▁astonishing	-11.2345
▁ferry	-11.2351
▁prosecute	-11.2351
▁1984	-11.2353
▁accidents	-11.2353
▁gangs	-11.2356
▁suffers	-11.2356
▁random	-11.2358
▁distinctive	-11.236
▁Coleman	-11.2362
▁Tehran	-11.2362
▁barrier	-11.2362
▁appoint	-11.2366
▁presents	-11.2369
▁Everything	-11.2371
▁temporarily	-11.2371
▁finishing	-11.2373
▁thrust	-11.2375
▁purposes	-11.2382
▁Christians	-11.2384
▁description	-11.2384
▁fundraising	-11.2384
▁mud	-11.2384
▁playact	-11.2384
▁politically	-11.2384
▁Spaniard	-11.2401
▁coaching	-11.2401
▁excellent	-11.2403
▁End	-11.2408
▁inhabit	-11.2408
▁leather	-11.2408
▁Chavez	-11.241
▁Lions	-11.241
▁cater	-11.241
▁generous	-11.2412
▁sweep	-11.2416
▁Bath	-11.2423
▁Denmark	-11.2423
▁wheels	-11.2423
▁Spring	-11.2425
▁V	-11.243
▁protrude	-11.2432
▁Julian	-11.2436
▁jeans	-11.2436
▁roleplay	-11.2436
▁sharks	-11.2436
▁suggestion	-11.2436
▁deployed	-11.2443
▁doubly	-11.2443
▁highlights	-11.2443
▁tracking	-11.2443
▁reduction	-11.2445
▁fixture	-11.2449
▁climbing	-11.2454
▁injure	-11.2458
▁requirements	-11.2458
▁minded	-11.246
▁landmark	-11.2462
▁subjects	-11.2467
▁bronze	-11.2469
▁encouraging	-11.2469
▁puddle	-11.2469
▁accommodation	-11.2471
▁cancelled	-11.2471
▁oft	-11.2471
▁tongue	-11.2471
▁Maybe	-11.2473
▁lethal	-11.2473
▁researcher	-11.2475
▁beloved	-11.2478
▁stool	-11.2484
▁detain	-11.2486
▁fulfill	-11.2489
▁legally	-11.2491
▁selected	-11.2491
▁ammunition	-11.2497
▁criticise	-11.25
▁publicity	-11.2502
▁Management	-11.2506
▁asks	-11.2506
▁flags	-11.2506
▁miracle	-11.2506
▁Harvey	-11.2511
▁Organization	-11.2511
▁corroborate	-11.2513
▁Cohen	-11.2515
▁fathers	-11.2515
▁melt	-11.2515
▁stupefy	-11.2517
▁soul	-11.2519
▁publically	-11.2522
▁defined	-11.2526
▁caption	-11.253
▁Marathon	-11.2533
▁Norman	-11.2533
▁quaternary	-11.2533
▁Prize	-11.2537
▁aviation	-11.2537
▁cruelty	-11.2537
▁requested	-11.2537
▁signals	-11.2539
▁Being	-11.2546
▁affects	-11.2546
▁Unfortunately	-11.2548
▁autumn	-11.255
▁anchor	-11.2553
▁disposed	-11.2555
▁92	-11.2559
▁Ghana	-11.2559
▁copies	-11.2561
▁750	-11.2564
▁consecutive	-11.2566
▁Reed	-11.2572
▁fiance	-11.2572
▁Bernard	-11.2577
▁Gray	-11.2579
▁kinds	-11.2581
▁Sunni	-11.2586
▁Weather	-11.2586
▁screens	-11.2588
▁organised	-11.2592
▁Bali	-11.2595
▁loans	-11.2595
▁monumental	-11.2599
▁Abdullah	-11.2603
▁Weekly	-11.2603
▁extension	-11.2603
▁fatigue	-11.2603
▁junior	-11.2603
▁updated	-11.261
▁evil	-11.2612
▁ownership	-11.2612
▁caring	-11.2617
▁crap	-11.2619
▁Marco	-11.2621
▁None	-11.2626
▁donation	-11.2626
▁Boy	-11.263
▁Ramos	-11.263
▁billions	-11.263
▁habits	-11.2635
▁somewhere	-11.2635
▁structures	-11.2641
▁Palestinians	-11.2644
▁carries	-11.2646
▁Disease	-11.2648
▁jokes	-11.2648
▁voices	-11.2655
▁context	-11.2657
▁threaten	-11.2657
▁Croatia	-11.2666
▁stricken	-11.2666
▁hale	-11.2668
▁belike	-11.2673
▁Intelligence	-11.2675
▁caps	-11.2675
▁fights	-11.2675
▁Dylan	-11.2679
▁Mountain	-11.2679
▁Neither	-11.2679
▁phenomenon	-11.2679
▁Later	-11.2682
▁genetic	-11.2682
▁Age	-11.2684
▁Championships	-11.2688
▁cycling	-11.2693
▁dropping	-11.2693
▁refund	-11.2693
▁sting	-11.2693
▁correctly	-11.2697
▁motivated	-11.2697
▁conduce	-11.2702
▁locate	-11.2702
▁populate	-11.2702
▁solo	-11.2704
▁weighed	-11.2704
▁broadcaster	-11.2711
▁Country	-11.272
▁burial	-11.272
▁FAA	-11.2724
▁DJ	-11.2731
▁Sebastian	-11.2733
▁versions	-11.2733
▁Action	-11.2742
▁bury	-11.2742
▁carefully	-11.2742
▁pensioner	-11.2742
▁Nothing	-11.2751
▁siege	-11.276
▁terrified	-11.2762
▁preferred	-11.2767
▁Reagan	-11.2774
▁Garden	-11.2778
▁confused	-11.2778
▁usher	-11.2778
▁Wilshere	-11.2783
▁rely	-11.2785
▁Nicolas	-11.2787
▁Delta	-11.2792
▁attraction	-11.2792
▁bloody	-11.2792
▁jumping	-11.2792
▁maturate	-11.2792
▁horrible	-11.2794
▁casualties	-11.2796
▁contribution	-11.2796
▁costume	-11.2799
▁covers	-11.2801
▁latter	-11.2801
▁Technology	-11.2805
▁expression	-11.2805
▁careful	-11.2808
▁Development	-11.281
▁999	-11.2814
▁Rev	-11.2814
▁Shanghai	-11.2814
▁Stephanie	-11.2814
▁feedback	-11.2814
▁lonesome	-11.2817
▁depth	-11.2819
▁venture	-11.2819
▁chiefs	-11.2824
▁ofttimes	-11.2824
▁del	-11.2828
▁heritage	-11.2828
▁Fair	-11.283
▁Benghazi	-11.2833
▁Sharon	-11.2833
▁parliamentary	-11.2833
▁pump	-11.2833
▁Jackie	-11.2837
▁minds	-11.2837
▁retire	-11.2837
▁riot	-11.2839
▁institutionalize	-11.2842
▁kidnapped	-11.2844
▁sway	-11.2844
▁amaze	-11.2846
▁lists	-11.2849
▁pills	-11.2851
▁tornado	-11.2851
▁paintings	-11.286
▁dumped	-11.2865
▁upwards	-11.2867
▁woke	-11.2867
▁Venezuela	-11.2869
▁basically	-11.2871
▁healthcare	-11.2874
▁Tampa	-11.2878
▁stopping	-11.288
▁delineate	-11.2883
▁desperately	-11.2885
▁rolled	-11.2885
▁shoulders	-11.2885
▁surveil	-11.2885
▁households	-11.2887
▁mentioned	-11.2887
▁adjoin	-11.2892
▁investigator	-11.2896
▁lungs	-11.2896
▁Corps	-11.2901
▁determination	-11.2901
▁raids	-11.2901
▁teammates	-11.2901
▁institutionalise	-11.2903
▁whales	-11.2903
▁examined	-11.2906
▁frustrated	-11.2906
▁maintained	-11.2906
▁uncomfortable	-11.2906
▁Karl	-11.2915
▁eBay	-11.2915
▁apologize	-11.2917
▁Gonzalez	-11.2919
▁complications	-11.2919
▁numb	-11.2919
▁Hudson	-11.2924
▁PSG	-11.2924
▁resulting	-11.2926
▁urinate	-11.2926
▁thousand	-11.2933
▁whistle	-11.2933
▁Trade	-11.2935
▁formation	-11.2938
▁confronted	-11.294
▁Criminal	-11.2942
▁producing	-11.2942
▁motivate	-11.2945
▁ears	-11.2956
▁gross	-11.2958
▁Franklin	-11.2961
▁pollution	-11.2961
▁refusing	-11.2961
▁Kane	-11.2965
▁audio	-11.2965
▁bruise	-11.2968
▁assaults	-11.2972
▁1979	-11.2975
▁Sergeant	-11.2975
▁secretly	-11.2975
▁herald	-11.2979
▁plainly	-11.2979
▁freed	-11.2984
▁operated	-11.2984
▁Pyongyang	-11.2988
▁restore	-11.2998
▁rap	-11.3
▁Portland	-11.3002
▁Week	-11.3002
▁murdering	-11.3002
▁Portuguese	-11.3005
▁battles	-11.3005
▁describing	-11.3005
▁majestic	-11.3005
▁Jerusalem	-11.3007
▁Tragic	-11.3007
▁criticize	-11.3007
▁sack	-11.3007
▁boarding	-11.3014
▁propel	-11.3014
▁Ken	-11.3016
▁groom	-11.3018
▁blank	-11.3021
▁evacuated	-11.3021
▁stranger	-11.3021
▁lengthy	-11.3023
▁maintenance	-11.3025
▁plug	-11.3025
▁TMZ	-11.303
▁spin	-11.3032
▁Did	-11.3035
▁Ten	-11.3035
▁euros	-11.3035
▁inmate	-11.3035
▁lick	-11.3039
▁Englands	-11.3044
▁RSPCA	-11.3044
▁universe	-11.3044
▁denote	-11.3049
▁breasts	-11.3056
▁unrest	-11.3058
▁beds	-11.306
▁fulfil	-11.3065
▁postdate	-11.3065
▁photography	-11.3067
▁villages	-11.3067
▁beliefs	-11.3072
▁commemorate	-11.3074
▁Nipponese	-11.3077
▁Walsh	-11.3086
▁firearm	-11.3086
▁grandparents	-11.3086
▁prince	-11.3086
▁tire	-11.3086
▁muscles	-11.309
▁policeman	-11.309
▁Have	-11.3093
▁planets	-11.3095
▁talented	-11.3095
▁downwards	-11.3097
▁redact	-11.3097
▁tenacious	-11.3097
▁franchise	-11.31
▁Heather	-11.3104
▁puppy	-11.3104
▁quest	-11.3107
▁Coalition	-11.3109
▁dominated	-11.3111
▁FDA	-11.3114
▁communicate	-11.3114
▁humanity	-11.3114
▁adoption	-11.3119
▁friendship	-11.3119
▁risky	-11.3119
▁periods	-11.3123
▁letting	-11.3126
▁Marines	-11.3128
▁caution	-11.3128
▁gunmen	-11.3128
▁imprisonment	-11.3128
▁ingredients	-11.3128
▁bitter	-11.313
▁McLaren	-11.3133
▁Students	-11.3133
▁shouting	-11.3135
▁Golf	-11.3137
▁PGA	-11.3137
▁Blackburn	-11.3142
▁Marshall	-11.3147
▁Had	-11.3156
▁backs	-11.3161
▁freezing	-11.3161
▁urging	-11.3161
▁Phillip	-11.3165
▁dock	-11.3168
▁filing	-11.317
▁rehabilitation	-11.3175
▁deliberately	-11.3177
▁89	-11.318
▁breed	-11.3182
▁Kings	-11.3184
▁Patrol	-11.3184
▁laptop	-11.3184
▁nonplus	-11.3184
▁perplex	-11.3184
▁emissions	-11.3189
▁justify	-11.3191
▁swallow	-11.3191
▁Etihad	-11.3194
▁Halloween	-11.3194
▁angle	-11.3194
▁upright	-11.3194
▁Eight	-11.3203
▁Part	-11.3203
▁distribution	-11.3203
▁refugee	-11.3203
▁incite	-11.3205
▁Jenkins	-11.3208
▁confrontation	-11.3208
▁nephew	-11.3212
▁rapper	-11.3212
▁strangers	-11.3212
▁prey	-11.322
▁Theresa	-11.3222
▁Wells	-11.3222
▁cultivate	-11.3224
▁prayer	-11.3227
▁protecting	-11.3229
▁Drug	-11.3231
▁Mills	-11.3231
▁piss	-11.3234
▁importantly	-11.3243
▁boasts	-11.3246
▁450	-11.325
▁revealing	-11.325
▁Murdoch	-11.3255
▁balcony	-11.3255
▁Ill	-11.326
▁Peru	-11.326
▁Class	-11.3269
▁Hussein	-11.3269
▁Nobody	-11.3269
▁slide	-11.3272
▁alerted	-11.3276
▁define	-11.3276
▁Felipe	-11.3279
▁troubled	-11.3281
▁attendance	-11.3284
▁excitement	-11.3284
▁Cox	-11.3288
▁inspector	-11.3288
▁McCarthy	-11.3298
▁electrical	-11.3298
▁1987	-11.3303
▁assaulting	-11.3303
▁deplorable	-11.3303
▁innocence	-11.3303
▁speaker	-11.3303
▁suburban	-11.3303
▁peoples	-11.3305
▁Harper	-11.3307
▁elephants	-11.3307
▁Bryan	-11.3312
▁Bundesliga	-11.3312
▁Netanyahu	-11.3312
▁deliberate	-11.3312
▁nomination	-11.3317
▁Haram	-11.3322
▁Manning	-11.3324
▁installed	-11.3324
▁rises	-11.3324
▁Leon	-11.3326
▁crusade	-11.3326
▁Glass	-11.3331
▁donors	-11.3331
▁monthly	-11.3336
▁fiddle	-11.3348
▁instruct	-11.3348
▁thieves	-11.3348
▁inspiring	-11.335
▁Nearly	-11.3355
▁equality	-11.3355
▁qualified	-11.3358
▁Financial	-11.336
▁eaten	-11.336
▁rumours	-11.336
▁Rica	-11.3365
▁prostitution	-11.3365
▁uncovered	-11.3365
▁monolithic	-11.337
▁swept	-11.337
▁membership	-11.3374
▁practical	-11.3374
▁sufficient	-11.3374
▁underwater	-11.3374
▁quote	-11.3382
▁acre	-11.3398
▁educate	-11.3398
▁woods	-11.3398
▁keys	-11.3401
▁countryside	-11.3403
▁stressed	-11.3406
▁uprise	-11.3406
▁Dem	-11.3408
▁magnanimous	-11.3408
▁mount	-11.3408
▁extraneous	-11.341
▁93	-11.3413
▁liken	-11.3418
▁thief	-11.3418
▁Andrews	-11.3422
▁Dawn	-11.3427
▁crushed	-11.3427
▁Garner	-11.3432
▁scam	-11.3432
▁omit	-11.3437
▁flummox	-11.3442
▁happiness	-11.3442
▁smiling	-11.3442
▁hug	-11.3444
▁citizenship	-11.3451
▁stairs	-11.3451
▁flung	-11.3461
▁micturate	-11.3468
▁Suffolk	-11.3471
▁iReport	-11.3471
▁Wars	-11.3476
▁passionate	-11.3476
▁infamous	-11.3478
▁councils	-11.3485
▁piddle	-11.3485
▁Reports	-11.3488
▁Boko	-11.349
▁protein	-11.349
▁nude	-11.3493
▁uncommon	-11.3493
▁Blake	-11.3495
▁Glenn	-11.3495
▁comprehensive	-11.3495
▁vary	-11.3497
▁125	-11.35
▁achievement	-11.35
▁referable	-11.3507
▁triggered	-11.3507
▁considerable	-11.3514
▁dealt	-11.3517
▁owe	-11.3519
▁Indonesian	-11.3524
▁Pearson	-11.3524
▁organ	-11.3524
▁starring	-11.3527
▁Eddie	-11.3529
▁defecate	-11.3532
▁imputable	-11.3532
▁weekly	-11.3532
▁Francois	-11.3534
▁dumbfound	-11.3534
▁inspection	-11.3534
▁outlets	-11.3534
▁displays	-11.3536
▁shoe	-11.3536
▁Thanks	-11.3541
▁spark	-11.3541
▁vet	-11.3541
▁manufacturers	-11.3544
▁Iraki	-11.3546
▁privately	-11.3549
▁consistent	-11.3551
▁acid	-11.3558
▁icon	-11.3558
▁sheer	-11.3561
▁fastest	-11.3563
▁ranging	-11.3563
▁reviews	-11.3563
▁Raheem	-11.3568
▁consideration	-11.3568
▁mystify	-11.3568
▁Carlo	-11.3573
▁drought	-11.3573
▁improving	-11.3573
▁meanwhile	-11.3573
▁trademark	-11.3575
▁pledged	-11.358
▁gloves	-11.3583
▁Allardyce	-11.3593
▁Sochi	-11.3593
▁arguing	-11.3593
▁Follow	-11.3598
▁festive	-11.3598
▁touching	-11.36
▁graphic	-11.3602
▁ascribable	-11.361
▁bend	-11.361
▁rings	-11.361
▁immigrant	-11.3612
▁wings	-11.3615
▁Constitution	-11.3622
▁Ozil	-11.3622
▁lion	-11.3622
▁doubled	-11.3625
▁timing	-11.3625
▁longsighted	-11.3627
▁ridiculous	-11.3629
▁dealer	-11.3632
▁marriages	-11.3632
▁Has	-11.3634
▁defeated	-11.3634
▁Ellis	-11.3637
▁competing	-11.3637
▁pluck	-11.3637
▁routes	-11.3639
▁lasted	-11.3642
▁supportive	-11.3642
▁Scots	-11.3649
▁peer	-11.3649
▁companion	-11.3652
▁undivided	-11.3652
▁coif	-11.3664
▁approaching	-11.3666
▁divorced	-11.3666
▁Inside	-11.3671
▁uploaded	-11.3674
▁developers	-11.3676
▁inflation	-11.3676
▁killers	-11.3676
▁tobacco	-11.3676
▁struggles	-11.3679
▁Joan	-11.3681
▁downwardly	-11.3686
▁hunger	-11.3691
▁skirt	-11.3691
▁Reading	-11.3696
▁priest	-11.3696
▁programmes	-11.3696
▁wreck	-11.3696
▁Corp	-11.3701
▁Village	-11.3701
▁awaiting	-11.3701
▁bat	-11.3701
▁AIDS	-11.3706
▁outdoors	-11.3706
▁marine	-11.3709
▁Rugby	-11.3711
▁designers	-11.3711
▁recommendations	-11.3711
▁Labor	-11.3716
▁breathe	-11.3716
▁distressed	-11.3716
▁Moss	-11.3721
▁disturbing	-11.3721
▁Penn	-11.3726
▁Novak	-11.3731
▁staggering	-11.3733
▁Ivory	-11.3736
▁detached	-11.3736
▁centers	-11.3738
▁lowly	-11.3738
▁laughing	-11.3741
▁persuade	-11.3741
▁volcano	-11.3741
▁Ancelotti	-11.3746
▁propaganda	-11.3746
▁Woman	-11.3756
▁drained	-11.3761
▁suing	-11.3761
▁Romania	-11.3766
▁mysterious	-11.3766
▁Off	-11.3768
▁speeding	-11.3768
▁Aviation	-11.3771
▁manufacturer	-11.3771
▁Light	-11.3773
▁Point	-11.3773
▁beforehand	-11.3773
▁shorts	-11.3773
▁backlash	-11.3776
▁thankful	-11.3776
▁regardless	-11.3783
▁coiffe	-11.3786
▁condolences	-11.3791
▁fitting	-11.3791
▁survivor	-11.3791
▁upward	-11.3791
▁BMW	-11.3796
▁Match	-11.3796
▁fin	-11.3796
▁lovers	-11.3796
▁remembered	-11.3796
▁transportation	-11.3796
▁Dakota	-11.3806
▁Dhabi	-11.3806
▁launching	-11.3808
▁Shane	-11.3816
▁millionaire	-11.3816
▁sensors	-11.3816
▁kicking	-11.3818
▁inadequate	-11.3821
▁Boxing	-11.3831
▁Carol	-11.3831
▁handgun	-11.3831
▁dominate	-11.3833
▁Workers	-11.3836
▁exploded	-11.3836
▁UKIP	-11.3841
▁Chambers	-11.3846
▁thigh	-11.3846
▁habit	-11.3848
▁Pictures	-11.3851
▁goodbye	-11.3851
▁trousers	-11.3851
▁foresightful	-11.3856
▁partly	-11.3856
▁sensation	-11.3856
▁emotion	-11.3861
▁respectable	-11.3861
▁stark	-11.3866
▁wider	-11.3866
▁retentive	-11.3871
▁centres	-11.3874
▁arrangements	-11.3876
▁foresighted	-11.3876
▁laser	-11.3876
▁Bournemouth	-11.3881
▁coiffure	-11.3884
▁Connor	-11.3886
▁extract	-11.3886
▁stupid	-11.3886
▁departments	-11.3896
▁pointing	-11.3899
▁snapped	-11.3899
▁bonus	-11.3901
▁implement	-11.3904
▁rubber	-11.3904
▁gardens	-11.3909
▁decrease	-11.3912
▁tanks	-11.3912
▁di	-11.3914
▁champagne	-11.3917
▁overleap	-11.3917
▁pray	-11.3919
▁1985	-11.3922
▁administrative	-11.3922
▁whereabouts	-11.3922
▁terrific	-11.3927
▁DC	-11.3932
▁rehab	-11.3932
▁Jobs	-11.3937
▁Wallace	-11.3937
▁column	-11.3937
▁assess	-11.3939
▁Colombian	-11.3942
▁authors	-11.3945
▁Borussia	-11.3947
▁Kiev	-11.3947
▁Natalie	-11.3947
▁Nobel	-11.3947
▁Passengers	-11.3947
▁earnings	-11.3947
▁proportion	-11.3947
▁amateur	-11.3952
▁expense	-11.3955
▁tent	-11.396
▁Sharapova	-11.3962
▁Walter	-11.3962
▁rig	-11.3965
▁stir	-11.3965
▁tale	-11.3967
▁quake	-11.397
▁shouldn	-11.397
▁epidemic	-11.3972
▁poisoning	-11.3975
▁Latin	-11.3978
▁disappointing	-11.3978
▁listening	-11.3978
▁travelers	-11.3978
▁prevented	-11.398
▁Bergdahl	-11.3983
▁Trump	-11.3983
▁navy	-11.3983
▁theatre	-11.3983
▁wars	-11.399
▁360	-11.3993
▁ID	-11.3993
▁Madison	-11.3993
▁childrens	-11.3993
▁hadn	-11.3993
▁palace	-11.3993
▁slipped	-11.3998
▁Easter	-11.4008
▁joked	-11.4008
▁pretermit	-11.4008
▁beneficial	-11.4011
▁Frenchman	-11.4013
▁Katherine	-11.4013
▁defenders	-11.4013
▁cage	-11.4016
▁mob	-11.4016
▁Guantanamo	-11.4018
▁errors	-11.4018
▁peculiar	-11.4018
▁polar	-11.4018
▁Call	-11.4021
▁Fred	-11.4024
▁identification	-11.4024
▁cyber	-11.4029
▁clouds	-11.4031
▁roots	-11.4031
▁Bashar	-11.4034
▁Diamond	-11.4039
▁dirty	-11.4039
▁isolation	-11.4039
▁decently	-11.4041
▁Fletcher	-11.4044
▁Hazard	-11.4044
▁classified	-11.4047
▁valuable	-11.4049
▁balloon	-11.4054
▁Kenneth	-11.4059
▁beef	-11.4059
▁BP	-11.4065
▁unarmed	-11.4065
▁undergoing	-11.4065
▁Sally	-11.407
▁ditch	-11.4072
▁Bangkok	-11.4075
▁Gibson	-11.4075
▁farsighted	-11.4075
▁Almost	-11.408
▁disastrous	-11.408
▁integrity	-11.408
▁penny	-11.4083
▁purple	-11.4083
▁hackers	-11.4085
▁subway	-11.4085
▁Express	-11.4088
▁furnish	-11.4088
▁repay	-11.4088
▁Jake	-11.409
▁connections	-11.409
▁farseeing	-11.409
▁invoke	-11.4093
▁Rover	-11.4095
▁charm	-11.4095
▁clues	-11.4103
▁cabinet	-11.4106
▁wrongdoing	-11.4106
▁raping	-11.4108
▁Ice	-11.4111
▁recollective	-11.4111
▁prospicient	-11.4114
▁Amber	-11.4116
▁scare	-11.4119
▁wager	-11.4119
▁Conservatives	-11.4121
▁coup	-11.4121
▁unemployed	-11.4121
▁loyal	-11.4129
▁Paulo	-11.4132
▁Sheikh	-11.4132
▁Unlike	-11.4139
▁medium	-11.4139
▁IRS	-11.4142
▁Holly	-11.4147
▁cooperation	-11.4147
▁airstrikes	-11.4152
▁pip	-11.4152
▁posters	-11.4152
▁earning	-11.4155
▁satisfy	-11.4158
▁Myanmar	-11.4163
▁ladies	-11.4163
▁organisations	-11.4163
▁Mubarak	-11.4168
▁Vettel	-11.4168
▁influential	-11.4173
▁adjust	-11.4178
▁extradition	-11.4178
▁smashing	-11.4184
▁stones	-11.4186
▁employer	-11.4189
▁honorable	-11.4189
▁washing	-11.4189
▁intemperately	-11.4191
▁pressing	-11.4191
▁2018	-11.4194
▁Montana	-11.4194
▁counsel	-11.4194
▁dialogue	-11.4194
▁ladder	-11.4194
▁Arabian	-11.4197
▁gates	-11.4199
▁lottery	-11.4199
▁musician	-11.4199
▁chamber	-11.421
▁neat	-11.421
▁floods	-11.4212
▁aroused	-11.4215
▁Change	-11.4217
▁proficient	-11.4217
▁Place	-11.422
▁glory	-11.422
▁relieve	-11.422
▁Schumacher	-11.4225
▁cemetery	-11.4225
▁reminder	-11.4225
▁Brandon	-11.4236
▁competitors	-11.4236
▁concentrate	-11.4236
▁romance	-11.4236
▁presidents	-11.4246
▁Rolling	-11.4249
▁floors	-11.4249
▁Amnesty	-11.4251
▁intact	-11.4251
▁permanently	-11.4257
▁promoting	-11.4257
▁Unit	-11.4262
▁boxer	-11.4262
▁tracked	-11.4262
▁Tommy	-11.4267
▁longest	-11.4267
▁implicated	-11.427
▁disappointment	-11.4272
▁Cheshire	-11.4278
▁Shabaab	-11.4278
▁resistance	-11.4278
▁Get	-11.428
▁dive	-11.428
▁Timothy	-11.4283
▁Number	-11.4288
▁divers	-11.4288
▁pursuit	-11.4288
▁shotgun	-11.4288
▁Paula	-11.4293
▁organized	-11.4296
▁concentration	-11.4299
▁directors	-11.4299
▁cinema	-11.4304
▁examples	-11.4304
▁suggestions	-11.4304
▁Much	-11.4309
▁marital	-11.4309
▁arrives	-11.4312
▁Eden	-11.4314
▁harbour	-11.4314
▁terrifying	-11.4314
▁unmarried	-11.4314
▁updates	-11.4314
▁Istanbul	-11.432
▁Winston	-11.432
▁contractor	-11.432
▁challenged	-11.4322
▁gotten	-11.4322
▁Osama	-11.4325
▁plates	-11.4325
▁aired	-11.4328
▁Liberty	-11.433
▁ideal	-11.433
▁Portsmouth	-11.4336
▁Toyota	-11.4336
▁devoted	-11.4336
▁essentially	-11.4336
▁insurgents	-11.4336
▁garner	-11.4344
▁newborn	-11.4344
▁Lindsay	-11.4346
▁vanished	-11.4349
▁Kardashian	-11.4351
▁magnitude	-11.4351
▁Bar	-11.4354
▁Congo	-11.4357
▁romantic	-11.4357
▁prompting	-11.4359
▁Sarkozy	-11.4362
▁intoxicated	-11.4362
▁wash	-11.4362
▁scenario	-11.4367
▁undercover	-11.437
▁Summer	-11.4373
▁volume	-11.4373
▁wives	-11.4373
▁bucket	-11.4378
▁gene	-11.4378
▁unfair	-11.4381
▁granddaughter	-11.4383
▁photographers	-11.4383
▁aspects	-11.4399
▁custom	-11.4402
▁torn	-11.4402
▁EW	-11.4405
▁Dozens	-11.441
▁Shiite	-11.441
▁harmful	-11.441
▁mortem	-11.441
▁Yahoo	-11.4415
▁arranged	-11.4415
▁blockade	-11.4418
▁reserved	-11.4418
▁institution	-11.442
▁coal	-11.4426
▁addresses	-11.4428
▁Raymond	-11.4431
▁spree	-11.4431
▁2017	-11.4436
▁buck	-11.4436
▁retailer	-11.4436
▁wax	-11.4439
▁principle	-11.4442
▁relinquish	-11.4444
▁unlawful	-11.4444
▁Heart	-11.4447
▁Kabul	-11.4447
▁shipping	-11.4447
▁tsunami	-11.4447
▁lighting	-11.445
▁Sara	-11.4452
▁debts	-11.4452
▁chip	-11.4458
▁measured	-11.4458
▁Which	-11.4463
▁inauspicious	-11.4463
▁peers	-11.4463
▁flop	-11.4466
▁Danish	-11.4469
▁Merseyside	-11.4469
▁virtual	-11.4471
▁Omar	-11.4474
▁cave	-11.4477
▁earmark	-11.4477
▁paedophile	-11.4485
▁pistol	-11.4485
▁materialise	-11.449
▁Kensington	-11.4495
▁Lawson	-11.4495
▁responding	-11.4498
▁Foley	-11.4501
▁derby	-11.4501
▁practiced	-11.4501
▁Logan	-11.4506
▁suite	-11.4511
▁plight	-11.4514
▁1981	-11.4517
▁passage	-11.4517
▁urgent	-11.4517
▁magic	-11.452
▁premier	-11.452
▁96	-11.4522
▁Anti	-11.4522
▁Appeal	-11.4522
▁Firefighters	-11.4522
▁admission	-11.4522
▁certificate	-11.4522
▁2020	-11.4528
▁Wang	-11.4533
▁Zimbabwe	-11.4533
▁Be	-11.4538
▁Conference	-11.4538
▁Dame	-11.4538
▁Jail	-11.4538
▁cardiac	-11.4538
▁grip	-11.4538
▁absent	-11.4541
▁bully	-11.4544
▁awake	-11.4546
▁construe	-11.4546
▁acute	-11.4549
▁apologized	-11.4549
▁stamp	-11.4549
▁surgeons	-11.4549
▁cheek	-11.4552
▁recognised	-11.4552
▁Farm	-11.4555
▁pipe	-11.4555
▁flirt	-11.456
▁void	-11.4563
▁Heritage	-11.4565
▁buses	-11.4565
▁gentle	-11.4565
▁relegation	-11.4565
▁workplace	-11.4565
▁ninth	-11.4568
▁stagnant	-11.4568
▁Adelaide	-11.4571
▁Curtis	-11.4571
▁asterisk	-11.4571
▁tiger	-11.4571
▁cancel	-11.4573
▁practise	-11.4573
▁unharmed	-11.4573
▁ray	-11.4576
▁rated	-11.4582
▁engender	-11.4584
▁erupted	-11.4584
▁patent	-11.4587
▁tipped	-11.4587
▁proffer	-11.459
▁Jacob	-11.4592
▁starred	-11.4592
▁detainees	-11.4598
▁advocates	-11.4601
▁tug	-11.4601
▁Travis	-11.4609
▁download	-11.4609
▁supports	-11.4614
▁expects	-11.4617
▁ally	-11.462
▁confusion	-11.462
▁cab	-11.4622
▁poorly	-11.4622
▁Johnny	-11.4625
▁medics	-11.4625
▁rider	-11.4625
▁Plus	-11.4628
▁Joel	-11.463
▁appreciate	-11.463
▁Base	-11.4636
▁displayed	-11.4636
▁existent	-11.4636
▁cheaper	-11.4639
▁VA	-11.4641
▁indecent	-11.4644
▁comet	-11.4647
▁sue	-11.4647
▁Hague	-11.4652
▁Santos	-11.4652
▁dawn	-11.4652
▁inspectors	-11.4652
▁manufacturing	-11.4652
▁miserable	-11.4655
▁cyclist	-11.4658
▁disappear	-11.4658
▁inquiries	-11.4658
▁regulation	-11.4658
▁click	-11.466
▁disturbed	-11.466
▁luggage	-11.4663
▁origin	-11.4663
▁chips	-11.4666
▁coffin	-11.4666
▁Dawson	-11.4669
▁Gregory	-11.4669
▁logo	-11.4669
▁GPS	-11.4674
▁Rosie	-11.468
▁farmer	-11.468
▁appealing	-11.4682
▁fur	-11.4685
▁x	-11.4685
▁answered	-11.4688
▁constitution	-11.469
▁eager	-11.469
▁qualifier	-11.469
▁spectators	-11.469
▁satisfied	-11.4693
▁converted	-11.4701
▁spaces	-11.4704
▁Guy	-11.4712
▁|	-11.4712
▁array	-11.4715
▁ripped	-11.4715
▁abusing	-11.4718
▁Between	-11.4721
▁bunk	-11.4723
▁conservation	-11.4723
▁leftover	-11.4723
▁resume	-11.4723
▁sympathy	-11.4723
▁BT	-11.4729
▁biological	-11.4729
▁bruises	-11.4729
▁channels	-11.4734
▁matching	-11.4734
▁arresting	-11.4737
▁hack	-11.4743
▁Chamberlain	-11.4745
▁Serena	-11.4745
▁Elementary	-11.4751
▁Kenyan	-11.4756
▁Series	-11.4756
▁disciplinary	-11.4756
▁upgrade	-11.4756
▁Lennon	-11.4762
▁Mediterranean	-11.4762
▁lips	-11.4762
▁musical	-11.4762
▁racially	-11.4762
▁bug	-11.4767
▁flooded	-11.4767
▁phrase	-11.4773
▁pure	-11.4773
▁amply	-11.4776
▁careers	-11.4778
▁subjected	-11.4778
▁Perhaps	-11.4784
▁brains	-11.4784
▁Search	-11.4789
▁Years	-11.4789
▁euro	-11.4789
▁fireworks	-11.4789
▁bowl	-11.4792
▁acquit	-11.4795
▁enemies	-11.4795
▁forgotten	-11.4795
▁organise	-11.4795
▁exclude	-11.4798
▁neighboring	-11.4798
▁respected	-11.4798
▁violated	-11.4798
▁dancer	-11.4801
▁males	-11.4806
▁singles	-11.4809
▁layer	-11.4812
▁reactions	-11.4812
▁brush	-11.4814
▁assassination	-11.4817
▁automatically	-11.4817
▁rubble	-11.4817
▁98	-11.4823
▁Mata	-11.4823
▁Mumbai	-11.4823
▁ballot	-11.4823
▁educational	-11.4823
▁improvements	-11.4823
▁magistrates	-11.4823
▁crush	-11.4828
▁excessive	-11.4828
▁jaunt	-11.4831
▁stripped	-11.4831
▁Christ	-11.4834
▁Nico	-11.4834
▁Amendment	-11.4845
▁Chan	-11.4845
▁Reds	-11.485
▁hinder	-11.485
▁knees	-11.485
▁tributes	-11.485
▁materialize	-11.4853
▁rolling	-11.4853
▁bless	-11.4856
▁dependent	-11.4856
▁modify	-11.4856
▁tribal	-11.4856
▁fractured	-11.4859
▁pleasure	-11.4862
▁thrilled	-11.4864
▁Ambulance	-11.4867
▁folks	-11.4867
▁efficient	-11.487
▁literal	-11.487
▁Pro	-11.4873
▁precious	-11.4873
▁Brotherhood	-11.4878
▁Celebrity	-11.4884
▁particles	-11.4884
▁divided	-11.4887
▁rip	-11.4887
▁actively	-11.4889
▁catching	-11.4889
▁diddle	-11.4889
▁maps	-11.4889
▁Sao	-11.4895
▁colligate	-11.4895
▁float	-11.4895
▁printed	-11.4898
▁deer	-11.4901
▁Film	-11.4903
▁coin	-11.4903
▁Campaign	-11.4906
▁Key	-11.4906
▁innovative	-11.4906
▁knives	-11.4906
▁integral	-11.4909
▁salute	-11.4909
▁Lynn	-11.4912
▁minimal	-11.4912
▁precise	-11.4912
▁warns	-11.4912
▁der	-11.4915
▁Records	-11.4917
▁avoided	-11.4917
▁destinations	-11.4917
▁guilt	-11.4917
▁shelves	-11.4917
▁architect	-11.4923
▁pope	-11.4923
▁Enrique	-11.4929
▁Jesse	-11.4929
▁Nixon	-11.4929
▁operators	-11.4929
▁tension	-11.4929
▁waist	-11.4929
▁skies	-11.4931
▁dally	-11.4934
▁traditionally	-11.4934
▁fend	-11.4937
▁Hes	-11.494
▁runners	-11.494
▁outfits	-11.4943
▁comparatively	-11.4945
▁Study	-11.4951
▁constitutional	-11.4951
▁submitted	-11.4954
▁1983	-11.4957
▁91	-11.4957
▁Cold	-11.4957
▁aisle	-11.4962
▁gown	-11.4962
▁snipe	-11.4965
▁unaware	-11.4965
▁Immigration	-11.4968
▁nock	-11.4976
▁Benedict	-11.4979
▁slumber	-11.4985
▁Said	-11.4988
▁developments	-11.499
▁knockout	-11.499
▁perchance	-11.499
▁populations	-11.499
▁partially	-11.4993
▁breakdown	-11.4996
▁gifted	-11.4999
▁appealed	-11.5002
▁approve	-11.5002
▁sunshine	-11.5002
▁weighing	-11.5002
▁skillful	-11.5005
▁Seoul	-11.5007
▁panels	-11.5007
▁upload	-11.5007
▁bodily	-11.501
▁assail	-11.5013
▁charging	-11.5013
▁dissent	-11.5013
▁opens	-11.5024
▁befall	-11.5027
▁forcible	-11.5027
▁00	-11.503
▁Megan	-11.503
▁developer	-11.503
▁establishment	-11.503
▁legitimate	-11.503
▁Ashton	-11.5036
▁Blasio	-11.5036
▁Butler	-11.5041
▁injection	-11.5047
▁mayhap	-11.505
▁premises	-11.505
▁element	-11.5053
▁discount	-11.5058
▁interim	-11.5058
▁bands	-11.5061
▁Blatter	-11.5064
▁Go	-11.5064
▁Ivan	-11.5064
▁critically	-11.5064
▁potent	-11.5064
▁shouted	-11.5064
▁accusing	-11.5067
▁Germans	-11.507
▁harbinger	-11.507
▁overweight	-11.507
▁bechance	-11.5073
▁Everybody	-11.5075
▁cruel	-11.5075
▁peradventure	-11.5075
▁treasure	-11.5078
▁Using	-11.5084
▁Field	-11.5087
▁doubts	-11.5087
▁unsafe	-11.5087
▁embarrassing	-11.509
▁sued	-11.509
▁Mick	-11.5093
▁Superior	-11.5093
▁academic	-11.5093
▁spine	-11.5093
▁Monica	-11.5104
▁Rihanna	-11.5104
▁dignity	-11.5104
▁greatly	-11.5104
▁wrist	-11.5104
▁expel	-11.5107
▁glimpse	-11.511
▁rope	-11.5112
▁Bible	-11.5115
▁Churchill	-11.5115
▁fleeing	-11.5118
▁Javier	-11.5121
▁removing	-11.5124
▁Superintendent	-11.5127
▁belongings	-11.5127
▁gradually	-11.5127
▁Floyd	-11.5132
▁Miranda	-11.5132
▁Taiwan	-11.5138
▁bn	-11.5138
▁Standards	-11.5144
▁abduction	-11.5144
▁abusive	-11.5144
▁bunch	-11.5147
▁Iceland	-11.515
▁dread	-11.515
▁sheep	-11.515
▁conscious	-11.5155
▁insight	-11.5155
▁Berkshire	-11.5161
▁Dale	-11.5161
▁expansion	-11.5161
▁cartel	-11.5167
▁demolish	-11.517
▁Lance	-11.5173
▁exam	-11.5173
▁Id	-11.5181
▁slept	-11.5181
▁vivid	-11.5181
▁buyer	-11.5184
▁climbed	-11.5184
▁topic	-11.5184
▁privilege	-11.5187
▁reunited	-11.5187
▁Carney	-11.519
▁Sandra	-11.519
▁motorcycle	-11.519
▁revelation	-11.519
▁heroes	-11.5196
▁Amsterdam	-11.5201
▁Valentine	-11.5201
▁prosecuting	-11.5201
▁IT	-11.5207
▁astronauts	-11.5207
▁instructor	-11.5207
▁schoolgirl	-11.5207
▁sham	-11.5207
▁premiere	-11.521
▁apprehend	-11.5213
▁ashamed	-11.5213
▁sorts	-11.5213
▁pig	-11.5216
▁Christina	-11.5219
▁Ex	-11.5219
▁obscure	-11.5219
▁youre	-11.5219
▁females	-11.5224
▁Standard	-11.5227
▁closest	-11.5227
▁Honda	-11.523
▁bind	-11.5236
▁1978	-11.5242
▁Giggs	-11.5242
▁breakthrough	-11.5242
▁trifle	-11.5242
▁trap	-11.5245
▁1969	-11.5248
▁Mirror	-11.5248
▁ugly	-11.5248
▁womb	-11.5248
▁sizes	-11.525
▁overturned	-11.5253
▁Dog	-11.5259
▁chains	-11.5259
▁flip	-11.5259
▁spiel	-11.5259
▁surviving	-11.5259
▁Factor	-11.5271
▁Greene	-11.5277
▁hurricane	-11.5277
▁stranded	-11.5277
▁emerging	-11.5282
▁foster	-11.5282
▁petty	-11.5282
▁cord	-11.5288
▁episodes	-11.5288
▁highlighted	-11.5288
▁volatile	-11.5288
▁Pat	-11.5294
▁mighty	-11.53
▁inflict	-11.5306
▁Photographer	-11.5311
▁pastor	-11.5311
▁hamstring	-11.5314
▁dose	-11.5317
▁limbs	-11.5317
▁Drogba	-11.5323
▁artwork	-11.5329
▁Plymouth	-11.5335
▁Springs	-11.5335
▁Sutton	-11.5335
▁altercation	-11.5335
▁Janet	-11.5341
▁Ecuador	-11.5346
▁handled	-11.5346
▁serial	-11.5346
▁Claims	-11.5349
▁advances	-11.5349
▁overdose	-11.5349
▁Alliance	-11.5352
▁IS	-11.5352
▁disregard	-11.5352
▁explaining	-11.5352
▁Griffin	-11.5358
▁examiner	-11.5358
▁necessarily	-11.5358
▁crashing	-11.5361
▁kidnap	-11.5361
▁leap	-11.5364
▁recognized	-11.5367
▁Luiz	-11.537
▁remind	-11.537
▁rescuers	-11.537
▁robots	-11.537
▁manoeuvre	-11.5373
▁Environment	-11.5376
▁wouldnt	-11.5376
▁smuggling	-11.5379
▁casual	-11.5382
▁sensational	-11.5382
▁suitable	-11.5382
▁automatic	-11.5385
▁prosperous	-11.5387
▁coloured	-11.539
▁Constable	-11.5393
▁Diane	-11.5393
▁misdemeanor	-11.5393
▁lined	-11.5396
▁trim	-11.5396
▁endangered	-11.5399
▁faulty	-11.5399
▁floating	-11.5399
▁ins	-11.5399
▁meter	-11.5399
▁pin	-11.5399
▁Cesc	-11.5405
▁Command	-11.5405
▁Madeleine	-11.5405
▁absolute	-11.5405
▁reducing	-11.5408
▁Province	-11.5411
▁calf	-11.5411
▁intelligent	-11.5414
▁counterparts	-11.5417
▁Silver	-11.542
▁Joint	-11.5423
▁Challenge	-11.5429
▁gambling	-11.5434
▁identical	-11.5434
▁sustainable	-11.5434
▁prestigious	-11.5437
▁stiff	-11.5437
▁Forbes	-11.544
▁Yaya	-11.544
▁courses	-11.544
▁annunciate	-11.5446
▁anonymity	-11.5446
▁unpaid	-11.5449
▁Abdul	-11.5452
▁Brits	-11.5452
▁chapter	-11.5452
▁introduction	-11.5452
▁explosions	-11.5458
▁Neill	-11.5464
▁Dublin	-11.547
▁Hassan	-11.547
▁precede	-11.547
▁reliable	-11.547
▁ultra	-11.547
▁Chloe	-11.5476
▁Guardiola	-11.5476
▁whenever	-11.5476
▁finances	-11.5485
▁tasks	-11.5485
▁commend	-11.5491
▁Patricia	-11.5494
▁Wiltshire	-11.5494
▁cockpit	-11.5494
▁prisons	-11.5494
▁Tribune	-11.55
▁maneuver	-11.5503
▁Lords	-11.5506
▁diverse	-11.5508
▁Walmart	-11.5511
▁battled	-11.5511
▁dated	-11.5511
▁flats	-11.5511
▁shy	-11.5511
▁hospitalized	-11.5514
▁bicycle	-11.5517
▁drives	-11.5517
▁Judaic	-11.552
▁Mobile	-11.552
▁harsh	-11.552
▁wrap	-11.552
▁Bryant	-11.5523
▁Corporation	-11.5523
▁Election	-11.5523
▁Hook	-11.5523
▁overwhelming	-11.5526
▁affecting	-11.5529
▁generated	-11.5532
▁halfway	-11.5532
▁upwardly	-11.5532
▁principles	-11.5535
▁depressed	-11.5538
▁101	-11.5541
▁overhaul	-11.5541
▁sheets	-11.5541
▁victories	-11.5541
▁drill	-11.5544
▁rampage	-11.5544
▁Beverly	-11.5547
▁Pete	-11.5547
▁Hispanic	-11.555
▁violate	-11.5556
▁Ibrahim	-11.5559
▁Nebraska	-11.5559
▁Thats	-11.5559
▁contents	-11.5559
▁storey	-11.5559
▁dire	-11.5562
▁Herrera	-11.5565
▁amongst	-11.5571
▁blonde	-11.5574
▁database	-11.5577
▁tattoos	-11.5577
▁Creek	-11.5583
▁airplane	-11.5583
▁ate	-11.5583
▁accountable	-11.5589
▁hailed	-11.5589
▁Bangladesh	-11.5595
▁Boys	-11.5595
▁Damascus	-11.5595
▁Half	-11.5601
▁Riley	-11.5601
▁solutions	-11.5601
▁superstar	-11.5601
▁Hammond	-11.5607
▁Pittsburgh	-11.5607
▁cared	-11.5607
▁famously	-11.5613
▁gunfire	-11.5613
▁Mission	-11.5619
▁kip	-11.5619
▁nursery	-11.5619
▁ordinarily	-11.5619
▁rankings	-11.5619
▁Nigerian	-11.5622
▁pirates	-11.5622
▁Families	-11.5625
▁Salt	-11.5625
▁definition	-11.5625
▁somehow	-11.5625
▁Capt	-11.5628
▁organize	-11.5628
▁reassert	-11.5628
▁washed	-11.5628
▁northwest	-11.5631
▁dirt	-11.5634
▁hungry	-11.5634
▁Peninsula	-11.5637
▁Side	-11.5637
▁Snow	-11.5637
▁Front	-11.5643
▁assumed	-11.5643
▁lavish	-11.5646
▁container	-11.5649
▁blown	-11.5652
▁duck	-11.5652
▁notable	-11.5652
▁regarded	-11.5652
▁Oakland	-11.5655
▁Sources	-11.5655
▁eliminate	-11.5655
▁insects	-11.5655
▁Derek	-11.5661
▁Would	-11.5661
▁banner	-11.5661
▁coins	-11.5664
▁quarterback	-11.5667
▁narrowly	-11.5673
▁Ball	-11.5679
▁Del	-11.5679
▁hind	-11.5679
▁upstairs	-11.5679
▁fox	-11.5682
▁Cricket	-11.5685
▁Patriots	-11.5685
▁Sporting	-11.5685
▁Users	-11.5685
▁tonnes	-11.5685
▁Button	-11.5691
▁corporation	-11.5691
▁creator	-11.5691
▁eldest	-11.5691
▁Travel	-11.5694
▁Beyonce	-11.5697
▁Singer	-11.5697
▁pill	-11.5697
▁shutdown	-11.5697
▁bow	-11.57
▁regulate	-11.57
▁tours	-11.57
▁Northampton	-11.5703
▁rarefied	-11.5706
▁Footage	-11.5709
▁providers	-11.5709
▁supermarkets	-11.5709
▁Bulger	-11.5716
▁deadened	-11.5716
▁ache	-11.5719
▁1976	-11.5722
▁b	-11.5722
▁checking	-11.5722
▁diversity	-11.5722
▁packages	-11.5722
▁surgeries	-11.5722
▁hugely	-11.5725
▁WHO	-11.5728
▁countrys	-11.5728
▁illnesses	-11.5728
▁rat	-11.5731
▁anyway	-11.574
▁overwhelmed	-11.574
▁canceled	-11.5743
▁commissioned	-11.5743
▁immune	-11.5743
▁Hugh	-11.5746
▁Room	-11.5746
▁lilliputian	-11.5746
▁acceptable	-11.5749
▁adjudge	-11.5749
▁levy	-11.5749
▁Chuck	-11.5752
▁doll	-11.5752
▁Lohan	-11.5758
▁casino	-11.5758
▁embarrassment	-11.5758
▁mining	-11.5758
▁recruitment	-11.5758
▁unfit	-11.5758
▁Grey	-11.5761
▁Couple	-11.5764
▁Serbia	-11.5764
▁evacuation	-11.5764
▁Gove	-11.577
▁Money	-11.577
▁lions	-11.577
▁endured	-11.5773
▁Survey	-11.5776
▁raises	-11.5779
▁discontinue	-11.5786
▁Brien	-11.5789
▁severally	-11.5792
▁modelling	-11.5798
▁Cameroon	-11.5807
▁94	-11.5813
▁Berlusconi	-11.5813
▁canvas	-11.5813
▁collecting	-11.5813
▁urine	-11.5813
▁Prior	-11.5816
▁tables	-11.5816
▁Hugo	-11.5819
▁lecture	-11.5819
▁respects	-11.5819
▁sufferers	-11.5819
▁nominated	-11.5822
▁vie	-11.5822
▁weighs	-11.5822
▁Assembly	-11.5825
▁promptly	-11.5825
▁spreading	-11.5828
▁purse	-11.5831
▁forbid	-11.5834
▁=	-11.5838
▁outcry	-11.5838
▁riders	-11.5838
▁Gloucestershire	-11.5844
▁flesh	-11.5844
▁monster	-11.5844
▁secrets	-11.5844
▁bushed	-11.5847
▁indoors	-11.5847
▁Banks	-11.585
▁conservatives	-11.585
▁intromit	-11.585
▁underway	-11.585
▁sober	-11.5853
▁unhappy	-11.5853
▁murderer	-11.5856
▁remorse	-11.5856
▁unfortunate	-11.5856
▁Un	-11.5862
▁tide	-11.5862
▁visitor	-11.5862
▁aspect	-11.5868
▁consciousness	-11.5868
▁dip	-11.5871
▁Starbucks	-11.5874
▁exercises	-11.5874
▁Stars	-11.5878
▁heighten	-11.5878
▁Donetsk	-11.5881
▁ESPN	-11.5881
▁Page	-11.5887
▁viewing	-11.589
▁Indeed	-11.5893
▁wont	-11.5893
▁especial	-11.5896
▁throne	-11.5896
▁Final	-11.5899
▁Olivia	-11.5899
▁Centers	-11.5905
▁Champion	-11.5905
▁Gabriel	-11.5905
▁Nicola	-11.5905
▁apartments	-11.5905
▁wandering	-11.5905
▁briefing	-11.5908
▁diminished	-11.5908
▁worrying	-11.5908
▁holy	-11.5915
▁deceased	-11.5921
▁Daley	-11.5924
▁Sandusky	-11.5924
▁convention	-11.5924
▁Hopefully	-11.593
▁Richmond	-11.593
▁mainstream	-11.593
▁slim	-11.593
▁sophisticated	-11.5933
▁Col	-11.5936
▁Dunn	-11.5936
▁Palm	-11.5936
▁Hilton	-11.5942
▁Mohammad	-11.5942
▁nominee	-11.5942
▁forgive	-11.5946
▁Latino	-11.5949
▁austerity	-11.5949
▁Click	-11.5955
▁Pietersen	-11.5955
▁insisting	-11.5955
▁sire	-11.5955
▁Bad	-11.5958
▁rapid	-11.5958
▁Reuters	-11.5961
▁backyard	-11.5961
▁exception	-11.5961
▁naval	-11.5961
▁scans	-11.5961
▁skill	-11.5961
▁170	-11.5964
▁Chapman	-11.5967
▁forged	-11.5967
▁Chen	-11.5974
▁dictator	-11.5974
▁rice	-11.5974
▁soap	-11.5974
▁Burton	-11.598
▁Coventry	-11.598
▁Zuckerberg	-11.598
▁artificial	-11.598
▁captivity	-11.598
▁unexpended	-11.598
▁Dems	-11.5986
▁Gilbert	-11.5992
▁routinely	-11.5992
▁scramble	-11.5992
▁Should	-11.5995
▁abducted	-11.5995
▁farms	-11.5995
▁vaporize	-11.5995
▁councillor	-11.5998
▁Mali	-11.6005
▁hook	-11.6005
▁iOS	-11.6005
▁risen	-11.6005
▁scorer	-11.6005
▁deciding	-11.6008
▁participating	-11.6008
▁relating	-11.6008
▁Century	-11.6011
▁Customs	-11.6011
▁Fast	-11.6011
▁momentum	-11.6011
▁obese	-11.6011
▁scrap	-11.6011
▁distrust	-11.6014
▁Cheryl	-11.6017
▁southwest	-11.6017
▁successor	-11.6017
▁alleges	-11.602
▁creates	-11.602
▁Bo	-11.6023
▁peril	-11.6023
▁tangible	-11.6023
▁valued	-11.6023
▁weekends	-11.6023
▁northeast	-11.6027
▁Robben	-11.603
▁Napoli	-11.6036
▁Reporter	-11.6036
▁ash	-11.6036
▁headline	-11.6036
▁crocodile	-11.6042
▁aboriginal	-11.6048
▁shortage	-11.6048
▁Elsewhere	-11.6061
▁Tracy	-11.6061
▁technologies	-11.6061
▁conceded	-11.6064
▁Wade	-11.6067
▁vintage	-11.6067
▁Sue	-11.607
▁cracking	-11.607
▁Kenny	-11.6074
▁prank	-11.6074
▁rust	-11.6074
▁transported	-11.6074
▁jar	-11.6077
▁proceeds	-11.6077
▁Mauricio	-11.608
▁Protesters	-11.608
▁branches	-11.6083
▁scary	-11.6083
▁signings	-11.6083
▁primarily	-11.6086
▁beget	-11.6089
▁Arnold	-11.6092
▁Circuit	-11.6092
▁Youth	-11.6092
▁beard	-11.6092
▁costumes	-11.6092
▁entrepreneur	-11.6092
▁jersey	-11.6092
▁rays	-11.6092
▁rockets	-11.6096
▁weary	-11.6096
▁Muhammad	-11.6099
▁1974	-11.6105
▁Bahrain	-11.6105
▁kinda	-11.6105
▁autism	-11.6111
▁Looking	-11.6115
▁Windsor	-11.6118
▁roadside	-11.6118
▁1930	-11.6124
▁Radamel	-11.6124
▁hashtag	-11.6124
▁freestanding	-11.6127
▁proven	-11.6127
▁Dad	-11.613
▁Gardner	-11.613
▁Target	-11.613
▁dismissal	-11.613
▁nab	-11.6133
▁ratify	-11.6133
▁vigil	-11.6137
▁monkey	-11.614
▁Hertfordshire	-11.6143
▁penis	-11.6149
▁Chase	-11.6152
▁tense	-11.6152
▁pleading	-11.6156
▁Through	-11.6162
▁cattle	-11.6162
▁HERE	-11.6165
▁deepen	-11.6165
▁cartoon	-11.6168
▁occasionally	-11.6168
▁spends	-11.6171
▁altitude	-11.6175
▁respectively	-11.6175
▁breeding	-11.6178
▁comport	-11.6178
▁nationals	-11.6181
▁assemble	-11.6184
▁Doctor	-11.6187
▁Building	-11.6191
▁urgently	-11.6191
▁Ivanovic	-11.6194
▁Look	-11.6194
▁correspondent	-11.6194
▁fantasy	-11.6194
▁Ban	-11.62
▁equipped	-11.62
▁Alison	-11.6206
▁Lallana	-11.6206
▁Reynolds	-11.6206
▁fete	-11.6206
▁implications	-11.6206
▁withdrawal	-11.6206
▁deportation	-11.6213
▁organizers	-11.6213
▁signalize	-11.6213
▁trends	-11.6216
▁Ajax	-11.6219
▁Newton	-11.6219
▁Oprah	-11.6219
▁disgusting	-11.6226
▁driveway	-11.6226
▁brace	-11.6229
▁estranged	-11.6229
▁Cahill	-11.6232
▁Hero	-11.6232
▁indict	-11.6232
▁magazines	-11.6232
▁Model	-11.6235
▁awesome	-11.6235
▁favourites	-11.6238
▁sofa	-11.6238
▁suburbs	-11.6238
▁Neighbours	-11.6245
▁swear	-11.6248
▁Swift	-11.6254
▁Idaho	-11.6258
▁butter	-11.6258
▁correspond	-11.6258
▁firefighter	-11.6258
▁rude	-11.6261
▁singular	-11.6261
▁Pacquiao	-11.6264
▁Record	-11.6264
▁Wendy	-11.6264
▁sketch	-11.6264
▁splice	-11.6264
▁successive	-11.6267
▁pavement	-11.627
▁preventing	-11.627
▁treats	-11.6274
▁Primary	-11.6277
▁embarrassed	-11.6277
▁mutual	-11.628
▁Russians	-11.6283
▁confine	-11.6283
▁1972	-11.629
▁educated	-11.629
▁endanger	-11.629
▁homeland	-11.629
▁princess	-11.629
▁Tragedy	-11.6296
▁Victims	-11.6296
▁motivation	-11.6296
▁discharged	-11.6299
▁Deborah	-11.6302
▁Wolf	-11.6302
▁asteroid	-11.6302
▁comic	-11.6302
▁contractors	-11.6302
▁lobby	-11.6302
▁surrender	-11.6302
▁voluntary	-11.6302
▁swell	-11.6306
▁Middlesbrough	-11.6309
▁observers	-11.6309
▁rarified	-11.6309
▁announcing	-11.6312
▁powder	-11.6315
▁Close	-11.6322
▁Montgomery	-11.6322
▁Trent	-11.6322
▁capabilities	-11.6322
▁hefty	-11.6322
▁lit	-11.6325
▁stored	-11.6325
▁toast	-11.6325
▁Xinhua	-11.6328
▁pipeline	-11.6328
▁stumble	-11.6328
▁sailing	-11.6331
▁Alzheimer	-11.6335
▁conducting	-11.6338
▁universal	-11.6338
▁97	-11.6341
▁Archbishop	-11.6341
▁championships	-11.6341
▁Fernandez	-11.6348
▁Fraser	-11.6348
▁Koeman	-11.6348
▁Along	-11.6351
▁Low	-11.6351
▁Malaysian	-11.6351
▁delivering	-11.6351
▁mock	-11.6351
▁Discovery	-11.6354
▁Somali	-11.6354
▁deserves	-11.6354
▁gravity	-11.6354
▁hearings	-11.6354
▁Left	-11.6357
▁miscarry	-11.6357
▁Player	-11.6361
▁trillion	-11.6361
▁Liz	-11.6367
▁bankruptcy	-11.6367
▁promoted	-11.6367
▁distribute	-11.6373
▁mistrust	-11.6373
▁uniforms	-11.6373
▁da	-11.6377
▁Bin	-11.638
▁PR	-11.638
▁Porto	-11.638
▁cult	-11.638
▁fiction	-11.638
▁detected	-11.6383
▁prevention	-11.6386
▁Remy	-11.6393
▁barrister	-11.6393
▁UPDATED	-11.6396
▁ruined	-11.6396
▁Earl	-11.6399
▁empire	-11.6399
▁lip	-11.6399
▁Private	-11.6412
▁disputed	-11.6412
▁govern	-11.6412
▁Delaware	-11.6419
▁Guinness	-11.6425
▁menace	-11.6425
▁brick	-11.6429
▁Bolt	-11.6432
▁Hopkins	-11.6432
▁Malcolm	-11.6432
▁Victorian	-11.6432
▁amend	-11.6432
▁dental	-11.6432
▁participation	-11.6432
▁spider	-11.6432
▁contracted	-11.6435
▁mindful	-11.6435
▁thirdly	-11.6435
▁temple	-11.6438
▁veil	-11.6442
▁Airbus	-11.6445
▁Germain	-11.6445
▁Moon	-11.6445
▁profoundly	-11.6445
▁Rivers	-11.6451
▁complaining	-11.6451
▁financially	-11.6451
▁masks	-11.6451
▁replica	-11.6451
▁reopen	-11.6458
▁rumors	-11.6458
▁tomb	-11.6458
▁intervene	-11.6461
▁negotiate	-11.6461
▁Magazine	-11.6465
▁audiences	-11.6465
▁confession	-11.6465
▁restricted	-11.6468
▁flunk	-11.6474
▁poison	-11.6474
▁sticks	-11.6474
▁Geneva	-11.6478
▁Janeiro	-11.6478
▁Steenkamp	-11.6478
▁op	-11.6478
▁1977	-11.6484
▁Medicine	-11.6484
▁Things	-11.6484
▁cub	-11.6484
▁feat	-11.6484
▁premium	-11.6484
▁spinal	-11.6484
▁salvage	-11.6487
▁equaliser	-11.6491
▁heated	-11.6491
▁Brother	-11.6497
▁adept	-11.6501
▁barricade	-11.6501
▁Cara	-11.6504
▁Ibrahimovic	-11.6504
▁Song	-11.6504
▁orotund	-11.6504
▁useful	-11.6507
▁hill	-11.651
▁Marcos	-11.6517
▁Samaritans	-11.6517
▁deposit	-11.6517
▁emotionally	-11.6517
▁eurozone	-11.6517
▁innovation	-11.6517
▁toe	-11.6517
▁anyplace	-11.652
▁lionise	-11.652
▁thanked	-11.6524
▁transformed	-11.6524
▁gains	-11.6527
▁tops	-11.6527
▁Exeter	-11.653
▁Pippa	-11.653
▁Scholes	-11.653
▁costing	-11.653
▁Pedro	-11.6537
▁Studies	-11.6537
▁arouse	-11.6537
▁responses	-11.6537
▁credits	-11.654
▁deserved	-11.654
▁restored	-11.654
▁Take	-11.6543
▁aright	-11.6543
▁comprise	-11.6543
▁sections	-11.655
▁pockets	-11.6553
▁resemble	-11.6553
▁Ambassador	-11.6556
▁Elvis	-11.6556
▁blew	-11.656
▁campaigning	-11.6563
▁foreigners	-11.6563
▁signalise	-11.6563
▁improbable	-11.6566
▁outskirts	-11.6576
▁skiing	-11.6576
▁Given	-11.658
▁resistant	-11.658
▁Globe	-11.6583
▁antibiotics	-11.6583
▁enterprise	-11.6583
▁lens	-11.659
▁unremarkably	-11.659
▁jam	-11.6593
▁sail	-11.6593
▁executions	-11.6596
▁fortnight	-11.6596
▁outdoor	-11.6596
▁Players	-11.6603
▁senators	-11.6603
▁animated	-11.6613
▁provoke	-11.6613
▁Book	-11.6616
▁sperm	-11.6616
▁skipper	-11.6619
▁Assange	-11.6623
▁Shadow	-11.6623
▁auto	-11.6623
▁barriers	-11.6623
▁crashes	-11.6623
▁1940	-11.6629
▁Communist	-11.6629
▁ambitions	-11.6629
▁genes	-11.6629
▁prosthetic	-11.6629
▁belonging	-11.6633
▁silent	-11.6633
▁Sex	-11.6636
▁bonuses	-11.6636
▁disruption	-11.6636
▁barren	-11.6639
▁dishes	-11.6639
▁receives	-11.6639
▁Line	-11.6643
▁lionize	-11.6643
▁Obviously	-11.6646
▁Rigby	-11.6649
▁ribs	-11.6649
▁unborn	-11.6649
▁hosting	-11.6653
▁legendary	-11.6656
▁mice	-11.6656
▁belonged	-11.6659
▁la	-11.6659
▁Body	-11.6663
▁Fisher	-11.6663
▁flower	-11.6663
▁tenth	-11.6663
▁youths	-11.6663
▁focusing	-11.6666
▁1963	-11.6669
▁Lily	-11.6669
▁directions	-11.6669
▁selfies	-11.6669
▁lofty	-11.6673
▁quetch	-11.6673
▁releasing	-11.6673
▁Source	-11.6676
▁divide	-11.6676
▁supervision	-11.6676
▁awe	-11.6679
▁Estate	-11.6683
▁Joyce	-11.6683
▁Lin	-11.6683
▁Metro	-11.6683
▁hike	-11.6686
▁shaking	-11.6689
▁wipe	-11.6693
▁confidential	-11.6696
▁offense	-11.6696
▁root	-11.6699
▁Donna	-11.6703
▁GPs	-11.6703
▁Heath	-11.6703
▁kvetch	-11.6703
▁theres	-11.6706
▁Convention	-11.6709
▁Jill	-11.6709
▁husbands	-11.6709
▁trivial	-11.6713
▁Holocaust	-11.6716
▁Schools	-11.6716
▁Wild	-11.6716
▁disgraceful	-11.6716
▁rats	-11.6716
▁booking	-11.6719
▁priced	-11.6719
▁Austrian	-11.6723
▁discussing	-11.6726
▁Cathedral	-11.6729
▁accent	-11.6729
▁sandwich	-11.6729
▁churches	-11.6736
▁disjoined	-11.6736
▁middling	-11.674
▁Lynch	-11.6743
▁chairs	-11.6743
▁mode	-11.6743
▁crowded	-11.6746
▁preferably	-11.6746
▁steer	-11.6746
▁topped	-11.6746
▁ghost	-11.675
▁sovereign	-11.675
▁unnecessary	-11.6753
▁Range	-11.6756
▁advisers	-11.6756
▁relieved	-11.6756
▁strengthen	-11.676
▁1968	-11.6763
▁crystal	-11.6763
▁dim	-11.6763
▁enhance	-11.6766
▁transgender	-11.6766
▁Blind	-11.677
▁Days	-11.677
▁bravery	-11.677
▁gossip	-11.677
▁mainland	-11.677
▁showers	-11.677
▁Area	-11.6777
▁Empire	-11.6777
▁knead	-11.6777
▁stormed	-11.6777
▁log	-11.678
▁hub	-11.6783
▁tooth	-11.6783
▁indicted	-11.6787
▁Katrina	-11.679
▁carriers	-11.679
▁smooth	-11.679
▁bidding	-11.6793
▁pertain	-11.6793
▁castle	-11.6797
▁improper	-11.6797
▁aides	-11.68
▁riots	-11.6804
▁serves	-11.6804
▁raided	-11.681
▁Barton	-11.6817
▁lively	-11.6817
▁fossil	-11.6824
▁cherry	-11.6827
▁Upper	-11.6831
▁dissemble	-11.6834
▁observed	-11.6834
▁rebuild	-11.6841
▁intercept	-11.6848
▁travels	-11.6848
▁incline	-11.6854
▁THE	-11.6858
▁conventional	-11.6861
▁isnt	-11.6865
▁substances	-11.6865
▁Against	-11.6871
▁Dutchman	-11.6871
▁Medal	-11.6871
▁completing	-11.6871
▁fraught	-11.6875
▁horrified	-11.6875
▁formula	-11.6878
▁niece	-11.6885
▁outspoken	-11.6888
▁Economic	-11.6892
▁Supporters	-11.6892
▁elevator	-11.6892
▁justly	-11.6892
▁wedge	-11.6892
▁c	-11.6895
▁Arabic	-11.6899
▁Marks	-11.6899
▁memorable	-11.6899
▁predecessor	-11.6899
▁deplete	-11.6902
▁opted	-11.6902
▁1975	-11.6905
▁HMS	-11.6905
▁Jenny	-11.6905
▁pickup	-11.6905
▁processing	-11.6905
▁recordings	-11.6905
▁abandon	-11.6909
▁disorders	-11.6909
▁layers	-11.6909
▁Storm	-11.6916
▁Matthews	-11.6919
▁commented	-11.6919
▁handing	-11.6923
▁skinny	-11.6923
▁switched	-11.6923
▁Aleppo	-11.6926
▁Denise	-11.6926
▁Political	-11.6926
▁courthouse	-11.6926
▁prostitutes	-11.6926
▁tick	-11.6929
▁prototype	-11.6933
▁shootout	-11.6933
▁uncertainty	-11.6933
▁aerial	-11.6936
▁reprehensible	-11.6936
▁Shannon	-11.694
▁Westwood	-11.694
▁classmates	-11.694
▁attendant	-11.6943
▁cheating	-11.6943
▁Hoffman	-11.6947
▁reclaim	-11.6947
▁skilful	-11.6947
▁holder	-11.6953
▁Tripoli	-11.696
▁inevitable	-11.696
▁Beatles	-11.6967
▁Robbie	-11.6967
▁McConnell	-11.6974
▁contributions	-11.6974
▁chasing	-11.6977
▁preparations	-11.6981
▁Martha	-11.6988
▁punished	-11.6991
▁Malala	-11.6995
▁cocktail	-11.6995
▁processes	-11.6995
▁vomiting	-11.6995
▁mandate	-11.6998
▁Actor	-11.7002
▁IVF	-11.7002
▁Shaun	-11.7002
▁bra	-11.7002
▁heroic	-11.7005
▁slump	-11.7005
▁Wozniacki	-11.7008
▁ambition	-11.7008
▁CPR	-11.7015
▁Representatives	-11.7015
▁forestall	-11.7015
▁titled	-11.7015
▁brawl	-11.7022
▁Junior	-11.7026
▁chronic	-11.7026
▁shameful	-11.7026
▁situated	-11.7026
▁Brothers	-11.7029
▁Newark	-11.7029
▁allowance	-11.7029
▁glow	-11.7029
▁Jorge	-11.7036
▁Scot	-11.7036
▁crops	-11.7036
▁seizure	-11.7036
▁tournaments	-11.7036
▁tycoon	-11.7036
▁Giroud	-11.7043
▁Muller	-11.7043
▁Newtown	-11.7043
▁Questions	-11.7043
▁farming	-11.7043
▁forum	-11.7043
▁1964	-11.705
▁alfresco	-11.7053
▁speedy	-11.7053
▁negociate	-11.7057
▁patch	-11.7057
▁committing	-11.706
▁slot	-11.706
▁Alexandra	-11.7064
▁Lindsey	-11.7064
▁Tea	-11.7064
▁bases	-11.7064
▁prosecuted	-11.7064
▁Fish	-11.7067
▁distant	-11.7067
▁reckless	-11.7067
▁Lyon	-11.7071
▁Whatever	-11.7071
▁experiencing	-11.7071
▁Lisbon	-11.7078
▁Liu	-11.7078
▁purchases	-11.7081
▁Athletic	-11.7088
▁Current	-11.7092
▁Strauss	-11.7092
▁Windows	-11.7092
▁overtake	-11.7092
▁Arts	-11.7099
▁Cyprus	-11.7099
▁dolphins	-11.7099
▁hearted	-11.7099
▁solicitor	-11.7099
▁eject	-11.7102
▁greeted	-11.7106
▁junk	-11.7106
▁perception	-11.7106
▁sponsor	-11.7106
▁voter	-11.7106
▁distraught	-11.7109
▁Xbox	-11.7113
▁deployment	-11.7113
▁paperwork	-11.712
▁seekers	-11.712
▁sponsors	-11.7123
▁Carson	-11.7127
▁gaming	-11.7127
▁Norwegian	-11.713
▁honored	-11.713
▁grid	-11.7133
▁powerfully	-11.7133
▁tolerance	-11.7133
▁juvenile	-11.7137
▁ok	-11.714
▁pressed	-11.714
▁unanimous	-11.7144
▁approaches	-11.7147
▁suitcase	-11.7147
▁Bear	-11.7151
▁Nature	-11.7154
▁Z	-11.7154
▁counties	-11.7154
▁submarine	-11.7154
▁matrimonial	-11.7158
▁Iron	-11.7161
▁Netflix	-11.7161
▁motorway	-11.7161
▁Poyet	-11.7168
▁deem	-11.7168
▁inspect	-11.7168
▁requirement	-11.7168
▁Veterans	-11.7176
▁lingerie	-11.7176
▁safer	-11.7176
▁wears	-11.7176
▁Trayvon	-11.7183
▁confirmation	-11.7183
▁Attack	-11.7186
▁recalls	-11.7186
▁staged	-11.7186
▁Boyd	-11.719
▁gravely	-11.719
▁stint	-11.719
▁intensity	-11.7197
▁revive	-11.7197
▁cow	-11.72
▁batteries	-11.7204
▁convoy	-11.7204
▁zones	-11.7204
▁Hagel	-11.7211
▁Lincolnshire	-11.7211
▁span	-11.7211
▁Review	-11.7214
▁Governments	-11.7218
▁bay	-11.7221
▁beg	-11.7221
▁bespeak	-11.7225
▁conceal	-11.7225
▁hats	-11.7225
▁Asda	-11.7232
▁demonstrated	-11.7232
▁enjoys	-11.7232
▁Bird	-11.7239
▁Pierre	-11.7239
▁peach	-11.7239
▁pigs	-11.7239
▁comprehend	-11.7242
▁mounted	-11.7242
▁Karzai	-11.7246
▁Porter	-11.7246
▁chart	-11.7246
▁grocery	-11.7246
▁monitored	-11.7246
▁sends	-11.7246
▁wardrobe	-11.7246
▁chased	-11.7249
▁Morsy	-11.7253
▁Natural	-11.7253
▁bombers	-11.7253
▁credibility	-11.7253
▁evolution	-11.7253
▁untimely	-11.7253
▁Laurent	-11.726
▁minors	-11.726
▁shall	-11.726
▁Dick	-11.7267
▁Ruth	-11.7267
▁Uganda	-11.7267
▁exams	-11.7267
▁elementary	-11.7271
▁arson	-11.7274
▁playground	-11.7274
▁superb	-11.7278
▁Chester	-11.7281
▁Jolie	-11.7281
▁McCartney	-11.7281
▁Upton	-11.7281
▁migration	-11.7281
▁Help	-11.7285
▁Fiona	-11.7288
▁kicks	-11.7292
▁pinch	-11.7292
▁Policy	-11.7296
▁mesh	-11.7296
▁queue	-11.7299
▁Rivera	-11.7303
▁consultation	-11.7303
▁forthcoming	-11.7303
▁helpful	-11.7303
▁legislative	-11.7303
▁stepping	-11.7303
▁1973	-11.731
▁Broadway	-11.731
▁Statistics	-11.731
▁pairs	-11.731
▁villagers	-11.731
▁Gea	-11.7317
▁Monroe	-11.7317
▁irregular	-11.732
▁midway	-11.732
▁Budget	-11.7324
▁lanes	-11.7324
▁Burns	-11.7328
▁Dark	-11.7328
▁worries	-11.7331
▁rifles	-11.7335
▁Aberdeen	-11.7338
▁Hussain	-11.7338
▁Tests	-11.7338
▁attach	-11.7338
▁concede	-11.7338
▁faithful	-11.7338
▁wallet	-11.7338
▁distressing	-11.7342
▁handicapped	-11.7342
▁tempt	-11.7342
▁Glen	-11.7345
▁rivers	-11.7345
▁wherever	-11.7345
▁CLICK	-11.7353
▁Gardens	-11.7353
▁meets	-11.7353
▁boycott	-11.7356
▁lifting	-11.7356
▁reviewed	-11.7356
▁Leo	-11.736
▁Play	-11.736
▁southeast	-11.736
▁prepares	-11.7363
▁Brett	-11.7367
▁psychologist	-11.7367
▁fateful	-11.737
▁haired	-11.737
▁unspoiled	-11.737
▁Ipswich	-11.7374
▁arena	-11.7374
▁sore	-11.7374
▁primitively	-11.7378
▁Marcus	-11.7381
▁flagship	-11.7381
▁outrageous	-11.7381
▁Twenty	-11.7388
▁economies	-11.7388
▁lyrics	-11.7388
▁Taking	-11.7392
▁Regional	-11.7395
▁Someone	-11.7395
▁freak	-11.7395
▁aggress	-11.7399
▁parachute	-11.7403
▁shapes	-11.7403
▁lam	-11.7406
▁salon	-11.741
▁aviate	-11.7413
▁unfortunately	-11.7413
▁1967	-11.7417
▁Nike	-11.7417
▁collaboration	-11.7417
▁identities	-11.7417
▁Could	-11.7421
▁shuttle	-11.7421
▁Zara	-11.7424
▁litre	-11.7424
▁Asiatic	-11.7428
▁fool	-11.7428
▁Tina	-11.7431
▁podium	-11.7431
▁negligence	-11.7439
▁Eventually	-11.7446
▁diplomats	-11.7446
▁fag	-11.7446
▁toilets	-11.7446
▁cubs	-11.7449
▁Debbie	-11.7453
▁humiliated	-11.7453
▁minorities	-11.7453
▁sadness	-11.7453
▁sanctuary	-11.7453
▁Southwest	-11.7457
▁choosing	-11.7457
▁sweeping	-11.7457
▁Does	-11.746
▁adorable	-11.746
▁savour	-11.746
▁destructive	-11.7464
▁undecomposed	-11.7464
▁Barkley	-11.7467
▁Briton	-11.7467
▁Lieutenant	-11.7467
▁bikini	-11.7467
▁maximal	-11.7467
▁implants	-11.7475
▁understandably	-11.7475
▁index	-11.7478
▁rented	-11.7478
▁unscathed	-11.7478
▁blogger	-11.7482
▁efficaciously	-11.7482
▁manoeuver	-11.7482
▁minus	-11.7482
▁savage	-11.7482
▁nerves	-11.7486
▁nuts	-11.7486
▁Clifford	-11.7489
▁explicit	-11.7489
▁hockey	-11.7489
▁hung	-11.7489
▁responsibilities	-11.7489
▁1971	-11.7496
▁GM	-11.7496
▁surmise	-11.75
▁Kasem	-11.7504
▁Yemeni	-11.7504
▁flies	-11.7504
▁trainers	-11.7504
▁hatred	-11.7511
▁Nazis	-11.7518
▁Schalke	-11.7518
▁containers	-11.7518
▁physician	-11.7518
▁strikers	-11.7518
▁yoga	-11.7518
▁upside	-11.7522
▁assisted	-11.7529
▁Puerto	-11.7533
▁languages	-11.7533
▁texting	-11.7533
▁Memphis	-11.754
▁convenience	-11.754
▁anticipated	-11.7544
▁Isle	-11.7547
▁laboratory	-11.7547
▁rhetoric	-11.7547
▁endorse	-11.7551
▁judicial	-11.7555
▁nanny	-11.7555
▁grapple	-11.7558
▁rides	-11.7558
▁Commander	-11.7562
▁Fi	-11.7562
▁cleaner	-11.7562
▁failures	-11.7562
▁pad	-11.7562
▁trophies	-11.7562
▁uprising	-11.7562
▁tumble	-11.7565
▁Morocco	-11.7569
▁Salmond	-11.7569
▁seas	-11.7569
▁signatures	-11.7569
▁wield	-11.7569
▁Ground	-11.7573
▁cried	-11.7573
▁240	-11.7576
▁Overall	-11.7576
▁Ralph	-11.7576
▁Weiner	-11.7576
▁fraternity	-11.7576
▁ambitious	-11.758
▁Mountains	-11.7584
▁unspoilt	-11.7584
▁interact	-11.7587
▁restraining	-11.7587
▁Inn	-11.7591
▁bullied	-11.7591
▁litter	-11.7591
▁rental	-11.7591
▁Cambodia	-11.7598
▁whoever	-11.7598
▁Didier	-11.7606
▁Gomez	-11.7606
▁Raul	-11.7606
▁holders	-11.7606
▁neighbourhood	-11.7606
▁rover	-11.7606
▁blasted	-11.7609
▁Lebanese	-11.7613
▁motorbike	-11.7613
▁consistently	-11.7617
▁insert	-11.7617
▁650	-11.762
▁ATP	-11.762
▁Toni	-11.762
▁dealers	-11.762
▁relish	-11.762
▁standardized	-11.762
▁supervisor	-11.762
▁transparency	-11.762
▁Drive	-11.7624
▁seeds	-11.7624
▁surf	-11.7624
▁Fifty	-11.7628
▁Goals	-11.7628
▁Leigh	-11.7628
▁Tigers	-11.7628
▁Tracey	-11.7628
▁adverts	-11.7628
▁hazard	-11.7631
▁Alberto	-11.7635
▁Brewer	-11.7635
▁Vogue	-11.7635
▁cognizant	-11.7635
▁unrelated	-11.7635
▁adapt	-11.7639
▁Common	-11.7642
▁Finally	-11.7642
▁Hey	-11.7642
▁Mack	-11.7642
▁Newport	-11.7642
▁repairs	-11.7642
▁unhurt	-11.7642
▁writers	-11.7642
▁Crawford	-11.765
▁provider	-11.765
▁tropical	-11.765
▁lied	-11.7653
▁mails	-11.7653
▁psychiatric	-11.7653
▁Ellen	-11.7657
▁Farrell	-11.7657
▁Leonardo	-11.7657
▁MH17	-11.7657
▁Payne	-11.7657
▁Tunisia	-11.7657
▁diminish	-11.7657
▁ethics	-11.7657
▁genocide	-11.7657
▁reaches	-11.7657
▁Race	-11.7661
▁Cruise	-11.7664
▁Uber	-11.7664
▁footsteps	-11.7664
▁Myers	-11.7672
▁manhunt	-11.7672
▁plunged	-11.7672
▁Labours	-11.7676
▁Ahmadinejad	-11.7679
▁Culture	-11.7679
▁kilometres	-11.7679
▁sailors	-11.7679
▁reacted	-11.7683
▁Algeria	-11.7687
▁Daisy	-11.7687
▁vacate	-11.7687
▁install	-11.769
▁jeopardize	-11.769
▁believing	-11.7694
▁clips	-11.7698
▁Crimea	-11.7701
▁Library	-11.7701
▁Petraeus	-11.7701
▁Tyson	-11.7701
▁modified	-11.7701
▁troubles	-11.7701
▁themed	-11.7705
▁1966	-11.7709
▁Athens	-11.7709
▁Mall	-11.7709
▁Tech	-11.7709
▁skeleton	-11.7709
▁prospects	-11.7716
▁warehouse	-11.7716
▁Early	-11.772
▁Falls	-11.772
▁regrets	-11.772
▁understands	-11.7727
▁Burgess	-11.7731
▁banning	-11.7731
▁reconstruct	-11.7731
▁biting	-11.7735
▁console	-11.7735
▁lawfully	-11.7735
▁nicknamed	-11.7735
▁Ana	-11.7738
▁Gloucester	-11.7738
▁hardest	-11.7742
▁rive	-11.7742
▁Honduras	-11.7746
▁Lawyers	-11.7746
▁estimable	-11.7746
▁sanction	-11.7746
▁disgrace	-11.775
▁Horse	-11.7761
▁commuters	-11.7761
▁intentions	-11.7761
▁invitation	-11.7761
▁knot	-11.7761
▁specialists	-11.7761
▁script	-11.7764
▁reflection	-11.7768
▁Dead	-11.7772
▁bleed	-11.7772
▁bombastic	-11.7772
▁attitudes	-11.7776
▁collections	-11.7776
▁gloss	-11.7776
▁incorrect	-11.7776
▁references	-11.7776
▁oversee	-11.7779
▁Jade	-11.7783
▁Q	-11.7783
▁contacts	-11.7783
▁enclosure	-11.7783
▁insult	-11.7783
▁hacked	-11.7787
▁Gerard	-11.7791
▁achievements	-11.7791
▁snatch	-11.7791
▁collective	-11.7794
▁drops	-11.7794
▁Balls	-11.7798
▁Florence	-11.7798
▁architecture	-11.7798
▁contaminated	-11.7798
▁seeable	-11.7798
▁poured	-11.7802
▁prostitute	-11.7802
▁Sherwood	-11.7805
▁significance	-11.7805
▁Market	-11.7809
▁cottage	-11.7813
▁footed	-11.7817
▁Holy	-11.782
▁scram	-11.782
▁transcript	-11.782
▁doubles	-11.7824
▁Cable	-11.7828
▁Goldman	-11.7828
▁Kay	-11.7828
▁Lukaku	-11.7828
▁bubble	-11.7828
▁critic	-11.7828
▁bans	-11.7832
▁bits	-11.7832
▁depending	-11.7832
▁timed	-11.7832
▁Canterbury	-11.7835
▁Wi	-11.7835
▁disappoint	-11.7835
▁fundraiser	-11.7835
▁harbor	-11.7835
▁lessen	-11.7835
▁sculpture	-11.7835
▁bearing	-11.7839
▁Doug	-11.7843
▁insider	-11.7843
▁mixture	-11.7843
▁verbal	-11.7843
▁drunken	-11.7847
▁palm	-11.7847
▁Serbian	-11.785
▁appointments	-11.785
▁lesbian	-11.785
▁lounge	-11.785
▁pinkish	-11.7854
▁bout	-11.7858
▁honeymoon	-11.7858
▁pains	-11.7858
▁salaries	-11.7858
▁111	-11.7865
▁Ltd	-11.7865
▁garbage	-11.7865
▁productive	-11.7865
▁theories	-11.7865
▁seldom	-11.7869
▁Mia	-11.7873
▁documented	-11.7873
▁staring	-11.7873
▁fiddling	-11.7877
▁greet	-11.7877
▁curve	-11.788
▁gauge	-11.788
▁Chad	-11.7888
▁laughed	-11.7892
▁Luther	-11.7896
▁Pablo	-11.7896
▁registration	-11.7896
▁engaging	-11.7899
▁germinate	-11.7903
▁respiratory	-11.7903
▁agony	-11.7911
▁Program	-11.7918
▁USS	-11.7918
▁XI	-11.7918
▁fabric	-11.7918
▁neighborhoods	-11.7918
▁obsessed	-11.7918
▁profession	-11.7918
▁notified	-11.7922
▁System	-11.7926
▁alternate	-11.7926
▁swap	-11.7926
▁Bosnia	-11.7933
▁Brand	-11.7933
▁evaluate	-11.7933
▁export	-11.7933
▁instruments	-11.7933
▁rejoin	-11.7937
▁savor	-11.7937
▁Madonna	-11.7941
▁ameliorate	-11.7941
▁boards	-11.7941
▁guitar	-11.7941
▁predators	-11.7941
▁grace	-11.7945
▁mightily	-11.7945
▁occupied	-11.7945
▁pensions	-11.7945
▁standardised	-11.7945
▁transform	-11.7945
▁1945	-11.7948
▁Quinn	-11.7948
▁separation	-11.7948
▁interchangeable	-11.7952
▁AFP	-11.7956
▁crude	-11.7956
▁transit	-11.7956
▁Kids	-11.7964
▁Nation	-11.7964
▁Sanders	-11.7964
▁hormone	-11.7964
▁Xi	-11.7971
▁Klein	-11.7979
▁categories	-11.7979
▁habitat	-11.7979
▁sights	-11.7979
▁smuggle	-11.7979
▁cede	-11.7983
▁functions	-11.7983
▁Clarkson	-11.7986
▁Tonight	-11.7986
▁Wilfried	-11.7986
▁graffiti	-11.7986
▁sunglasses	-11.7986
▁belly	-11.799
▁cute	-11.799
▁segment	-11.799
▁circles	-11.7994
▁diplomat	-11.7994
▁jewelry	-11.7994
▁Whitney	-11.8002
▁appalling	-11.8002
▁maths	-11.8002
▁sauce	-11.8002
▁Holloway	-11.8009
▁Reserve	-11.8009
▁astronaut	-11.8009
▁mechanical	-11.8009
▁autonomous	-11.8013
▁Erin	-11.8017
▁passports	-11.8017
▁speakers	-11.8017
▁Barker	-11.8025
▁defective	-11.8025
▁pageant	-11.8025
▁schoolboy	-11.8025
▁slave	-11.8025
▁surroundings	-11.8025
▁assured	-11.8028
▁conflicts	-11.8028
▁lump	-11.8028
▁resolved	-11.8028
▁Hansen	-11.8032
▁Moreno	-11.8032
▁graves	-11.8032
▁speeches	-11.8032
▁channelize	-11.8036
▁Derbyshire	-11.804
▁Far	-11.804
▁expanded	-11.804
▁outraged	-11.804
▁schemes	-11.804
▁vow	-11.804
▁drowned	-11.8044
▁tricks	-11.8044
▁Belfast	-11.8048
▁Dream	-11.8048
▁Newman	-11.8048
▁Nice	-11.8048
▁backpack	-11.8048
▁instances	-11.8048
▁neighbouring	-11.8048
▁Cumbria	-11.8055
▁performers	-11.8055
▁spoiled	-11.8055
▁behindhand	-11.8059
▁heartbroken	-11.8059
▁steep	-11.8059
▁Bernabeu	-11.8063
▁disposal	-11.8063
▁memo	-11.8063
▁robust	-11.8067
▁bathrooms	-11.8071
▁representation	-11.8071
▁glamorous	-11.8074
▁Hot	-11.8078
▁Kathleen	-11.8078
▁Walters	-11.8078
▁fertility	-11.8078
▁matched	-11.8078
▁Barrett	-11.8086
▁Charlton	-11.8086
▁Rupert	-11.8086
▁blasts	-11.8086
▁dual	-11.8086
▁realistic	-11.8086
▁desolate	-11.809
▁drown	-11.809
▁heal	-11.809
▁Hood	-11.8094
▁Indianapolis	-11.8094
▁blocking	-11.8094
▁contestants	-11.8094
▁theyre	-11.8094
▁abuses	-11.8097
▁laundering	-11.8097
▁meliorate	-11.8097
▁Albion	-11.8101
▁Baldwin	-11.8101
▁Environmental	-11.8101
▁Oxlade	-11.8101
▁clay	-11.8101
▁cows	-11.8101
▁voluntarily	-11.8101
▁abbreviated	-11.8105
▁Mass	-11.8109
▁Millions	-11.8109
▁activate	-11.8109
▁handcuffs	-11.8109
▁triple	-11.8109
▁vodka	-11.8109
▁explode	-11.8113
▁liberate	-11.8113
▁rains	-11.8113
▁Dixon	-11.8117
▁Order	-11.8117
▁Parkinson	-11.8117
▁Phelps	-11.8117
▁compatriot	-11.8117
▁ensuring	-11.8117
▁salutary	-11.8121
▁Kompany	-11.8124
▁addict	-11.8124
▁components	-11.8124
▁dolls	-11.8124
▁lawsuits	-11.8124
▁ritual	-11.8124
▁destitute	-11.8128
▁favored	-11.8128
▁mouse	-11.8128
▁burger	-11.8132
▁pitiful	-11.8132
▁sake	-11.8132
▁streaming	-11.8132
▁delete	-11.8136
▁underage	-11.8136
▁Salvador	-11.814
▁fraction	-11.814
▁Cincinnati	-11.8148
▁Enforcement	-11.8148
▁portraits	-11.8148
▁healing	-11.8151
▁Due	-11.8155
▁Fabio	-11.8155
▁exchanges	-11.8155
▁snakes	-11.8159
▁Congressional	-11.8163
▁Lowe	-11.8163
▁blistering	-11.8163
▁carriage	-11.8163
▁footballers	-11.8163
▁mourners	-11.8163
▁heed	-11.8167
▁nasty	-11.8167
▁redeem	-11.8167
▁Mackay	-11.8171
▁bowel	-11.8171
▁groin	-11.8171
▁organisers	-11.8171
▁advertise	-11.8175
▁slice	-11.8179
▁Darwin	-11.8186
▁Downton	-11.8186
▁Mac	-11.8186
▁Randy	-11.8186
▁doping	-11.8186
▁instrument	-11.8186
▁jihadist	-11.8186
▁shallow	-11.8186
▁tribe	-11.8186
▁condemnable	-11.819
▁scat	-11.819
▁Dominic	-11.8194
▁Islamabad	-11.8194
▁Photos	-11.8194
▁Premiership	-11.8194
▁Sevilla	-11.8194
▁channelise	-11.8194
▁homosexuality	-11.8194
▁mild	-11.8194
▁AP	-11.8202
▁Bronx	-11.8202
▁motorist	-11.8202
▁experiments	-11.8206
▁jade	-11.8206
▁sums	-11.8206
▁Rojo	-11.821
▁Television	-11.821
▁jihadists	-11.821
▁labels	-11.8214
▁Ricky	-11.8217
▁Watkins	-11.8217
▁cans	-11.8217
▁journalism	-11.8217
▁plough	-11.8221
▁philosophy	-11.8225
▁polling	-11.8225
▁steam	-11.8225
▁withstand	-11.8229
▁Sharp	-11.8233
▁Sinclair	-11.8233
▁investments	-11.8233
▁juice	-11.8233
▁Gus	-11.8241
▁Observatory	-11.8241
▁Temple	-11.8241
▁evaluation	-11.8241
▁hunky	-11.8241
▁restrict	-11.8241
▁con	-11.8245
▁interrupt	-11.8245
▁nonprofit	-11.8245
▁Actress	-11.8249
▁Carr	-11.8249
▁Skype	-11.8249
▁babble	-11.8249
▁shelters	-11.8253
▁venues	-11.8256
▁chatter	-11.826
▁Columbus	-11.8264
▁golfer	-11.8264
▁Too	-11.8268
▁provision	-11.8268
▁dynamic	-11.8276
▁prostate	-11.8276
▁quell	-11.8276
▁shield	-11.8276
▁Dogs	-11.828
▁Judy	-11.828
▁heel	-11.828
▁refusal	-11.828
▁mandatory	-11.8284
▁quiz	-11.8284
▁bargain	-11.8288
▁Blood	-11.8296
▁Fellow	-11.8296
▁Goodman	-11.8296
▁inclusive	-11.8296
▁jungle	-11.8296
▁slaying	-11.8296
▁Getting	-11.83
▁punching	-11.83
▁dump	-11.8303
▁occurs	-11.8307
▁sided	-11.8307
▁Mid	-11.8311
▁gadget	-11.8311
▁illustrious	-11.8311
▁unfreeze	-11.8315
▁dioxide	-11.8319
▁fog	-11.8319
▁margin	-11.8319
▁placing	-11.8323
▁surrogate	-11.8323
▁Fellaini	-11.8327
▁Olivier	-11.8327
▁Peters	-11.8327
▁astir	-11.8327
▁scarper	-11.8327
▁filling	-11.8331
▁hid	-11.8331
▁lawful	-11.8331
▁sidelines	-11.8331
▁Audi	-11.8335
▁Customers	-11.8335
▁Organisation	-11.8335
▁Venus	-11.8335
▁courtesy	-11.8335
▁tortured	-11.8335
▁Never	-11.8339
▁receipt	-11.8339
▁Bruno	-11.8343
▁Consumer	-11.8343
▁Subs	-11.8343
▁spells	-11.8347
▁Cups	-11.8351
▁editorial	-11.8359
▁eruption	-11.8359
▁robbed	-11.8359
▁Owner	-11.8366
▁credited	-11.8374
▁judgement	-11.8374
▁Camerons	-11.8382
▁mobility	-11.8382
▁respondents	-11.8382
▁tow	-11.8382
▁possessing	-11.8386
▁Less	-11.839
▁Mini	-11.839
▁Mosul	-11.839
▁boundaries	-11.839
▁daylight	-11.839
▁offenses	-11.839
▁horrendous	-11.8394
▁Pearce	-11.8398
▁Third	-11.8398
▁exploration	-11.8398
▁Bony	-11.8402
▁Carey	-11.8406
▁Morales	-11.8406
▁Watts	-11.8406
▁banker	-11.8406
▁cartels	-11.8406
▁graduation	-11.8406
▁strive	-11.8406
▁appease	-11.841
▁policing	-11.8414
▁turgid	-11.8418
▁vets	-11.8418
▁MH370	-11.8422
▁aggression	-11.8422
▁fragile	-11.8422
▁cognisant	-11.8426
▁recoup	-11.8426
▁Details	-11.843
▁WASHINGTON	-11.843
▁jibe	-11.843
▁swimmer	-11.843
▁displaced	-11.8434
▁labelled	-11.8434
▁screams	-11.8434
▁sensible	-11.8434
▁Monis	-11.8438
▁Salford	-11.8438
▁corrode	-11.8442
▁Branson	-11.8446
▁Ramirez	-11.8446
▁Stones	-11.8446
▁locks	-11.8446
▁forgather	-11.845
▁Flores	-11.8454
▁embark	-11.8454
▁freely	-11.8454
▁rainfall	-11.8454
▁suppliers	-11.8454
▁decorated	-11.8458
▁tattle	-11.8458
▁Car	-11.8462
▁bankrupt	-11.8462
▁concur	-11.8462
▁meth	-11.8462
▁vacuum	-11.8462
▁instant	-11.8466
▁Racing	-11.847
▁Theatre	-11.847
▁felonious	-11.847
▁stays	-11.847
▁cull	-11.8474
▁deported	-11.8474
▁Fame	-11.8478
▁Gibbs	-11.8478
▁anxious	-11.8478
▁niggling	-11.8478
▁onlookers	-11.8478
▁accumulate	-11.8482
▁Brooke	-11.8486
▁brutally	-11.8486
▁declamatory	-11.8486
▁wrongly	-11.8486
▁alight	-11.849
▁calorie	-11.849
▁contempt	-11.8494
▁diplomatical	-11.8494
▁exploitation	-11.8494
▁repel	-11.8494
▁slew	-11.8494
▁heating	-11.8498
▁Syndrome	-11.8502
▁noting	-11.8502
▁renewed	-11.8502
▁secondary	-11.8502
▁gallant	-11.8506
▁Cyrus	-11.851
▁holidaymakers	-11.851
▁absorb	-11.8514
▁inflicted	-11.8514
▁injuring	-11.8514
▁unsound	-11.8514
▁Mahmoud	-11.8518
▁fond	-11.8518
▁fury	-11.8518
▁graduated	-11.8518
▁seizures	-11.8518
▁acquitted	-11.8522
▁affordable	-11.8522
▁sells	-11.8522
▁Il	-11.8526
▁Saunders	-11.8526
▁congressman	-11.8526
▁devoid	-11.8526
▁entertain	-11.8526
▁veridical	-11.853
▁Betty	-11.8534
▁Camilla	-11.8534
▁Neal	-11.8534
▁humour	-11.8534
▁originative	-11.8534
▁scar	-11.8534
▁Born	-11.8538
▁accidental	-11.8538
▁bulk	-11.8538
▁ominous	-11.8538
▁Gun	-11.8542
▁notion	-11.8542
▁rapist	-11.8542
▁rationalize	-11.8542
▁shattered	-11.8542
▁swelling	-11.8542
▁unjust	-11.8542
▁Benzema	-11.855
▁Images	-11.855
▁Lego	-11.855
▁Sr	-11.855
▁analyse	-11.8554
▁tumid	-11.8554
▁Living	-11.8558
▁Medicare	-11.8558
▁checkpoint	-11.8558
▁flame	-11.8558
▁frightening	-11.8558
▁median	-11.8558
▁proudly	-11.8558
▁slogan	-11.8566
▁transformation	-11.8566
▁Theres	-11.857
▁publisher	-11.8574
▁reasonably	-11.8574
▁cooperate	-11.8578
▁seeks	-11.8578
▁Bentley	-11.8582
▁PUBLISHED	-11.8582
▁Vermont	-11.8582
▁dory	-11.8582
▁flex	-11.8582
▁makeshift	-11.8582
▁pleas	-11.8582
▁stray	-11.8582
▁un	-11.8582
▁versus	-11.8582
▁Kirk	-11.859
▁Parish	-11.859
▁Prosecution	-11.859
▁lawn	-11.859
▁orientation	-11.859
▁Vancouver	-11.8598
▁criteria	-11.8598
▁diary	-11.8598
▁industries	-11.8598
▁intruder	-11.8598
▁laughter	-11.8598
▁spicy	-11.8598
▁worsen	-11.8602
▁sensor	-11.8607
▁aggregate	-11.8611
▁Cheney	-11.8615
▁Jamaica	-11.8615
▁offending	-11.8615
▁u	-11.8615
▁gainsay	-11.8619
▁hiring	-11.8623
▁stuffed	-11.8623
▁tragically	-11.8623
▁fashioned	-11.8627
▁Noah	-11.8631
▁cart	-11.8631
▁distributed	-11.8631
▁flick	-11.8631
▁recipe	-11.8631
▁weird	-11.8631
▁Shah	-11.8639
▁deform	-11.8639
▁intake	-11.8639
▁militia	-11.8639
▁rang	-11.8643
▁wrench	-11.8643
▁220	-11.8647
▁Leonard	-11.8647
▁Referee	-11.8647
▁Venezuelan	-11.8647
▁Violence	-11.8647
▁airspace	-11.8647
▁trunk	-11.8647
▁publishing	-11.8651
▁barrel	-11.8655
▁charts	-11.8655
▁decree	-11.8655
▁disabilities	-11.8655
▁electoral	-11.8655
▁exchangeable	-11.8655
▁cautiously	-11.8659
▁Lanza	-11.8663
▁axe	-11.8663
▁pepper	-11.8663
▁speculative	-11.8663
▁lapse	-11.8667
▁unbeaten	-11.8667
▁Minutes	-11.8671
▁Story	-11.8671
▁WikiLeaks	-11.8671
▁adjunct	-11.8671
▁administrator	-11.8671
▁chilling	-11.8671
▁musicians	-11.8671
▁perceived	-11.8671
▁strapped	-11.8671
▁calamitous	-11.8676
▁nonsense	-11.8676
▁capability	-11.868
▁whip	-11.868
▁bikes	-11.8684
▁hoax	-11.8684
▁adolescent	-11.8688
▁carer	-11.8688
▁destruct	-11.8688
▁retort	-11.8688
▁worthy	-11.8688
▁Hardy	-11.8692
▁Joy	-11.8696
▁Southwark	-11.8696
▁deeper	-11.8696
▁drilling	-11.8696
▁grenade	-11.8696
▁quarantine	-11.8696
▁sickness	-11.8696
▁Argentinian	-11.87
▁nationally	-11.8704
▁pneumonia	-11.8704
▁towers	-11.8704
▁Courtois	-11.8712
▁Desert	-11.8712
▁draws	-11.8712
▁fixing	-11.8712
▁fixtures	-11.8712
▁mourning	-11.8712
▁preclude	-11.8712
▁qualities	-11.8712
▁satisfaction	-11.8712
▁Brook	-11.8721
▁Rich	-11.8721
▁Rickie	-11.8721
▁descent	-11.8721
▁talents	-11.8721
▁withdrawn	-11.8721
▁volley	-11.8725
▁Heroes	-11.8729
▁electronics	-11.8729
▁elder	-11.8733
▁senesce	-11.8733
▁utility	-11.8733
▁wise	-11.8733
▁Visitors	-11.8737
▁capsule	-11.8737
▁clerk	-11.8737
▁clinics	-11.8737
▁priorities	-11.8737
▁Leslie	-11.8745
▁Semite	-11.8745
▁bask	-11.8745
▁ing	-11.8745
▁joins	-11.8745
▁piddling	-11.8745
▁presentation	-11.8745
▁villa	-11.8745
▁Danielle	-11.8753
▁Hezbollah	-11.8753
▁Interstate	-11.8753
▁contention	-11.8753
▁overhead	-11.8753
▁sergeant	-11.8753
▁battered	-11.8757
▁Holiday	-11.8762
▁snowy	-11.8762
▁evacuate	-11.8766
▁Ryanair	-11.877
▁foregather	-11.877
▁lava	-11.877
▁pursuing	-11.8774
▁thread	-11.8774
▁Gavin	-11.8778
▁Michel	-11.8778
▁Seth	-11.8778
▁appetite	-11.8778
▁hunters	-11.8778
▁pays	-11.8778
▁rationalise	-11.8778
▁veto	-11.8778
▁surfaced	-11.8782
▁Clare	-11.8786
▁Nou	-11.8786
▁delegation	-11.8786
▁frequency	-11.8786
▁monarch	-11.8786
▁terrain	-11.8786
▁contrary	-11.879
▁Fowler	-11.8794
▁Smart	-11.8794
▁strongest	-11.8794
▁overturn	-11.8803
▁Official	-11.8807
▁Batman	-11.8811
▁Shepherd	-11.8811
▁biography	-11.8811
▁expedition	-11.8811
▁sunlight	-11.8811
▁distinctly	-11.8815
▁strategic	-11.8815
▁Canberra	-11.8819
▁Winfrey	-11.8819
▁darkness	-11.8819
▁exists	-11.8819
▁Clive	-11.8828
▁applause	-11.8828
▁drift	-11.8828
▁pensioners	-11.8828
▁Small	-11.8832
▁Drew	-11.8836
▁Freddie	-11.8836
▁Future	-11.8836
▁Hasan	-11.8836
▁Nairobi	-11.8836
▁ashes	-11.8836
▁handsome	-11.8836
▁reflects	-11.8836
▁seaside	-11.8836
▁launches	-11.884
▁maintains	-11.8844
▁operative	-11.8844
▁tier	-11.8844
▁boarded	-11.8848
▁UKs	-11.8852
▁internationally	-11.8852
▁mistress	-11.8852
▁responders	-11.8852
▁oz	-11.8857
▁remand	-11.8857
▁autobiography	-11.8861
▁brink	-11.8861
▁collided	-11.8861
▁dancers	-11.8861
▁ton	-11.8861
▁Ethan	-11.8869
▁Teresa	-11.8869
▁detection	-11.8869
▁ensue	-11.8869
▁headaches	-11.8869
▁kibosh	-11.8869
▁1965	-11.8877
▁NTSB	-11.8877
▁debates	-11.8877
▁tunnels	-11.8877
▁captive	-11.8882
▁secretive	-11.8882
▁tempestuous	-11.8882
▁fracture	-11.8886
▁Bulgaria	-11.8894
▁Johns	-11.8894
▁sexuality	-11.8894
▁Miguel	-11.8902
▁Sciences	-11.8902
▁jeopardise	-11.8907
▁Patel	-11.8911
▁regale	-11.8911
▁Johannesburg	-11.8919
▁immunity	-11.8919
▁indicates	-11.8919
▁barrack	-11.8923
▁sexy	-11.8923
▁commentator	-11.8927
▁consuming	-11.8927
▁outlet	-11.8927
▁bridges	-11.8932
▁Eagles	-11.8936
▁elevate	-11.8936
▁escorted	-11.8936
▁picayune	-11.8936
▁relax	-11.8936
▁semifinal	-11.8936
▁turkey	-11.8936
▁unity	-11.8936
▁chill	-11.894
▁fortunate	-11.894
▁Cpl	-11.8944
▁Mugabe	-11.8944
▁Oxfordshire	-11.8944
▁advocacy	-11.8944
▁h	-11.8944
▁reunion	-11.8944
▁stylish	-11.8944
▁verify	-11.8944
▁anon	-11.8948
▁vest	-11.8948
▁Wilkinson	-11.8953
▁shin	-11.8953
▁reflected	-11.8957
▁sharply	-11.8957
▁Vince	-11.8961
▁bids	-11.8961
▁drain	-11.8961
▁esteem	-11.8961
▁globally	-11.8961
▁indoor	-11.8961
▁memoir	-11.8961
▁slaughter	-11.8961
▁wireless	-11.8961
▁banish	-11.8965
▁optimistic	-11.8965
▁tougher	-11.8965
▁Porsche	-11.8969
▁Whitehall	-11.8969
▁echo	-11.8973
▁incorrectly	-11.8973
▁Atkinson	-11.8978
▁alliance	-11.8978
▁misery	-11.8978
▁rant	-11.8978
▁requiring	-11.8978
▁reviewing	-11.8978
▁revert	-11.8982
▁Freeman	-11.8986
▁diamonds	-11.8986
▁maternity	-11.8986
▁stitches	-11.8986
▁exchanged	-11.899
▁induced	-11.899
▁abdomen	-11.8995
▁catwalk	-11.8995
▁commanders	-11.8995
▁excite	-11.8995
▁tearing	-11.8995
▁105	-11.8999
▁richest	-11.8999
▁MLS	-11.9003
▁canal	-11.9003
▁grabs	-11.9003
▁blows	-11.9007
▁exhort	-11.9007
▁enthusiasm	-11.9011
▁expertise	-11.9011
▁crimson	-11.9016
▁complimentary	-11.902
▁proving	-11.902
▁awkward	-11.9024
▁blab	-11.9024
▁evidently	-11.9024
▁undergone	-11.9024
▁260	-11.9028
▁narrative	-11.9028
▁piffling	-11.9028
▁sinister	-11.9028
▁barred	-11.9032
▁Panama	-11.9037
▁Store	-11.9037
▁lining	-11.9037
▁unblock	-11.9041
▁administrators	-11.9045
▁declaration	-11.9045
▁disputes	-11.9045
▁lads	-11.9045
▁punish	-11.9045
▁candy	-11.9049
▁deleted	-11.9049
▁spat	-11.9049
▁Come	-11.9054
▁Gill	-11.9054
▁extremism	-11.9054
▁Dancing	-11.9058
▁sweat	-11.9058
▁Iain	-11.9062
▁asunder	-11.9062
▁imperil	-11.9062
▁showdown	-11.9062
▁someplace	-11.9062
▁115	-11.9071
▁Baroness	-11.9071
▁Cowell	-11.9071
▁Nepal	-11.9071
▁au	-11.9071
▁Saleh	-11.9079
▁argues	-11.9079
▁bailout	-11.9079
▁Shortly	-11.9083
▁lucrative	-11.9083
▁sponsorship	-11.9088
▁Oldham	-11.9096
▁columnist	-11.9096
▁defeats	-11.9096
▁fearful	-11.91
▁1920	-11.9105
▁Pitt	-11.9105
▁Reddit	-11.9105
▁supplier	-11.9105
▁everyplace	-11.9109
▁Colonel	-11.9113
▁Podolski	-11.9113
▁Rotherham	-11.9113
▁clause	-11.9113
▁denial	-11.9113
▁fundamentally	-11.9113
▁malicious	-11.9113
▁spa	-11.9113
▁stepfather	-11.9113
▁violently	-11.9113
▁voyage	-11.9113
▁foreclose	-11.9117
▁Davidson	-11.9122
▁Elliott	-11.9122
▁Hammers	-11.9122
▁Miley	-11.9122
▁Zhang	-11.9122
▁gruesome	-11.9122
▁performer	-11.9122
▁qualification	-11.9122
▁traces	-11.9122
▁Hungary	-11.913
▁Kahn	-11.913
▁Upon	-11.913
▁mentor	-11.913
▁notably	-11.913
▁consumed	-11.9134
▁Emmanuel	-11.9139
▁Hyde	-11.9139
▁arrangement	-11.9139
▁exceedingly	-11.9139
▁imagination	-11.9139
▁meaningful	-11.9139
▁nest	-11.9139
▁rash	-11.9139
▁gibe	-11.9143
▁1962	-11.9147
▁Burger	-11.9147
▁assembly	-11.9147
▁replacing	-11.9147
▁revel	-11.9147
▁saddened	-11.9147
▁glamour	-11.9151
▁Initially	-11.9156
▁Roll	-11.9156
▁Warning	-11.9156
▁gadgets	-11.9156
▁unaccompanied	-11.9156
▁whereas	-11.9156
▁unloosen	-11.916
▁Worth	-11.9164
▁plunk	-11.9164
▁scars	-11.9164
▁vocal	-11.9169
▁Buffalo	-11.9173
▁Erdogan	-11.9173
▁Frances	-11.9173
▁Gay	-11.9173
▁Theo	-11.9173
▁foreground	-11.9173
▁primed	-11.9177
▁Something	-11.9181
▁Together	-11.9181
▁amass	-11.9181
▁clever	-11.9181
▁lands	-11.9181
▁restrained	-11.9181
▁stating	-11.9186
▁till	-11.9186
▁Hamburg	-11.919
▁Patterson	-11.919
▁Throughout	-11.919
▁gaining	-11.919
▁encounters	-11.9194
▁piano	-11.9194
▁hitherto	-11.9199
▁interaction	-11.9199
▁salad	-11.9199
▁expanding	-11.9203
▁humor	-11.9203
▁Diaz	-11.9207
▁Patients	-11.9207
▁Rhode	-11.9207
▁arguably	-11.9207
▁compassion	-11.9207
▁cyclists	-11.9207
▁Plan	-11.9211
▁styles	-11.9211
▁uncertain	-11.9211
▁visual	-11.9211
▁2022	-11.9216
▁Dominican	-11.9216
▁Editor	-11.9216
▁Miles	-11.9216
▁Rovers	-11.9216
▁cables	-11.9216
▁loyalty	-11.9216
▁refuge	-11.9216
▁1000	-11.922
▁approximate	-11.922
▁predominate	-11.922
▁unsure	-11.922
▁Clay	-11.9224
▁Controversial	-11.9224
▁accomplice	-11.9224
▁angel	-11.9233
▁constituency	-11.9233
▁heavyweight	-11.9233
▁organic	-11.9233
▁treaty	-11.9233
▁resting	-11.9237
▁weve	-11.9237
▁Hotspur	-11.9242
▁jab	-11.9242
▁shaken	-11.9242
▁cautious	-11.9246
▁Abbas	-11.925
▁Figures	-11.925
▁Parks	-11.925
▁balloons	-11.925
▁operates	-11.925
▁Casillas	-11.9259
▁Data	-11.9259
▁Doyle	-11.9259
▁Ecclestone	-11.9259
▁Regiment	-11.9259
▁accessories	-11.9259
▁factories	-11.9259
▁spectrum	-11.9259
▁martial	-11.9263
▁produces	-11.9263
▁surplus	-11.9263
▁Abraham	-11.9268
▁Nashville	-11.9268
▁bacon	-11.9268
▁regulators	-11.9268
▁Evidence	-11.9276
▁Joey	-11.9276
▁cling	-11.9276
▁commitments	-11.9276
▁recommendation	-11.9276
▁lag	-11.9281
▁reluctant	-11.9281
▁uttermost	-11.9281
▁Kremlin	-11.9285
▁districts	-11.9285
▁marvellous	-11.9285
▁reserves	-11.9289
▁BC	-11.9294
▁Baptist	-11.9294
▁Yale	-11.9294
▁births	-11.9294
▁landlord	-11.9294
▁knocking	-11.9302
▁obsession	-11.9302
▁tenants	-11.9302
▁verge	-11.9302
▁countless	-11.9307
▁outwear	-11.9307
▁Jefferson	-11.9311
▁Stanford	-11.9311
▁bold	-11.9311
▁lunar	-11.9311
▁sightings	-11.9315
▁Beauty	-11.932
▁CPS	-11.932
▁hoard	-11.932
▁shifts	-11.932
▁surveyed	-11.9324
▁varnish	-11.9324
▁amendment	-11.9328
▁happier	-11.9328
▁scandals	-11.9328
▁turmoil	-11.9328
▁accessible	-11.9333
▁concisely	-11.9333
▁pressures	-11.9333
▁Making	-11.9337
▁Sanford	-11.9337
▁Watford	-11.9337
▁appalled	-11.9337
▁asthma	-11.9337
▁dedication	-11.9337
▁innings	-11.9337
▁relay	-11.9337
▁Brittany	-11.9346
▁Cafe	-11.9346
▁noon	-11.9346
▁Fallon	-11.9354
▁Kroos	-11.9354
▁Zoe	-11.9354
▁tuition	-11.9354
▁riposte	-11.9359
▁unloose	-11.9359
▁Montreal	-11.9363
▁Neighbors	-11.9363
▁Ruby	-11.9363
▁entertaining	-11.9363
▁gestures	-11.9368
▁magnificent	-11.9368
▁Resort	-11.9372
▁collector	-11.9372
▁patience	-11.9372
▁Kieran	-11.9381
▁campaigner	-11.9381
▁icy	-11.9385
▁replicate	-11.9385
▁Naval	-11.9389
▁Townsend	-11.9389
▁abruptly	-11.9389
▁articles	-11.9389
▁releases	-11.9389
▁Coach	-11.9398
▁Currently	-11.9398
▁format	-11.9398
▁gratuitous	-11.9398
▁observation	-11.9398
▁colourful	-11.9403
▁departed	-11.9403
▁drum	-11.9403
▁repeal	-11.9403
▁surprisingly	-11.9403
▁Hospitals	-11.9407
▁Les	-11.9407
▁admire	-11.9407
▁bedside	-11.9407
▁colorful	-11.9407
▁platforms	-11.9407
▁scope	-11.9407
▁slavery	-11.9407
▁nails	-11.9411
▁pie	-11.9411
▁Forum	-11.9416
▁Santiago	-11.9416
▁Sociedad	-11.9416
▁blade	-11.9416
▁hardware	-11.9416
▁homeowners	-11.9416
▁injections	-11.9416
▁robber	-11.9416
▁womens	-11.9416
▁Burke	-11.9424
▁Robson	-11.9424
▁convincing	-11.9424
▁default	-11.9424
▁jolly	-11.9424
▁oversight	-11.9424
▁dribble	-11.9429
▁Rather	-11.9433
▁afield	-11.9433
▁colored	-11.9433
▁finale	-11.9433
▁indefinitely	-11.9433
▁spying	-11.9433
▁violating	-11.9433
▁spoilt	-11.9438
▁warrants	-11.9438
▁AT	-11.9442
▁Israelis	-11.9442
▁backdrop	-11.9442
▁blessing	-11.9442
▁implant	-11.9442
▁torch	-11.9442
▁valid	-11.9442
▁closet	-11.9446
▁controlling	-11.9446
▁1944	-11.9451
▁Antarctica	-11.9451
▁Gemma	-11.9451
▁Opposition	-11.9451
▁Philippe	-11.9451
▁Sakho	-11.9451
▁familys	-11.9451
▁grades	-11.9451
▁sq	-11.9451
▁cosmetic	-11.9455
▁HSBC	-11.946
▁Mesut	-11.946
▁confirming	-11.946
▁milestone	-11.946
▁whatsoever	-11.946
▁angered	-11.9464
▁nod	-11.9464
▁shroud	-11.9464
▁Cambridgeshire	-11.9469
▁Oscars	-11.9469
▁pond	-11.9469
▁strangled	-11.9473
▁Dani	-11.9477
▁Meredith	-11.9477
▁Pensions	-11.9477
▁inject	-11.9477
▁packaging	-11.9477
▁prints	-11.9482
▁McCann	-11.9486
▁Wyoming	-11.9486
▁assigned	-11.9486
▁Grade	-11.9495
▁Nina	-11.9495
▁imminent	-11.9495
▁robbers	-11.9495
▁intentionally	-11.9499
▁sprain	-11.9499
▁unforced	-11.9499
▁Londons	-11.9504
▁Poole	-11.9504
▁sentiment	-11.9504
▁Dana	-11.9513
▁Helmand	-11.9513
▁Pulis	-11.9513
▁Going	-11.9517
▁satellites	-11.9517
▁snack	-11.9517
▁Blacks	-11.9522
▁footling	-11.9522
▁forehead	-11.9522
▁heaven	-11.9526
▁Farah	-11.9531
▁Rail	-11.9531
▁agreements	-11.9531
▁booze	-11.9531
▁dispatcher	-11.9531
▁jumper	-11.9531
▁prizes	-11.9531
▁Oval	-11.9535
▁authorized	-11.9535
▁supposedly	-11.9535
▁Case	-11.9539
▁counterpart	-11.9539
▁freshman	-11.9539
▁mogul	-11.9539
▁vitamin	-11.9539
▁Magic	-11.9544
▁graduates	-11.9544
▁Gallery	-11.9548
▁colleges	-11.9548
▁discovering	-11.9548
▁imprisoned	-11.9553
▁mere	-11.9553
▁175	-11.9557
▁spike	-11.9557
▁standings	-11.9557
▁Classic	-11.9566
▁Clinic	-11.9566
▁Rod	-11.9566
▁cries	-11.9566
▁initiatives	-11.9566
▁medications	-11.9566
▁miners	-11.9566
▁sunny	-11.9566
▁Levy	-11.9571
▁Autumn	-11.9575
▁Tamerlan	-11.9575
▁Valerie	-11.9575
▁interrogation	-11.9575
▁servants	-11.9575
▁grieving	-11.9579
▁rick	-11.9579
▁Eye	-11.9584
▁Sudanese	-11.9584
▁apple	-11.9584
▁strokes	-11.9584
▁surround	-11.9584
▁wished	-11.9584
▁Jagger	-11.9593
▁customs	-11.9593
▁retaliation	-11.9593
▁incisively	-11.9597
▁silly	-11.9597
▁Dzhokhar	-11.9602
▁Felix	-11.9602
▁Fiorentina	-11.9602
▁Giants	-11.9602
▁Kercher	-11.9602
▁Wellington	-11.9602
▁disclosure	-11.9602
▁fails	-11.9602
▁installation	-11.9602
▁monkeys	-11.9602
▁parenting	-11.9602
▁remainder	-11.9602
▁sidewalk	-11.9602
▁identifying	-11.9606
▁sequence	-11.9606
▁Clooney	-11.9611
▁Willis	-11.9611
▁alarming	-11.9611
▁devastation	-11.9611
▁heretofore	-11.9611
▁intelligibly	-11.9611
▁predator	-11.9611
▁acquired	-11.9615
▁regretful	-11.9615
▁spared	-11.9615
▁Flowers	-11.962
▁Ofsted	-11.962
▁Tomas	-11.962
▁gruelling	-11.962
▁homemade	-11.962
▁intimidation	-11.962
▁Allan	-11.9629
▁Cat	-11.9629
▁Groves	-11.9629
▁Marina	-11.9629
▁Walcott	-11.9629
▁devil	-11.9629
▁Marsh	-11.9638
▁Thomson	-11.9638
▁Y	-11.9638
▁pools	-11.9638
▁sounded	-11.9638
▁Aurora	-11.9647
▁Buenos	-11.9647
▁Journalist	-11.9647
▁hedge	-11.9647
▁poke	-11.9647
▁sprint	-11.9647
▁tenure	-11.9647
▁transactions	-11.9647
▁wickets	-11.9647
▁betting	-11.9651
▁curriculum	-11.9656
▁Heat	-11.9665
▁Nissan	-11.9665
▁Rubio	-11.9665
▁economist	-11.9665
▁mammals	-11.9665
▁revenues	-11.9665
▁sexist	-11.9665
▁examining	-11.9669
▁shook	-11.9669
▁bitten	-11.9674
▁ranch	-11.9674
▁Climate	-11.9683
▁Savannah	-11.9683
▁Shakespeare	-11.9683
▁caliber	-11.9683
▁Minneapolis	-11.9692
▁cups	-11.9692
▁volcanic	-11.9692
▁wrestling	-11.9692
▁Eto	-11.9701
▁tumor	-11.9701
▁ink	-11.9705
▁Aires	-11.971
▁Clayton	-11.9719
▁Clippers	-11.9719
▁Estonia	-11.9719
▁Irvine	-11.9719
▁balanced	-11.9719
▁lure	-11.9719
▁magnetic	-11.9719
▁marking	-11.9719
▁obligation	-11.9719
▁transmission	-11.9719
▁Gaga	-11.9723
▁hobby	-11.9728
▁mistaken	-11.9728
▁objective	-11.9728
▁Johnston	-11.9737
▁cellphone	-11.9737
▁cleric	-11.9737
▁disperse	-11.9737
▁makeup	-11.9737
▁oral	-11.9737
▁spiders	-11.9737
▁censor	-11.9741
▁Box	-11.9746
▁Harbour	-11.9746
▁exports	-11.9746
▁intersection	-11.9746
▁sticking	-11.9746
▁blunt	-11.975
▁drank	-11.975
▁invalidate	-11.975
▁applicants	-11.9755
▁literature	-11.9755
▁Paterson	-11.9764
▁counseling	-11.9769
▁Romanian	-11.9773
▁jihad	-11.9773
▁queer	-11.9773
▁workforce	-11.9773
▁luxurious	-11.9778
▁prop	-11.9778
▁Beth	-11.9782
▁Milner	-11.9782
▁Milton	-11.9782
▁Moses	-11.9782
▁cousins	-11.9782
▁hunter	-11.9782
▁midst	-11.9782
▁static	-11.9782
▁stakes	-11.9787
▁Rossi	-11.9791
▁Victory	-11.9791
▁disasters	-11.9791
▁efficiency	-11.9791
▁maritime	-11.9791
▁possessions	-11.9791
▁showcase	-11.9791
▁Beck	-11.9801
▁Reeves	-11.9801
▁exotic	-11.9801
▁05	-11.981
▁Cheltenham	-11.981
▁UAE	-11.981
▁delicate	-11.981
▁disrupt	-11.981
▁shells	-11.981
▁Koreans	-11.9819
▁abilities	-11.9819
▁acceptance	-11.9819
▁cue	-11.9819
▁elbow	-11.9819
▁publicist	-11.9819
▁seller	-11.9819
▁badge	-11.9823
▁owed	-11.9823
▁Ki	-11.9828
▁accuracy	-11.9828
▁blooded	-11.9828
▁separatists	-11.9828
▁colors	-11.9833
▁230	-11.9837
▁Hours	-11.9837
▁atop	-11.9837
▁cancers	-11.9837
▁mechanism	-11.9837
▁nutrition	-11.9837
▁Make	-11.9842
▁incorporate	-11.9842
▁Amir	-11.9846
▁backgrounds	-11.9846
▁controller	-11.9846
▁fridge	-11.9846
▁iPhones	-11.9846
▁profiles	-11.9846
▁silk	-11.9846
▁undermine	-11.9846
▁Aid	-11.9851
▁laying	-11.9851
▁Annie	-11.9855
▁Karim	-11.9855
▁Nolan	-11.9855
▁inebriated	-11.9855
▁likelihood	-11.9855
▁Dec	-11.9865
▁Stephens	-11.9865
▁Williamson	-11.9865
▁invested	-11.9865
▁recruits	-11.9865
▁sequester	-11.9865
▁import	-11.9869
▁Popular	-11.9874
▁fishermen	-11.9874
▁tactical	-11.9874
▁Dover	-11.9883
▁Eva	-11.9883
▁Natasha	-11.9883
▁Zurich	-11.9883
▁albums	-11.9883
▁irresponsible	-11.9883
▁prolonged	-11.9883
▁tents	-11.9883
▁Behind	-11.9892
▁corporations	-11.9892
▁fore	-11.9892
▁pint	-11.9892
▁stimulus	-11.9892
▁collide	-11.9897
▁fume	-11.9897
▁Midwest	-11.9901
▁Nicky	-11.9901
▁Petersburg	-11.9901
▁Roland	-11.9901
▁occupation	-11.9901
▁disclosed	-11.9906
▁Marilyn	-11.9911
▁Missing	-11.9911
▁handbag	-11.9911
▁healthier	-11.9911
▁speculate	-11.9911
▁audit	-11.9915
▁speedily	-11.9915
▁Juarez	-11.992
▁compile	-11.992
▁fits	-11.992
▁handset	-11.992
▁semifinals	-11.992
▁Canyon	-11.9929
▁Venice	-11.9929
▁antics	-11.9929
▁skilled	-11.9929
▁succession	-11.9929
▁von	-11.9929
▁streak	-11.9934
▁Bercow	-11.9938
▁belittled	-11.9938
▁inequality	-11.9938
▁Got	-11.9948
▁apace	-11.9948
▁rein	-11.9948
▁tackling	-11.9948
▁rend	-11.9952
▁Fury	-11.9957
▁Mathieu	-11.9957
▁Sacramento	-11.9957
▁corners	-11.9957
▁destroying	-11.9957
▁galaxy	-11.9957
▁priests	-11.9957
▁printing	-11.9957
▁revere	-11.9957
▁Revolution	-11.9966
▁Tennis	-11.9966
▁whites	-11.9966
▁kissing	-11.9971
▁ransom	-11.9971
▁Communications	-11.9975
▁Finland	-11.9975
▁Grammy	-11.9975
▁Township	-11.9975
▁enthusiasts	-11.9975
▁governors	-11.9975
▁leaks	-11.9975
▁physics	-11.9975
▁revolutionary	-11.9975
▁Cesar	-11.9985
▁Made	-11.9985
▁ambulances	-11.9985
▁eve	-11.9985
▁weddings	-11.9985
▁combine	-11.9989
▁sponsored	-11.9989
▁wasted	-11.9989
▁Corporal	-11.9994
▁JFK	-11.9994
▁Sales	-11.9994
▁dreadful	-11.9994
▁dub	-11.9994
▁patently	-11.9994
▁batsman	-12.0003
▁lighter	-12.0003
▁prospective	-12.0013
▁Previous	-12.0017
▁disagree	-12.0017
▁persistent	-12.0017
▁quietly	-12.0017
▁Band	-12.0022
▁Molly	-12.0022
▁Parsons	-12.0022
▁infants	-12.0022
▁protocol	-12.0022
▁tweeting	-12.0022
▁ostensibly	-12.0027
▁rouse	-12.0027
▁Harold	-12.0031
▁conclusions	-12.0031
▁crowned	-12.0036
▁sinking	-12.0036
▁Ontario	-12.0041
▁Rahman	-12.0041
▁gentleman	-12.0041
▁getaway	-12.0041
▁greenhouse	-12.0041
▁repulse	-12.0041
▁snaps	-12.0041
▁weakness	-12.0041
▁hurry	-12.0045
▁recruited	-12.0045
▁credentials	-12.005
▁epic	-12.005
▁Legal	-12.0059
▁Sasha	-12.0059
▁Vienna	-12.0059
▁flush	-12.0059
▁meningitis	-12.0059
▁monitors	-12.0059
▁pedestrian	-12.0064
▁straw	-12.0064
▁Late	-12.0069
▁aiming	-12.0069
▁amazed	-12.0069
▁merchandise	-12.0069
▁pause	-12.0069
▁policemen	-12.0069
▁screamed	-12.0069
▁camping	-12.0073
▁concerning	-12.0073
▁horrifying	-12.0073
▁prohibited	-12.0078
▁thorough	-12.0078
▁Exchange	-12.0083
▁IV	-12.0087
▁elicit	-12.0087
▁fertile	-12.0092
▁portrayed	-12.0092
▁Colbert	-12.0097
▁curious	-12.0097
▁encompassing	-12.0097
▁hygiene	-12.0097
▁lengths	-12.0097
▁Americas	-12.0106
▁expressing	-12.0106
▁extinction	-12.0106
▁instructed	-12.0106
▁stun	-12.0106
▁forming	-12.0111
▁mourn	-12.0111
▁DVD	-12.0116
▁Dundee	-12.0116
▁breaches	-12.0116
▁compelling	-12.0116
▁jumps	-12.0116
▁promotional	-12.0116
▁sword	-12.0116
▁plausibly	-12.012
▁Anger	-12.0125
▁Calderon	-12.0125
▁Mom	-12.0125
▁cough	-12.0125
▁takeover	-12.0125
▁Says	-12.013
▁recoil	-12.013
▁Kelley	-12.0135
▁circus	-12.0135
▁fascinating	-12.0135
▁herd	-12.0135
▁invented	-12.0135
▁netted	-12.0135
▁psychiatrist	-12.0135
▁referees	-12.0135
▁Hard	-12.0139
▁Dewani	-12.0144
▁Heights	-12.0144
▁Wiggins	-12.0144
▁coerce	-12.0144
▁downstairs	-12.0144
▁messaging	-12.0144
▁snacks	-12.0144
▁tailor	-12.0144
▁topics	-12.0144
▁heartbreaking	-12.0158
▁duplicate	-12.0163
▁iPads	-12.0163
▁lawmaker	-12.0163
▁provincial	-12.0163
▁regulator	-12.0163
▁Gross	-12.0168
▁rows	-12.0168
▁Amerindic	-12.0172
▁Mancini	-12.0172
▁Mo	-12.0172
▁Shirley	-12.0172
▁Walton	-12.0172
▁flowing	-12.0172
▁impacts	-12.0172
▁liability	-12.0172
▁frantic	-12.0177
▁nameless	-12.0177
▁ruby	-12.0177
▁Graeme	-12.0182
▁controllers	-12.0182
▁eyebrows	-12.0182
▁unplayful	-12.0182
▁wicket	-12.0182
▁haunt	-12.0187
▁uncoerced	-12.0187
▁Issa	-12.0191
▁ancestors	-12.0191
▁battlefield	-12.0191
▁colony	-12.0191
▁cooked	-12.0191
▁economics	-12.0191
▁fatalities	-12.0191
▁embracing	-12.0196
▁frustrating	-12.0196
▁kills	-12.0196
▁Calais	-12.0201
▁Griffiths	-12.0201
▁Isaac	-12.0201
▁baggage	-12.0201
▁fortify	-12.0201
▁traditions	-12.0201
▁wounding	-12.021
▁exploring	-12.0215
▁indorse	-12.0215
▁Gina	-12.022
▁pathetic	-12.022
▁provocative	-12.022
▁sprung	-12.022
▁bias	-12.0225
▁vile	-12.0225
▁Jubilee	-12.0229
▁Nasri	-12.0229
▁costly	-12.0234
▁nobble	-12.0234
▁worthful	-12.0234
▁Brennan	-12.0239
▁Melanie	-12.0239
▁deflect	-12.0239
▁kindness	-12.0239
▁mend	-12.0239
▁operational	-12.0239
▁crane	-12.0244
▁snub	-12.0244
▁Infirmary	-12.0248
▁Katy	-12.0248
▁Paramedics	-12.0248
▁boasted	-12.0248
▁precaution	-12.0248
▁curfew	-12.0258
▁interfere	-12.0258
▁raced	-12.0258
▁evolve	-12.0263
▁lily	-12.0263
▁shun	-12.0263
▁supplied	-12.0263
▁Amerind	-12.0267
▁Huffington	-12.0267
▁Independence	-12.0267
▁clue	-12.0267
▁fascinate	-12.0267
▁kingdom	-12.0267
▁necklace	-12.0267
▁surfing	-12.0267
▁secrete	-12.0272
▁thirty	-12.0272
▁Marion	-12.0277
▁Monk	-12.0277
▁enroll	-12.0277
▁implemented	-12.0277
▁telescope	-12.0282
▁Webster	-12.0287
▁mins	-12.0287
▁compiled	-12.0291
▁wrick	-12.0291
▁08	-12.0296
▁Gallagher	-12.0296
▁Vanessa	-12.0296
▁happily	-12.0296
▁Rush	-12.0301
▁evident	-12.0301
▁jug	-12.0301
▁Angelina	-12.0306
▁Design	-12.0306
▁Nash	-12.0306
▁Sollecito	-12.0306
▁breached	-12.0306
▁ceremonies	-12.0306
▁frontman	-12.0306
▁guided	-12.0311
▁ordering	-12.0311
▁Dempsey	-12.0315
▁Guatemala	-12.0315
▁Thierry	-12.0315
▁calculated	-12.0315
▁credibly	-12.0315
▁Barnett	-12.0325
▁Elliot	-12.0325
▁Kanye	-12.0325
▁Lille	-12.0325
▁credible	-12.0325
▁crushing	-12.0325
▁hanged	-12.0325
▁jockey	-12.0325
▁shoots	-12.0325
▁permitted	-12.033
▁Ahmad	-12.0335
▁Senegal	-12.0335
▁Stacey	-12.0335
▁securing	-12.0335
▁tractor	-12.0335
▁darling	-12.0339
▁fashionable	-12.0339
▁inherited	-12.0339
▁HMRC	-12.0344
▁Newsnight	-12.0344
▁affluent	-12.0344
▁surfaces	-12.0344
▁threshold	-12.0344
▁cakes	-12.0349
▁lonely	-12.0349
▁remembers	-12.0349
▁Conservation	-12.0354
▁Relations	-12.0354
▁Starr	-12.0354
▁Yang	-12.0354
▁dairy	-12.0354
▁goers	-12.0354
▁roommate	-12.0354
▁ought	-12.0359
▁Webber	-12.0364
▁rogue	-12.0364
▁willingness	-12.0364
▁Rocky	-12.0368
▁Short	-12.0368
▁oblige	-12.0368
▁Alastair	-12.0373
▁Bernie	-12.0373
▁Cunningham	-12.0373
▁HBO	-12.0373
▁Jonny	-12.0373
▁Marquez	-12.0373
▁Owens	-12.0373
▁filmmaker	-12.0373
▁presenters	-12.0373
▁bounce	-12.0378
▁reminded	-12.0378
▁Jerome	-12.0383
▁Pole	-12.0383
▁Urban	-12.0383
▁budgets	-12.0383
▁historian	-12.0383
▁payout	-12.0383
▁setback	-12.0383
▁unresponsive	-12.0383
▁bins	-12.0388
▁Alfred	-12.0393
▁Boyle	-12.0393
▁Hebdo	-12.0393
▁grabbing	-12.0393
▁tumours	-12.0393
▁broker	-12.0397
▁butt	-12.0397
▁Twickenham	-12.0402
▁entrepreneurs	-12.0402
▁reverence	-12.0407
▁Hicks	-12.0412
▁trance	-12.0412
▁unsuccessful	-12.0412
▁intellectual	-12.0417
▁Native	-12.0422
▁Saddam	-12.0422
▁albeit	-12.0422
▁broader	-12.0422
▁perpetrators	-12.0422
▁refuses	-12.0422
▁bowling	-12.0426
▁exile	-12.0426
▁Chiefs	-12.0431
▁Ethiopia	-12.0431
▁Grove	-12.0431
▁brakes	-12.0431
▁caravan	-12.0431
▁childcare	-12.0431
▁halftime	-12.0431
▁hostile	-12.0431
▁takeaway	-12.0431
▁temper	-12.0436
▁Cliff	-12.0441
▁IPCC	-12.0441
▁Professional	-12.0441
▁Stefan	-12.0441
▁mercy	-12.0441
▁tapes	-12.0441
▁pedestrians	-12.0451
▁stats	-12.0451
▁Soon	-12.0456
▁naming	-12.0456
▁nifty	-12.0456
▁ramp	-12.0456
▁scattered	-12.0456
▁settings	-12.0456
▁Ballon	-12.0461
▁Hayden	-12.0461
▁Pastor	-12.0461
▁Pepe	-12.0461
▁bide	-12.0461
▁corpse	-12.0461
▁influx	-12.0461
▁touches	-12.0461
▁Flying	-12.0465
▁honestly	-12.0465
▁Courtney	-12.047
▁Qantas	-12.047
▁Stan	-12.047
▁Summit	-12.047
▁Thirty	-12.047
▁Wawrinka	-12.047
▁accomplished	-12.047
▁fist	-12.047
▁fluids	-12.047
▁analyze	-12.0475
▁portray	-12.0475
▁praying	-12.0475
▁Cats	-12.048
▁Cech	-12.048
▁Mickelson	-12.048
▁Royce	-12.048
▁addicted	-12.048
▁enchant	-12.048
▁Affordable	-12.0485
▁Outside	-12.0485
▁bush	-12.0485
▁notify	-12.0485
▁Forrest	-12.049
▁beak	-12.049
▁miniature	-12.049
▁unconvincing	-12.049
▁hollow	-12.0495
▁Carrick	-12.05
▁McDonnell	-12.05
▁Simmons	-12.05
▁mastermind	-12.05
▁stockpile	-12.05
▁vacant	-12.05
▁ageing	-12.0504
▁bragging	-12.0509
▁diesel	-12.0509
▁eagle	-12.0509
▁gray	-12.0509
▁interference	-12.0509
▁inviolable	-12.0509
▁sank	-12.0509
▁technically	-12.0509
▁theaters	-12.0509
▁MoD	-12.0514
▁believably	-12.0514
▁Doncaster	-12.0519
▁Malaga	-12.0519
▁Nottinghamshire	-12.0519
▁ace	-12.0519
▁associates	-12.0519
▁heir	-12.0519
▁picturesque	-12.0519
▁denying	-12.0524
▁regress	-12.0524
▁scales	-12.0524
▁Sugar	-12.0529
▁apprize	-12.0529
▁grenades	-12.0529
▁annotate	-12.0534
▁Relatives	-12.0539
▁Witness	-12.0539
▁peacefully	-12.0539
▁provoked	-12.0544
▁uncollectible	-12.0544
▁wander	-12.0544
▁Gatwick	-12.0549
▁Lovren	-12.0549
▁sneak	-12.0549
▁swollen	-12.0549
▁inherit	-12.0554
▁micro	-12.0554
▁Charity	-12.0558
▁Mayfair	-12.0558
▁Universal	-12.0558
▁accordance	-12.0558
▁circumvent	-12.0558
▁pencil	-12.0558
▁picks	-12.0558
▁yelling	-12.0558
▁RBS	-12.0568
▁drawings	-12.0568
▁memorabilia	-12.0568
▁servicemen	-12.0568
▁135	-12.0573
▁Scotch	-12.0573
▁exceed	-12.0573
▁Cuomo	-12.0578
▁Ellie	-12.0578
▁Rico	-12.0578
▁Yeah	-12.0578
▁transparent	-12.0578
▁catastrophic	-12.0583
▁Beatrice	-12.0588
▁List	-12.0588
▁localize	-12.0588
▁reconstruction	-12.0588
▁sovereignty	-12.0588
▁troop	-12.0593
▁Cowboys	-12.0598
▁Rochdale	-12.0598
▁Slovenia	-12.0598
▁admissions	-12.0598
▁caretaker	-12.0598
▁offshore	-12.0598
▁outlook	-12.0598
▁wisdom	-12.0598
▁plots	-12.0603
▁Wing	-12.0608
▁competitor	-12.0608
▁puppies	-12.0608
▁Full	-12.0613
▁marvelous	-12.0613
▁pullulate	-12.0613
▁socks	-12.0613
▁Buckinghamshire	-12.0618
▁Eagle	-12.0618
▁Gloria	-12.0618
▁Kris	-12.0618
▁Sentinel	-12.0618
▁cement	-12.0618
▁consequence	-12.0618
▁smuggled	-12.0618
▁earliest	-12.0623
▁manifestly	-12.0623
▁strictly	-12.0623
▁Fukushima	-12.0628
▁sparking	-12.0628
▁localise	-12.0633
▁Warwickshire	-12.0638
▁mortality	-12.0638
▁suspicions	-12.0638
▁Pan	-12.0642
▁gunned	-12.0642
▁Typhoon	-12.0647
▁blacks	-12.0647
▁clearance	-12.0647
▁conquer	-12.0647
▁dominant	-12.0647
▁peachy	-12.0652
▁Breaking	-12.0657
▁loads	-12.0662
▁Ashes	-12.0667
▁LONDON	-12.0667
▁Lima	-12.0667
▁Uniteds	-12.0667
▁bureau	-12.0667
▁contestant	-12.0667
▁disembarrass	-12.0667
▁jackets	-12.0667
▁attributed	-12.0672
▁locally	-12.0672
▁Franco	-12.0677
▁Goodison	-12.0677
▁Lower	-12.0677
▁O2	-12.0677
▁imposing	-12.0677
▁listing	-12.0677
▁texted	-12.0677
▁visibly	-12.0677
▁addressing	-12.0682
▁flourish	-12.0682
▁Guests	-12.0687
▁LGBT	-12.0687
▁Sharia	-12.0687
▁steering	-12.0687
▁falsely	-12.0692
▁Breakfast	-12.0697
▁Seahawks	-12.0697
▁alternatives	-12.0697
▁burglar	-12.0697
▁anguish	-12.0702
▁soup	-12.0702
▁Tanzania	-12.0707
▁environments	-12.0707
▁fisherman	-12.0707
▁fortunes	-12.0707
▁reader	-12.0707
▁recreational	-12.0707
▁Daniels	-12.0717
▁creativity	-12.0717
▁fractures	-12.0717
▁hills	-12.0717
▁saddle	-12.0722
▁towel	-12.0722
▁Better	-12.0727
▁Latinos	-12.0727
▁Mel	-12.0727
▁Paralympic	-12.0727
▁Prof	-12.0727
▁Very	-12.0727
▁bleak	-12.0727
▁brutality	-12.0727
▁gorgeous	-12.0727
▁terrace	-12.0727
▁feud	-12.0732
▁flare	-12.0732
▁Chilean	-12.0737
▁Mitch	-12.0737
▁artillery	-12.0737
▁creations	-12.0737
▁noises	-12.0737
▁novels	-12.0737
▁spirited	-12.0737
▁voiced	-12.0737
▁technological	-12.0742
▁Copa	-12.0747
▁Copenhagen	-12.0747
▁Dee	-12.0747
▁Donnell	-12.0747
▁Falklands	-12.0747
▁Warnock	-12.0747
▁Comes	-12.0752
▁designated	-12.0752
▁scent	-12.0752
▁Craigslist	-12.0757
▁Kuala	-12.0757
▁Plaza	-12.0757
▁depends	-12.0757
▁slashed	-12.0757
▁avoiding	-12.0762
▁beguile	-12.0762
▁doses	-12.0762
▁soared	-12.0762
▁Gibraltar	-12.0767
▁Pamela	-12.0767
▁candles	-12.0767
▁remotely	-12.0767
▁sadly	-12.0767
▁comparable	-12.0772
▁resurrect	-12.0772
▁Hello	-12.0777
▁Kristina	-12.0777
▁fussy	-12.0777
▁pundit	-12.0777
▁standoff	-12.0777
▁stern	-12.0777
▁gratis	-12.0782
▁hush	-12.0782
▁Arias	-12.0787
▁Blanc	-12.0787
▁Borough	-12.0787
▁Joanne	-12.0787
▁disbelief	-12.0787
▁Suspect	-12.0793
▁gloomy	-12.0793
▁toned	-12.0793
▁Carnival	-12.0798
▁Chiellini	-12.0798
▁MI5	-12.0798
▁Mann	-12.0798
▁Motor	-12.0798
▁asset	-12.0798
▁leopard	-12.0798
▁spoil	-12.0798
▁needing	-12.0803
▁Accused	-12.0808
▁Stokes	-12.0808
▁Transcript	-12.0808
[...]
