<pad>	0
<unk>	0
<s>	0
</s>	0
▁.	-3.0078
▁the	-3.19
▁,	-3.25783
▁to	-3.76563
▁'	-3.81519
▁a	-3.94701
▁of	-3.94792
▁and	-3.9628
▁in	-4.0714
▁-	-4.34142
▁was	-4.76115
▁for	-4.85026
▁s	-4.87592
▁on	-4.8966
▁that	-4.931
▁is	-4.95724
▁The	-5.00274
▁"	-5.09257
▁with	-5.12969
▁his	-5.26414
▁he	-5.29472
▁:	-5.31292
▁at	-5.31444
▁as	-5.42669
▁it	-5.4272
▁have	-5.48506
▁from	-5.50486
▁I	-5.51098
▁has	-5.52886
▁by	-5.55027
▁be	-5.58112
▁her	-5.59751
▁said	-5.61957
▁are	-5.69618
▁had	-5.82653
▁an	-5.84157
▁who	-5.85556
▁not	-5.87624
▁were	-5.92081
▁been	-5.92165
▁after	-5.92596
▁they	-5.96658
▁she	-5.973
▁their	-5.97408
▁but	-5.99616
▁will	-6.06302
▁this	-6.09035
▁year	-6.18493
▁up	-6.28919
▁which	-6.29128
▁He	-6.31538
▁one	-6.32639
▁out	-6.34463
▁)	-6.35957
▁(	-6.36667
▁when	-6.36706
▁It	-6.41722
▁about	-6.45514
▁more	-6.45559
▁or	-6.49619
▁would	-6.4978
▁t	-6.50675
▁we	-6.52428
▁two	-6.54153
▁A	-6.54558
▁him	-6.56032
▁people	-6.58208
▁you	-6.59262
▁time	-6.61421
▁can	-6.62675
▁into	-6.65497
▁than	-6.71541
▁all	-6.73007
▁years	-6.74145
▁over	-6.74505
▁could	-6.79193
▁its	-6.80567
▁But	-6.82062
▁them	-6.83884
▁do	-6.83896
▁Mr	-6.83925
▁so	-6.84471
▁also	-6.8881
▁before	-6.89476
▁being	-6.90757
▁In	-6.94713
▁down	-6.94899
▁like	-6.95328
▁home	-6.95615
▁there	-6.96983
▁police	-6.97381
▁no	-6.97424
▁what	-6.99962
▁last	-7.00191
▁We	-7.0149
▁000	-7.02417
▁She	-7.02867
▁my	-7.03857
▁three	-7.06147
▁told	-7.07856
▁off	-7.08341
▁just	-7.10317
▁because	-7.11632
▁if	-7.12211
▁where	-7.13357
▁some	-7.13366
▁1	-7.1487
▁get	-7.15837
▁family	-7.16709
▁first	-7.1801
▁old	-7.19101
▁n	-7.19751
▁against	-7.20054
▁while	-7.20716
▁during	-7.22426
▁did	-7.23776
▁day	-7.2654
▁other	-7.31753
▁2	-7.31856
▁our	-7.32314
▁They	-7.32529
▁back	-7.34112
▁me	-7.34464
▁left	-7.3503
▁?	-7.35725
▁say	-7.36365
▁$	-7.36476
▁how	-7.37103
▁U	-7.37441
▁now	-7.37478
▁life	-7.37742
▁man	-7.38062
▁take	-7.39708
▁new	-7.40003
▁million	-7.41013
▁S	-7.4142
▁world	-7.41506
▁New	-7.41978
▁This	-7.43448
▁through	-7.43779
▁any	-7.44052
▁found	-7.44393
▁state	-7.44467
▁only	-7.44615
▁children	-7.44694
▁says	-7.44722
▁week	-7.44768
▁around	-7.45153
▁make	-7.46
▁right	-7.47436
▁since	-7.4816
▁former	-7.48311
▁way	-7.52056
▁four	-7.53377
▁work	-7.5436
▁m	-7.56121
▁many	-7.56548
▁team	-7.56838
▁made	-7.57415
▁most	-7.5821
▁well	-7.58495
▁then	-7.58578
▁go	-7.59892
▁still	-7.6105
▁place	-7.61373
▁United	-7.61896
▁those	-7.62099
▁video	-7.622
▁should	-7.62755
▁mother	-7.63472
▁10	-7.64297
▁between	-7.64339
▁death	-7.64941
▁see	-7.6545
▁per	-7.65802
▁court	-7.65955
▁part	-7.66356
▁3	-7.67626
▁5	-7.69667
▁night	-7.70652
▁under	-7.70792
▁such	-7.70955
▁five	-7.7105
▁country	-7.71624
▁very	-7.7203
▁month	-7.72379
▁And	-7.7329
▁may	-7.73351
▁government	-7.75141
▁women	-7.76446
▁days	-7.76826
▁Police	-7.76842
▁your	-7.77025
▁another	-7.7803
▁months	-7.7815
▁show	-7.78818
▁report	-7.80271
▁There	-7.8032
▁car	-7.80394
▁re	-7.80947
▁today	-7.80955
▁London	-7.81685
▁too	-7.82623
▁school	-7.83208
▁CNN	-7.8337
▁order	-7.83482
▁case	-7.83516
▁think	-7.85386
▁early	-7.85818
▁20	-7.86366
▁even	-7.86716
▁good	-7.87976
▁group	-7.88156
▁both	-7.88471
▁cent	-7.886
▁woman	-7.88675
▁4	-7.88906
▁much	-7.88928
▁public	-7.90287
▁look	-7.90654
▁long	-7.90753
▁wife	-7.91259
▁6	-7.91661
▁top	-7.9184
▁help	-7.92487
▁these	-7.92628
▁men	-7.93056
▁us	-7.93271
▁number	-7.94208
▁going	-7.94267
▁need	-7.94313
▁six	-7.95131
▁season	-7.95561
▁father	-7.96321
▁near	-7.96523
▁know	-7.97539
▁30	-7.97628
▁game	-7.98247
▁away	-7.98898
▁set	-7.99277
▁want	-7.99614
▁When	-7.99806
▁World	-7.99933
▁come	-8.00925
▁head	-8.01234
▁really	-8.01235
▁end	-8.01399
▁next	-8.01721
▁used	-8.01882
▁son	-8.02166
▁house	-8.02442
▁Obama	-8.0254
▁called	-8.02571
▁One	-8.03311
▁England	-8.03553
▁York	-8.036
▁If	-8.04053
▁side	-8.04135
▁Sunday	-8.04518
▁face	-8.05471
▁money	-8.05731
▁hospital	-8.06031
▁body	-8.06621
▁including	-8.06845
▁City	-8.07239
▁Monday	-8.07379
▁child	-8.07642
▁British	-8.08201
▁later	-8.08534
▁use	-8.08624
▁hours	-8.08754
▁took	-8.08879
▁high	-8.09338
▁pictured	-8.09898
▁tell	-8.09948
▁until	-8.10044
▁Tuesday	-8.10445
▁company	-8.1084
▁ve	-8.1104
▁attack	-8.11095
▁second	-8.11142
▁according	-8.11401
▁;	-8.12182
▁half	-8.1223
▁every	-8.12264
▁without	-8.12399
▁give	-8.12866
▁Friday	-8.13335
▁read	-8.13347
▁12	-8.13374
▁daughter	-8.13408
▁League	-8.13809
▁ago	-8.14401
▁support	-8.14747
▁statement	-8.15088
▁am	-8.15227
▁times	-8.15287
▁15	-8.15636
▁does	-8.16336
▁far	-8.16382
▁find	-8.1712
▁city	-8.17136
▁South	-8.1716
▁As	-8.17325
▁added	-8.17502
▁American	-8.17681
▁Saturday	-8.17785
▁club	-8.18064
▁area	-8.18932
▁Wednesday	-8.1906
▁Cup	-8.1927
▁each	-8.1967
▁!	-8.19724
▁own	-8.19791
▁across	-8.19875
▁President	-8.20058
▁7	-8.20417
▁name	-8.20469
▁That	-8.20487
▁run	-8.20685
▁seen	-8.2078
▁His	-8.20915
▁couple	-8.21067
▁officials	-8.21069
▁outside	-8.21075
▁few	-8.21194
▁UK	-8.21229
▁put	-8.21374
▁again	-8.21926
▁never	-8.22179
▁Ms	-8.22878
▁taken	-8.23136
▁young	-8.23224
▁deal	-8.23681
▁David	-8.23774
▁Thursday	-8.24069
▁already	-8.24761
▁got	-8.25028
▁parents	-8.25535
▁friends	-8.25797
▁law	-8.25806
▁something	-8.25906
▁weeks	-8.25954
▁went	-8.26105
▁win	-8.26178
▁water	-8.26239
▁th	-8.26609
▁2012	-8.26762
▁11	-8.26911
▁You	-8.27085
▁same	-8.27285
▁yet	-8.27313
▁After	-8.27431
▁front	-8.27583
▁died	-8.27963
▁move	-8.2813
▁On	-8.2899
▁Scroll	-8.28994
▁West	-8.29343
▁came	-8.29602
▁At	-8.29977
▁care	-8.3049
▁start	-8.3067
▁husband	-8.3087
▁evidence	-8.31477
▁incident	-8.31547
▁Manchester	-8.31607
▁members	-8.31864
▁John	-8.31942
▁health	-8.32012
▁lot	-8.32073
▁local	-8.32878
▁behind	-8.32908
▁Mrs	-8.32934
▁late	-8.33451
▁players	-8.33584
▁*	-8.33727
▁spokesman	-8.33942
▁president	-8.34169
▁officers	-8.34307
▁news	-8.35071
▁hit	-8.35517
▁Court	-8.3561
▁least	-8.35634
▁killed	-8.36333
▁play	-8.36363
▁security	-8.36396
▁whether	-8.36476
▁military	-8.37313
▁point	-8.37422
▁fire	-8.3783
▁following	-8.38022
▁murder	-8.38096
▁50	-8.38561
▁able	-8.38568
▁media	-8.39051
▁18	-8.39175
▁8	-8.39184
▁100	-8.39548
▁d	-8.40632
▁lead	-8.41539
▁Facebook	-8.41676
▁girl	-8.41699
▁minutes	-8.41776
▁University	-8.42003
▁final	-8.4206
▁investigation	-8.42106
▁North	-8.42161
▁person	-8.42383
▁himself	-8.43258
▁party	-8.43548
▁morning	-8.43653
▁enjoin	-8.43761
▁16	-8.44245
▁nt	-8.44268
▁match	-8.44504
▁2011	-8.44521
▁reported	-8.44567
▁believe	-8.44603
▁admit	-8.44758
▁authorities	-8.44871
▁star	-8.44879
▁best	-8.45155
▁line	-8.45449
▁Miss	-8.45761
▁decision	-8.45867
▁must	-8.45927
▁25	-8.46142
▁No	-8.4624
▁might	-8.46298
▁friend	-8.46358
▁phone	-8.46359
▁thought	-8.46496
▁include	-8.46582
▁hand	-8.47565
▁system	-8.47653
▁past	-8.47778
▁prison	-8.48188
▁campaign	-8.48228
▁charges	-8.48255
▁become	-8.48265
▁suppose	-8.48345
▁House	-8.48393
▁things	-8.48434
▁live	-8.4868
▁staff	-8.48747
▁er	-8.48822
▁along	-8.48968
▁allege	-8.49041
▁experience	-8.4919
▁seven	-8.49552
▁job	-8.49585
▁shot	-8.49592
▁information	-8.49676
▁9	-8.50218
▁sex	-8.50235
▁claims	-8.50299
▁food	-8.50495
▁break	-8.50651
▁aver	-8.50665
▁likewise	-8.50746
▁among	-8.50755
▁site	-8.51259
▁always	-8.51401
▁service	-8.51426
▁call	-8.51752
▁love	-8.51903
▁known	-8.52008
▁eight	-8.5207
▁having	-8.52233
▁less	-8.52283
▁For	-8.52716
▁equally	-8.52818
▁hold	-8.52818
▁real	-8.53061
▁Dr	-8.53397
▁leave	-8.53624
▁saying	-8.53804
▁besides	-8.53898
▁States	-8.53953
▁record	-8.54136
▁Michael	-8.54146
▁others	-8.54305
▁baby	-8.54891
▁14	-8.55352
▁boy	-8.5567
▁room	-8.55855
▁here	-8.56002
▁Britain	-8.56407
▁little	-8.56453
▁why	-8.56479
▁full	-8.56743
▁National	-8.57006
▁keep	-8.57085
▁pronounce	-8.57173
▁An	-8.57274
▁trial	-8.5737
▁40	-8.57586
▁articulate	-8.57618
▁asked	-8.57669
▁future	-8.58603
▁manager	-8.58656
▁enunciate	-8.58774
▁fans	-8.59345
▁enounce	-8.59551
▁charge	-8.5967
▁given	-8.5972
▁13	-8.59748
▁age	-8.59984
▁control	-8.60062
▁pay	-8.60086
▁officer	-8.60165
▁picture	-8.60943
▁January	-8.61025
▁change	-8.61086
▁2010	-8.61478
▁business	-8.61491
▁May	-8.61587
▁pass	-8.61989
▁close	-8.62021
▁office	-8.62084
▁China	-8.621
▁stop	-8.62295
▁scene	-8.62617
▁17	-8.6284
▁County	-8.63509
▁film	-8.63581
▁0	-8.63689
▁2013	-8.63786
▁air	-8.63918
▁goal	-8.64044
▁action	-8.64524
▁ground	-8.64607
▁Twitter	-8.64865
▁don	-8.65323
▁power	-8.65397
▁State	-8.65418
▁return	-8.65471
▁working	-8.65611
▁inside	-8.65791
▁study	-8.65889
▁What	-8.65958
▁arrested	-8.66071
▁despite	-8.66098
▁big	-8.66213
▁taking	-8.6627
▁24	-8.66787
▁great	-8.66874
▁won	-8.67061
▁Australia	-8.67064
▁allegedly	-8.67111
▁result	-8.67129
▁heard	-8.67143
▁making	-8.6715
▁shows	-8.67384
▁TV	-8.67493
▁/	-8.67556
▁using	-8.67736
▁football	-8.6788
▁player	-8.68046
▁judge	-8.68183
▁official	-8.68334
▁within	-8.68493
▁free	-8.68516
▁Liverpool	-8.6861
▁though	-8.68783
▁thing	-8.6882
▁started	-8.68855
▁Her	-8.68941
▁released	-8.6901
▁earlier	-8.69047
▁hard	-8.69067
▁due	-8.69314
▁September	-8.69341
▁Chelsea	-8.69364
▁Department	-8.69482
▁enough	-8.6973
▁clear	-8.69745
▁require	-8.69822
▁lost	-8.69928
▁%	-8.69976
▁issue	-8.69996
▁dead	-8.70004
▁community	-8.70325
▁heart	-8.70502
▁James	-8.70512
▁feel	-8.70606
▁chance	-8.7098
▁training	-8.70995
▁almost	-8.71266
▁website	-8.71477
▁several	-8.71482
▁drug	-8.72422
▁try	-8.72913
▁yesterday	-8.73012
▁political	-8.73135
▁victim	-8.73292
▁lives	-8.73327
▁ever	-8.7336
▁wanted	-8.73787
▁19	-8.73969
▁event	-8.74037
▁someone	-8.74221
▁claim	-8.74281
▁June	-8.74334
▁war	-8.74538
▁While	-8.74969
▁California	-8.75059
▁turn	-8.75119
▁December	-8.75491
▁summer	-8.75903
▁students	-8.76033
▁sure	-8.76242
▁saw	-8.76368
▁looking	-8.76415
▁cause	-8.76543
▁reports	-8.76603
▁search	-8.76661
▁Premier	-8.76695
▁victims	-8.76737
▁21	-8.76797
▁third	-8.76895
▁post	-8.77077
▁series	-8.77213
▁better	-8.77605
▁risk	-8.7768
▁miles	-8.7775
▁America	-8.77904
▁history	-8.78109
▁treatment	-8.78194
▁All	-8.784
▁November	-8.78452
▁potential	-8.78704
▁News	-8.78832
▁continue	-8.78934
▁fight	-8.78991
▁trying	-8.79008
▁director	-8.79325
▁bring	-8.79376
▁open	-8.79405
▁April	-8.79433
▁story	-8.79605
▁major	-8.79674
▁July	-8.79803
▁process	-8.80022
▁October	-8.80365
▁Minister	-8.80418
▁rights	-8.80508
▁claimed	-8.80519
▁account	-8.80636
▁online	-8.80932
▁human	-8.81008
▁dog	-8.81048
▁Washington	-8.81135
▁building	-8.81144
▁leader	-8.8115
▁cancer	-8.81199
▁likely	-8.81222
▁anything	-8.81286
▁centre	-8.81322
▁March	-8.81392
▁held	-8.81446
▁games	-8.81741
▁fact	-8.81773
▁revealed	-8.81794
▁Park	-8.81868
▁European	-8.82006
▁Some	-8.82235
▁brother	-8.82235
▁August	-8.82243
▁condition	-8.82413
▁However	-8.82438
▁role	-8.82454
▁My	-8.82646
▁500	-8.82875
▁walk	-8.83311
▁town	-8.83404
▁image	-8.83478
▁small	-8.83484
▁nothing	-8.83499
▁total	-8.83637
▁course	-8.83829
▁22	-8.83892
▁once	-8.8436
▁flight	-8.84515
▁light	-8.84728
▁based	-8.84779
▁level	-8.84836
▁2009	-8.84862
▁release	-8.85173
▁cover	-8.85291
▁billion	-8.85319
▁different	-8.85778
▁previous	-8.85818
▁road	-8.85931
▁rest	-8.85941
▁property	-8.85985
▁visit	-8.86072
▁nearly	-8.86235
▁problem	-8.86299
▁form	-8.86393
▁whose	-8.86395
▁countries	-8.86655
▁project	-8.86861
▁cut	-8.86895
▁member	-8.86903
▁together	-8.86979
▁wrote	-8.87058
▁pair	-8.87104
▁moment	-8.87185
▁began	-8.87301
▁round	-8.87315
▁recent	-8.87354
▁stay	-8.87354
▁nine	-8.8736
▁problems	-8.87721
▁career	-8.87743
▁often	-8.87757
▁girls	-8.87778
▁force	-8.87875
▁White	-8.88031
▁US	-8.88045
▁accused	-8.88222
▁arrest	-8.88222
▁sent	-8.88421
▁plan	-8.88464
▁interview	-8.8956
▁St	-8.89595
▁hour	-8.89694
▁injuries	-8.89921
▁driver	-8.90066
▁France	-8.90087
▁expected	-8.90153
▁Christmas	-8.90269
▁blood	-8.90292
▁Paul	-8.90423
▁race	-8.90531
▁Two	-8.90585
▁[	-8.90915
▁charged	-8.90927
▁class	-8.90965
▁plans	-8.91164
▁plane	-8.91212
▁]	-8.91291
▁became	-8.91598
▁book	-8.91653
▁ahead	-8.91707
▁appear	-8.91836
▁abuse	-8.92085
▁ne	-8.9244
▁station	-8.92474
▁Its	-8.92863
▁comments	-8.93217
▁safety	-8.93217
▁cost	-8.9341
▁crash	-8.93564
▁black	-8.93813
▁al	-8.93968
▁relationship	-8.94132
▁student	-8.94192
▁violence	-8.94222
▁research	-8.94482
▁ll	-8.94529
▁cases	-8.94623
▁23	-8.94979
▁didn	-8.95005
▁forward	-8.95105
▁consider	-8.95144
▁crime	-8.95207
▁living	-8.95308
▁families	-8.95364
▁George	-8.95578
▁happened	-8.95585
▁workers	-8.956
▁60	-8.95603
▁tried	-8.95607
▁present	-8.95677
▁term	-8.95712
▁allow	-8.95789
▁sentence	-8.96054
▁rather	-8.96094
▁watch	-8.96101
▁thousands	-8.96184
▁international	-8.9633
▁With	-8.96572
▁weekend	-8.96834
▁injury	-8.96935
▁further	-8.96949
▁anyone	-8.97038
▁2008	-8.97118
▁getting	-8.97213
▁done	-8.97293
▁February	-8.97411
▁hearing	-8.9746
▁Arsenal	-8.97599
▁received	-8.97838
▁&	-8.97889
▁doing	-8.97948
▁position	-8.97983
▁assault	-8.98057
▁large	-8.98122
▁list	-8.98271
▁spent	-8.98466
▁hands	-8.98557
▁chief	-8.98559
▁hope	-8.98559
▁social	-8.98602
▁comes	-8.98624
▁points	-8.98868
▁provide	-8.98886
▁led	-8.98895
▁attacks	-8.989
▁Africa	-8.98916
▁themselves	-8.98965
▁forces	-8.98979
▁message	-8.99147
▁meet	-8.99181
▁believed	-8.99283
▁simply	-8.99415
▁images	-8.99494
▁fall	-8.99594
▁everything	-8.99765
▁Hospital	-8.99847
▁important	-9.00039
▁com	-9.002
▁gun	-9.00225
▁increase	-9.0031
▁trip	-9.0031
▁photo	-9.00447
▁2014	-9.00737
▁Florida	-9.01097
▁26	-9.01262
▁Australian	-9.01296
▁200	-9.01322
▁bit	-9.01524
▁bear	-9.01561
▁patients	-9.01575
▁described	-9.0164
▁Europe	-9.01752
▁ain	-9.01824
▁East	-9.01989
▁immediately	-9.02213
▁ask	-9.02356
▁involved	-9.02373
▁To	-9.02443
▁jail	-9.02609
▁sister	-9.02692
▁Iraq	-9.02701
▁desire	-9.02943
▁space	-9.02988
▁played	-9.03144
▁ball	-9.03257
▁page	-9.03693
▁possible	-9.0378
▁drugs	-9.03849
▁act	-9.04116
▁tax	-9.04536
▁white	-9.04584
▁minute	-9.04663
▁reach	-9.0474
▁Smith	-9.04862
▁travel	-9.04963
▁27	-9.05018
▁let	-9.05071
▁victory	-9.05117
▁shooting	-9.05187
▁trust	-9.05245
▁gave	-9.05302
▁idea	-9.0559
▁view	-9.05626
▁damage	-9.0581
▁28	-9.05956
▁services	-9.0598
▁kind	-9.05982
▁self	-9.06021
▁seem	-9.06506
▁owner	-9.06518
▁situation	-9.06669
▁train	-9.06958
▁ca	-9.07034
▁areas	-9.07106
▁check	-9.07142
▁net	-9.07233
▁draw	-9.07292
▁learn	-9.0741
▁turned	-9.07701
▁door	-9.07756
▁above	-9.07835
▁test	-9.07954
▁board	-9.08058
▁market	-9.08219
▁admitted	-9.08313
▁hither	-9.08341
▁£	-9.0842
▁doctors	-9.08485
▁bed	-9.08607
▁pressure	-9.08839
▁personal	-9.08899
▁practice	-9.08984
▁hotel	-9.09124
▁current	-9.09154
▁street	-9.09177
▁playing	-9.09192
▁defeat	-9.09225
▁Union	-9.09423
▁nation	-9.09441
▁Brown	-9.09669
▁Russian	-9.09793
▁carry	-9.09907
▁camera	-9.10051
▁pm	-9.1036
▁everyone	-9.10441
▁Syria	-9.10466
▁range	-9.10504
▁feet	-9.10593
▁vehicle	-9.10634
▁Royal	-9.10713
▁International	-9.10748
▁amount	-9.10924
▁model	-9.1096
▁store	-9.11003
▁School	-9.11159
▁Russia	-9.11185
▁These	-9.11185
▁meeting	-9.11582
▁Prime	-9.1188
▁vote	-9.1212
▁finally	-9.12123
▁matter	-9.12221
▁title	-9.12275
▁capital	-9.1242
▁follow	-9.12469
▁serious	-9.12493
▁surgery	-9.12508
▁guilty	-9.12547
▁attempt	-9.127
▁goals	-9.12981
▁appeared	-9.12999
▁national	-9.13036
▁groups	-9.13098
▁pictures	-9.13124
▁agency	-9.13158
▁coach	-9.1326
▁Cameron	-9.13299
▁Americans	-9.13357
▁BBC	-9.13383
▁election	-9.13404
▁letter	-9.13438
▁Germany	-9.13445
▁Day	-9.13514
▁contract	-9.13521
▁Texas	-9.13561
▁expect	-9.1361
▁English	-9.13697
▁issues	-9.13765
▁receive	-9.13791
▁users	-9.13849
▁accident	-9.1386
▁leaders	-9.14054
▁discover	-9.14239
▁policy	-9.14313
▁stage	-9.14402
▁bid	-9.14577
▁forced	-9.14595
▁So	-9.15358
▁thither	-9.15416
▁alone	-9.15563
▁Martin	-9.15641
▁People	-9.15651
▁anti	-9.15769
▁data	-9.15788
▁nigh	-9.15949
▁According	-9.15992
▁caused	-9.16242
▁Madrid	-9.16247
▁coming	-9.16298
▁Mark	-9.16306
▁Street	-9.16306
▁co	-9.1643
▁address	-9.16487
▁low	-9.16519
▁press	-9.16522
▁medical	-9.16713
▁remains	-9.16954
▁disease	-9.16971
▁legal	-9.17147
▁demand	-9.17226
▁photos	-9.17291
▁aid	-9.17345
▁strong	-9.17351
▁key	-9.17435
▁Williams	-9.17623
▁birth	-9.17852
▁red	-9.17893
▁worked	-9.17976
▁suffered	-9.17984
▁homes	-9.18003
▁question	-9.18263
▁percent	-9.18313
▁region	-9.18346
▁sign	-9.18351
▁driving	-9.18513
▁figure	-9.18563
▁posted	-9.18582
▁short	-9.18626
▁French	-9.18673
▁attorney	-9.18731
▁interest	-9.19082
▁Despite	-9.19112
▁killing	-9.19137
▁price	-9.19268
▁access	-9.19367
▁Prince	-9.19373
▁loss	-9.19373
▁firm	-9.19384
▁remain	-9.19395
▁date	-9.19531
▁talk	-9.1954
▁Secretary	-9.19768
▁striker	-9.19785
▁pop	-9.19927
▁e	-9.20008
▁born	-9.20011
▁2007	-9.20103
▁showed	-9.2012
▁strike	-9.2029
▁comment	-9.20352
▁gain	-9.20501
▁More	-9.20602
▁although	-9.20647
▁weight	-9.20706
▁King	-9.20709
▁boss	-9.20773
▁establish	-9.20911
▁operation	-9.20917
▁contact	-9.20954
▁program	-9.20982
▁29	-9.21101
▁San	-9.21177
▁announced	-9.2118
▁protect	-9.21205
▁currently	-9.21661
▁offer	-9.22114
▁create	-9.22185
▁drive	-9.22274
▁recently	-9.22337
▁however	-9.22666
▁passengers	-9.22784
▁floor	-9.22896
▁reason	-9.22896
▁kill	-9.22916
▁popular	-9.2304
▁whole	-9.23048
▁brain	-9.23063
▁size	-9.23178
▁running	-9.23224
▁reportedly	-9.23279
▁serve	-9.23337
▁met	-9.23539
▁happy	-9.236
▁honest	-9.23782
▁residents	-9.24003
▁marriage	-9.24073
▁alleged	-9.24087
▁discovered	-9.24265
▁missing	-9.2428
▁soon	-9.2435
▁stand	-9.2442
▁source	-9.24481
▁cars	-9.24575
▁means	-9.24686
▁decided	-9.24694
▁hear	-9.24794
▁battle	-9.24862
▁executive	-9.2492
▁Labour	-9.25002
▁paid	-9.25049
▁sense	-9.25093
▁partner	-9.25196
▁towards	-9.25367
▁calls	-9.25379
▁customers	-9.25438
▁35	-9.25591
▁conditions	-9.25648
▁response	-9.25656
▁produce	-9.25713
▁bad	-9.25778
▁older	-9.25852
▁technology	-9.25887
▁failed	-9.26035
▁attention	-9.26285
▁actually	-9.26333
▁land	-9.26344
▁save	-9.26353
▁minister	-9.2638
▁sexual	-9.26502
▁emergency	-9.26547
▁base	-9.26571
▁Real	-9.26595
▁hair	-9.26681
▁details	-9.26708
▁period	-9.26708
▁herself	-9.26762
▁beat	-9.26777
▁Another	-9.26864
▁music	-9.27085
▁looked	-9.27145
▁named	-9.27163
▁German	-9.27181
▁Office	-9.27325
▁allegations	-9.27368
▁African	-9.27476
▁happen	-9.27533
▁suit	-9.27633
▁determine	-9.27786
▁sound	-9.27968
▁conference	-9.28274
▁moved	-9.28289
▁Last	-9.28301
▁Chris	-9.28413
▁Los	-9.28578
▁private	-9.28748
▁south	-9.28797
▁knew	-9.28937
▁ten	-9.29044
▁felt	-9.29053
▁host	-9.29087
▁de	-9.29115
▁average	-9.29206
▁drop	-9.29271
▁kids	-9.2928
▁park	-9.29363
▁impact	-9.2943
▁terminal	-9.29516
▁brought	-9.29544
▁Scotland	-9.29673
▁Now	-9.29688
▁Council	-9.29839
▁Brazil	-9.29858
▁huge	-9.29886
▁Afghanistan	-9.30018
▁eye	-9.30244
▁45	-9.30262
▁India	-9.30427
▁directly	-9.30461
▁lawyer	-9.30476
▁latest	-9.30566
▁Spain	-9.30607
▁suspect	-9.30706
▁afternoon	-9.30999
▁girlfriend	-9.31067
▁rise	-9.31192
▁Johnson	-9.31211
▁animals	-9.31317
▁holiday	-9.31518
▁Sir	-9.31524
▁results	-9.31533
▁D	-9.31549
▁style	-9.31627
▁wedding	-9.31646
▁events	-9.31693
▁wide	-9.31784
▁Jones	-9.31825
▁van	-9.31869
▁Apple	-9.3192
▁rattling	-9.31932
▁foot	-9.32058
▁words	-9.32083
▁special	-9.32153
▁Al	-9.32159
▁Daily	-9.32349
▁states	-9.32396
▁hundreds	-9.32424
▁Google	-9.3245
▁wrong	-9.32624
▁nearby	-9.32792
▁Wales	-9.32805
▁either	-9.32836
▁companies	-9.33247
▁bill	-9.33272
▁Angeles	-9.33442
▁War	-9.33454
▁animal	-9.33573
▁boys	-9.33608
▁border	-9.33774
▁leaving	-9.33791
▁difficult	-9.338
▁Mexico	-9.34012
▁Clinton	-9.34089
▁jury	-9.3415
▁needed	-9.34263
▁mean	-9.34331
▁31	-9.34344
▁squad	-9.34476
▁similar	-9.34563
▁fell	-9.34705
▁step	-9.34922
▁needs	-9.34984
▁die	-9.35241
▁quite	-9.35244
▁injured	-9.35348
▁married	-9.35518
▁footage	-9.35566
▁pain	-9.35606
▁90	-9.35642
▁field	-9.35664
▁Sydney	-9.35691
▁weather	-9.35962
▁allowed	-9.36031
▁arrived	-9.36267
▁O	-9.36294
▁ex	-9.3632
▁figures	-9.36333
▁Peter	-9.36432
▁questions	-9.36547
▁Korea	-9.36564
▁parts	-9.36564
▁Many	-9.36788
▁wants	-9.36844
▁encounter	-9.37106
▁energy	-9.37119
▁evening	-9.37122
▁beginning	-9.37404
▁ft	-9.37488
▁cash	-9.37617
▁Center	-9.37711
▁north	-9.37724
▁performance	-9.37724
▁Health	-9.37744
▁makes	-9.37761
▁challenge	-9.37794
▁During	-9.37864
▁rate	-9.37981
▁Iran	-9.38112
▁center	-9.38172
▁troops	-9.38306
▁st	-9.3833
▁80	-9.38484
▁Government	-9.38548
▁70	-9.38578
▁success	-9.38581
▁single	-9.38699
▁onto	-9.38716
▁federal	-9.38814
▁design	-9.38854
▁schools	-9.38875
▁threat	-9.39087
▁gone	-9.39135
▁industry	-9.39209
▁Crown	-9.39216
▁captain	-9.39263
▁charity	-9.3929
▁confirmed	-9.39361
▁else	-9.39365
▁presently	-9.39399
▁penalty	-9.39446
▁Champions	-9.3948
▁High	-9.39541
▁describe	-9.39568
▁opening	-9.39732
▁32	-9.39752
▁bank	-9.39933
▁returned	-9.39963
▁300	-9.40076
▁suffer	-9.4036
▁William	-9.40394
▁Judge	-9.40411
▁lose	-9.40432
▁Barcelona	-9.40435
▁Robert	-9.40504
▁various	-9.40504
▁Thomas	-9.40593
▁C	-9.40603
▁observe	-9.4061
▁Italy	-9.40668
▁caught	-9.40734
▁Richard	-9.40737
▁concluding	-9.40974
▁airport	-9.4115
▁helped	-9.41195
▁wait	-9.41219
▁Our	-9.41247
▁oil	-9.41406
▁doctor	-9.41413
▁Times	-9.41461
▁looks	-9.41496
▁build	-9.41697
▁Jackson	-9.41878
▁fighting	-9.41968
▁touch	-9.42024
▁apply	-9.42083
▁soldiers	-9.42142
▁fresh	-9.42593
▁ship	-9.42677
▁merely	-9.42807
▁catch	-9.4306
▁worth	-9.43116
▁ready	-9.43458
▁2006	-9.43589
▁concerns	-9.43638
▁aircraft	-9.4373
▁direct	-9.43797
▁television	-9.43907
▁Republican	-9.44135
▁fit	-9.44167
▁By	-9.44185
▁Queen	-9.44185
▁opportunity	-9.44577
▁begin	-9.44598
▁witness	-9.44652
▁understand	-9.44666
▁buy	-9.44741
▁skin	-9.44802
▁bus	-9.44852
▁fellow	-9.44863
▁rules	-9.44891
▁Lee	-9.44977
▁wearing	-9.45013
▁gas	-9.45121
▁newspaper	-9.45164
▁costs	-9.45171
▁effort	-9.45279
▁experts	-9.45322
▁weapons	-9.45365
▁eyes	-9.4543
▁suicide	-9.45567
▁acquire	-9.45629
▁spot	-9.45701
▁council	-9.45878
▁aged	-9.45936
▁raise	-9.45943
▁available	-9.46037
▁efforts	-9.46045
▁spend	-9.46048
▁nd	-9.46095
▁individual	-9.46186
▁track	-9.46244
▁storm	-9.46259
▁changes	-9.46353
▁share	-9.46509
▁secret	-9.46673
▁NHS	-9.46714
▁speech	-9.46743
▁dress	-9.46783
▁shoot	-9.46819
▁crew	-9.46973
▁sold	-9.47039
▁instead	-9.47068
▁dogs	-9.47075
▁exact	-9.47163
▁apartment	-9.47196
▁lack	-9.47215
▁speed	-9.47336
▁arrive	-9.47486
▁kept	-9.47593
▁competition	-9.47615
▁Paris	-9.47718
▁levels	-9.47763
▁non	-9.4777
▁leg	-9.47785
▁Chinese	-9.47788
▁erstwhile	-9.47814
▁foremost	-9.48158
▁sale	-9.48236
▁alcohol	-9.48406
▁longer	-9.48432
▁created	-9.48532
▁general	-9.48532
▁senior	-9.48711
▁exactly	-9.48741
▁messages	-9.48744
▁separate	-9.48916
▁leading	-9.48931
▁deaths	-9.48957
▁ISIS	-9.49002
▁Not	-9.49024
▁terms	-9.49043
▁economy	-9.49099
▁target	-9.49125
▁custody	-9.49241
▁attend	-9.49282
▁finish	-9.49286
▁answer	-9.49488
▁Justice	-9.49541
▁female	-9.49541
▁documents	-9.49586
▁exit	-9.49657
▁significant	-9.49702
▁teacher	-9.49887
▁mind	-9.49947
▁bodies	-9.49954
▁appeal	-9.50041
▁Congress	-9.50234
▁Pakistan	-9.50544
▁Israel	-9.50552
▁Today	-9.50658
▁lowest	-9.50719
▁teams	-9.50764
▁sea	-9.50909
▁Both	-9.50962
▁General	-9.50962
▁criminal	-9.51
▁crisis	-9.51023
▁winner	-9.51053
▁speak	-9.51065
▁expend	-9.51084
▁Although	-9.5113
▁advance	-9.51153
▁crowd	-9.51164
▁VIDEO	-9.51221
▁champion	-9.51267
▁rape	-9.51324
▁ice	-9.5137
▁midfielder	-9.51374
▁seat	-9.51531
▁winning	-9.51611
▁involve	-9.51907
▁safe	-9.52095
▁example	-9.52149
▁defense	-9.52249
▁ban	-9.52292
▁Army	-9.52365
▁tour	-9.52369
▁carried	-9.52423
▁actions	-9.52651
▁send	-9.52849
▁illegal	-9.52868
▁trade	-9.52973
▁ill	-9.53035
▁launched	-9.53066
▁extend	-9.53082
▁streets	-9.53125
▁degree	-9.53156
▁Italian	-9.53179
▁launch	-9.53304
▁Islamic	-9.53323
▁Harry	-9.53358
▁heavy	-9.53401
▁league	-9.53471
▁arm	-9.53604
▁church	-9.53659
▁throughout	-9.53686
▁prove	-9.53702
▁gold	-9.53757
▁alongside	-9.53949
▁appearance	-9.53992
▁takes	-9.53996
▁movie	-9.54008
▁education	-9.54016
▁jobs	-9.54019
▁reporters	-9.54346
▁Service	-9.54369
▁fear	-9.54531
▁previously	-9.54578
▁main	-9.54673
▁miss	-9.54713
▁Mail	-9.54732
▁complete	-9.54772
▁Spanish	-9.54843
▁Since	-9.55017
▁continued	-9.55017
▁quick	-9.55093
▁quickly	-9.55204
▁extra	-9.55264
▁spending	-9.55291
▁giving	-9.55315
▁conduct	-9.55359
▁faces	-9.55383
▁warned	-9.55387
▁33	-9.55534
▁refused	-9.5565
▁unitedly	-9.5565
▁Japan	-9.55718
▁network	-9.55774
▁millions	-9.56054
▁double	-9.5611
▁stars	-9.56122
▁entirely	-9.5617
▁normal	-9.56174
▁numbers	-9.56266
▁believes	-9.56427
▁justice	-9.56479
▁successful	-9.56503
▁piece	-9.56632
▁Van	-9.56842
▁convicted	-9.56935
▁intimate	-9.56935
▁included	-9.56951
▁works	-9.57036
▁supporters	-9.57052
▁scored	-9.57157
▁administration	-9.57392
▁Andrew	-9.57498
▁utmost	-9.57506
▁effect	-9.57588
▁render	-9.57665
▁Earth	-9.58003
▁completely	-9.5811
▁rule	-9.58118
▁original	-9.58273
▁How	-9.58318
▁population	-9.58331
▁shop	-9.58359
▁Three	-9.58388
▁products	-9.58445
▁teenager	-9.58503
▁endure	-9.58754
▁box	-9.58795
▁computer	-9.58856
▁device	-9.58922
▁FBI	-9.59013
▁p	-9.59026
▁traffic	-9.59034
▁benefits	-9.59075
▁accept	-9.59174
▁boyfriend	-9.5922
▁itself	-9.59236
▁rescue	-9.59273
▁impart	-9.59385
▁restaurant	-9.59443
▁lived	-9.59534
▁fine	-9.59563
▁art	-9.59601
▁bar	-9.59601
▁built	-9.59642
▁records	-9.59647
▁middle	-9.59838
▁department	-9.59842
▁decades	-9.60067
▁Kim	-9.602
▁Bill	-9.60267
▁sport	-9.60271
▁instantly	-9.60292
▁ensure	-9.60309
▁shortly	-9.60447
▁denied	-9.60619
▁notice	-9.60635
▁Newcastle	-9.60686
▁score	-9.60694
▁2005	-9.60761
▁capable	-9.60808
▁laws	-9.61081
▁sell	-9.61102
▁mission	-9.61199
▁contributed	-9.61228
▁dangerous	-9.61258
▁chairman	-9.61292
▁concern	-9.61444
▁investigators	-9.61452
▁biggest	-9.61478
▁scientists	-9.61512
▁ring	-9.61533
▁Air	-9.61545
▁window	-9.6174
▁Security	-9.61749
▁century	-9.61817
▁debate	-9.61884
▁majority	-9.61901
▁assist	-9.62033
▁Senate	-9.62106
▁fourth	-9.62233
▁pilot	-9.62327
▁Louis	-9.6237
▁probably	-9.62583
▁word	-9.62802
▁Their	-9.62823
▁growing	-9.62849
▁mark	-9.62849
▁shown	-9.62917
▁island	-9.62926
▁card	-9.62952
▁bomb	-9.63012
▁joined	-9.63076
▁internet	-9.63244
▁telling	-9.63572
▁survey	-9.63727
▁whom	-9.63831
▁ended	-9.63853
▁especially	-9.63853
▁transfer	-9.63918
▁Of	-9.64005
▁entire	-9.64048
▁tournament	-9.64178
▁choice	-9.64505
▁fashion	-9.64596
▁researchers	-9.64753
▁pre	-9.64775
▁sales	-9.64919
▁reasons	-9.64933
▁Lord	-9.65042
▁conceive	-9.6509
▁Ebola	-9.65095
▁raised	-9.65161
▁join	-9.65257
▁table	-9.65288
▁aim	-9.65323
▁raw	-9.65341
▁village	-9.65393
▁@	-9.65402
▁wish	-9.6542
▁owners	-9.65429
▁armed	-9.65525
▁fly	-9.6553
▁paper	-9.65561
▁count	-9.65596
▁novel	-9.656
▁Authorities	-9.65622
▁spread	-9.65693
▁400	-9.65763
▁items	-9.6579
▁stock	-9.65799
▁straightaway	-9.65847
▁collection	-9.65869
▁extremely	-9.65892
▁MP	-9.65905
▁34	-9.65922
▁betimes	-9.65976
▁Daniel	-9.66037
▁Palace	-9.66073
▁myself	-9.66091
▁remember	-9.66122
▁doesn	-9.6633
▁eventually	-9.66366
▁boat	-9.66454
▁ordered	-9.66499
▁Barack	-9.66517
▁west	-9.66521
▁Scott	-9.66552
▁suffering	-9.66597
▁worker	-9.66641
▁file	-9.66655
▁foreign	-9.66918
▁stopped	-9.66989
▁bedroom	-9.67007
▁row	-9.67177
▁development	-9.67213
▁Party	-9.67231
▁Open	-9.6746
▁Steve	-9.67464
▁spokeswoman	-9.67482
▁First	-9.67505
▁societal	-9.67675
▁fan	-9.6768
▁pose	-9.6768
▁quality	-9.67707
▁treated	-9.67725
▁twice	-9.67729
▁grow	-9.67779
▁grant	-9.67788
▁app	-9.67815
▁followed	-9.67846
▁opened	-9.67941
▁remove	-9.67941
▁signs	-9.67977
▁Old	-9.67982
▁offered	-9.68045
▁Tom	-9.68049
▁east	-9.6809
▁supply	-9.68144
▁magazine	-9.68194
▁counts	-9.68248
▁concerned	-9.68285
▁employees	-9.68348
▁talks	-9.68402
▁Former	-9.68421
▁brand	-9.68534
▁broke	-9.68602
▁Bush	-9.68625
▁N	-9.68638
▁financial	-9.68747
▁value	-9.68775
▁names	-9.68779
▁passed	-9.68925
▁bottom	-9.68939
▁pitch	-9.68961
▁initially	-9.69176
▁Most	-9.69331
▁professional	-9.69359
▁secure	-9.69414
▁loan	-9.69432
▁appears	-9.69455
▁beach	-9.69464
▁presidential	-9.69469
▁defender	-9.69524
▁spoke	-9.69556
▁signed	-9.69592
▁common	-9.69661
▁below	-9.69675
▁drink	-9.6973
▁Charles	-9.69753
▁Murray	-9.69781
▁patient	-9.69827
▁reckon	-9.69886
▁snow	-9.70103
▁certain	-9.70112
▁crimes	-9.70343
▁version	-9.70426
▁birthday	-9.70593
▁character	-9.70722
▁published	-9.70727
▁Red	-9.70769
▁Chief	-9.70801
▁plenty	-9.70829
▁hopes	-9.70834
▁Alex	-9.70843
▁arms	-9.70931
▁block	-9.70955
▁mouth	-9.7102
▁display	-9.71122
▁coast	-9.71215
▁progress	-9.7129
▁particularly	-9.71295
▁places	-9.71351
▁survive	-9.71379
▁loved	-9.71407
▁EU	-9.7157
▁beautiful	-9.7158
▁2004	-9.71673
▁actor	-9.71739
▁Post	-9.718
▁sometime	-9.71828
▁36	-9.71842
▁backwards	-9.71879
▁showing	-9.71973
▁ran	-9.71983
▁sports	-9.7203
▁Association	-9.72039
▁screen	-9.72077
▁Boston	-9.72114
▁ceremony	-9.7234
▁commit	-9.72369
▁approach	-9.72435
▁link	-9.72477
▁MailOnline	-9.72501
▁Gaal	-9.72643
▁therefore	-9.72732
▁wasn	-9.72732
▁seek	-9.72742
▁develop	-9.72822
▁jailed	-9.7286
▁prevent	-9.7296
▁ability	-9.73031
▁via	-9.73221
▁unable	-9.73226
▁Muslim	-9.7324
▁sometimes	-9.7324
▁cross	-9.73254
▁postulate	-9.73278
▁ways	-9.73345
▁agreed	-9.73412
▁clubs	-9.73431
▁type	-9.73555
▁Joe	-9.73564
▁rearward	-9.73626
▁Taylor	-9.73698
▁forthwith	-9.73698
▁operations	-9.73698
▁prosecutors	-9.73707
▁necessitate	-9.73736
▁opposition	-9.73813
▁profile	-9.7386
▁District	-9.7388
▁pounds	-9.7411
▁removed	-9.74191
▁assure	-9.74196
▁behaviour	-9.74234
▁prices	-9.7434
▁Jersey	-9.74369
▁identified	-9.74456
▁wall	-9.74499
▁blue	-9.74557
▁tests	-9.74562
▁university	-9.74581
▁fun	-9.74716
▁sentenced	-9.74755
▁mail	-9.74764
▁agree	-9.74813
▁seconds	-9.74822
▁goes	-9.74847
▁college	-9.74929
▁From	-9.74958
▁bought	-9.74963
▁shock	-9.75021
▁succeed	-9.75273
▁add	-9.75297
▁request	-9.7537
▁changed	-9.75492
▁Syrian	-9.75511
▁designed	-9.75633
▁central	-9.75716
▁views	-9.75764
▁journey	-9.75828
▁multiple	-9.75833
▁straight	-9.75842
▁review	-9.75852
▁placed	-9.75872
▁God	-9.75891
▁barely	-9.75901
▁issued	-9.76116
▁immigration	-9.76204
▁distinguish	-9.76342
▁feeling	-9.76352
▁quarter	-9.76386
▁Group	-9.76518
▁FA	-9.76646
▁poor	-9.767
▁Island	-9.76705
▁decade	-9.76755
▁Under	-9.76834
▁backward	-9.76898
▁cell	-9.76932
▁calling	-9.77011
▁reality	-9.77021
▁lots	-9.77075
▁intelligence	-9.771
▁matches	-9.7716
▁initiative	-9.77184
▁moving	-9.77219
▁terrorist	-9.77258
▁focus	-9.77323
▁legs	-9.77358
▁seems	-9.77412
▁occur	-9.77427
▁severe	-9.77427
▁contain	-9.77432
▁feature	-9.77452
▁famous	-9.77472
▁push	-9.77616
▁largest	-9.77675
▁reveal	-9.778
▁shirt	-9.77835
▁Tottenham	-9.77874
▁founder	-9.77879
▁cannot	-9.77914
▁clean	-9.77964
▁responsibility	-9.78124
▁deep	-9.78194
▁expert	-9.78194
▁attacked	-9.78239
▁Christian	-9.78274
▁male	-9.78354
▁managed	-9.78354
▁emerged	-9.78444
▁E	-9.7859
▁Jack	-9.78645
▁estate	-9.78695
▁Qaeda	-9.78745
▁ones	-9.78906
▁virtually	-9.78957
▁deliver	-9.78962
▁bail	-9.78977
▁Wilson	-9.79007
▁Tony	-9.79108
▁warning	-9.79178
▁considered	-9.79219
▁bag	-9.79229
▁broken	-9.79274
▁depart	-9.7929
▁struck	-9.79421
▁Ireland	-9.79482
▁pulled	-9.79487
▁controversial	-9.79593
▁indeed	-9.79654
▁planning	-9.7969
▁easy	-9.79766
▁district	-9.79811
▁beyond	-9.80122
▁economic	-9.80137
▁fast	-9.80275
▁afterwards	-9.80367
▁growth	-9.80459
▁onetime	-9.80469
▁vehicles	-9.80643
▁easily	-9.80715
▁gang	-9.80715
▁drivers	-9.80735
▁note	-9.80827
▁peace	-9.80879
▁quondam	-9.80899
▁Mike	-9.8091
▁surface	-9.80925
▁ride	-9.80992
▁Home	-9.80997
▁truck	-9.81007
▁rearwards	-9.81064
▁gay	-9.81187
▁Republicans	-9.81239
▁activity	-9.81538
▁dont	-9.81611
▁cities	-9.81662
▁traditional	-9.81673
▁singer	-9.81704
▁Ryan	-9.81776
▁camp	-9.81844
▁terror	-9.81952
▁escape	-9.81958
▁Coast	-9.81973
▁lawsuit	-9.81994
▁parties	-9.8203
▁employ	-9.82192
▁Korean	-9.82223
▁features	-9.82285
▁150	-9.82301
▁material	-9.82316
▁agreement	-9.82567
▁Chicago	-9.82577
▁sit	-9.82609
▁subject	-9.82629
▁Man	-9.82682
▁duty	-9.82786
▁yield	-9.82875
▁mobile	-9.82991
▁solely	-9.83201
▁fired	-9.83216
▁enforcement	-9.8328
▁write	-9.83343
▁global	-9.83437
▁hurt	-9.83459
▁38	-9.83464
▁true	-9.83633
▁article	-9.8368
▁Airport	-9.83722
▁guide	-9.83749
▁related	-9.8378
▁pick	-9.83807
▁movement	-9.83817
▁visitors	-9.83817
▁#	-9.83828
▁Ben	-9.8386
▁higher	-9.83987
▁Ukraine	-9.83997
▁Jose	-9.84156
▁fund	-9.84178
▁wear	-9.84183
▁Kevin	-9.84199
▁upon	-9.84257
▁shape	-9.84411
▁kick	-9.84534
▁37	-9.84582
▁Lewis	-9.84603
▁42	-9.84614
▁adding	-9.84651
▁carrying	-9.84726
▁contribute	-9.84774
▁throw	-9.84774
▁recovery	-9.84827
▁Those	-9.84881
▁walking	-9.84907
▁Family	-9.84977
▁society	-9.84977
▁Hall	-9.84988
▁exercise	-9.85079
▁voice	-9.85079
▁ruling	-9.85132
▁mph	-9.85148
▁videos	-9.85255
▁fail	-9.85266
▁Canada	-9.85288
▁Modern	-9.8532
▁doubt	-9.85809
▁served	-9.85874
▁Georgia	-9.8588
▁thus	-9.8595
▁hot	-9.85961
▁artist	-9.85988
▁waiting	-9.86036
▁rain	-9.86236
▁defence	-9.86551
▁sites	-9.86562
▁addition	-9.86584
▁2003	-9.86682
▁protest	-9.86693
▁unit	-9.86714
▁measures	-9.86758
▁Southampton	-9.86791
▁respective	-9.86812
▁knife	-9.86829
▁function	-9.86845
▁Israeli	-9.86878
▁Games	-9.86943
▁holding	-9.86954
▁asking	-9.86981
▁handed	-9.87003
▁clothes	-9.87058
▁Maria	-9.87063
▁Grand	-9.8708
▁Hill	-9.87096
▁thanks	-9.87145
▁culture	-9.87156
▁passenger	-9.87173
▁tree	-9.87189
▁aesculapian	-9.87255
▁ascertain	-9.87309
▁location	-9.87348
▁programme	-9.87403
▁subsequently	-9.87441
▁nowadays	-9.87452
▁repeatedly	-9.87501
▁expensive	-9.87512
▁Andy	-9.87622
▁retrieve	-9.87666
▁pregnant	-9.87732
▁fix	-9.87798
▁dropped	-9.87858
▁48	-9.87875
▁proceed	-9.87969
▁positive	-9.87985
▁award	-9.88007
▁user	-9.8814
▁neck	-9.88228
▁respect	-9.88278
▁budget	-9.88355
▁pretty	-9.88433
▁hardly	-9.88477
▁dark	-9.88538
▁Professor	-9.8856
▁responsible	-9.88632
▁Victoria	-9.88638
▁connection	-9.88827
▁obtain	-9.88843
▁exchange	-9.8886
▁agent	-9.88916
▁highest	-9.88921
▁Taliban	-9.89016
▁committee	-9.89071
▁2015	-9.89138
▁Year	-9.89161
▁seeing	-9.89211
▁rare	-9.89239
▁Mary	-9.89272
▁tie	-9.89351
▁written	-9.89524
▁talking	-9.8953
▁fish	-9.89636
▁sleep	-9.89658
▁iPhone	-9.89675
▁avoid	-9.89714
▁scandal	-9.89731
▁guy	-9.89737
▁language	-9.89742
▁protests	-9.89759
▁Road	-9.89787
▁giant	-9.89793
▁YouTube	-9.8981
▁reached	-9.89838
▁equipment	-9.89967
▁closed	-9.90046
▁75	-9.90074
▁trouble	-9.90192
▁Olympic	-9.90446
▁voters	-9.90463
▁Rooney	-9.90633
▁Carolina	-9.90769
▁credit	-9.90814
▁protesters	-9.9095
▁captured	-9.91002
▁College	-9.91019
▁organization	-9.91098
▁stomach	-9.91104
▁Virginia	-9.91189
▁plant	-9.91332
▁choose	-9.91457
▁Kate	-9.91463
▁product	-9.9152
▁text	-9.9152
▁nature	-9.91588
▁treat	-9.91646
▁radio	-9.91743
▁amid	-9.91817
▁Green	-9.91875
▁43	-9.91886
▁Birmingham	-9.91886
▁affect	-9.91909
▁pool	-9.91943
▁commence	-9.91961
▁sustain	-9.91966
▁conflict	-9.91972
▁Attorney	-9.91989
▁shots	-9.92075
▁confidence	-9.92116
▁pull	-9.92116
▁scale	-9.92185
▁influence	-9.92271
▁precisely	-9.92294
▁photographs	-9.9234
▁Mourinho	-9.9238
▁Committee	-9.92392
▁worst	-9.92409
▁daughters	-9.92415
▁Hollywood	-9.9253
▁tough	-9.9257
▁realise	-9.92599
▁Steven	-9.92646
▁insurance	-9.9268
▁band	-9.92698
▁nonetheless	-9.92721
▁alive	-9.92738
▁filed	-9.92883
▁guard	-9.92917
▁eat	-9.93004
▁planned	-9.93016
▁gets	-9.93039
▁unlike	-9.9308
▁funeral	-9.93085
▁drinking	-9.93213
▁rock	-9.93335
▁Church	-9.93341
▁includes	-9.93341
▁bodied	-9.93376
▁sources	-9.9358
▁celebrate	-9.93632
▁Tory	-9.93644
▁operate	-9.93667
▁grade	-9.9372
▁garden	-9.93731
▁Star	-9.93819
▁Great	-9.93831
▁sort	-9.9386
▁Ronaldo	-9.93866
▁standing	-9.93889
▁arrogate	-9.93965
▁surprise	-9.93971
▁fuel	-9.93983
▁Club	-9.94012
▁Why	-9.94036
▁Jordan	-9.94041
▁Im	-9.94082
▁Everton	-9.941
▁civil	-9.94123
▁advice	-9.94276
▁claiming	-9.94382
▁spotted	-9.94388
▁apparently	-9.94435
▁nevertheless	-9.94435
▁covered	-9.9444
▁Argentina	-9.94464
▁Diego	-9.94487
▁Stadium	-9.94511
▁Sarah	-9.94523
▁River	-9.94546
▁stress	-9.94705
▁cast	-9.94711
▁aside	-9.94717
▁notwithstanding	-9.94776
▁virus	-9.94782
▁cold	-9.94788
▁’	-9.94818
▁sides	-9.94829
▁adult	-9.94924
▁green	-9.94971
▁feed	-9.95018
▁devices	-9.95078
▁meaning	-9.95131
▁dream	-9.95137
▁hence	-9.95149
▁complex	-9.95184
▁failure	-9.95196
▁600	-9.95267
▁Democrats	-9.95457
▁Even	-9.95505
▁Internet	-9.95528
▁Anthony	-9.9554
▁session	-9.95588
▁runs	-9.95612
▁difference	-9.95635
▁meant	-9.95689
▁utilise	-9.95731
▁suspended	-9.95772
▁Bank	-9.95778
▁Suarez	-9.95969
▁scoring	-9.96005
▁causing	-9.96071
▁identify	-9.96077
▁flights	-9.96101
▁Stephen	-9.96113
▁citizens	-9.96125
▁suggested	-9.96154
▁39	-9.96166
▁suspects	-9.96172
▁starting	-9.96268
▁rates	-9.96274
▁shopping	-9.96304
▁realize	-9.9631
▁shared	-9.9634
▁lines	-9.96364
▁lawyers	-9.96412
▁withal	-9.96424
▁actress	-9.96436
▁toward	-9.96448
▁MPs	-9.96544
▁Morgan	-9.96628
▁utilize	-9.96682
▁Central	-9.96694
▁appropriate	-9.96694
▁Zealand	-9.96712
▁fraud	-9.96712
▁Just	-9.96718
▁thinking	-9.96742
▁books	-9.96754
▁Sam	-9.96797
▁Costa	-9.96845
▁flat	-9.9702
▁army	-9.97038
▁Ferguson	-9.9705
▁Nations	-9.97086
▁Cambridge	-9.97134
▁production	-9.97267
▁stories	-9.97267
▁Ham	-9.97291
▁enjoy	-9.97425
▁photographer	-9.97449
▁Eric	-9.97497
▁Nick	-9.97497
▁pleaded	-9.97503
▁secretary	-9.9751
▁cuts	-9.97528
▁55	-9.97546
▁tragedy	-9.97546
▁forget	-9.97576
▁stimulate	-9.97601
▁Kelly	-9.97643
▁ruled	-9.97643
▁helping	-9.97649
▁luxury	-9.97704
▁linked	-9.97771
▁thence	-9.97825
▁nuclear	-9.97947
▁colleagues	-9.97971
▁threatening	-9.98038
▁clash	-9.98118
▁recall	-9.98203
▁machine	-9.98325
▁Before	-9.98442
▁47	-9.98478
▁militants	-9.98533
▁harm	-9.9857
▁flying	-9.98589
▁glass	-9.98631
▁wo	-9.98638
▁afterward	-9.98711
▁250	-9.98767
▁Watch	-9.98785
▁perfect	-9.98797
▁winter	-9.98902
▁massive	-9.98939
▁income	-9.99037
▁Alan	-9.99086
▁2001	-9.99148
▁complaint	-9.99234
▁Then	-9.9924
▁cameras	-9.99395
▁unexampled	-9.9945
▁accounts	-9.9958
▁Middle	-9.99593
▁CEO	-9.99617
▁tight	-9.9963
▁Adam	-9.99642
▁regime	-9.99655
▁adults	-9.99717
▁watching	-9.99748
▁sons	-9.99878
▁Miami	-9.99928
▁newfangled	-9.99934
▁Bay	-9.9999
▁moments	-9.9999
▁violent	-10.0003
▁facing	-10.0006
▁Act	-10.0007
▁aware	-10.001
▁mid	-10.001
▁44	-10.0015
▁compared	-10.0019
▁41	-10.002
▁benefit	-10.0026
▁becoming	-10.003
▁powerful	-10.0036
▁dinner	-10.004
▁expressed	-10.0046
▁limit	-10.0047
▁La	-10.0048
▁prepare	-10.0053
▁Beach	-10.0068
▁selling	-10.007
▁criticism	-10.0076
▁species	-10.0079
▁2002	-10.009
▁lower	-10.0092
▁status	-10.0093
▁NEW	-10.0093
▁800	-10.0095
▁photograph	-10.0101
▁Milan	-10.0101
▁mile	-10.0103
▁publish	-10.0103
▁circumstances	-10.0117
▁losing	-10.0119
▁Black	-10.0121
▁scarce	-10.0122
▁cat	-10.0127
▁46	-10.0127
▁continues	-10.0129
▁Big	-10.013
▁occurred	-10.0135
▁candidate	-10.0142
▁fears	-10.0154
▁eating	-10.0155
▁tally	-10.0155
▁illness	-10.0158
▁affected	-10.0162
▁sun	-10.0163
▁teen	-10.0171
▁maiden	-10.0172
▁Turkey	-10.0178
▁Arizona	-10.0182
▁Agency	-10.0183
▁Ford	-10.0183
▁jump	-10.0188
▁Medical	-10.019
▁relatives	-10.019
▁finger	-10.0192
▁Do	-10.0205
▁leadership	-10.0205
▁enter	-10.0207
▁65	-10.0216
▁threats	-10.0219
▁Davis	-10.0221
▁agents	-10.023
▁hole	-10.0233
▁Young	-10.0237
▁Navy	-10.0261
▁farm	-10.0264
▁struggle	-10.0266
▁Supreme	-10.0272
▁walked	-10.0281
▁respond	-10.0287
▁natural	-10.0297
▁B	-10.0301
▁couldn	-10.0302
▁clearly	-10.0304
▁committed	-10.0309
▁thusly	-10.0311
▁standards	-10.0315
▁signing	-10.0321
▁Gary	-10.0324
▁ABC	-10.0329
▁suggest	-10.0337
▁o	-10.0339
▁temperatures	-10.0339
▁Simon	-10.0344
▁attempted	-10.0347
▁Yorkshire	-10.0348
▁protection	-10.0349
▁effects	-10.0352
▁fifth	-10.0353
▁wake	-10.0361
▁Force	-10.0362
▁purchase	-10.0367
▁Romney	-10.0369
▁debut	-10.0374
▁Fox	-10.0376
▁banned	-10.0376
▁welcome	-10.0389
▁Children	-10.0391
▁putting	-10.04
▁investigating	-10.0401
▁sexually	-10.0402
▁register	-10.0404
▁author	-10.0408
▁corner	-10.0409
▁DNA	-10.041
▁Villa	-10.0418
▁T	-10.0424
▁inaugural	-10.0435
▁insisted	-10.0444
▁usually	-10.0445
▁afford	-10.0457
▁faced	-10.0459
▁healthy	-10.0469
▁inquest	-10.0475
▁Four	-10.0476
▁explained	-10.0478
▁mass	-10.0483
▁examine	-10.0487
▁decide	-10.0491
▁regularly	-10.0504
▁convict	-10.0506
▁guests	-10.0508
▁facility	-10.051
▁reaction	-10.0512
▁habituate	-10.0518
▁prescribed	-10.0526
▁Hamilton	-10.0535
▁steps	-10.0543
▁dance	-10.0544
▁finding	-10.0551
▁nurse	-10.0552
▁ambulance	-10.0556
▁danger	-10.0556
▁strange	-10.0567
▁49	-10.0573
▁await	-10.0581
▁individuals	-10.0583
▁dad	-10.0585
▁highly	-10.0587
▁obliterate	-10.0598
▁buildings	-10.0598
▁Egypt	-10.0606
▁Hong	-10.0617
▁Foreign	-10.0622
▁certainly	-10.0626
▁spell	-10.0627
▁Press	-10.0633
▁weapon	-10.0649
▁babies	-10.0656
▁induce	-10.0657
▁stick	-10.0657
▁2000	-10.0663
▁utter	-10.0667
▁scarcely	-10.0686
▁intend	-10.0709
▁bang	-10.071
▁helicopter	-10.0717
▁engage	-10.0719
▁hop	-10.0719
▁email	-10.0724
▁environment	-10.0727
▁brothers	-10.0729
▁represent	-10.0737
▁audience	-10.0741
▁blame	-10.0741
▁fully	-10.0743
▁Messi	-10.0746
▁lay	-10.0748
▁tribute	-10.0751
▁defend	-10.0753
▁wing	-10.0763
▁phones	-10.0768
▁Ministry	-10.0773
▁Speaking	-10.0784
▁soldier	-10.0793
▁Ed	-10.0798
▁god	-10.0806
▁Miller	-10.0815
▁necessary	-10.0817
▁2016	-10.0819
▁recover	-10.0819
▁Centre	-10.0821
▁capture	-10.0827
▁management	-10.084
▁Meanwhile	-10.0842
▁smoke	-10.0844
▁estimated	-10.0845
▁suspected	-10.0856
▁elections	-10.0856
▁Putin	-10.0858
▁Instagram	-10.0869
▁affair	-10.0874
▁R	-10.0876
▁maintain	-10.089
▁freedom	-10.089
▁mistake	-10.0897
▁skip	-10.0902
▁provided	-10.0905
▁perform	-10.092
▁assistant	-10.0921
▁Colorado	-10.0926
▁regard	-10.0934
▁Wayne	-10.0937
▁killer	-10.0949
▁1990	-10.0953
▁heat	-10.0956
▁settle	-10.0958
▁systems	-10.0959
▁rd	-10.0962
▁recognise	-10.0963
▁Indian	-10.0967
▁initiatory	-10.0968
▁kitchen	-10.0972
▁critical	-10.0987
▁province	-10.0987
▁activities	-10.0989
▁Commission	-10.0996
▁Ohio	-10.0998
▁stone	-10.0998
▁succeeding	-10.1004
▁Research	-10.101
▁Kong	-10.1011
▁song	-10.1011
▁Sen	-10.1016
▁commercial	-10.104
▁wild	-10.1042
▁annual	-10.1053
▁attended	-10.1055
▁recognize	-10.1061
▁transport	-10.1062
▁Championship	-10.1063
▁Kennedy	-10.107
▁politics	-10.107
▁Lake	-10.1084
▁memory	-10.1084
▁primary	-10.1085
▁convey	-10.1093
▁assume	-10.1094
▁Northern	-10.1096
▁witnesses	-10.1098
▁particular	-10.1099
▁climate	-10.1124
▁seemed	-10.1126
▁internal	-10.1128
▁Other	-10.1131
▁chest	-10.1131
▁grand	-10.1132
▁scheme	-10.1133
▁combat	-10.1148
▁exclusively	-10.1151
▁bump	-10.1152
▁horse	-10.1152
▁hoping	-10.1157
▁employee	-10.1159
▁symptoms	-10.116
▁inches	-10.1169
▁businesses	-10.117
▁forth	-10.1172
▁shut	-10.1172
▁wind	-10.1172
▁Atlanta	-10.1186
▁beauty	-10.1188
▁Ali	-10.119
▁fare	-10.1192
▁sitting	-10.1193
▁tweeted	-10.1195
▁Melbourne	-10.1197
▁diet	-10.1211
▁acknowledge	-10.1211
▁anniversary	-10.1221
▁pieces	-10.1225
▁truly	-10.1231
▁handle	-10.1236
▁findings	-10.1249
▁possession	-10.125
▁marijuana	-10.1253
▁visited	-10.1253
▁threatened	-10.1259
▁guns	-10.1259
▁mayor	-10.1276
▁missed	-10.128
▁bars	-10.1284
▁deputy	-10.1287
▁watched	-10.1287
▁announcement	-10.1298
▁absolutely	-10.1299
▁Because	-10.13
▁diagnosed	-10.1302
▁poll	-10.1305
▁rent	-10.1311
▁Institute	-10.1314
▁improve	-10.1318
▁speaking	-10.1318
▁terrorism	-10.1319
▁increased	-10.1321
▁developed	-10.1325
▁debt	-10.1326
▁potentially	-10.1328
▁Women	-10.1329
▁airline	-10.1334
▁sick	-10.1339
▁Democratic	-10.134
▁indicate	-10.1342
▁FIFA	-10.1346
▁nations	-10.1348
▁stores	-10.1353
▁II	-10.1353
▁serving	-10.1356
▁offences	-10.1356
▁Western	-10.1361
▁Anderson	-10.1362
▁presence	-10.1368
▁auction	-10.1373
▁identity	-10.1383
▁Harris	-10.1392
▁prosecutor	-10.1396
▁required	-10.1401
▁52	-10.1405
▁dozens	-10.1408
▁Bayern	-10.1429
▁fighters	-10.1434
▁incur	-10.1437
▁advantage	-10.1441
▁picked	-10.1446
▁Defense	-10.1465
▁strength	-10.1473
▁models	-10.1476
▁Frank	-10.1481
▁gift	-10.1485
▁essay	-10.1487
▁initial	-10.1493
▁champions	-10.1497
▁disaster	-10.1497
▁grandmother	-10.1498
▁Bridge	-10.1501
▁mental	-10.1511
▁seeking	-10.1511
▁shocked	-10.1524
▁younger	-10.1526
▁Francisco	-10.1529
▁incidents	-10.1529
▁modern	-10.1535
▁Officers	-10.1546
▁semi	-10.1548
▁governor	-10.1549
▁designer	-10.1558
▁generation	-10.1569
▁Olympics	-10.1572
▁houses	-10.1583
▁F	-10.1588
▁correct	-10.159
▁NFL	-10.1598
▁funding	-10.1599
▁thank	-10.16
▁housing	-10.1606
▁cease	-10.1611
▁listen	-10.1612
▁amazing	-10.1614
▁Saudi	-10.1615
▁measure	-10.1615
▁daily	-10.1629
▁Football	-10.1639
▁Wenger	-10.1641
▁letters	-10.1641
▁Elizabeth	-10.1645
▁Over	-10.1651
▁policies	-10.1651
▁seriously	-10.1651
▁metal	-10.1655
▁devote	-10.1656
▁Manhattan	-10.1663
▁Tim	-10.1663
▁Luis	-10.1664
▁goodness	-10.1666
▁prosecution	-10.1669
▁complaints	-10.1679
▁youth	-10.1683
▁Kent	-10.17
▁independent	-10.1703
▁advert	-10.1705
▁surveillance	-10.1706
▁panel	-10.1714
▁facilitate	-10.1716
▁J	-10.172
▁Sterling	-10.1722
▁knows	-10.1722
▁Sheriff	-10.1726
▁promise	-10.1729
▁funds	-10.1731
▁farther	-10.1733
▁knee	-10.1735
▁content	-10.1747
▁Rodgers	-10.1756
▁specific	-10.176
▁cells	-10.1763
▁Tour	-10.1765
▁mate	-10.1765
▁preserve	-10.1765
▁Gallic	-10.1767
▁Mayor	-10.1768
▁Human	-10.1772
▁skills	-10.1787
▁explain	-10.1799
▁warm	-10.1799
▁vast	-10.1811
▁domestic	-10.1816
▁pro	-10.1817
▁dollars	-10.182
▁NBC	-10.1823
▁physical	-10.1825
▁ticket	-10.1834
▁investigate	-10.1837
▁inquiry	-10.1842
▁Beijing	-10.1848
▁totally	-10.1855
▁CCTV	-10.1857
▁parking	-10.1863
▁sorry	-10.1864
▁remained	-10.1865
▁couples	-10.1865
▁Evans	-10.1868
▁Massachusetts	-10.1868
▁goalkeeper	-10.1868
▁stadium	-10.1868
▁pitched	-10.187
▁Is	-10.1871
▁Mexican	-10.1886
▁possibility	-10.1886
▁teachers	-10.1886
▁plead	-10.1894
▁determined	-10.1903
▁route	-10.1905
▁depict	-10.1906
▁antecedently	-10.192
▁mostly	-10.192
▁excuse	-10.1921
▁finished	-10.1921
▁chances	-10.1928
▁edge	-10.1931
▁Michelle	-10.1935
▁crucial	-10.1935
▁rival	-10.194
▁refuse	-10.194
▁divorce	-10.1941
▁slip	-10.1944
▁connect	-10.1949
▁Henry	-10.1952
▁tourists	-10.1961
▁cards	-10.1968
▁decent	-10.1969
▁Ian	-10.1973
▁Leicester	-10.1976
▁owned	-10.1978
▁option	-10.1979
▁humans	-10.1987
▁smile	-10.1989
▁boost	-10.199
▁science	-10.199
▁Brian	-10.1994
▁fair	-10.1998
▁Fire	-10.2003
▁deadly	-10.2007
▁schedule	-10.2011
▁Foundation	-10.2012
▁legislation	-10.2012
▁uses	-10.2012
▁recorded	-10.2013
▁fiscal	-10.2018
▁Duchess	-10.2028
▁avail	-10.2034
▁mothers	-10.2034
▁Channel	-10.2036
▁learned	-10.2041
▁stands	-10.2042
▁dispute	-10.2047
▁deny	-10.2051
▁pack	-10.2052
▁Once	-10.2054
▁imagine	-10.2055
▁journalist	-10.2055
▁Moscow	-10.2058
▁1980	-10.2064
▁truth	-10.2069
▁express	-10.2076
▁intimately	-10.2077
▁vice	-10.2086
▁tears	-10.2086
▁roughly	-10.2088
▁chain	-10.2094
▁Trust	-10.2096
▁lights	-10.2097
▁worse	-10.2132
▁collapse	-10.2133
▁likes	-10.2141
▁attempts	-10.2149
▁grave	-10.2153
▁upset	-10.2155
▁verdict	-10.2158
▁Dutch	-10.2163
▁blog	-10.2163
▁knowledge	-10.2172
▁breast	-10.2173
▁perhaps	-10.2177
▁proud	-10.2179
▁decisions	-10.218
▁viewers	-10.2186
▁scheduled	-10.2189
▁worldwide	-10.2191
▁background	-10.2193
▁El	-10.22
▁chosen	-10.2201
▁union	-10.2201
▁cocaine	-10.2203
▁lift	-10.2206
▁guess	-10.2207
▁didnt	-10.2214
▁films	-10.2215
▁Officials	-10.2232
▁planet	-10.2235
▁bet	-10.2237
▁split	-10.224
▁wee	-10.2241
▁jet	-10.2242
▁path	-10.2251
▁flag	-10.2253
▁client	-10.2254
▁adopt	-10.2256
▁golf	-10.2257
▁plus	-10.2258
▁Hotel	-10.226
▁gives	-10.226
▁external	-10.2263
▁document	-10.2264
▁river	-10.2268
▁journalists	-10.2271
▁broadcast	-10.2273
▁effective	-10.2273
▁section	-10.2273
▁vulnerable	-10.2277
▁landing	-10.2295
▁L	-10.2309
▁approximately	-10.2309
▁contend	-10.2317
▁simple	-10.232
▁isn	-10.2331
▁minor	-10.2339
▁conversation	-10.2342
▁X	-10.235
▁personnel	-10.2351
▁nose	-10.236
▁earn	-10.2363
▁pupils	-10.2368
▁Airlines	-10.2378
▁reform	-10.239
▁regular	-10.239
▁communities	-10.2402
▁Patrick	-10.2408
▁firstly	-10.2409
▁Asia	-10.2411
▁behavior	-10.2411
▁wine	-10.2417
▁wound	-10.2418
▁waste	-10.242
▁Abu	-10.2422
▁clothing	-10.2422
▁construction	-10.2425
▁Pennsylvania	-10.2428
▁Sunderland	-10.2436
▁Matthew	-10.2441
▁blow	-10.2441
▁Hull	-10.2451
▁master	-10.2452
▁descend	-10.2456
▁northern	-10.2462
▁elderly	-10.2464
▁betray	-10.2467
▁heads	-10.2467
▁interested	-10.248
▁54	-10.2484
▁bin	-10.2491
▁Charlie	-10.2494
▁attain	-10.2502
▁breaking	-10.2503
▁trees	-10.2503
▁investment	-10.2508
▁inquire	-10.2511
▁manage	-10.2514
▁infection	-10.2521
▁overall	-10.2522
▁resort	-10.2526
▁consort	-10.253
▁confirm	-10.2534
▁bottle	-10.2539
▁tomorrow	-10.2542
▁paying	-10.2546
▁engine	-10.2546
▁offers	-10.2549
▁Oscar	-10.255
▁trace	-10.255
▁Sorry	-10.2554
▁Terry	-10.2556
▁celebrity	-10.2556
▁700	-10.2559
▁limited	-10.256
▁keeping	-10.2565
▁enquire	-10.2568
▁strain	-10.257
▁distance	-10.2577
▁Super	-10.2579
▁Khan	-10.258
▁adjacent	-10.258
▁Jr	-10.2582
▁Scottish	-10.2587
▁51	-10.2597
▁hat	-10.26
▁acts	-10.2601
▁metres	-10.2603
▁53	-10.2604
▁Alexander	-10.2606
▁confront	-10.2608
▁Matt	-10.2621
▁bridge	-10.2622
▁taste	-10.2629
▁meat	-10.263
▁false	-10.2633
▁professor	-10.2633
▁hail	-10.2646
▁dissimilar	-10.265
▁Republic	-10.2658
▁conviction	-10.2661
▁tennis	-10.2661
▁seats	-10.2663
▁bond	-10.2667
▁bags	-10.2673
▁plastic	-10.2678
▁prime	-10.2679
▁scenes	-10.2679
▁reduce	-10.2685
▁resolve	-10.2685
▁anger	-10.2704
▁Public	-10.2705
▁basis	-10.2708
▁appearances	-10.2711
▁responded	-10.2712
▁Princess	-10.2713
▁southern	-10.2713
▁map	-10.2714
▁undergo	-10.272
▁Miliband	-10.2724
▁GOP	-10.2728
▁Among	-10.2734
▁Jim	-10.2739
▁agencies	-10.2749
▁pee	-10.2751
▁retain	-10.2755
▁veteran	-10.2756
▁Every	-10.2757
▁rooms	-10.2757
▁resources	-10.2759
▁joint	-10.2764
▁terminate	-10.2779
▁privacy	-10.278
▁hero	-10.2785
▁doors	-10.279
▁opinion	-10.279
▁testing	-10.2792
▁surprised	-10.2792
▁options	-10.2795
▁Lady	-10.2805
▁withdraw	-10.2808
▁slow	-10.2811
▁stolen	-10.2811
▁Earlier	-10.2815
▁angry	-10.2815
▁Jason	-10.2816
▁Sun	-10.2821
▁Houston	-10.2833
▁accord	-10.2834
▁retired	-10.2834
▁parent	-10.2841
▁Hughes	-10.2843
▁coverage	-10.2848
▁faith	-10.2848
▁Bob	-10.2849
▁Swansea	-10.2863
▁keen	-10.2863
▁writing	-10.2865
▁chair	-10.2872
▁mates	-10.2873
▁plea	-10.2874
▁prepared	-10.288
▁Graham	-10.2882
▁Web	-10.2882
▁pet	-10.2883
▁Sea	-10.2891
▁politicians	-10.2891
▁pocket	-10.2892
▁Valley	-10.2897
▁explosion	-10.2901
▁active	-10.2907
▁religious	-10.2911
▁promote	-10.2922
▁interior	-10.2923
▁prisoners	-10.2924
▁prize	-10.2924
▁Trafford	-10.2926
▁Christopher	-10.2932
▁delay	-10.2933
▁Phil	-10.2936
▁causes	-10.2937
▁shift	-10.2939
▁Prosecutors	-10.2944
▁Vegas	-10.2962
▁moon	-10.2964
▁stuff	-10.2972
▁fill	-10.2974
▁Each	-10.2992
▁grown	-10.2999
▁customer	-10.3003
▁Like	-10.3006
▁Sky	-10.3008
▁meantime	-10.3008
▁Canadian	-10.3018
▁gamey	-10.3023
▁gamy	-10.3026
▁persist	-10.303
▁inspired	-10.3035
▁select	-10.3042
▁discovery	-10.3043
▁authority	-10.3048
▁mum	-10.3049
▁neighborhood	-10.3053
▁passing	-10.3056
▁Michigan	-10.3056
▁unusual	-10.306
▁supposed	-10.3061
▁roof	-10.3062
▁differentiate	-10.3067
▁produced	-10.3072
▁Doctors	-10.3083
▁M	-10.311
▁Muslims	-10.3111
▁favourite	-10.3115
▁tweet	-10.3117
▁followers	-10.3126
▁theft	-10.3131
▁opinions	-10.3138
▁nor	-10.3139
▁fancy	-10.3145
▁blast	-10.3149
▁Who	-10.3153
▁maybe	-10.3154
▁detect	-10.3155
▁terrorists	-10.3157
▁suspicion	-10.3158
▁rivals	-10.3159
▁emotional	-10.3161
▁eminent	-10.3167
▁Rights	-10.3168
▁declined	-10.3172
▁sky	-10.3179
▁Francis	-10.3184
▁considerably	-10.3185
▁hospitals	-10.3198
▁Hernandez	-10.3206
▁Duke	-10.3208
▁Santa	-10.3208
▁dozen	-10.3221
▁entered	-10.3222
▁fat	-10.3224
▁spring	-10.3225
▁remaining	-10.3234
▁Danny	-10.3235
▁Long	-10.3244
▁discuss	-10.3246
▁Team	-10.3266
▁targeted	-10.3267
▁worried	-10.3271
▁choke	-10.3271
▁resident	-10.3272
▁Brazilian	-10.3289
▁Cook	-10.329
▁concord	-10.329
▁dating	-10.3297
▁plot	-10.3297
▁cry	-10.3299
▁remarks	-10.3299
▁km	-10.3301
▁56	-10.3304
▁controversy	-10.3306
▁roads	-10.3309
▁decline	-10.3314
▁challenges	-10.3319
▁Arab	-10.3322
▁Federal	-10.3324
▁Allen	-10.3327
▁zone	-10.3328
▁Leeds	-10.333
▁square	-10.3332
▁beating	-10.3339
▁defendant	-10.3339
▁mellow	-10.3341
▁flow	-10.3342
▁Joseph	-10.3348
▁shoes	-10.335
▁permission	-10.3356
▁banks	-10.3359
▁coffee	-10.3363
▁struggling	-10.3373
▁Las	-10.3375
▁additional	-10.3379
▁recount	-10.3386
▁rebels	-10.339
▁rifle	-10.3392
▁offering	-10.3395
▁tickets	-10.3395
▁frame	-10.3396
▁closely	-10.3397
▁arrival	-10.3405
▁waters	-10.3409
▁compensation	-10.341
▁falling	-10.3412
▁99	-10.3428
▁swimming	-10.344
▁whatever	-10.3442
▁loose	-10.3443
▁1970	-10.3444
▁rich	-10.3447
▁Sports	-10.3461
▁noted	-10.3467
▁Parliament	-10.3468
▁reading	-10.3471
▁bills	-10.3473
▁returning	-10.3473
▁Essex	-10.3479
▁joke	-10.3483
▁Life	-10.3489
▁Japanese	-10.349
▁raid	-10.3492
▁argument	-10.3495
▁Will	-10.3495
▁inch	-10.3496
▁Stoke	-10.35
▁comfortably	-10.3506
▁Jonathan	-10.3507
▁neglect	-10.3509
▁Square	-10.351
▁Rio	-10.3514
▁setting	-10.3521
▁911	-10.3526
▁pregnancy	-10.353
▁Moore	-10.3533
▁relations	-10.3535
▁headed	-10.3544
▁reputation	-10.3553
▁procedure	-10.3562
▁substantially	-10.3562
▁questioned	-10.3563
▁Rodriguez	-10.3565
▁allowing	-10.3567
▁fee	-10.3567
▁expire	-10.3572
▁bike	-10.3574
▁receiving	-10.3574
▁mom	-10.358
▁string	-10.3588
▁completed	-10.359
▁wave	-10.359
▁USA	-10.3605
▁thoughts	-10.3607
▁telephone	-10.3609
▁Abbott	-10.361
▁expose	-10.3619
▁pursue	-10.3619
▁incredible	-10.3621
▁statements	-10.3624
▁empty	-10.363
▁pen	-10.363
▁declared	-10.3632
▁lady	-10.3633
▁grounds	-10.3638
▁locomote	-10.3638
▁Ashley	-10.3646
▁Pakistani	-10.3655
▁proper	-10.3655
▁robbery	-10.3655
▁leaves	-10.3656
▁tolerate	-10.3661
▁generate	-10.3664
▁recite	-10.3664
▁critics	-10.3674
▁none	-10.3676
▁candidates	-10.3681
▁lend	-10.3684
▁exist	-10.3688
▁possibly	-10.3694
▁activists	-10.3696
▁crashed	-10.3704
▁beaten	-10.3709
▁winds	-10.3709
▁memorial	-10.3726
▁badly	-10.3727
▁guys	-10.373
▁atmosphere	-10.3754
▁profit	-10.3755
▁spoken	-10.3755
▁targets	-10.376
▁deserving	-10.3761
▁jazz	-10.3761
▁switch	-10.3763
▁Wright	-10.3764
▁civilians	-10.3772
▁lie	-10.3773
▁Cooper	-10.3783
▁urged	-10.3785
▁distaff	-10.3786
▁substantial	-10.3787
▁shoulder	-10.3795
▁sets	-10.3797
▁Holland	-10.3799
▁alert	-10.3801
▁stood	-10.3811
▁conk	-10.3813
▁Cardiff	-10.3815
▁Walker	-10.3815
▁properly	-10.3817
▁apart	-10.382
▁Gordon	-10.3821
▁fled	-10.3833
▁construct	-10.384
▁Balotelli	-10.3863
▁fitness	-10.3872
▁sending	-10.3873
▁1999	-10.3877
▁decease	-10.3881
▁welfare	-10.3883
▁rushed	-10.3885
▁narrate	-10.3887
▁drove	-10.3887
▁confident	-10.3888
▁allot	-10.3889
▁Scientists	-10.3892
▁Christie	-10.3894
▁affiliate	-10.3895
▁mountain	-10.3896
▁Robin	-10.3898
▁friendly	-10.3899
▁excited	-10.3903
▁Jamie	-10.3905
▁halt	-10.3908
▁Roy	-10.3912
▁direction	-10.3912
▁everybody	-10.3916
▁tells	-10.392
▁studies	-10.393
▁disappearance	-10.3938
▁prior	-10.3938
▁paint	-10.3947
▁wounds	-10.3956
▁Instead	-10.3958
▁Six	-10.3973
▁heavily	-10.3981
▁principal	-10.3981
▁Watson	-10.3982
▁detail	-10.3982
▁courts	-10.399
▁tea	-10.3992
▁survived	-10.3994
▁De	-10.3995
▁unique	-10.3998
▁conspiracy	-10.4005
▁Campbell	-10.4008
▁unless	-10.4008
▁involving	-10.4017
▁Nigeria	-10.4018
▁software	-10.4023
▁teeth	-10.4023
▁secern	-10.403
▁Five	-10.4031
▁Munich	-10.4033
▁offence	-10.4034
▁battery	-10.4036
▁corruption	-10.4036
▁Mars	-10.4042
▁sight	-10.4042
▁somebody	-10.4042
▁pub	-10.4044
▁Edward	-10.4046
▁severalise	-10.4052
▁derive	-10.406
▁strategy	-10.4064
▁mention	-10.4072
▁Dallas	-10.4074
▁secernate	-10.4074
▁Gerrard	-10.4075
▁effectual	-10.4078
▁episode	-10.4081
▁nice	-10.4082
▁croak	-10.4084
▁Investigators	-10.4087
▁turning	-10.4088
▁perish	-10.4091
▁Yes	-10.4094
▁damaged	-10.4103
▁consumers	-10.4105
▁Catholic	-10.4107
▁changing	-10.4109
▁lease	-10.4111
▁Thompson	-10.4117
▁Oklahoma	-10.4126
▁failing	-10.4127
▁laugh	-10.4135
▁behalf	-10.4143
▁steal	-10.4149
▁medal	-10.415
▁filmed	-10.4151
▁task	-10.4159
▁tiny	-10.4162
▁saved	-10.4163
▁royal	-10.4164
▁ancient	-10.4166
▁filled	-10.417
▁Woods	-10.4173
▁severalize	-10.4177
▁57	-10.419
▁Bristol	-10.4196
▁contacted	-10.4214
▁balance	-10.4222
▁anticipate	-10.4239
▁harmonize	-10.4242
▁bathroom	-10.4245
▁bright	-10.425
▁honor	-10.425
▁screw	-10.4255
▁Pope	-10.4262
▁immigrants	-10.4262
▁propose	-10.4264
▁Mother	-10.427
▁Local	-10.4274
▁code	-10.4281
▁learning	-10.4285
▁dressed	-10.4292
▁Assad	-10.4295
▁suggests	-10.4298
▁lifestyle	-10.43
▁harmonise	-10.4301
▁QPR	-10.4304
▁birds	-10.4304
▁lucky	-10.4306
▁risks	-10.4311
▁compensate	-10.4313
▁wouldn	-10.4314
▁Museum	-10.4319
▁era	-10.4323
▁volunteer	-10.4337
▁lying	-10.4341
▁commentary	-10.4342
▁involvement	-10.4344
▁reporter	-10.4344
▁digital	-10.4356
▁Irish	-10.4358
▁arrests	-10.4364
▁Services	-10.4369
▁campus	-10.4371
▁relief	-10.4371
▁Roberts	-10.4383
▁toy	-10.4387
▁Radio	-10.4391
▁permit	-10.4391
▁solar	-10.4396
▁originally	-10.4398
▁tear	-10.4401
▁Gulf	-10.4404
▁orders	-10.4411
▁standard	-10.4412
▁disorder	-10.4424
▁democratic	-10.4433
▁tip	-10.4433
▁introduced	-10.4434
▁assistance	-10.4437
▁sum	-10.4438
▁proposal	-10.4452
▁Clark	-10.4454
▁Director	-10.4454
▁driven	-10.4457
▁interests	-10.4457
▁Atlantic	-10.446
▁pushed	-10.4468
▁Missouri	-10.4478
▁operating	-10.448
▁trend	-10.4485
▁super	-10.4487
▁wounded	-10.4502
▁Islam	-10.4509
▁fence	-10.4511
▁Pacific	-10.4518
▁channel	-10.452
▁tech	-10.4523
▁Show	-10.4524
▁enjoyed	-10.4525
▁execute	-10.4525
▁arrange	-10.4525
▁reserve	-10.4526
▁CIA	-10.4528
▁probable	-10.4529
▁colour	-10.4532
▁yourself	-10.4534
▁busy	-10.4545
▁Philadelphia	-10.4546
▁resist	-10.4551
▁Hampshire	-10.4554
▁purpose	-10.4557
▁apology	-10.4562
▁Palestinian	-10.4566
▁Mario	-10.457
▁Time	-10.457
▁solution	-10.4573
▁talent	-10.4573
▁meal	-10.4575
▁Marine	-10.4577
▁unknown	-10.458
▁Turkish	-10.4585
▁strikes	-10.4587
▁Wall	-10.4589
▁acting	-10.4592
▁wins	-10.4592
▁teenagers	-10.4593
▁vital	-10.4601
▁Jennifer	-10.4603
▁Wimbledon	-10.4609
▁fatal	-10.4609
▁documentary	-10.4611
▁feels	-10.4613
▁planes	-10.4617
▁spokesperson	-10.4621
▁contrive	-10.4622
▁judges	-10.4625
▁presenter	-10.4625
▁partners	-10.4629
▁programs	-10.4636
▁allows	-10.464
▁notes	-10.4641
▁encourage	-10.4642
▁destroyed	-10.4645
▁counter	-10.4649
▁larger	-10.465
▁adjudicate	-10.4652
▁yards	-10.4656
▁Only	-10.4662
▁Test	-10.4668
▁bringing	-10.468
▁flee	-10.4683
▁hunt	-10.4687
▁economical	-10.4688
▁specialist	-10.4688
▁alarm	-10.4694
▁calculate	-10.4699
▁consume	-10.47
▁Cross	-10.4703
▁Researchers	-10.471
▁payments	-10.4712
▁festival	-10.4714
▁Gov	-10.4716
▁properties	-10.472
▁Brooklyn	-10.4722
▁recovered	-10.4722
▁Mitchell	-10.4734
▁Ray	-10.4736
▁knock	-10.4736
▁greater	-10.4739
▁64	-10.474
▁62	-10.4744
▁Atletico	-10.4744
▁Jessica	-10.4746
▁practically	-10.4753
▁1998	-10.4754
▁depression	-10.4756
▁58	-10.4758
▁Hillary	-10.4764
▁backed	-10.4771
▁Well	-10.4773
▁editor	-10.4778
▁Justin	-10.4784
▁iconic	-10.4784
▁Martinez	-10.4788
▁bestow	-10.4792
▁sat	-10.48
▁Academy	-10.4802
▁Rose	-10.4802
▁tertiary	-10.4802
▁facilities	-10.4804
▁regain	-10.4806
▁worry	-10.4806
▁belong	-10.4817
▁Philip	-10.4818
▁understood	-10.4818
▁lunch	-10.482
▁W	-10.4822
▁largely	-10.4822
▁deeply	-10.4828
▁Jimmy	-10.483
▁retiring	-10.4831
▁Jeremy	-10.4834
▁outbreak	-10.4834
▁announce	-10.4836
▁entrust	-10.484
▁mansion	-10.4842
▁drinks	-10.4845
▁Yet	-10.4848
▁Neil	-10.4862
▁Davies	-10.4864
▁extreme	-10.4875
▁neighbours	-10.4875
▁silver	-10.488
▁advantageously	-10.4886
▁recede	-10.4886
▁punishment	-10.4889
▁sparked	-10.4889
▁glad	-10.4892
▁grew	-10.4892
▁outrage	-10.4894
▁waves	-10.4894
▁Libya	-10.4895
▁structure	-10.4895
▁rural	-10.4903
▁Portugal	-10.4913
▁Aston	-10.4915
▁Bruce	-10.4923
▁bombing	-10.4923
▁surrounding	-10.4926
▁commission	-10.4929
▁59	-10.4933
▁tape	-10.4943
▁assay	-10.4946
▁travelling	-10.4948
▁Gaza	-10.4952
▁firms	-10.4959
▁bird	-10.4963
▁Perry	-10.4966
▁Society	-10.4972
▁vessel	-10.4972
▁ongoing	-10.4982
▁Greece	-10.4984
▁museum	-10.4984
▁eastern	-10.499
▁coalition	-10.4991
▁holds	-10.4993
▁Stewart	-10.4999
▁experienced	-10.5
▁signal	-10.5006
▁Luke	-10.5007
▁providing	-10.5009
▁sisters	-10.5017
▁hump	-10.5018
▁tackle	-10.503
▁labor	-10.5031
▁argued	-10.5036
▁windows	-10.5038
▁sanctions	-10.5043
▁smoking	-10.5046
▁warrant	-10.5061
▁legend	-10.5063
▁Lisa	-10.5069
▁chemical	-10.507
▁Experts	-10.5079
▁ad	-10.5081
▁noticed	-10.5082
▁Roger	-10.5091
▁plays	-10.5094
▁fees	-10.5096
▁bonk	-10.5097
▁Fort	-10.512
▁Mohammed	-10.512
▁unbelievable	-10.512
▁walls	-10.5125
▁corrupt	-10.5129
▁ministers	-10.513
▁Garcia	-10.5133
▁grandfather	-10.5133
▁Hart	-10.5135
▁drama	-10.5137
▁increasingly	-10.5137
▁fake	-10.514
▁constitute	-10.5142
▁stuck	-10.5146
▁Carter	-10.5152
▁Kerry	-10.5154
▁nail	-10.516
▁pace	-10.5163
▁neighbor	-10.5164
▁temperature	-10.5173
▁minimum	-10.5174
▁Yesterday	-10.5179
▁85	-10.5182
▁eff	-10.5185
▁Rangers	-10.5187
▁adequate	-10.5187
▁tragic	-10.5187
▁Friends	-10.5191
▁Top	-10.5191
▁Belgium	-10.5193
▁quit	-10.52
▁pound	-10.5201
▁rocket	-10.5202
▁celebrities	-10.5204
▁located	-10.5207
▁fuck	-10.5208
▁gap	-10.5218
▁pleased	-10.522
▁fallen	-10.5225
▁Crystal	-10.5227
▁struggled	-10.5227
▁wore	-10.5228
▁fault	-10.523
▁forever	-10.5232
▁Officer	-10.5233
▁wheel	-10.5234
▁stabbed	-10.5237
▁milk	-10.5243
▁remote	-10.5248
▁length	-10.5249
▁attract	-10.5251
▁Laura	-10.5252
▁analysis	-10.5252
▁67	-10.5254
▁discharge	-10.5254
▁hang	-10.5256
▁racing	-10.5258
▁contest	-10.5263
▁Deputy	-10.5265
▁constantly	-10.5273
▁firefighters	-10.5273
▁immediate	-10.5274
▁offensive	-10.5275
▁Here	-10.5276
▁beer	-10.5282
▁bench	-10.5291
▁plants	-10.5297
▁exhibit	-10.5305
▁ultimately	-10.5309
▁submit	-10.531
▁Illinois	-10.5315
▁gym	-10.5317
▁demonstrate	-10.5321
▁Seattle	-10.5324
▁creating	-10.5331
▁Rep	-10.5334
▁Guard	-10.5341
▁63	-10.5345
▁hire	-10.5345
▁bigger	-10.5348
▁yellow	-10.5352
▁breach	-10.5355
▁trained	-10.5355
▁accepted	-10.5362
▁awareness	-10.5362
▁Afghan	-10.5368
▁fighter	-10.5368
▁performed	-10.5373
▁widely	-10.5373
▁unlikely	-10.5379
▁sheriff	-10.5381
▁neighbour	-10.5386
▁wreak	-10.5388
▁Mercedes	-10.539
▁72	-10.5396
▁consequences	-10.5396
▁Lane	-10.5398
▁occasion	-10.54
▁hate	-10.5401
▁obviously	-10.5401
▁intended	-10.5404
▁scores	-10.5413
▁visiting	-10.5422
▁Russell	-10.543
▁opportunities	-10.5437
▁posts	-10.5437
▁featured	-10.5439
▁petition	-10.5439
▁abroad	-10.5451
▁Sanchez	-10.5456
▁formerly	-10.5456
▁unite	-10.5457
▁priority	-10.546
▁papers	-10.5461
▁platform	-10.5465
▁Switzerland	-10.5467
▁spirit	-10.5467
▁historic	-10.5472
▁prominent	-10.5473
▁Iraqi	-10.5477
▁shops	-10.548
▁ties	-10.5482
▁ocean	-10.5484
▁bone	-10.5485
▁imply	-10.5485
▁powers	-10.5489
▁shark	-10.5494
▁rejected	-10.5509
▁snap	-10.551
▁verbalise	-10.5514
▁verbalize	-10.5519
▁sad	-10.5524
▁NASA	-10.5525
▁detectives	-10.5525
▁Dubai	-10.5529
▁understanding	-10.5532
▁rising	-10.5535
▁sought	-10.5537
▁killings	-10.554
▁sentencing	-10.554
▁Sean	-10.5546
▁terrible	-10.5546
▁G	-10.5548
▁Jean	-10.5549
▁Utah	-10.5549
▁Good	-10.5552
▁dramatic	-10.5553
▁fought	-10.5557
▁drone	-10.5558
▁proved	-10.5563
▁referee	-10.5564
▁commitment	-10.5566
▁Commons	-10.5568
▁finals	-10.5568
▁chocolate	-10.557
▁normally	-10.5579
▁CBS	-10.5583
▁Ross	-10.5583
▁county	-10.5592
▁honour	-10.5593
▁gather	-10.5602
▁Connecticut	-10.5603
▁locations	-10.5607
▁thrown	-10.5611
▁achieve	-10.5613
▁complained	-10.5614
▁tonight	-10.5616
▁capacity	-10.5618
▁exclusive	-10.5624
▁characters	-10.5627
▁landed	-10.5627
▁application	-10.5629
▁childhood	-10.5631
▁Amazon	-10.5636
▁vision	-10.5636
▁murdered	-10.564
▁pink	-10.564
▁ordeal	-10.5644
▁Also	-10.5647
▁Second	-10.565
▁titles	-10.5651
▁occasions	-10.5675
▁votes	-10.568
▁Craig	-10.5686
▁sized	-10.5689
▁creditworthy	-10.5698
▁Hodgson	-10.5701
▁Dan	-10.5704
▁About	-10.5705
▁Glasgow	-10.5732
▁buying	-10.5732
▁moves	-10.5734
▁flowers	-10.5737
▁foretell	-10.5737
▁tourist	-10.5739
▁conducted	-10.5743
▁Hunt	-10.5751
▁controlled	-10.5751
▁governments	-10.5752
▁tank	-10.5756
▁1997	-10.5761
▁Sheffield	-10.5761
▁moderate	-10.5761
▁Robinson	-10.5765
▁probe	-10.5766
▁settlement	-10.5768
▁aboard	-10.577
▁dwell	-10.5772
▁teenage	-10.5772
▁innocent	-10.5776
▁taxes	-10.5776
▁print	-10.5781
▁devastated	-10.5782
▁120	-10.5786
▁clients	-10.5787
▁parliament	-10.5787
▁celebrates	-10.5789
▁Alabama	-10.5796
▁goods	-10.5796
▁Aaron	-10.5801
▁afraid	-10.5805
▁bequeath	-10.5805
▁accuse	-10.5806
▁blaze	-10.5812
▁branch	-10.5819
▁striking	-10.5819
▁headquarters	-10.5823
▁sector	-10.5823
▁Swiss	-10.5827
▁specially	-10.5836
▁Thailand	-10.5841
▁Howard	-10.5845
▁abandoned	-10.5845
▁package	-10.5851
▁cleared	-10.5854
▁overly	-10.5856
▁Little	-10.5861
▁proposed	-10.5861
▁iPad	-10.5863
▁exposed	-10.5864
▁envision	-10.5868
▁Oxford	-10.587
▁warn	-10.5875
▁delivery	-10.5877
▁developing	-10.5882
▁entrance	-10.5883
▁Cole	-10.5886
▁album	-10.5888
▁abide	-10.5891
▁projects	-10.5893
▁sample	-10.5895
▁Though	-10.5901
▁f	-10.5903
▁ideas	-10.591
▁closer	-10.5925
▁cap	-10.5929
▁Stuart	-10.5935
▁earned	-10.5937
▁publicly	-10.5943
▁criminals	-10.5944
▁delivered	-10.5944
▁interesting	-10.5946
▁winners	-10.5946
▁cook	-10.5948
▁variety	-10.5948
▁testimony	-10.5957
▁visualise	-10.5961
▁execution	-10.5964
▁interpret	-10.5967
▁Adams	-10.5969
▁testify	-10.5969
▁praise	-10.597
▁dispatch	-10.5988
▁stake	-10.5991
▁matters	-10.5992
▁rugby	-10.5998
▁numerous	-10.6005
▁bombs	-10.6006
▁Clegg	-10.6009
▁Co	-10.6012
▁taxi	-10.6015
▁1960	-10.6021
▁happens	-10.6022
▁NATO	-10.6023
▁mine	-10.6025
▁genuinely	-10.6028
▁athletes	-10.6032
▁disappeared	-10.604
▁web	-10.6044
▁emails	-10.6046
▁sharing	-10.605
▁66	-10.6053
▁dependable	-10.606
▁Egyptian	-10.6062
▁considering	-10.6063
▁entry	-10.6064
▁prefer	-10.6064
▁toilet	-10.6064
▁drunk	-10.6072
▁independence	-10.6073
▁68	-10.6075
▁Blair	-10.6078
▁disclose	-10.6082
▁gunman	-10.6082
▁clip	-10.6086
▁Love	-10.6089
▁hoped	-10.6095
▁trophy	-10.6101
▁cup	-10.6102
▁blamed	-10.6104
▁exciting	-10.6104
▁drawn	-10.6105
▁Journal	-10.611
▁factor	-10.611
▁replace	-10.6112
▁naked	-10.6121
▁emerge	-10.6124
▁gender	-10.6128
▁Federer	-10.6149
▁successfully	-10.6151
▁insists	-10.6156
▁teens	-10.6163
▁Video	-10.6165
▁gathered	-10.618
▁reply	-10.618
▁multi	-10.6183
▁update	-10.6184
▁listed	-10.6187
▁raising	-10.619
▁dismissed	-10.6193
▁Dave	-10.6195
▁degrees	-10.6195
▁fruit	-10.6195
▁frequently	-10.6197
▁donate	-10.6205
▁clinic	-10.6206
▁visualize	-10.6208
▁links	-10.6209
▁focused	-10.6216
▁plunge	-10.6218
▁Administration	-10.622
▁buried	-10.622
▁burst	-10.6228
▁Roma	-10.623
▁guards	-10.6235
▁sixth	-10.6235
▁hide	-10.6241
▁Read	-10.6253
▁happening	-10.6259
▁ripe	-10.6259
▁Spurs	-10.6261
▁conjoin	-10.6262
▁garage	-10.6263
▁yes	-10.6264
▁Jay	-10.6267
▁crack	-10.6269
▁Everyone	-10.6271
▁Space	-10.6274
▁Your	-10.6276
▁satellite	-10.6283
▁declare	-10.6285
▁Duncan	-10.629
▁cricket	-10.6294
▁Sgt	-10.6296
▁flames	-10.6296
▁elect	-10.6297
▁stages	-10.6299
▁tested	-10.6309
▁roll	-10.631
▁severely	-10.6316
▁cutting	-10.6319
▁promised	-10.6325
▁types	-10.6325
▁outfit	-10.6326
▁Ocean	-10.6327
▁crews	-10.6327
▁bound	-10.6331
▁heading	-10.6331
▁Juan	-10.6332
▁PM	-10.6334
▁checks	-10.6334
▁typically	-10.6334
▁Don	-10.6336
▁Southern	-10.6336
▁predict	-10.6338
▁colleague	-10.6339
▁alternatively	-10.6341
▁collapsed	-10.6344
▁definitely	-10.6344
▁regional	-10.6349
▁factory	-10.6351
▁Chancellor	-10.6356
▁K	-10.6358
▁locked	-10.6359
▁McDonald	-10.636
▁broad	-10.636
▁overseas	-10.6364
▁stayed	-10.637
▁Jane	-10.6372
▁substitute	-10.6376
▁Zimmerman	-10.6379
▁Cornwall	-10.6381
▁horror	-10.6381
▁kid	-10.6386
▁tied	-10.6391
▁restaurants	-10.6393
▁organisation	-10.6396
▁smaller	-10.6399
▁famed	-10.6407
▁communications	-10.641
▁movies	-10.641
▁recollect	-10.6413
▁basketball	-10.6414
▁Collins	-10.6419
▁summit	-10.642
▁error	-10.6421
▁presented	-10.6423
▁probation	-10.6424
▁carbon	-10.6426
▁Westminster	-10.6429
▁staying	-10.6434
▁willing	-10.6434
▁Education	-10.6436
▁investigations	-10.6438
▁Men	-10.644
▁altogether	-10.6442
▁invest	-10.6451
▁Emma	-10.6457
▁positions	-10.6457
▁overnight	-10.6462
▁escaped	-10.6471
▁favour	-10.6471
▁painting	-10.6475
▁demands	-10.6482
▁atomic	-10.6483
▁elsewhere	-10.6483
▁seized	-10.6487
▁seed	-10.6495
▁solid	-10.6496
▁excessively	-10.6497
▁procedures	-10.65
▁Or	-10.6514
▁shocking	-10.6514
▁historical	-10.6519
▁medication	-10.6519
▁approved	-10.6521
▁commander	-10.6524
▁trail	-10.6524
▁prompt	-10.6525
▁quiet	-10.6525
▁Father	-10.6528
▁affairs	-10.6531
▁shore	-10.6536
▁approval	-10.6538
▁sugar	-10.6538
▁materials	-10.6548
▁command	-10.655
▁accusations	-10.6552
▁horrific	-10.6553
▁patrol	-10.6555
▁Amy	-10.6557
▁collision	-10.6559
▁shelter	-10.6562
▁replaced	-10.6563
▁Safety	-10.6567
▁cant	-10.6567
▁rally	-10.6574
▁Magistrates	-10.6579
▁compete	-10.6581
▁continuing	-10.6587
▁native	-10.6594
▁rebel	-10.6598
▁spiritual	-10.6598
▁tracks	-10.6598
▁Brendan	-10.66
▁plain	-10.6602
▁volunteers	-10.6602
▁object	-10.6603
▁Ukrainian	-10.6605
▁deals	-10.6605
▁stroke	-10.6609
▁Ive	-10.6617
▁monitor	-10.6617
▁Detroit	-10.662
▁wealth	-10.662
▁alternative	-10.6628
▁helps	-10.6634
▁originate	-10.6635
▁react	-10.6635
▁impossible	-10.6642
▁Authority	-10.6644
▁criticised	-10.6647
▁palpate	-10.6647
▁1996	-10.6649
▁marry	-10.665
▁Edinburgh	-10.6653
▁marks	-10.6653
▁Board	-10.6655
▁cruise	-10.6657
▁desperate	-10.6659
▁Susan	-10.6663
▁Kenya	-10.6665
▁occupy	-10.6669
▁relationships	-10.6678
▁meetings	-10.6682
▁conservative	-10.6687
▁viral	-10.6687
▁cool	-10.6692
▁ambassador	-10.6695
▁clock	-10.6701
▁hosts	-10.6702
▁actual	-10.6703
▁Burnley	-10.6704
▁poverty	-10.6704
▁writer	-10.6704
▁Phillips	-10.6707
▁racial	-10.6707
▁bust	-10.6708
▁tweets	-10.6709
▁please	-10.6713
▁Can	-10.6714
▁mislay	-10.6715
▁engaged	-10.6723
▁Following	-10.6725
▁95	-10.6726
▁depend	-10.6726
▁oppose	-10.6726
▁pretend	-10.673
▁scan	-10.673
▁apps	-10.6736
▁bosses	-10.6736
▁convert	-10.6736
▁license	-10.6737
▁hitting	-10.6738
▁meals	-10.6738
▁classes	-10.6746
▁preceding	-10.6747
▁studio	-10.6748
▁HIV	-10.6753
▁subscribe	-10.6753
▁labour	-10.6758
▁jumped	-10.6759
▁Bailey	-10.6768
▁increasing	-10.6768
▁admits	-10.6773
▁shout	-10.6776
▁awarded	-10.6779
▁Queensland	-10.6785
▁misplace	-10.679
▁resolution	-10.679
▁territory	-10.6792
▁attacking	-10.6804
▁stunning	-10.6804
▁comfortable	-10.6806
▁Cuba	-10.6807
▁granted	-10.6808
▁anybody	-10.6809
▁shares	-10.6809
▁realised	-10.6813
▁speculation	-10.6814
▁dry	-10.682
▁celebration	-10.6822
▁Inter	-10.6827
▁felony	-10.6827
▁Commissioner	-10.6829
▁cats	-10.6829
▁approached	-10.6836
▁negative	-10.6838
▁Anne	-10.6839
▁seasons	-10.6846
▁chat	-10.6847
▁Snowden	-10.6849
▁migrants	-10.6851
▁chicken	-10.6852
▁starts	-10.6852
▁racist	-10.6854
▁Celtic	-10.6855
▁Clarke	-10.6856
▁1994	-10.6864
▁Up	-10.6865
▁cream	-10.6866
▁producer	-10.6866
▁Sandy	-10.6867
▁neither	-10.6868
▁smart	-10.6871
▁Iranian	-10.6872
▁requests	-10.6872
▁Detective	-10.6873
▁Wood	-10.6873
▁wonderful	-10.6873
▁Arabia	-10.6876
▁height	-10.6881
▁opponents	-10.6881
▁licence	-10.6885
▁bones	-10.6887
▁toll	-10.6887
▁mystery	-10.6888
▁reveals	-10.6888
▁Democrat	-10.6893
▁Law	-10.6893
▁detention	-10.6893
▁immense	-10.6894
▁61	-10.6898
▁haven	-10.6904
▁raped	-10.6909
▁stations	-10.6909
▁officially	-10.6911
▁Amanda	-10.6913
▁Rice	-10.6913
▁fantastic	-10.6914
▁impressive	-10.6919
▁Maryland	-10.692
▁threw	-10.6922
▁wonder	-10.6925
▁throat	-10.6945
▁Food	-10.6948
▁flood	-10.6955
▁absence	-10.6958
▁established	-10.6959
▁coroner	-10.696
▁nobody	-10.696
▁discrimination	-10.6963
▁reference	-10.6965
▁reward	-10.6965
▁reporting	-10.6967
▁yard	-10.697
▁pilots	-10.6972
▁guest	-10.698
▁spare	-10.698
▁Manuel	-10.6983
▁hell	-10.6985
▁Asian	-10.6988
▁Midlands	-10.6988
▁Ward	-10.699
▁interviews	-10.699
▁northerly	-10.6993
▁electricity	-10.6998
▁veterans	-10.6998
▁possess	-10.6999
▁artists	-10.7005
▁bullet	-10.7017
▁Sport	-10.7018
▁maximum	-10.7018
▁values	-10.7019
▁fishing	-10.7023
▁consecrate	-10.7024
▁associate	-10.7027
▁smartphone	-10.7028
▁celebrated	-10.7029
▁Greg	-10.703
▁impress	-10.703
▁brilliant	-10.7032
▁attorneys	-10.7033
▁fundamental	-10.7033
▁Beckham	-10.7035
▁hidden	-10.7037
▁feared	-10.7039
▁Nelson	-10.704
▁comfort	-10.7043
▁Cristiano	-10.7048
▁Devon	-10.7048
▁regulations	-10.7048
▁advertising	-10.7052
▁Poland	-10.7053
▁breathing	-10.7053
▁ships	-10.7053
▁safely	-10.7056
▁burn	-10.7057
▁retirement	-10.7061
▁genuine	-10.7068
▁inmates	-10.7068
▁ministry	-10.7071
▁routine	-10.7072
▁civilian	-10.7078
▁debris	-10.7078
▁rescued	-10.7078
▁visits	-10.7079
▁McIlroy	-10.7081
▁chose	-10.7081
▁trusted	-10.7085
▁Stone	-10.7088
▁Osborne	-10.7091
▁elected	-10.7092
▁favorite	-10.7092
▁intent	-10.7092
▁leads	-10.7093
▁twins	-10.7097
▁Barbara	-10.7098
▁beneath	-10.71
▁thinks	-10.71
▁69	-10.7103
▁GP	-10.7111
▁supporting	-10.7112
▁uniform	-10.7114
▁associated	-10.7116
▁insure	-10.7117
▁Reid	-10.7121
▁lies	-10.7126
▁outcome	-10.7129
▁Defence	-10.7131
▁Colombia	-10.7134
▁noise	-10.7134
▁Disney	-10.7136
▁Surrey	-10.7136
▁mix	-10.714
▁motion	-10.7144
▁Queens	-10.7149
▁ages	-10.7149
▁experiences	-10.715
▁Austin	-10.7152
▁concluded	-10.7152
▁Somalia	-10.7154
▁generally	-10.7154
▁recording	-10.7154
▁accommodate	-10.7157
▁offices	-10.7164
▁abortion	-10.7172
▁obvious	-10.7172
▁insist	-10.7175
▁Ann	-10.718
▁computers	-10.718
▁Qatar	-10.719
▁manslaughter	-10.7192
▁organizations	-10.7192
▁supported	-10.7194
▁objects	-10.7196
▁Captain	-10.72
▁theory	-10.72
▁proceedings	-10.7203
▁discourse	-10.7215
▁searching	-10.7215
▁adds	-10.7218
▁races	-10.7219
▁supplies	-10.7221
▁manner	-10.7223
▁posting	-10.7223
▁nurses	-10.7224
▁reduced	-10.7227
▁Moyes	-10.7228
▁NBA	-10.7228
▁comedy	-10.7228
▁1995	-10.7231
▁bribe	-10.7231
▁greatest	-10.7232
▁traverse	-10.7232
▁Edwards	-10.7233
▁shed	-10.7235
▁immature	-10.7238
▁flew	-10.724
▁fold	-10.7242
▁behave	-10.7244
▁importance	-10.7244
▁investigated	-10.7245
▁fetch	-10.725
▁kidnapping	-10.725
▁Britons	-10.7251
▁sole	-10.7258
▁torture	-10.726
▁uncover	-10.7263
▁horses	-10.7264
▁abused	-10.7267
▁Samsung	-10.7272
▁nominate	-10.7272
▁referred	-10.728
▁Castro	-10.7282
▁pending	-10.7282
▁representative	-10.7292
▁Djokovic	-10.7295
▁Indonesia	-10.7295
▁managers	-10.7295
▁supermarket	-10.73
▁factors	-10.7303
▁sees	-10.7307
▁Britains	-10.7311
▁engineer	-10.7311
▁denies	-10.7314
▁markets	-10.7314
▁peak	-10.7322
▁memories	-10.7329
▁Around	-10.7335
▁democracy	-10.7342
▁Malaysia	-10.7349
▁Shaw	-10.7352
▁advanced	-10.7352
▁knocked	-10.7352
▁rounds	-10.7362
▁ending	-10.7364
▁Antonio	-10.7365
▁religion	-10.7365
▁sleeping	-10.7368
▁awards	-10.7375
▁espouse	-10.7377
▁wholly	-10.7377
▁flooding	-10.7381
▁pointed	-10.7387
▁dying	-10.739
▁compound	-10.74
▁Station	-10.7404
▁Staff	-10.7407
▁Port	-10.7412
▁networks	-10.7413
▁Murphy	-10.742
▁cannabis	-10.742
▁Jesus	-10.7422
▁Flight	-10.7435
▁refer	-10.7437
▁voted	-10.7438
▁Secret	-10.7441
▁stepped	-10.7442
▁Darren	-10.7443
▁Nazi	-10.7443
▁gate	-10.7443
▁strip	-10.7443
▁bottles	-10.7458
▁defending	-10.7461
▁Best	-10.7464
▁citizen	-10.7467
▁earthquake	-10.7472
▁holidays	-10.7475
▁locals	-10.7477
▁units	-10.7485
▁tradition	-10.7488
▁winger	-10.7488
▁Where	-10.749
▁leak	-10.749
▁trapped	-10.749
▁prompted	-10.7494
▁websites	-10.7496
▁Hawaii	-10.7498
▁consent	-10.7498
▁EST	-10.7509
▁Oregon	-10.7517
▁convinced	-10.7517
▁environmental	-10.7517
▁collect	-10.7518
▁Grant	-10.7523
▁Crime	-10.7525
▁Margaret	-10.7525
▁skull	-10.7525
▁spectacular	-10.7525
▁Care	-10.7527
▁Minnesota	-10.7532
▁Town	-10.7532
▁wildlife	-10.7538
▁posed	-10.7539
▁Sony	-10.754
▁Tennessee	-10.7543
▁physically	-10.7543
▁Neymar	-10.7548
▁eggs	-10.7552
▁donations	-10.7556
▁earth	-10.7558
▁negotiations	-10.7562
▁kicked	-10.7563
▁Others	-10.7564
▁headlines	-10.7567
▁Sussex	-10.757
▁plow	-10.7574
▁adopted	-10.7575
▁sealed	-10.7577
▁easier	-10.7583
▁scared	-10.7583
▁selection	-10.7585
▁Kyle	-10.7588
▁otherwise	-10.7588
▁unmanageable	-10.7592
▁Pentagon	-10.7593
▁informed	-10.7593
▁pages	-10.7596
▁Morning	-10.7599
▁extent	-10.7599
▁Emirates	-10.7601
▁calm	-10.7601
▁uncle	-10.7601
▁harassment	-10.7604
▁tag	-10.7604
▁proof	-10.7605
▁genial	-10.7611
▁Kansas	-10.7615
▁Barclays	-10.7617
▁lately	-10.762
▁Anna	-10.7623
▁personally	-10.7623
▁Sweden	-10.7628
▁salary	-10.7628
▁suddenly	-10.7629
▁rear	-10.7632
▁item	-10.7633
▁Euro	-10.7636
▁Ferrari	-10.7636
▁division	-10.7641
▁Nigel	-10.7655
▁stretch	-10.7655
▁erst	-10.7657
▁therapy	-10.7657
▁Laden	-10.7661
▁grass	-10.7664
▁offenders	-10.7665
▁payment	-10.7665
▁rush	-10.7668
▁youthful	-10.7668
▁businessman	-10.7673
▁Microsoft	-10.7676
▁fame	-10.7676
▁scream	-10.7677
▁blend	-10.7679
▁popularity	-10.7679
▁footballer	-10.7681
▁shamed	-10.7681
▁solve	-10.7685
▁defendants	-10.769
▁knowing	-10.769
▁Alaska	-10.7692
▁NSW	-10.7692
▁cousin	-10.7695
▁youngster	-10.7695
▁detained	-10.7696
▁unconscious	-10.7698
▁argue	-10.7702
▁restrictions	-10.7706
▁Keith	-10.7708
▁warnings	-10.7708
▁joining	-10.7711
▁hits	-10.7712
▁Sergio	-10.7714
▁graduate	-10.7714
▁Anfield	-10.7716
▁facts	-10.7716
▁residence	-10.7716
▁motor	-10.772
▁neighbors	-10.7723
▁unclear	-10.7723
▁compose	-10.7727
▁Angel	-10.7733
▁lbs	-10.7738
▁accepting	-10.7746
▁seduce	-10.7747
▁dealing	-10.7749
▁activist	-10.7751
▁follows	-10.7751
▁turns	-10.7753
▁tens	-10.7757
▁trigger	-10.7757
▁unfold	-10.776
▁western	-10.7761
▁charter	-10.7764
▁trains	-10.7764
▁McCain	-10.7765
▁exhibition	-10.7768
▁Berlin	-10.7778
▁inspiration	-10.7778
▁bite	-10.7785
▁Roman	-10.7791
▁Lawrence	-10.7792
▁unveil	-10.7797
▁amounts	-10.7799
▁chef	-10.7803
▁lawmakers	-10.7806
▁Oliver	-10.7808
▁sentences	-10.7811
▁chase	-10.7812
▁Iowa	-10.7816
▁Hundreds	-10.7822
▁songs	-10.7822
▁Louisiana	-10.7825
▁nights	-10.7825
▁extended	-10.7826
▁vs	-10.783
▁Lib	-10.7833
▁theme	-10.7838
▁toddler	-10.7838
▁Mount	-10.7846
▁Sportsmail	-10.7854
▁Di	-10.786
▁Charlotte	-10.7863
▁teach	-10.7864
▁Formula	-10.7865
▁marketing	-10.787
▁Katie	-10.7871
▁teaching	-10.7874
▁medicine	-10.7875
▁Forest	-10.7876
▁championship	-10.7879
▁Julie	-10.7882
▁perfectly	-10.7883
▁Jong	-10.7898
▁cop	-10.7898
▁trips	-10.7898
▁Jewish	-10.7908
▁Social	-10.7909
▁belief	-10.7912
▁concept	-10.792
▁lb	-10.7924
▁signify	-10.7924
▁Are	-10.7926
▁Max	-10.7928
▁Denver	-10.7934
▁panic	-10.7937
▁tend	-10.7944
▁Welsh	-10.7946
▁replied	-10.7949
▁apparent	-10.795
▁label	-10.795
▁Jeff	-10.7959
▁Nadal	-10.7964
▁Netherlands	-10.7964
▁freeze	-10.7966
▁attached	-10.7967
▁performances	-10.7972
▁Bell	-10.7975
▁answers	-10.7985
▁employment	-10.7986
▁Fernando	-10.7992
▁inward	-10.7992
▁Bradley	-10.7995
▁contrast	-10.7997
▁taxpayers	-10.7997
▁zero	-10.8001
▁Student	-10.8006
▁flu	-10.8008
▁joy	-10.8017
▁upper	-10.8017
▁hunting	-10.8022
▁sporting	-10.8025
▁prospect	-10.8029
▁urge	-10.8035
▁household	-10.8036
▁preparing	-10.8038
▁Avenue	-10.8047
▁Cleveland	-10.8047
▁squeeze	-10.8049
▁Conservative	-10.8051
▁domesticated	-10.8051
▁odds	-10.8053
▁towns	-10.8053
▁Dean	-10.8058
▁Rob	-10.806
▁heroin	-10.8064
▁hotels	-10.8064
▁murders	-10.8064
▁Lt	-10.8075
▁Wembley	-10.8075
▁appointment	-10.8075
▁guidelines	-10.8083
▁youngsters	-10.8083
▁reforms	-10.8089
▁attempting	-10.8092
▁belt	-10.8092
▁Commonwealth	-10.8097
▁Rome	-10.8097
▁jurors	-10.8097
▁Simpson	-10.81
▁specifically	-10.8103
▁climb	-10.8104
▁explicate	-10.8106
▁Barry	-10.8109
▁forms	-10.8116
▁Warren	-10.812
▁reject	-10.8123
▁talked	-10.8123
▁Lionel	-10.8125
▁closing	-10.8125
▁comply	-10.8125
▁concert	-10.8125
▁departure	-10.8128
▁connected	-10.8131
▁lessons	-10.8131
▁brown	-10.8137
▁Live	-10.8141
▁71	-10.8142
▁Arsene	-10.8145
▁port	-10.8148
▁fortune	-10.8151
▁impressed	-10.8155
▁outstanding	-10.8155
▁rocks	-10.8158
▁Brisbane	-10.8159
▁passion	-10.8162
▁Downing	-10.8163
▁swim	-10.8167
▁destination	-10.817
▁Met	-10.8172
▁enjoying	-10.8172
▁Lambert	-10.8173
▁Cabinet	-10.8176
▁trick	-10.8176
▁tools	-10.8177
▁Baghdad	-10.8179
▁inwards	-10.818
▁feelings	-10.8183
▁Armstrong	-10.8193
▁P	-10.8196
▁aimed	-10.8197
▁provides	-10.8197
▁resign	-10.8197
▁ITV	-10.8198
▁basic	-10.82
▁opponent	-10.82
▁Sierra	-10.8201
▁Gold	-10.8204
▁escort	-10.8204
▁restrain	-10.8204
▁westerly	-10.8206
▁Persie	-10.8207
▁core	-10.8207
▁remark	-10.821
▁regions	-10.8213
▁authoritative	-10.8223
▁Douglas	-10.8224
▁Camp	-10.8225
▁Oh	-10.8227
▁Yemen	-10.8227
▁Prix	-10.823
▁baseball	-10.8232
▁brief	-10.8235
▁pushing	-10.8237
▁Islamist	-10.8238
▁hundred	-10.8241
▁missile	-10.8249
▁crying	-10.8251
▁Bolton	-10.8252
▁soft	-10.8259
▁Golden	-10.8264
▁crop	-10.8264
▁relate	-10.8264
▁intention	-10.8266
▁personality	-10.8266
▁survivors	-10.8269
▁Biden	-10.8278
▁divulge	-10.8279
▁Bale	-10.8281
▁Capital	-10.8281
▁attitude	-10.8284
▁communication	-10.8284
▁incredibly	-10.8284
▁keeper	-10.8286
▁rail	-10.8288
▁lover	-10.8289
▁slightly	-10.8291
▁1992	-10.8292
▁Jon	-10.8298
▁referendum	-10.8301
▁cognize	-10.8302
▁crossing	-10.8305
▁entertainment	-10.8306
▁Tokyo	-10.8309
▁Rock	-10.8312
▁Ukip	-10.8312
▁Rachel	-10.8315
▁tragical	-10.8315
▁Business	-10.8321
▁saving	-10.8321
▁survival	-10.8323
▁tall	-10.8325
▁Josh	-10.8326
▁Thousands	-10.8326
▁damages	-10.8326
▁Telegraph	-10.8329
▁disappointed	-10.8329
▁obtained	-10.8333
▁mistakes	-10.8335
▁reception	-10.8335
▁ear	-10.8341
▁opine	-10.8341
▁politician	-10.8341
▁Bowl	-10.8343
▁designate	-10.8345
▁Monaco	-10.8346
▁spotlight	-10.8349
▁Ahmed	-10.8352
▁electronic	-10.8355
▁screaming	-10.8355
▁roles	-10.8361
▁lifetime	-10.8366
▁indite	-10.8368
▁advise	-10.8369
▁ourselves	-10.8369
▁Le	-10.8372
▁subsist	-10.8376
▁desert	-10.8378
▁permanent	-10.8381
▁cognise	-10.8382
▁tool	-10.8385
▁untested	-10.8385
▁Carlos	-10.8387
▁countenance	-10.8389
▁replacement	-10.8392
▁transplant	-10.8394
▁awful	-10.8397
▁suspension	-10.8398
▁invited	-10.8404
▁latterly	-10.8411
▁wage	-10.8411
▁classic	-10.8412
▁Greater	-10.8414
▁Mandela	-10.8421
▁suburb	-10.8427
▁arriving	-10.843
▁tender	-10.8434
▁funny	-10.8437
▁grab	-10.8437
▁surrounded	-10.8438
▁lasting	-10.8453
▁venue	-10.8453
▁vernal	-10.8459
▁assert	-10.846
▁jacket	-10.8466
▁Donald	-10.8467
▁Lopez	-10.847
▁describes	-10.8472
▁Brobdingnagian	-10.8478
▁worlds	-10.8488
▁discussion	-10.8491
▁minority	-10.8491
▁unwrap	-10.8491
▁Juventus	-10.8494
▁Emergency	-10.8496
▁sudden	-10.8499
▁suspicious	-10.8499
▁See	-10.8505
▁laid	-10.8505
▁Lancashire	-10.8508
▁cope	-10.8508
▁secondly	-10.8508
▁gifts	-10.851
▁Turner	-10.8511
▁breakfast	-10.8512
▁hasn	-10.8514
▁shirts	-10.8517
▁performing	-10.8526
▁1993	-10.8531
▁weigh	-10.8531
▁tail	-10.8533
▁button	-10.8534
▁transmit	-10.8549
▁guarantee	-10.8555
▁odd	-10.8555
▁kg	-10.8556
▁formally	-10.8559
▁combination	-10.8561
▁convictions	-10.8561
▁muscle	-10.8561
▁bare	-10.8562
▁rose	-10.8562
▁aggressive	-10.8568
▁Project	-10.8569
▁foods	-10.8569
▁spy	-10.8569
▁favor	-10.8572
▁Seven	-10.8578
▁brutal	-10.8581
▁designs	-10.8593
▁untried	-10.8594
▁crowds	-10.8599
▁Android	-10.8602
▁Powell	-10.8602
▁investors	-10.8602
▁supra	-10.8603
▁southerly	-10.8605
▁flash	-10.8606
▁substance	-10.8608
▁zoo	-10.8608
▁asylum	-10.861
▁offend	-10.8612
▁Eve	-10.8613
▁begins	-10.8621
▁Brighton	-10.8622
▁Liga	-10.8625
▁Metropolitan	-10.8625
▁testified	-10.8627
▁improved	-10.8631
▁Knight	-10.8634
▁73	-10.8637
▁travelled	-10.864
▁+	-10.8643
▁Blue	-10.8643
▁formed	-10.8647
▁assets	-10.8649
▁stated	-10.865
▁relative	-10.8652
▁Singapore	-10.8658
▁unseasoned	-10.8659
▁equivalent	-10.8662
▁Out	-10.8667
▁Parker	-10.8667
▁sour	-10.8667
▁Mississippi	-10.8672
▁electric	-10.8674
▁74	-10.8681
▁luck	-10.869
▁inform	-10.8692
▁Baker	-10.8699
▁900	-10.8702
▁recalled	-10.8702
▁boast	-10.8704
▁Civil	-10.8708
▁Eastern	-10.8714
▁digest	-10.8715
▁hostage	-10.8717
▁Major	-10.872
▁becomes	-10.872
▁liberal	-10.872
▁demanded	-10.8721
▁dollar	-10.8723
▁silence	-10.8723
▁tries	-10.8726
▁Indiana	-10.8729
▁Asked	-10.8733
▁obesity	-10.8735
▁passport	-10.8735
▁peculiarly	-10.8736
▁lake	-10.8738
▁participants	-10.8744
▁burns	-10.8748
▁Sudan	-10.875
▁Vice	-10.8753
▁adviser	-10.8753
▁relatively	-10.8754
▁instance	-10.8762
▁contained	-10.8771
▁trafficking	-10.8774
▁Ferdinand	-10.8777
▁Rescue	-10.8777
▁twist	-10.8783
▁except	-10.8786
▁porn	-10.8786
▁sustained	-10.8787
▁unveiled	-10.8792
▁exhaust	-10.8793
▁homicide	-10.8795
▁tap	-10.8795
▁Kentucky	-10.8801
▁dear	-10.8801
▁crown	-10.8802
▁usual	-10.8802
▁defended	-10.8805
▁ends	-10.8807
▁monitoring	-10.8807
▁Power	-10.881
▁Zoo	-10.8813
▁appeals	-10.8817
▁siblings	-10.8822
▁OK	-10.8825
▁soil	-10.8825
▁machines	-10.8828
▁sand	-10.8828
▁voting	-10.8831
▁Nancy	-10.8834
▁Gareth	-10.884
▁QC	-10.8843
▁pit	-10.8847
▁Pistorius	-10.8852
▁ankle	-10.8852
▁modest	-10.8853
▁practices	-10.8855
▁Memorial	-10.8858
▁diabetes	-10.8861
▁reaching	-10.8861
▁hiding	-10.8867
▁handling	-10.8871
▁hangdog	-10.8871
▁boxes	-10.8873
▁invite	-10.8874
▁lone	-10.8874
▁industrial	-10.8879
▁midfield	-10.8882
▁bullying	-10.8883
▁demanding	-10.8889
▁gear	-10.8894
▁wheelchair	-10.8894
▁Were	-10.8897
▁alien	-10.8897
▁shoppers	-10.89
▁king	-10.8906
▁bears	-10.8912
▁Boeing	-10.8915
▁airports	-10.8915
▁scientific	-10.8918
▁H	-10.8924
▁hall	-10.8924
▁allies	-10.8926
▁burglary	-10.8927
▁tensions	-10.8927
▁soccer	-10.893
▁Falcao	-10.8933
▁cloud	-10.8933
▁egress	-10.8933
▁firing	-10.8933
▁holes	-10.8938
▁uphold	-10.8941
▁coat	-10.8944
▁unemployment	-10.8952
▁toys	-10.8955
▁enable	-10.8961
▁paramedics	-10.8964
▁advocate	-10.8965
▁dates	-10.8967
▁engagement	-10.897
▁okay	-10.8974
▁boats	-10.8977
▁Network	-10.8979
▁duo	-10.8985
▁Still	-10.8994
▁shamefaced	-10.8996
▁burning	-10.9005
▁Back	-10.9008
▁delays	-10.9011
▁Brom	-10.9019
▁rough	-10.9025
▁dedicated	-10.9026
▁filming	-10.9029
▁Special	-10.9032
▁embassy	-10.9037
▁conclude	-10.9042
▁entail	-10.9046
▁fires	-10.9051
▁Hannah	-10.9052
▁lung	-10.9052
▁hap	-10.9057
▁poses	-10.9057
▁exposure	-10.9059
▁Sri	-10.9062
▁attending	-10.9063
▁grievous	-10.9065
▁devastating	-10.9072
▁concrete	-10.908
▁estimate	-10.9082
▁Ronald	-10.9086
▁dressing	-10.9086
▁UEFA	-10.9089
▁77	-10.9096
▁airlines	-10.9096
▁sounds	-10.9096
▁Holmes	-10.9102
▁infrastructure	-10.9111
▁apportion	-10.9113
▁drew	-10.9114
▁plump	-10.9127
▁Uruguay	-10.913
▁couch	-10.9131
▁delighted	-10.9133
▁hearts	-10.9133
▁treatments	-10.9133
▁lodge	-10.9134
▁repair	-10.9134
▁copy	-10.9136
▁Hills	-10.9142
▁explore	-10.9148
▁founded	-10.9148
▁slam	-10.915
▁Media	-10.9154
▁partnership	-10.9161
▁trauma	-10.9164
▁explains	-10.9165
▁enemy	-10.9167
▁furious	-10.917
▁Please	-10.9173
▁chaos	-10.9173
▁Company	-10.9179
▁Savile	-10.9179
▁Winter	-10.9179
▁assaulted	-10.9181
▁‘	-10.9182
▁taught	-10.9186
▁foundation	-10.9189
▁prayers	-10.9192
▁Prosecutor	-10.9198
▁dust	-10.9198
▁infected	-10.9201
▁grabbed	-10.9204
▁brook	-10.9206
▁Roberto	-10.9207
▁clashes	-10.921
▁Perez	-10.9214
▁pride	-10.9215
▁opt	-10.9217
▁stole	-10.9217
▁expectant	-10.9218
▁Several	-10.9221
▁registered	-10.9221
▁smell	-10.9225
▁Fabregas	-10.9226
▁consultant	-10.9229
▁parole	-10.9229
▁brave	-10.9231
▁Dortmund	-10.9232
▁Tesco	-10.9232
▁incriminate	-10.9239
▁collected	-10.924
▁burned	-10.9248
▁storage	-10.9248
▁Bureau	-10.9254
▁opposite	-10.9256
▁Spencer	-10.9257
▁interviewed	-10.9261
▁profits	-10.9262
▁Hamas	-10.9264
▁bacteria	-10.9264
▁Silva	-10.927
▁hired	-10.9272
▁packed	-10.9275
▁Rick	-10.9276
▁intensive	-10.9276
▁Virgin	-10.9284
▁Vatican	-10.9286
▁Samantha	-10.9292
▁breath	-10.9292
▁marked	-10.9292
▁repeat	-10.9292
▁Let	-10.9298
▁consumer	-10.9298
▁surely	-10.9298
▁examination	-10.9301
▁Pardew	-10.9305
▁Tower	-10.9305
▁Inc	-10.9311
▁delight	-10.9311
▁Philippines	-10.9317
▁midnight	-10.9317
▁condemn	-10.9322
▁plate	-10.9324
▁searched	-10.9324
▁technique	-10.9324
▁Phoenix	-10.9327
▁finance	-10.9328
▁ski	-10.9328
▁thin	-10.9328
▁Australians	-10.933
▁dreams	-10.9333
▁lock	-10.9338
▁reverse	-10.9339
▁anywhere	-10.9341
▁extraordinary	-10.9343
▁tremendous	-10.9343
▁Was	-10.9349
▁olds	-10.9349
▁ram	-10.9349
▁Alexis	-10.9355
▁riding	-10.9355
▁writes	-10.936
▁Nevada	-10.9362
▁Valencia	-10.9362
▁Free	-10.9366
▁Any	-10.9377
▁bizarre	-10.9379
▁Diana	-10.9384
▁Festival	-10.9384
▁pets	-10.9385
▁protective	-10.9387
▁130	-10.939
▁Norway	-10.939
▁Without	-10.9393
▁highway	-10.94
▁misconduct	-10.94
▁Chile	-10.9403
▁criminate	-10.9404
▁challenging	-10.9408
▁Wisconsin	-10.9409
▁Affairs	-10.9419
▁forecast	-10.943
▁Rafael	-10.9432
▁fate	-10.9432
▁naturally	-10.9433
▁autopsy	-10.9435
▁overcome	-10.9436
▁Bishop	-10.9441
▁Helen	-10.9441
▁Hollande	-10.9441
▁samples	-10.9441
▁gained	-10.9447
▁supervise	-10.9447
▁Governor	-10.9451
▁destruction	-10.9454
▁journal	-10.9454
▁deserve	-10.9455
▁350	-10.9457
▁Islands	-10.9457
▁Vincent	-10.9457
▁polls	-10.9457
▁Operation	-10.9464
▁AC	-10.9467
▁cake	-10.9467
▁Kingdom	-10.947
▁LA	-10.947
▁revenue	-10.947
▁storms	-10.947
▁Head	-10.9473
▁Rebecca	-10.948
▁crazy	-10.9481
▁spill	-10.9481
▁Cancer	-10.9483
▁Caroline	-10.9484
▁fewer	-10.9484
▁diagnosis	-10.9486
▁shame	-10.9486
▁checked	-10.9489
▁discourage	-10.9489
▁1989	-10.9492
▁homeless	-10.9492
▁Treasury	-10.9496
▁Price	-10.9502
▁analyst	-10.9502
▁impeach	-10.9507
▁Bull	-10.9512
▁aftermath	-10.9515
▁attacker	-10.9518
▁hanging	-10.952
▁surgeon	-10.9528
▁Bond	-10.9531
▁Catherine	-10.9531
▁loving	-10.9533
▁surge	-10.9533
▁dancing	-10.9534
▁Lincoln	-10.9537
▁Awards	-10.9541
▁boom	-10.9541
▁accompany	-10.9542
▁Pellegrini	-10.9547
▁extensive	-10.9549
▁prevail	-10.9549
▁courtroom	-10.955
▁literally	-10.955
▁widespread	-10.955
▁wooden	-10.955
▁Nottingham	-10.9554
▁newly	-10.9557
▁athlete	-10.956
▁dubbed	-10.956
▁inappropriate	-10.9563
▁Scene	-10.9567
▁ineffective	-10.9567
▁anymore	-10.957
▁Somerset	-10.9576
▁facial	-10.9576
▁color	-10.9579
▁sacrifice	-10.9581
▁Owen	-10.9583
▁foul	-10.9588
▁Herald	-10.9589
▁Vladimir	-10.9589
▁smashed	-10.9591
▁gestate	-10.9592
▁selfie	-10.9592
▁yell	-10.9594
▁CDC	-10.9596
▁tower	-10.9599
▁stunt	-10.9601
▁Lampard	-10.9602
▁Morris	-10.9602
▁worn	-10.9604
▁penalties	-10.9605
▁savings	-10.9605
▁throwing	-10.9605
▁forwards	-10.9607
▁Rosberg	-10.9612
▁explosives	-10.9612
▁oxygen	-10.9622
▁impose	-10.9627
▁existing	-10.9628
▁vicious	-10.963
▁twin	-10.9636
▁Nicole	-10.9638
▁agitate	-10.9643
▁significantly	-10.9644
▁Derby	-10.9648
▁enceinte	-10.9648
▁Soviet	-10.9651
▁cigarettes	-10.9651
▁eyed	-10.9654
▁stable	-10.9662
▁Entertainment	-10.9667
▁Cosby	-10.9674
▁Tories	-10.9677
▁intense	-10.9682
▁shell	-10.9685
▁introduce	-10.9687
▁temporary	-10.9687
▁tumour	-10.9687
▁balls	-10.9692
▁association	-10.9694
▁82	-10.9697
▁gravid	-10.9697
▁tattoo	-10.9697
▁refugees	-10.9713
▁commonly	-10.9718
▁Fund	-10.972
▁difficulties	-10.972
▁walks	-10.9726
▁Caribbean	-10.973
▁cite	-10.973
▁coma	-10.973
▁expenses	-10.9731
▁78	-10.9736
▁appointed	-10.9741
▁destroy	-10.9744
▁undertake	-10.9744
▁Bobby	-10.9746
▁mature	-10.9748
▁1950	-10.9749
▁Marie	-10.9749
▁globe	-10.9749
▁Embassy	-10.9753
▁intervention	-10.9753
▁legacy	-10.9753
▁shadow	-10.9754
▁1991	-10.9759
▁76	-10.9763
▁pole	-10.9768
▁youngest	-10.9768
▁Angela	-10.9769
▁Right	-10.9777
▁differently	-10.9777
▁retail	-10.9777
▁Nasa	-10.9789
▁Opinion	-10.9789
▁experiment	-10.9791
▁acted	-10.9792
▁shaped	-10.9792
▁grandchildren	-10.9799
▁march	-10.9799
▁actuate	-10.9801
▁Sometimes	-10.9802
▁Toronto	-10.9802
▁mold	-10.9807
▁Members	-10.9809
▁assessment	-10.9812
▁loves	-10.9819
▁Brussels	-10.9822
▁advised	-10.9822
▁whilst	-10.9822
▁farmers	-10.9826
▁Inspector	-10.9829
▁estimates	-10.9829
▁recognition	-10.9829
▁tablet	-10.9832
▁bride	-10.9835
▁Cruz	-10.9839
▁indictment	-10.9839
▁puts	-10.9839
▁tourism	-10.9842
▁massacre	-10.9844
▁combined	-10.9852
▁regarding	-10.9854
▁Lauren	-10.9855
▁traveling	-10.9855
▁Parents	-10.9859
▁offender	-10.9862
▁cabin	-10.9864
▁controls	-10.9864
▁radical	-10.9864
▁Aguero	-10.9869
▁comedian	-10.9869
▁Stamford	-10.9872
▁ethnic	-10.9872
▁SUV	-10.9875
▁celebrating	-10.9875
▁distress	-10.9875
▁resignation	-10.9875
▁methods	-10.9882
▁attracted	-10.9887
▁entering	-10.9889
▁addiction	-10.9896
▁hopefully	-10.9896
▁PC	-10.9899
▁cycle	-10.9899
▁proposals	-10.9899
▁seventh	-10.9899
▁representatives	-10.9902
▁v	-10.9904
▁Residents	-10.9912
▁aren	-10.9917
▁Associated	-10.9919
▁Nine	-10.9919
▁inspire	-10.9926
▁widow	-10.9931
▁containing	-10.9937
▁invasion	-10.9942
▁lastly	-10.9944
▁movements	-10.9946
▁spite	-10.9949
▁Emily	-10.9953
▁Having	-10.9953
▁chop	-10.9954
▁stealing	-10.9956
▁tot	-10.9959
▁mixed	-10.9961
▁liver	-10.9963
▁blocks	-10.9968
▁detailed	-10.9968
▁Mohamed	-10.9969
▁breaks	-10.9971
▁conversations	-10.9973
▁sensitive	-10.9973
▁partake	-10.9976
▁felicitous	-10.9978
▁equal	-10.9979
▁kilometers	-10.9979
▁solitary	-10.9986
▁boots	-10.9988
▁lean	-10.9991
▁colours	-10.9993
▁Brooks	-11
▁Larry	-11.0003
▁drawing	-11.0003
▁Protection	-11.001
▁praised	-11.0012
▁ingest	-11.0013
▁violation	-11.0013
▁parade	-11.0018
▁featuring	-11.0022
▁stunned	-11.0023
▁sweet	-11.0028
▁sic	-11.0032
▁Senator	-11.0034
▁ups	-11.0034
▁punch	-11.004
▁Cape	-11.0047
▁holler	-11.0047
▁runway	-11.0057
▁Control	-11.0059
▁Science	-11.0061
▁Grace	-11.0062
▁vacation	-11.0062
▁Animal	-11.0064
▁prisoner	-11.0064
▁smiles	-11.0064
▁limits	-11.0071
▁islands	-11.0078
▁NYPD	-11.0081
▁specify	-11.0081
▁jaw	-11.009
▁mood	-11.0091
▁F1	-11.0098
▁creation	-11.0098
▁method	-11.0102
▁Saint	-11.0105
▁requires	-11.0108
▁Belgian	-11.0112
▁sessions	-11.0112
▁Bradford	-11.0115
▁anxiety	-11.0119
▁trading	-11.0122
▁cheese	-11.0124
▁elements	-11.0126
▁racism	-11.0126
▁RAF	-11.0129
▁resulted	-11.0129
▁essential	-11.0134
▁hacking	-11.0134
▁tips	-11.0134
▁Such	-11.0139
▁diseases	-11.0143
▁militant	-11.0146
▁campaigns	-11.0155
▁fields	-11.0155
▁wasnt	-11.0155
▁Benjamin	-11.0156
▁Knox	-11.0156
▁UN	-11.0156
▁brands	-11.0156
▁tactics	-11.016
▁sits	-11.0162
▁applied	-11.017
▁nightmare	-11.0174
▁disabled	-11.0177
▁sharp	-11.0179
▁suggesting	-11.0179
▁cafe	-11.018
▁Torres	-11.0187
▁chemotherapy	-11.0187
▁fined	-11.0189
▁Child	-11.0191
▁Orlando	-11.0191
▁fleet	-11.0194
▁hollo	-11.0194
▁www	-11.0201
▁curb	-11.0205
▁Redknapp	-11.0208
▁trio	-11.0211
▁squall	-11.0217
▁duties	-11.0218
▁shootings	-11.0218
▁tissue	-11.0222
▁tone	-11.0224
▁Freedom	-11.0225
▁oldest	-11.0227
▁runner	-11.0229
▁congressional	-11.0232
▁unprecedented	-11.0232
▁append	-11.0234
▁NSA	-11.0239
▁syndrome	-11.0239
▁thick	-11.0239
▁formal	-11.0243
▁meters	-11.0248
▁Baby	-11.025
▁Witnesses	-11.025
▁acknowledged	-11.0272
▁Anyone	-11.0274
▁ease	-11.0279
▁everyday	-11.0279
▁Vietnam	-11.0284
▁medals	-11.0284
▁shower	-11.0284
▁shew	-11.0293
▁deadline	-11.0305
▁wages	-11.0307
▁carrier	-11.0309
▁agenda	-11.0312
▁mask	-11.0314
▁cardinal	-11.0316
▁increases	-11.0321
▁recovering	-11.0321
▁Columbia	-11.0323
▁revolution	-11.0323
▁golden	-11.0324
▁Tiger	-11.0326
▁conclusion	-11.0326
▁nightclub	-11.0326
▁Gen	-11.0333
▁landscape	-11.0333
▁trials	-11.0333
▁seize	-11.0335
▁eligible	-11.0337
▁encouraged	-11.0337
▁Airways	-11.0344
▁exceptional	-11.0344
▁pattern	-11.0345
▁cogitate	-11.0347
▁79	-11.0354
▁screening	-11.0356
▁premature	-11.0359
▁covering	-11.0363
▁wealthy	-11.0363
▁generations	-11.0368
▁hes	-11.037
▁condemned	-11.0372
▁explanation	-11.0372
▁cerebrate	-11.0375
▁compare	-11.0375
▁rapidly	-11.0375
▁grateful	-11.038
▁thats	-11.038
▁questioning	-11.0382
▁trainer	-11.0382
▁collar	-11.0386
▁tablets	-11.0386
▁Community	-11.0389
▁defy	-11.0391
▁pension	-11.0393
▁Galaxy	-11.04
▁ultimate	-11.04
▁egg	-11.0401
▁Dennis	-11.0403
▁actors	-11.0403
▁waited	-11.0405
▁Harrison	-11.0407
▁celebrations	-11.041
▁differences	-11.041
▁mentally	-11.041
▁Ron	-11.0414
▁owns	-11.0414
▁Carl	-11.0417
▁Jews	-11.0421
▁Forces	-11.0424
▁branded	-11.0424
▁Kurdish	-11.0428
▁stronger	-11.0431
▁technical	-11.0431
▁hip	-11.0437
▁witnessed	-11.044
▁camps	-11.0442
▁cable	-11.0447
▁urban	-11.0449
▁pot	-11.0451
▁glasses	-11.0453
▁bombings	-11.0456
▁returns	-11.0456
▁contains	-11.0458
▁blocked	-11.046
▁Haiti	-11.0463
▁participate	-11.0468
▁slowly	-11.047
▁grey	-11.0474
▁institutions	-11.0474
▁diagnose	-11.0476
▁category	-11.0481
▁opener	-11.0481
▁applications	-11.0484
▁Taiwanese	-11.049
▁fingers	-11.0493
▁cultural	-11.0497
▁effectively	-11.0507
▁visible	-11.0507
▁complain	-11.0513
▁Investigation	-11.052
▁wood	-11.052
▁forensic	-11.0524
▁discussions	-11.0527
▁doom	-11.0532
▁finds	-11.0532
▁Farage	-11.0534
▁extremists	-11.0534
▁robot	-11.0548
▁operator	-11.0552
▁spray	-11.0556
▁backing	-11.0557
▁Arena	-11.0563
▁represents	-11.0568
▁frightened	-11.057
▁evoke	-11.0573
▁fixed	-11.0573
▁Art	-11.0581
▁Sturridge	-11.0584
▁polite	-11.0584
▁reflect	-11.0586
▁Karen	-11.0588
▁Foster	-11.0591
▁engineering	-11.0591
▁impression	-11.0591
▁kit	-11.0591
▁entitled	-11.0593
▁funded	-11.0593
▁Liberia	-11.0599
▁lifted	-11.06
▁parked	-11.0604
▁Lloyd	-11.0609
▁Game	-11.0613
▁buyers	-11.0613
▁handful	-11.0613
▁kiss	-11.0613
▁openly	-11.0613
▁Palmer	-11.0624
▁Energy	-11.0627
▁petrol	-11.0631
▁delayed	-11.0633
▁Pictured	-11.0638
▁dresses	-11.0638
▁forge	-11.0638
▁touched	-11.0638
▁cigarette	-11.0645
▁cited	-11.0645
▁consumption	-11.0645
▁poster	-11.0645
▁Billy	-11.0653
▁relation	-11.0653
▁Gunners	-11.0656
▁qualifying	-11.0656
▁Online	-11.066
▁slight	-11.066
▁taxpayer	-11.066
▁Greek	-11.0662
▁judgment	-11.0663
▁ruin	-11.0671
▁lap	-11.0672
▁unidentified	-11.0672
▁Swedish	-11.0674
▁demo	-11.0674
▁Claire	-11.0685
▁expecting	-11.0687
▁Ryder	-11.0689
▁en	-11.0689
▁statistics	-11.0689
▁employers	-11.0692
▁revenge	-11.0694
▁deficit	-11.0696
▁Louise	-11.07
▁Tsarnaev	-11.0703
▁apologise	-11.0712
▁painful	-11.0712
▁sink	-11.0716
▁tardy	-11.0716
▁Girl	-11.0718
▁transferred	-11.0723
▁Until	-11.0725
▁bleeding	-11.073
▁Marc	-11.0732
▁dash	-11.0732
▁flown	-11.0732
▁Barnes	-11.0736
▁calories	-11.0736
▁resigned	-11.0736
▁Alonso	-11.074
▁importune	-11.0741
▁Night	-11.0743
▁belated	-11.0752
▁currency	-11.0754
▁spirits	-11.0756
▁81	-11.0758
▁giants	-11.0758
▁Europa	-11.0765
▁faster	-11.0765
▁easterly	-11.0767
▁spots	-11.0767
▁ineffectual	-11.077
▁slay	-11.077
▁competitive	-11.0772
▁Above	-11.0776
▁Obamacare	-11.0776
▁cops	-11.0785
▁keeps	-11.0787
▁pulling	-11.0787
▁situations	-11.0787
▁vowed	-11.0787
▁140	-11.0792
▁Toure	-11.0794
▁choices	-11.0794
▁summate	-11.0794
▁Leader	-11.0798
▁pledge	-11.0798
▁library	-11.0802
▁Down	-11.0809
▁header	-11.0809
▁scientist	-11.0809
▁trailer	-11.0809
▁pronounced	-11.0811
▁appearing	-11.0813
▁edition	-11.0813
▁loud	-11.0814
▁Heathrow	-11.0816
▁embrace	-11.0816
▁whale	-11.0818
▁kidney	-11.082
▁puzzle	-11.0822
▁Henderson	-11.0824
▁Robertson	-11.0824
▁beam	-11.0824
▁Singh	-11.0827
▁dangers	-11.0831
▁doesnt	-11.0836
▁mainly	-11.0838
▁mini	-11.0842
▁Bieber	-11.0853
▁Jan	-11.0853
▁losses	-11.086
▁Independent	-11.0864
▁familiar	-11.0866
▁unacceptable	-11.0866
▁executives	-11.0868
▁Lebanon	-11.0875
▁creatures	-11.0875
▁ply	-11.0877
▁rank	-11.0881
▁forebode	-11.0882
▁portrait	-11.0882
▁Delhi	-11.0886
▁Orleans	-11.0886
▁Lucas	-11.089
▁firearms	-11.089
▁humble	-11.0894
▁repeated	-11.0894
▁fitted	-11.0895
▁remarkable	-11.0897
▁fluid	-11.0899
▁attackers	-11.0901
▁fatally	-11.0901
▁vex	-11.0901
▁accidentally	-11.0905
▁acres	-11.0905
▁alike	-11.0905
▁seal	-11.0905
▁admonish	-11.091
▁mirror	-11.091
▁protected	-11.091
▁substantiate	-11.0912
▁prognosticate	-11.0916
▁closure	-11.0919
▁Adrian	-11.0923
▁Arthur	-11.0927
▁monish	-11.0927
▁percentage	-11.0938
▁84	-11.0942
▁gathering	-11.0942
▁waitress	-11.0944
▁Holder	-11.0945
▁institute	-11.0947
▁publication	-11.0949
▁suffice	-11.0951
▁Masters	-11.0953
▁Me	-11.0953
▁dramatically	-11.0953
▁recreate	-11.0953
▁Samuel	-11.0957
▁typical	-11.0957
▁Detectives	-11.096
▁indicated	-11.0966
▁hammer	-11.0973
▁Castle	-11.0975
▁mall	-11.0975
▁Olympian	-11.0977
▁Hitler	-11.0979
▁jewellery	-11.0979
▁strict	-11.0979
▁indisputable	-11.0984
▁regret	-11.0984
▁Mayweather	-11.0986
▁preliminary	-11.0986
▁highlight	-11.0988
▁governing	-11.099
▁devolve	-11.0992
▁somewhat	-11.0994
▁techniques	-11.0994
▁ordinary	-11.0996
▁Guardian	-11.0998
▁swing	-11.0998
▁strongly	-11.1003
▁burden	-11.1007
▁translate	-11.1009
▁basement	-11.1012
▁singing	-11.1012
▁Yard	-11.102
▁primal	-11.1022
▁enormous	-11.1026
▁demonstrators	-11.1027
▁surprising	-11.1027
▁Bloomberg	-11.1031
▁diamond	-11.1031
▁symbol	-11.1031
▁merit	-11.1033
▁83	-11.1039
▁predicted	-11.1041
▁Nathan	-11.1042
▁hostages	-11.1042
▁courage	-11.1046
▁metre	-11.1046
▁transition	-11.1046
▁Libyan	-11.105
▁sacked	-11.1052
▁briefly	-11.1054
▁maker	-11.1054
▁networking	-11.1056
▁Todd	-11.1057
▁abnegate	-11.1059
▁Information	-11.1061
▁Joshua	-11.1061
▁Richardson	-11.1061
▁organs	-11.1061
▁Global	-11.1063
▁Keane	-11.1065
▁Palin	-11.1065
▁quarters	-11.1065
▁vessels	-11.1065
▁downtown	-11.1069
▁unnamed	-11.1073
▁feeding	-11.1076
▁underground	-11.1076
▁pornography	-11.108
▁forest	-11.1089
▁ferment	-11.1093
▁Thai	-11.1097
▁onwards	-11.1097
▁radiation	-11.1099
▁senator	-11.1106
▁donor	-11.111
▁elite	-11.1116
▁iron	-11.1116
▁III	-11.1118
▁liked	-11.112
▁studying	-11.112
▁g	-11.1122
▁Stevens	-11.1125
▁pupil	-11.1125
▁Nicholas	-11.1129
▁forcing	-11.1129
▁managing	-11.1129
▁Armed	-11.1137
▁FOR	-11.114
▁Next	-11.1142
▁Leone	-11.1148
▁Orange	-11.115
▁Saints	-11.1152
▁haul	-11.1159
▁Fulham	-11.1163
▁clinical	-11.1163
▁bulge	-11.1177
▁posing	-11.1182
▁frequent	-11.1184
▁confessed	-11.1188
▁detective	-11.1194
▁Harvard	-11.1197
▁corporate	-11.1197
▁Albert	-11.1201
▁Abbey	-11.1209
▁wreckage	-11.1209
▁Brady	-11.1213
▁lane	-11.1213
▁spacecraft	-11.1213
▁continent	-11.1215
▁Critics	-11.122
▁promising	-11.122
▁comparison	-11.1224
▁fed	-11.1228
▁grief	-11.123
▁mess	-11.123
▁lorry	-11.1232
▁Guinea	-11.1236
▁attractive	-11.1236
▁fiancee	-11.1236
▁cm	-11.1238
▁mould	-11.1243
▁Blues	-11.1247
▁Thank	-11.1247
▁dementia	-11.1247
▁evince	-11.1247
▁watchdog	-11.1247
▁harder	-11.1249
▁opposed	-11.1251
▁relevant	-11.1251
▁Hope	-11.1257
▁brings	-11.1257
▁lovely	-11.1259
▁Moslem	-11.1268
▁discussed	-11.1276
▁files	-11.128
▁Bennett	-11.1285
▁tunnel	-11.1289
▁Land	-11.1293
▁traumatic	-11.1301
▁Happy	-11.1303
▁dish	-11.1305
▁speaks	-11.1305
▁Colin	-11.1309
▁160	-11.1314
▁k	-11.1314
▁affidavit	-11.1316
▁Thames	-11.132
▁gravel	-11.132
▁comeback	-11.1324
▁expectations	-11.1324
▁liquid	-11.1324
▁furniture	-11.1328
▁suspend	-11.133
▁treating	-11.133
▁usable	-11.1334
▁Rogers	-11.1336
▁hint	-11.1339
▁onward	-11.1339
▁booked	-11.1341
▁eighth	-11.1341
▁admitting	-11.1343
▁desk	-11.1343
▁Formosan	-11.1349
▁gallery	-11.1355
▁excess	-11.1357
▁rubbish	-11.1359
▁steel	-11.1359
▁88	-11.1363
▁Within	-11.1363
▁steady	-11.1363
▁Serie	-11.1366
▁Tyler	-11.1374
▁Jerry	-11.1378
▁Victim	-11.1378
▁illegally	-11.1378
▁picking	-11.1378
▁photographed	-11.138
▁stabbing	-11.1382
▁useable	-11.1382
▁wishes	-11.1382
▁sing	-11.139
▁bullets	-11.1394
▁sooner	-11.1394
▁triumph	-11.1396
▁86	-11.1398
▁Casey	-11.1398
▁phase	-11.1398
▁directed	-11.1399
▁ratings	-11.1401
▁rid	-11.1403
▁twenty	-11.1403
▁residential	-11.1405
▁debar	-11.1409
▁represented	-11.1411
▁begun	-11.1413
▁couldnt	-11.1415
▁searches	-11.1417
▁damaging	-11.1419
▁mountains	-11.1425
▁shine	-11.1427
▁Polish	-11.1429
▁accomplish	-11.1429
▁Andrea	-11.1433
▁boxing	-11.1433
▁nursing	-11.1433
▁frozen	-11.1434
▁ranks	-11.1434
▁promotion	-11.1436
▁speeds	-11.1444
▁stab	-11.1446
▁Battle	-11.1448
▁Transportation	-11.1448
▁Thatcher	-11.1452
▁lab	-11.1452
▁orbit	-11.1452
▁cargo	-11.1456
▁stream	-11.1456
▁rating	-11.146
▁signature	-11.146
▁Peterson	-11.1464
▁Sullivan	-11.1464
▁contracts	-11.1466
▁existence	-11.1476
▁relaxed	-11.1479
▁supporter	-11.1483
▁nervous	-11.1485
▁craft	-11.1487
▁presidency	-11.1487
▁favorable	-11.1489
▁gesture	-11.1489
▁renowned	-11.1491
▁dedicate	-11.1495
▁cleaning	-11.1499
▁creature	-11.1499
▁fines	-11.1501
▁idle	-11.1503
▁Baltimore	-11.1507
▁newspapers	-11.1507
▁cure	-11.1509
▁drag	-11.1509
▁draft	-11.1511
▁Carroll	-11.1515
▁vaccine	-11.1515
▁separated	-11.1519
▁wrapped	-11.1519
▁Support	-11.1523
▁alter	-11.1523
▁recession	-11.1523
▁reign	-11.1523
▁viewed	-11.1523
▁coaches	-11.1525
▁civic	-11.1529
▁load	-11.1529
▁Death	-11.1531
▁frustration	-11.1531
▁legion	-11.1533
▁painted	-11.1538
▁queen	-11.154
▁weak	-11.1542
▁constant	-11.1546
▁Welbeck	-11.155
▁representing	-11.1552
▁underneath	-11.1554
▁referring	-11.1556
▁ranked	-11.1562
▁underwear	-11.1562
▁Melissa	-11.1566
▁Neville	-11.1566
▁nickname	-11.1566
▁notorious	-11.1566
▁thirds	-11.1574
▁cheap	-11.1578
▁chemicals	-11.1578
▁fever	-11.1578
▁incessantly	-11.1578
▁deck	-11.1586
▁nationwide	-11.1592
▁snake	-11.1592
▁inner	-11.1594
▁makers	-11.1594
▁salt	-11.1596
▁Peace	-11.1598
▁commissioner	-11.1598
▁disability	-11.1598
▁passes	-11.16
▁aggravated	-11.1604
▁guidance	-11.161
▁aunt	-11.1614
▁yacht	-11.1614
▁convince	-11.1618
▁crossed	-11.1618
▁utterly	-11.162
▁deemed	-11.1624
▁sheet	-11.1626
▁tribunal	-11.1626
▁reads	-11.1627
▁competitions	-11.1633
▁accompanied	-11.1635
▁Maine	-11.1637
▁Blackpool	-11.1641
▁Work	-11.1641
▁Wigan	-11.1645
▁deport	-11.1647
▁par	-11.1647
▁180	-11.1651
▁yearly	-11.1655
▁billionaire	-11.1665
▁coastal	-11.1665
▁ads	-11.1669
▁removal	-11.1669
▁Durham	-11.1673
▁dismiss	-11.1677
▁psychological	-11.1681
▁Middleton	-11.1689
▁recruit	-11.1691
▁vanish	-11.1691
▁FC	-11.1693
▁lesson	-11.1693
▁nerve	-11.1693
▁gunshot	-11.1697
▁achieved	-11.1699
▁targeting	-11.1699
▁ET	-11.1701
▁Merkel	-11.1701
▁complicated	-11.1703
▁smash	-11.1703
▁deploy	-11.1709
▁Li	-11.1713
▁demonstrations	-11.1713
▁underwent	-11.1713
▁aims	-11.1715
▁traveled	-11.1715
▁marathon	-11.1717
▁Gadhafi	-11.1721
▁drones	-11.1721
▁equate	-11.1721
▁defensive	-11.1723
▁Lancaster	-11.1725
▁pizza	-11.1725
▁Alice	-11.1729
▁isolated	-11.1733
▁baffle	-11.1735
▁mm	-11.1735
▁Brad	-11.1737
▁indication	-11.1737
▁upcoming	-11.1737
▁View	-11.1739
▁perpetually	-11.1739
▁donated	-11.1743
▁Berry	-11.1746
▁Hunter	-11.1746
▁Music	-11.1746
▁infant	-11.1746
▁portion	-11.1746
▁Staffordshire	-11.175
▁crackdown	-11.175
▁Federation	-11.1754
▁texts	-11.1754
▁bull	-11.1756
▁initiate	-11.1758
▁Cairo	-11.1766
▁qualify	-11.1768
▁diving	-11.177
▁expand	-11.177
▁subsequent	-11.177
▁pants	-11.1776
▁orange	-11.1778
▁dining	-11.178
▁seemingly	-11.1782
▁vegetables	-11.1782
▁stem	-11.1788
▁bread	-11.179
▁nowhere	-11.179
▁Argentine	-11.1796
▁pall	-11.1796
▁mortgage	-11.1798
▁Richards	-11.1802
▁cooking	-11.1802
▁discipline	-11.1808
▁Award	-11.181
▁Dorset	-11.181
▁Speaker	-11.181
▁bomber	-11.181
▁motive	-11.181
▁Boehner	-11.1818
▁blind	-11.1818
▁travellers	-11.1818
▁dragged	-11.182
▁Homeland	-11.1822
▁professionals	-11.1822
▁progressively	-11.1834
▁Liberal	-11.1845
▁mosque	-11.1847
▁motorists	-11.1847
▁decisive	-11.1851
▁displace	-11.1853
▁studied	-11.1855
▁Hurricane	-11.1859
▁analysts	-11.1859
▁firmly	-11.1859
▁Mitt	-11.1863
▁circuit	-11.1863
▁instructions	-11.1863
▁bath	-11.1865
▁1988	-11.1867
▁Andre	-11.1867
▁Interior	-11.1867
▁patterns	-11.1869
▁Christine	-11.1871
▁battling	-11.1871
▁DOWN	-11.1873
▁statue	-11.1875
▁rage	-11.1881
▁powered	-11.1885
▁1986	-11.1887
▁Jeffrey	-11.1887
▁Sophie	-11.1896
▁Report	-11.1904
▁downward	-11.1908
▁shooter	-11.1908
▁Manager	-11.1912
▁wed	-11.1912
▁Austria	-11.192
▁Gates	-11.192
▁commute	-11.192
▁Mason	-11.1924
▁Buckingham	-11.1928
▁grim	-11.1928
▁consist	-11.1936
▁tune	-11.1936
▁Liam	-11.1941
▁Wildlife	-11.1941
▁charities	-11.1941
▁classroom	-11.1941
▁Preston	-11.1949
▁replete	-11.1949
▁scratch	-11.1949
▁apologised	-11.1951
▁academy	-11.1957
▁realized	-11.1959
▁helmet	-11.1961
▁heels	-11.1965
▁grandson	-11.1969
▁Persian	-11.1971
▁87	-11.1973
▁Fans	-11.1973
▁Lucy	-11.1973
▁accurate	-11.1973
▁difficulty	-11.1978
▁ranking	-11.198
▁radar	-11.1982
▁shake	-11.1984
▁pile	-11.1986
▁violations	-11.1986
▁ward	-11.1986
▁jets	-11.1988
▁parks	-11.1988
▁Norwich	-11.199
▁slammed	-11.1996
▁stops	-11.1996
▁bewilder	-11.2002
▁Senior	-11.2006
▁engineers	-11.2006
▁promises	-11.2008
▁elephant	-11.2011
▁harness	-11.2017
▁suits	-11.2019
▁everywhere	-11.2021
▁assign	-11.2023
▁beside	-11.2023
▁retailers	-11.2023
▁recommended	-11.2025
▁Chairman	-11.2027
▁shit	-11.2027
▁startle	-11.2027
▁fierce	-11.2029
▁Border	-11.2031
▁revelations	-11.2031
▁theater	-11.2031
▁infections	-11.2035
▁bedrooms	-11.204
▁borders	-11.2044
▁ceiling	-11.2044
▁prescription	-11.2044
▁producers	-11.2044
▁warming	-11.2044
▁110	-11.2048
▁addressed	-11.2048
▁Capitol	-11.2052
▁asleep	-11.2054
▁calendar	-11.2054
▁affirm	-11.2056
▁emotions	-11.2056
▁dig	-11.2058
▁peaceful	-11.2058
▁Division	-11.206
▁minuscule	-11.2062
▁wet	-11.2062
▁SCROLL	-11.2064
▁Fashion	-11.2073
▁beaches	-11.2073
▁perspective	-11.2073
▁banking	-11.2077
▁campaigners	-11.2077
▁unexpected	-11.2077
▁Jo	-11.2081
▁teammate	-11.2081
▁TSA	-11.2085
▁readers	-11.2085
▁trucks	-11.2085
▁imposed	-11.2089
▁enforce	-11.2091
▁exploit	-11.2091
▁posture	-11.2094
▁Military	-11.2098
▁Warner	-11.2098
▁tons	-11.2102
▁Stanley	-11.2106
▁arguments	-11.2106
▁rarely	-11.2106
▁improvement	-11.2119
▁wanting	-11.2119
▁Arkansas	-11.2123
▁hopeful	-11.2123
▁hosted	-11.2123
▁Czech	-11.2125
▁Linda	-11.2127
▁Ramsey	-11.2127
▁lets	-11.2127
▁moral	-11.2127
▁employed	-11.2131
▁Boris	-11.2135
▁arts	-11.2135
▁compromise	-11.2135
▁welcomed	-11.2137
▁History	-11.2139
▁Norfolk	-11.2139
▁scrutiny	-11.2139
▁slap	-11.2139
▁creative	-11.2142
▁diplomatic	-11.2142
▁aide	-11.2144
▁Perth	-11.2148
▁retreat	-11.2148
▁criticized	-11.2152
▁demonstration	-11.2152
▁executed	-11.2152
▁adventure	-11.2154
▁mad	-11.2154
▁Pochettino	-11.2156
▁engines	-11.2156
▁ignored	-11.2163
▁Thanksgiving	-11.2165
▁Ministers	-11.2169
▁i	-11.2169
▁involves	-11.2169
▁leaked	-11.2169
▁recommend	-11.2169
▁wire	-11.2169
▁purchased	-11.2171
▁Executive	-11.2173
▁Morrison	-11.2173
▁centuries	-11.2173
▁loaded	-11.2173
▁forrader	-11.2175
▁Hayes	-11.2177
▁menu	-11.2177
▁inhabit	-11.2179
▁org	-11.2181
▁trash	-11.2186
▁blanket	-11.219
▁extremist	-11.219
▁preparation	-11.219
▁stance	-11.219
▁toxic	-11.219
▁veracious	-11.219
▁circle	-11.2192
▁Julia	-11.2194
▁anonymous	-11.2196
▁punched	-11.2196
▁raging	-11.2198
▁quoted	-11.22
▁uk	-11.2202
▁narrow	-11.2205
▁secured	-11.2205
▁Cuban	-11.2207
▁Lanka	-11.2207
▁Assistant	-11.2209
▁Ted	-11.2211
▁Potter	-11.2215
▁watches	-11.2215
▁GB	-11.2217
▁fairly	-11.2217
▁allegation	-11.2224
▁missions	-11.2224
▁jeans	-11.2228
▁sweep	-11.2238
▁persons	-11.224
▁falls	-11.2243
▁sub	-11.2243
▁Transport	-11.2245
▁Webb	-11.2245
▁distinctive	-11.2245
▁railway	-11.2245
▁mud	-11.2247
▁Girls	-11.2249
▁appoint	-11.2249
▁missiles	-11.2249
▁gangs	-11.2251
▁1984	-11.2253
▁universities	-11.2253
▁explosive	-11.226
▁carpet	-11.2262
▁smartphones	-11.2262
▁Rory	-11.2266
▁Whether	-11.2266
▁elaborate	-11.2266
▁interchange	-11.2266
▁Spring	-11.2268
▁Water	-11.2268
▁Prevention	-11.227
▁stability	-11.227
▁boot	-11.2276
▁overlook	-11.2276
▁Highway	-11.2279
▁deputies	-11.2279
▁visa	-11.2279
▁helicopters	-11.2283
▁invariably	-11.2283
▁unions	-11.2283
▁arise	-11.2287
▁hometown	-11.2287
▁cheer	-11.2291
▁usher	-11.2291
▁tired	-11.2293
▁citing	-11.23
▁longtime	-11.23
▁humanitarian	-11.2304
▁Everything	-11.2308
▁Prison	-11.2308
▁Way	-11.2308
▁cliff	-11.231
▁injure	-11.2313
▁weren	-11.2313
▁Arctic	-11.2317
▁fulfill	-11.2317
▁random	-11.2321
▁1982	-11.233
▁Coroner	-11.233
▁temporarily	-11.233
▁politically	-11.2338
▁Bath	-11.2342
▁finishing	-11.2342
▁encouraging	-11.2353
▁ferry	-11.2355
▁thrust	-11.2355
▁tube	-11.2357
▁Victor	-11.236
▁accidents	-11.236
▁fundraising	-11.236
▁presents	-11.236
▁ignore	-11.2364
▁reasonable	-11.2364
▁stool	-11.2366
▁generous	-11.237
▁purposes	-11.237
▁description	-11.2372
▁Tehran	-11.2377
▁lightning	-11.2377
▁Coleman	-11.2381
▁excellent	-11.2381
▁detain	-11.2383
▁suffers	-11.2383
▁End	-11.2387
▁Julian	-11.239
▁coaching	-11.2392
▁barrier	-11.2394
▁playact	-11.2394
▁disposed	-11.24
▁Christians	-11.2402
▁leather	-11.2411
▁settled	-11.2411
▁oft	-11.2415
▁Barca	-11.242
▁suggestion	-11.242
▁climbing	-11.2422
▁subjects	-11.2422
▁wheels	-11.2428
▁Palestinians	-11.2433
▁legally	-11.2433
▁delineate	-11.2437
▁tracking	-11.2437
▁uncommitted	-11.2437
▁belike	-11.2439
▁landmark	-11.2441
▁Denmark	-11.2446
▁sharks	-11.2446
▁V	-11.2448
▁melt	-11.2456
▁Spaniard	-11.2463
▁highlights	-11.2471
▁accommodation	-11.2476
▁Harvey	-11.248
▁requirements	-11.248
▁researcher	-11.248
▁bronze	-11.2484
▁deployed	-11.2484
▁minded	-11.2484
▁Lions	-11.2489
▁threaten	-11.2489
▁sting	-11.2491
▁cancelled	-11.2495
▁Management	-11.2497
▁ammunition	-11.2497
▁reduction	-11.2497
▁criticise	-11.2502
▁flags	-11.2502
▁Being	-11.2506
▁Marathon	-11.2506
▁Norman	-11.251
▁Organization	-11.251
▁fixture	-11.251
▁cater	-11.2513
▁lethal	-11.2515
▁crap	-11.2517
▁Chavez	-11.2523
▁Ghana	-11.2523
▁soul	-11.2523
▁miracle	-11.2528
▁quaternary	-11.253
▁anchor	-11.2532
▁beloved	-11.2532
▁cruelty	-11.2532
▁jokes	-11.2532
▁ofttimes	-11.2534
▁roleplay	-11.2534
▁publicity	-11.2537
▁Age	-11.2541
▁affects	-11.2545
▁autumn	-11.2545
▁signals	-11.2547
▁Unfortunately	-11.255
▁structures	-11.2552
▁Cohen	-11.2554
▁astonishing	-11.2556
▁Gray	-11.2558
▁institutionalize	-11.2558
▁screens	-11.2561
▁Maybe	-11.2563
▁aviation	-11.2563
▁corroborate	-11.2565
▁fathers	-11.2565
▁750	-11.2567
▁Prize	-11.2567
▁Sunni	-11.2571
▁kinds	-11.2571
▁tongue	-11.2576
▁None	-11.258
▁oftentimes	-11.2582
▁stricken	-11.2582
▁copies	-11.2587
▁Weather	-11.2589
▁motivated	-11.2589
▁asks	-11.2591
▁Bernard	-11.2593
▁selected	-11.2593
▁junior	-11.2596
▁donation	-11.2598
▁weighed	-11.26
▁billions	-11.2606
▁92	-11.2611
▁Bali	-11.2611
▁Marco	-11.2611
▁institutionalise	-11.2613
▁caption	-11.262
▁ownership	-11.262
▁hale	-11.2626
▁consecutive	-11.2635
▁organised	-11.2635
▁evil	-11.2637
▁extension	-11.2637
▁protrude	-11.2639
▁Abdullah	-11.2642
▁Reed	-11.2642
▁loans	-11.2642
▁doubly	-11.2644
▁Neither	-11.2646
▁context	-11.2646
▁refund	-11.2648
▁Boy	-11.265
▁Intelligence	-11.265
▁caring	-11.265
▁Reagan	-11.2655
▁phenomenon	-11.2655
▁Disease	-11.2659
▁Weekly	-11.2661
▁prosecute	-11.2661
▁defined	-11.2664
▁Dylan	-11.2668
▁Nothing	-11.2672
▁Mountain	-11.2677
▁surveil	-11.2677
▁versions	-11.2677
▁puddle	-11.2684
▁voices	-11.2686
▁Championships	-11.269
▁populate	-11.2692
▁broadcaster	-11.2695
▁carries	-11.2695
▁habits	-11.2695
▁fatigue	-11.2699
▁rap	-11.2699
▁DJ	-11.2703
▁Ramos	-11.2708
▁dropping	-11.271
▁somewhere	-11.271
▁cycling	-11.2712
▁correctly	-11.2715
▁rely	-11.2721
▁caps	-11.2732
▁desperately	-11.2734
▁Later	-11.2739
▁rolled	-11.2741
▁lonesome	-11.2743
▁pump	-11.2743
▁updated	-11.2746
▁burial	-11.2752
▁fights	-11.2757
▁Action	-11.2761
▁Croatia	-11.2761
▁Garden	-11.2761
▁Benghazi	-11.2766
▁Rev	-11.2766
▁Sebastian	-11.2766
▁chiefs	-11.2766
▁pensioner	-11.2766
▁confronted	-11.2768
▁stupefy	-11.2768
▁preferred	-11.277
▁FAA	-11.2775
▁Fair	-11.2775
▁casualties	-11.2779
▁publically	-11.2779
▁Country	-11.2783
▁costume	-11.2783
▁majestic	-11.2783
▁Technology	-11.2792
▁producing	-11.2792
▁siege	-11.2792
▁solo	-11.2797
▁careful	-11.2801
▁minds	-11.2804
▁expression	-11.2806
▁paintings	-11.2806
▁kidnapped	-11.2808
▁attraction	-11.281
▁bruise	-11.2813
▁lists	-11.2813
▁Jackie	-11.2815
▁Nicolas	-11.2815
▁Stephanie	-11.2815
▁heritage	-11.2815
▁parliamentary	-11.2815
▁latter	-11.2819
▁pills	-11.2819
▁carefully	-11.2821
▁contribution	-11.2824
▁del	-11.2824
▁apologize	-11.2826
▁covers	-11.2826
▁jumping	-11.2826
▁riot	-11.2826
▁Development	-11.2828
▁bury	-11.2828
▁Corps	-11.2833
▁Hudson	-11.2833
▁depth	-11.2833
▁Shanghai	-11.2837
▁requested	-11.2839
▁Delta	-11.2846
▁healthcare	-11.2846
▁Karl	-11.2851
▁locate	-11.2853
▁sack	-11.2855
▁stopping	-11.2855
▁feedback	-11.2864
▁households	-11.2864
▁sway	-11.2864
▁gross	-11.2866
▁restore	-11.2875
▁horrible	-11.288
▁raids	-11.288
▁Kane	-11.2882
▁Wilshere	-11.2882
▁999	-11.2887
▁uncomfortable	-11.2887
▁venture	-11.2887
▁battles	-11.2889
▁terrified	-11.2891
▁shoulders	-11.2893
▁Venezuela	-11.2896
▁urinate	-11.29
▁maintained	-11.2902
▁Sharon	-11.2905
▁denote	-11.2905
▁whistle	-11.2905
▁basically	-11.2907
▁dumped	-11.2907
▁genetic	-11.2907
▁tire	-11.2907
▁determination	-11.2909
▁woke	-11.2916
▁Trade	-11.2918
▁confused	-11.2918
▁formation	-11.2918
▁lungs	-11.2918
▁1979	-11.2923
▁eBay	-11.2923
▁thousand	-11.2925
▁investigator	-11.2927
▁Did	-11.2932
▁Gonzalez	-11.2932
▁bloody	-11.2932
▁frustrated	-11.2932
▁tornado	-11.2932
▁Ken	-11.2936
▁RSPCA	-11.2941
▁Tampa	-11.2941
▁refusing	-11.2943
▁complications	-11.2945
▁teammates	-11.2945
▁adjoin	-11.295
▁Criminal	-11.2952
▁monumental	-11.2957
▁amaze	-11.2959
▁ears	-11.2964
▁PSG	-11.2968
▁Sergeant	-11.2968
▁talented	-11.2968
▁whales	-11.2975
▁examined	-11.2977
▁secretly	-11.2977
▁assaults	-11.298
▁Pyongyang	-11.2982
▁pollution	-11.2982
▁Jerusalem	-11.2986
▁deplorable	-11.2986
▁audio	-11.2991
▁euros	-11.2991
▁fiance	-11.2991
▁mentioned	-11.2993
▁Week	-11.2996
▁spin	-11.2996
▁criticize	-11.3
▁Franklin	-11.3005
▁operated	-11.3005
▁propel	-11.3012
▁boarding	-11.3014
▁villages	-11.3014
▁justify	-11.3016
▁unrest	-11.3018
▁fulfil	-11.3021
▁conduce	-11.3023
▁maintenance	-11.3023
▁deliberately	-11.3025
▁letting	-11.3025
▁murdering	-11.3025
▁universe	-11.3028
▁breed	-11.303
▁stranger	-11.3032
▁blank	-11.3034
▁shouting	-11.3034
▁groom	-11.3037
▁bitter	-11.3039
▁Portland	-11.3041
▁motivate	-11.3044
▁quest	-11.3048
▁Ten	-11.305
▁Tragic	-11.306
▁beds	-11.306
▁prince	-11.306
▁upwards	-11.306
▁ingredients	-11.3069
▁importantly	-11.3071
▁adoption	-11.3073
▁inmate	-11.3073
▁Portuguese	-11.308
▁redact	-11.308
▁describing	-11.3083
▁herald	-11.3083
▁caution	-11.3085
▁McLaren	-11.3087
▁lengthy	-11.3089
▁Coalition	-11.3092
▁FDA	-11.3092
▁TMZ	-11.3092
▁franchise	-11.3094
▁freed	-11.3099
▁humanity	-11.3101
▁photography	-11.3101
▁firearm	-11.3106
▁muscles	-11.3106
▁resulting	-11.3106
▁retire	-11.3106
▁Halloween	-11.311
▁Students	-11.311
▁breasts	-11.3112
▁Had	-11.3115
▁Have	-11.3115
▁Marines	-11.3115
▁Walsh	-11.3115
▁beliefs	-11.3115
▁Marshall	-11.3119
▁grandparents	-11.3119
▁communicate	-11.3122
▁protecting	-11.3122
▁Blackburn	-11.3124
▁boasts	-11.3124
▁evacuated	-11.3124
▁friendship	-11.3124
▁piss	-11.3124
▁swallow	-11.3124
▁numb	-11.3126
▁tenacious	-11.3129
▁dock	-11.3131
▁Heather	-11.3133
▁Nipponese	-11.3133
▁policeman	-11.3138
▁Englands	-11.3147
▁backs	-11.3147
▁imprisonment	-11.3147
▁monolithic	-11.3149
▁incite	-11.3152
▁upright	-11.3152
▁extraneous	-11.3154
▁Patrol	-11.3156
▁periods	-11.3156
▁planets	-11.3156
▁puppy	-11.3161
▁confrontation	-11.317
▁infamous	-11.317
▁laptop	-11.317
▁nephew	-11.318
▁freezing	-11.3182
▁89	-11.3184
▁maturate	-11.3184
▁risky	-11.3187
▁instruct	-11.3191
▁Part	-11.3194
▁dominated	-11.3194
▁gunmen	-11.3194
▁stressed	-11.3194
▁plainly	-11.3196
▁Eight	-11.3198
▁Jenkins	-11.3198
▁define	-11.3198
▁urging	-11.3201
▁Golf	-11.3212
▁Murdoch	-11.3212
▁450	-11.3217
▁Theresa	-11.3217
▁Phillip	-11.3222
▁elephants	-11.3222
▁rehabilitation	-11.3222
▁strangers	-11.3222
▁prayer	-11.3226
▁McCarthy	-11.3231
▁emissions	-11.3231
▁plug	-11.3231
▁angle	-11.3233
▁Drug	-11.3236
▁Glass	-11.3236
▁Ill	-11.3236
▁Netanyahu	-11.3236
▁rapper	-11.3236
▁refugee	-11.3236
▁excitement	-11.324
▁Nobody	-11.3245
▁distribution	-11.3245
▁inspector	-11.325
▁PGA	-11.3254
▁attendance	-11.3254
▁prey	-11.3257
▁uncovered	-11.3257
▁Kings	-11.3259
▁lick	-11.3259
▁Mills	-11.3264
▁filing	-11.3264
▁Class	-11.3268
▁Etihad	-11.3268
▁Hussein	-11.3268
▁membership	-11.3268
▁balcony	-11.3282
▁Dem	-11.3292
▁Peru	-11.3296
▁revealing	-11.3299
▁Wells	-11.3301
▁nomination	-11.3301
▁electrical	-11.3303
▁troubled	-11.3306
▁educate	-11.3308
▁thieves	-11.3308
▁innocence	-11.3311
▁slide	-11.3315
▁alerted	-11.3318
▁downwards	-11.3318
▁uprise	-11.3318
▁cultivate	-11.332
▁monthly	-11.332
▁perplex	-11.332
▁Harper	-11.3325
▁practical	-11.3325
▁speaker	-11.3325
▁1987	-11.3329
▁deliberate	-11.3329
▁qualified	-11.3329
▁eaten	-11.3332
▁suburban	-11.3334
▁liken	-11.3336
▁Andrews	-11.3339
▁Haram	-11.3339
▁underwater	-11.3346
▁Rica	-11.3348
▁donors	-11.3348
▁peoples	-11.3348
▁installed	-11.3351
▁equality	-11.3353
▁vary	-11.3353
▁countryside	-11.3358
▁mount	-11.3365
▁Felipe	-11.3367
▁Nearly	-11.3367
▁smiling	-11.3367
▁flung	-11.3374
▁rumours	-11.3377
▁undivided	-11.3379
▁acre	-11.3381
▁coiffure	-11.3381
▁iReport	-11.3381
▁omit	-11.3384
▁Bryan	-11.3386
▁Cox	-11.3386
▁Iraki	-11.3386
▁prostitution	-11.3386
▁rises	-11.3386
▁Manning	-11.3388
▁uncommon	-11.3393
▁nude	-11.3398
▁93	-11.34
▁mystify	-11.3403
▁Bundesliga	-11.341
▁keys	-11.341
▁Scots	-11.3412
▁happiness	-11.3415
▁woods	-11.3419
▁commemorate	-11.3426
▁Financial	-11.3429
▁Leon	-11.3429
▁sufficient	-11.3429
▁swept	-11.3429
▁defecate	-11.3431
▁Dawn	-11.3434
▁assaulting	-11.3434
▁crusade	-11.3434
▁ridiculous	-11.3434
▁spark	-11.3434
▁displays	-11.3443
▁flummox	-11.3448
▁comprehensive	-11.3453
▁organ	-11.3453
▁stairs	-11.3453
▁Wars	-11.3457
▁thief	-11.3457
▁improving	-11.3465
▁Blake	-11.3467
▁citizenship	-11.3467
▁ascribable	-11.3469
▁protein	-11.3472
▁consistent	-11.3477
▁weekly	-11.3479
▁Eddie	-11.3486
▁achievement	-11.3486
▁festive	-11.3486
▁companion	-11.3489
▁quote	-11.3489
▁Garner	-11.3496
▁125	-11.3501
▁Boko	-11.3505
▁inspiring	-11.3505
▁acid	-11.3508
▁starring	-11.3508
▁considerable	-11.351
▁dealt	-11.351
▁outlets	-11.351
▁staggering	-11.3513
▁manufacturers	-11.3515
▁passionate	-11.3515
▁distressed	-11.3517
▁triggered	-11.3517
▁dumbfound	-11.352
▁inspection	-11.352
▁scam	-11.352
▁Suffolk	-11.3525
▁peer	-11.3525
▁fiddle	-11.3527
▁Glenn	-11.3529
▁Reports	-11.3529
▁privately	-11.3529
▁referable	-11.3534
▁trademark	-11.3534
▁consideration	-11.3539
▁councils	-11.3539
▁farsighted	-11.3541
▁Thanks	-11.3546
▁Sochi	-11.3549
▁owe	-11.3549
▁meanwhile	-11.3553
▁icon	-11.3558
▁shoe	-11.3561
▁respectable	-11.3563
▁wings	-11.3568
▁pluck	-11.357
▁routes	-11.357
▁vet	-11.357
▁Francois	-11.3573
▁Pearson	-11.3573
▁touching	-11.3575
▁Has	-11.3578
▁graphic	-11.3578
▁imputable	-11.3582
▁AIDS	-11.3587
▁Raheem	-11.3592
▁extract	-11.3592
▁detached	-11.3595
▁reviews	-11.3595
▁breathe	-11.3597
▁hug	-11.3597
▁stark	-11.3599
▁Constitution	-11.3602
▁Indonesian	-11.3602
▁crushed	-11.3602
▁gloves	-11.3602
▁Ellis	-11.3607
▁lion	-11.3611
▁supportive	-11.3611
▁competing	-11.3614
▁drought	-11.3616
▁Inside	-11.3619
▁timing	-11.3619
▁marriages	-11.3626
▁immigrant	-11.3631
▁inflation	-11.3631
▁Allardyce	-11.3641
▁designers	-11.3641
▁piddle	-11.3643
▁bend	-11.3645
▁programmes	-11.3645
▁fastest	-11.3648
▁doubled	-11.365
▁Follow	-11.3653
▁downwardly	-11.3653
▁killers	-11.3655
▁Carlo	-11.366
▁nonplus	-11.366
▁retentive	-11.3663
▁uploaded	-11.3665
▁defeated	-11.3667
▁remembered	-11.3667
▁developers	-11.367
▁Corp	-11.3675
▁arguing	-11.3675
▁dealer	-11.3675
▁laughing	-11.3675
▁Village	-11.3684
▁stupid	-11.3687
▁Ozil	-11.3699
▁laser	-11.3699
▁propaganda	-11.3699
▁stir	-11.3699
▁beforehand	-11.3704
▁dominate	-11.3704
▁thankful	-11.3704
▁tobacco	-11.3704
▁pledged	-11.3706
▁postdate	-11.3706
▁struggles	-11.3706
▁approaching	-11.3714
▁priest	-11.3714
▁rings	-11.3714
▁recommendations	-11.3719
▁Penn	-11.3724
▁magnanimous	-11.3726
▁Joan	-11.3729
▁hunger	-11.3731
▁ranging	-11.3731
▁coif	-11.3736
▁Labor	-11.3738
▁Moss	-11.3738
▁regardless	-11.3738
▁upward	-11.3738
▁backlash	-11.3746
▁disturbing	-11.3746
▁speeding	-11.3746
▁divorced	-11.3748
▁launching	-11.3751
▁coiffe	-11.3753
▁centers	-11.3758
▁sheer	-11.376
▁Off	-11.3765
▁Woman	-11.3768
▁volcano	-11.3768
▁smashing	-11.377
▁lovers	-11.3773
▁survivor	-11.3773
▁Dakota	-11.3778
▁Ivory	-11.3778
▁bat	-11.3778
▁fitting	-11.378
▁BMW	-11.3783
▁beneficial	-11.3785
▁shorts	-11.3788
▁inadequate	-11.379
▁Aviation	-11.3797
▁manufacturer	-11.3797
▁condolences	-11.3802
▁kicking	-11.3805
▁Rugby	-11.3807
▁skirt	-11.3812
▁lasted	-11.3815
▁Novak	-11.3817
▁champagne	-11.3817
▁persuade	-11.382
▁Romania	-11.3822
▁UKIP	-11.3822
▁millionaire	-11.3822
▁tanks	-11.3822
▁drained	-11.3825
▁Kiev	-11.3827
▁Workers	-11.3827
▁Point	-11.383
▁Light	-11.3832
▁Match	-11.3835
▁transportation	-11.3837
▁longsighted	-11.3845
▁Ancelotti	-11.3847
▁trousers	-11.3847
▁valuable	-11.3847
▁fin	-11.3849
▁satisfy	-11.3852
▁Jobs	-11.3857
▁wider	-11.3857
▁cage	-11.3859
▁pray	-11.3859
▁Bergdahl	-11.3862
▁Carol	-11.3862
▁marine	-11.3864
▁recollective	-11.3864
▁awaiting	-11.3867
▁partly	-11.3869
▁Natalie	-11.3872
▁Reading	-11.3872
▁sensors	-11.3872
▁Chambers	-11.3877
▁disappointing	-11.3877
▁thigh	-11.3877
▁wreck	-11.3877
▁foresighted	-11.3879
▁suing	-11.3879
▁Boxing	-11.3882
▁Dhabi	-11.3882
▁emotion	-11.3882
▁centres	-11.3884
▁proportion	-11.3884
▁Colombian	-11.3887
▁Shane	-11.3887
▁arrangements	-11.3892
▁goodbye	-11.3892
▁handgun	-11.3892
▁habit	-11.3894
▁sensation	-11.3897
▁decently	-11.3899
▁Pictures	-11.3902
▁bonus	-11.3902
▁1985	-11.3907
▁exploded	-11.3907
▁gardens	-11.3907
▁outdoors	-11.3907
▁travelers	-11.3907
▁tent	-11.3909
▁departments	-11.3912
▁rubber	-11.3914
▁pretermit	-11.3919
▁classified	-11.3927
▁shouldn	-11.3927
▁joked	-11.3929
▁expense	-11.3932
▁palace	-11.3932
▁mysterious	-11.3937
▁tale	-11.3937
▁pip	-11.3939
▁Easter	-11.3942
▁earnings	-11.3942
▁prevented	-11.3942
▁rig	-11.3942
▁Latin	-11.3947
▁BP	-11.3952
▁Bournemouth	-11.3952
▁quake	-11.3954
▁Sharapova	-11.3957
▁authors	-11.3959
▁Connor	-11.3962
▁Passengers	-11.3962
▁administrative	-11.3962
▁di	-11.3962
▁theatre	-11.3962
▁whereabouts	-11.3962
▁mob	-11.3964
▁purple	-11.3964
▁Diamond	-11.3967
▁Nobel	-11.3967
▁Walter	-11.3967
▁listening	-11.3967
▁implicated	-11.3969
▁micturate	-11.3969
▁lowly	-11.3972
▁roots	-11.3972
▁column	-11.3977
▁Katherine	-11.3982
▁hadn	-11.3987
▁aroused	-11.399
▁wars	-11.3992
▁implement	-11.3995
▁epidemic	-11.3997
▁navy	-11.3997
▁Holly	-11.4002
▁Sally	-11.4002
▁ditch	-11.4002
▁polar	-11.4005
▁snapped	-11.4005
▁DC	-11.4007
▁cyber	-11.4007
▁pointing	-11.401
▁360	-11.4012
▁Guantanamo	-11.4012
▁Wallace	-11.4017
▁overleap	-11.4017
▁rehab	-11.4017
▁Borussia	-11.4022
▁Madison	-11.4022
▁peculiar	-11.4022
▁beef	-11.4027
▁wrongdoing	-11.4027
▁Bashar	-11.4032
▁Hazard	-11.4032
▁ID	-11.4032
▁Ice	-11.4032
▁isolation	-11.4032
▁assess	-11.4037
▁clouds	-11.4037
▁buck	-11.4048
▁cabinet	-11.4048
▁errors	-11.4048
▁Express	-11.4058
▁Fred	-11.4058
▁Frenchman	-11.4058
▁defenders	-11.4058
▁integrity	-11.4058
▁poisoning	-11.406
▁terrific	-11.406
▁connections	-11.4063
▁organized	-11.4063
▁Sheikh	-11.4068
▁amateur	-11.4068
▁counsel	-11.4068
▁Kenneth	-11.4073
▁Conservatives	-11.4078
▁Vettel	-11.4083
▁identification	-11.4083
▁farseeing	-11.4086
▁unarmed	-11.4088
▁clues	-11.4091
▁coup	-11.4098
▁gates	-11.4098
▁slipped	-11.4101
▁Trump	-11.4103
▁chamber	-11.4106
▁posters	-11.4109
▁undergoing	-11.4109
▁dirty	-11.4111
▁Fletcher	-11.4114
▁Gibson	-11.4114
▁Rover	-11.4119
▁disastrous	-11.4119
▁hackers	-11.4119
▁Unlike	-11.4124
▁loyal	-11.4124
▁Arabian	-11.4126
▁Jake	-11.4129
▁cooperation	-11.4129
▁decrease	-11.4132
▁Bangkok	-11.4134
▁earning	-11.4134
▁organisations	-11.4134
▁medium	-11.4137
▁stones	-11.4137
▁Get	-11.4139
▁airstrikes	-11.4139
▁glory	-11.4139
▁influential	-11.4139
▁ladder	-11.4139
▁childrens	-11.4144
▁Call	-11.4149
▁Paulo	-11.4149
▁dialogue	-11.4149
▁Amnesty	-11.4155
▁neat	-11.4155
▁balloon	-11.416
▁ladies	-11.416
▁foresightful	-11.4165
▁scare	-11.4165
▁subway	-11.4165
▁unemployed	-11.4165
▁Almost	-11.4167
▁prospicient	-11.4167
▁invoke	-11.417
▁penny	-11.4173
▁dive	-11.4175
▁arrives	-11.4178
▁Much	-11.4183
▁furnish	-11.4185
▁Amber	-11.4193
▁extradition	-11.4196
▁honorable	-11.4198
▁updates	-11.4198
▁Cheshire	-11.4201
▁musician	-11.4201
▁Montana	-11.4206
▁competitors	-11.4206
▁employer	-11.4206
▁reminder	-11.4211
▁Mubarak	-11.4216
▁Myanmar	-11.4227
▁vanished	-11.4227
▁concentrate	-11.4232
▁Istanbul	-11.4237
▁cemetery	-11.4237
▁marital	-11.4239
▁pressing	-11.4239
▁Kardashian	-11.4242
▁romantic	-11.4242
▁tracked	-11.4245
▁Schumacher	-11.4247
▁repay	-11.4247
▁terrifying	-11.4247
▁Paula	-11.4252
▁presidents	-11.4252
▁2018	-11.4258
▁permanently	-11.4258
▁prompting	-11.4258
▁Rolling	-11.426
▁Change	-11.4263
▁IRS	-11.4263
▁Place	-11.4263
▁Shabaab	-11.4263
▁concentration	-11.4263
▁disappointment	-11.4263
▁examples	-11.4263
▁floods	-11.4263
▁measured	-11.4265
▁romance	-11.4265
▁reserved	-11.427
▁washing	-11.427
▁Unit	-11.4273
▁directors	-11.4283
▁lottery	-11.4289
▁proficient	-11.4289
▁adjust	-11.4294
▁shotgun	-11.4294
▁floors	-11.4296
▁Osama	-11.4299
▁boxer	-11.4299
▁divers	-11.4299
▁raping	-11.4312
▁Timothy	-11.4315
▁intoxicated	-11.4315
▁Eden	-11.432
▁suggestions	-11.4325
▁undercover	-11.4325
▁challenged	-11.4328
▁absent	-11.433
▁contractor	-11.433
▁pursuit	-11.433
▁resistance	-11.433
▁essentially	-11.4335
▁ideal	-11.4338
▁Portsmouth	-11.4341
▁aired	-11.4341
▁plates	-11.4341
▁virtual	-11.4341
▁gotten	-11.4343
▁Liberty	-11.4346
▁cinema	-11.4346
▁debts	-11.4346
▁magnitude	-11.4346
▁plight	-11.4346
▁wash	-11.4346
▁Which	-11.4351
▁charm	-11.4351
▁devoted	-11.4351
▁Bar	-11.4354
▁Brandon	-11.4356
▁Number	-11.4356
▁Tommy	-11.4356
▁newborn	-11.4356
▁Sarkozy	-11.4362
▁volume	-11.4362
▁tug	-11.4364
▁aspects	-11.4367
▁Travis	-11.4372
▁wives	-11.4372
▁granddaughter	-11.4377
▁scenario	-11.4377
▁custom	-11.438
▁Winston	-11.4382
▁shipping	-11.4382
▁construe	-11.4385
▁Summer	-11.4388
▁pistol	-11.4388
▁promoting	-11.439
▁Dame	-11.4393
▁Shiite	-11.4393
▁harmful	-11.4393
▁longest	-11.4393
▁insurgents	-11.4398
▁cave	-11.4403
▁retailer	-11.4403
▁Foley	-11.4414
▁Toyota	-11.4414
▁unlawful	-11.4417
▁asterisk	-11.4422
▁bucket	-11.4422
▁Yahoo	-11.4424
▁Dozens	-11.443
▁flop	-11.4432
▁wager	-11.4432
▁Congo	-11.4435
▁gene	-11.4435
▁appreciate	-11.4438
▁peers	-11.4438
▁photographers	-11.444
▁spree	-11.444
▁unfair	-11.444
▁relieve	-11.4443
▁principle	-11.4445
▁void	-11.4448
▁2017	-11.4451
▁Lindsay	-11.4451
▁Logan	-11.4451
▁acute	-11.4451
▁click	-11.4451
▁Chamberlain	-11.4456
▁intemperately	-11.4456
▁mortem	-11.4461
▁wax	-11.4464
▁institution	-11.4467
▁EW	-11.4472
▁passage	-11.4472
▁leftover	-11.4475
▁Merseyside	-11.4477
▁VA	-11.4477
▁paedophile	-11.4477
▁arranged	-11.448
▁intact	-11.4482
▁addresses	-11.4485
▁sue	-11.4485
▁Anti	-11.4488
▁derby	-11.4488
▁inauspicious	-11.4488
▁Heart	-11.4493
▁Omar	-11.4493
▁Raymond	-11.4493
▁coal	-11.4496
▁workplace	-11.4504
▁Danish	-11.4509
▁premier	-11.4509
▁surgeons	-11.4509
▁tsunami	-11.4509
▁chip	-11.4512
▁1981	-11.4514
▁Farm	-11.4514
▁gentle	-11.4514
▁suite	-11.4514
▁harbour	-11.4517
▁miserable	-11.4517
▁unmarried	-11.4517
▁Kensington	-11.452
▁Sara	-11.452
▁displayed	-11.452
▁stamp	-11.452
▁Be	-11.453
▁Kabul	-11.453
▁certificate	-11.4533
▁admission	-11.4536
▁ninth	-11.4538
▁erupted	-11.4541
▁magic	-11.4541
▁matching	-11.4541
▁Appeal	-11.4544
▁lighting	-11.4544
▁Hague	-11.4546
▁Lawson	-11.4546
▁dawn	-11.4546
▁2020	-11.4551
▁Firefighters	-11.4551
▁ally	-11.4551
▁confusion	-11.4551
▁practise	-11.4551
▁Conference	-11.4557
▁hack	-11.4557
▁pipe	-11.4559
▁download	-11.4565
▁starred	-11.4565
▁Heritage	-11.4567
▁Wang	-11.4567
▁inspectors	-11.4567
▁ray	-11.457
▁Zimbabwe	-11.4573
▁advocates	-11.4573
▁urgent	-11.4575
▁Jacob	-11.4578
▁Rosie	-11.4578
▁regulation	-11.4578
▁torn	-11.4581
▁96	-11.4584
▁buses	-11.4584
▁responding	-11.4594
▁cardiac	-11.46
▁apologized	-11.4602
▁earmark	-11.4602
▁blockade	-11.4605
▁tiger	-11.4605
▁grip	-11.4608
▁relinquish	-11.4608
▁Guy	-11.461
▁detainees	-11.4616
▁coffin	-11.4621
▁comet	-11.4621
▁supports	-11.4624
▁Jail	-11.4626
▁answered	-11.4626
▁channels	-11.4626
▁farmer	-11.4626
▁flirt	-11.4626
▁Chan	-11.4632
▁chips	-11.4634
▁medics	-11.4637
▁musical	-11.4637
▁bully	-11.4642
▁rider	-11.4642
▁Curtis	-11.4648
▁bunk	-11.4648
▁relegation	-11.4648
▁spectators	-11.4648
▁disturbed	-11.4651
▁existent	-11.4651
▁Base	-11.4653
▁constitution	-11.4653
▁disappear	-11.4653
▁awake	-11.4659
▁cheaper	-11.4661
▁garner	-11.4661
▁Adelaide	-11.4664
▁Johnny	-11.4664
▁cyclist	-11.4664
▁origin	-11.4664
▁|	-11.4669
▁unharmed	-11.4672
▁Joel	-11.4675
▁luggage	-11.4675
▁rated	-11.4675
▁engender	-11.4683
▁patent	-11.4683
▁lips	-11.4686
▁Plus	-11.4688
▁arresting	-11.4688
▁cheek	-11.4688
▁expects	-11.4688
▁cab	-11.4691
▁eager	-11.4691
▁indecent	-11.4691
▁recognised	-11.4696
▁x	-11.4696
▁inquiries	-11.4702
▁bowl	-11.4704
▁innovative	-11.4704
▁logo	-11.4707
▁materialise	-11.4707
▁manufacturing	-11.4713
▁subjected	-11.4713
▁poorly	-11.4715
▁resume	-11.4723
▁BT	-11.4729
▁fur	-11.4729
▁respected	-11.4729
▁ballot	-11.4732
▁Perhaps	-11.4734
▁conservation	-11.4734
▁converted	-11.4734
▁racially	-11.4734
▁spaces	-11.4734
▁sympathy	-11.4734
▁GPS	-11.474
▁bruises	-11.474
▁amply	-11.4742
▁Santos	-11.4745
▁Years	-11.4745
▁bug	-11.4745
▁satisfied	-11.4748
▁assail	-11.4751
▁dancer	-11.4751
▁Between	-11.4753
▁Dawson	-11.4756
▁float	-11.4756
▁improvements	-11.4756
▁neighboring	-11.4756
▁assassination	-11.4761
▁cancel	-11.4761
▁constitutional	-11.4764
▁exclude	-11.4764
▁gown	-11.4764
▁pure	-11.4764
▁thrilled	-11.4764
▁Gregory	-11.4767
▁coin	-11.477
▁biological	-11.4772
▁careers	-11.4772
▁dally	-11.4772
▁ripped	-11.4778
▁der	-11.4781
▁Key	-11.4783
▁qualifier	-11.4783
▁reactions	-11.4783
▁phrase	-11.4789
▁expel	-11.4791
▁Elementary	-11.48
▁enemies	-11.48
▁Lennon	-11.4805
▁Mediterranean	-11.4805
▁Nico	-11.4805
▁euro	-11.4805
▁fireworks	-11.4805
▁knees	-11.4805
▁upgrade	-11.4805
▁brush	-11.4808
▁salute	-11.4808
▁Kenyan	-11.4811
▁Series	-11.4811
▁layer	-11.4811
▁knockout	-11.4813
▁Amendment	-11.4816
▁pleasure	-11.4816
▁array	-11.4819
▁excessive	-11.4819
▁submitted	-11.4819
▁colligate	-11.4821
▁educational	-11.4821
▁tribal	-11.4821
▁Said	-11.4827
▁Serena	-11.4827
▁magistrates	-11.4827
▁hinder	-11.4832
▁males	-11.4832
▁weighing	-11.4832
▁catching	-11.4835
▁shelves	-11.4835
▁tipped	-11.4835
▁Pro	-11.4838
▁abusing	-11.4838
▁rubble	-11.4838
▁forgotten	-11.4841
▁Search	-11.4843
▁Jesse	-11.4854
▁outfits	-11.4854
▁rolling	-11.4857
▁Ambulance	-11.486
▁brains	-11.486
▁destinations	-11.486
▁Brotherhood	-11.4865
▁singles	-11.4868
▁98	-11.4871
▁Christ	-11.4871
▁acquit	-11.4871
▁tributes	-11.4871
▁partially	-11.4874
▁snipe	-11.4874
▁violated	-11.4874
▁Film	-11.4876
▁folks	-11.4876
▁maps	-11.4876
▁particles	-11.4876
▁precious	-11.4876
▁skies	-11.4876
▁avoided	-11.4882
▁actively	-11.4887
▁1983	-11.4893
▁Blatter	-11.4893
▁Mumbai	-11.4904
▁waist	-11.4904
▁appealed	-11.4907
▁bands	-11.4907
▁stagnant	-11.4907
▁Celebrity	-11.4909
▁tension	-11.4909
▁Hes	-11.4915
▁Lynn	-11.4915
▁developments	-11.4915
▁unaware	-11.4915
▁Campaign	-11.492
▁Reds	-11.492
▁pope	-11.492
▁Mata	-11.4926
▁precise	-11.4926
▁materialize	-11.4929
▁runners	-11.4932
▁practiced	-11.4937
▁fractured	-11.494
▁architect	-11.4943
▁guilt	-11.4943
▁slumber	-11.4943
▁sunshine	-11.4943
▁traditionally	-11.4943
▁mighty	-11.4945
▁Enrique	-11.4948
▁Records	-11.4948
▁discount	-11.4954
▁Rihanna	-11.4959
▁Sao	-11.4959
▁accusing	-11.4959
▁knives	-11.4959
▁modify	-11.4959
▁appealing	-11.4962
▁disciplinary	-11.4965
▁jaunt	-11.4965
▁legitimate	-11.4965
▁warns	-11.4965
▁Study	-11.4968
▁demolish	-11.4968
▁dissent	-11.4968
▁Nixon	-11.497
▁charging	-11.497
▁operators	-11.497
▁populations	-11.4976
▁stripped	-11.4976
▁Cold	-11.4981
▁aisle	-11.4981
▁deer	-11.4981
▁flooded	-11.4981
▁skillful	-11.4984
▁Ashton	-11.4987
▁overweight	-11.499
▁minimal	-11.4995
▁nock	-11.4998
▁Germans	-11.5004
▁approve	-11.5004
▁printed	-11.5004
▁opens	-11.5007
▁Benedict	-11.5009
▁Everybody	-11.5009
▁bodily	-11.5009
▁developer	-11.5015
▁element	-11.5015
▁peradventure	-11.5015
▁vivid	-11.5015
▁flip	-11.5018
▁91	-11.5026
▁Blasio	-11.5026
▁Butler	-11.5026
▁Seoul	-11.5026
▁breakdown	-11.5026
▁treasure	-11.5029
▁Monica	-11.5032
▁spine	-11.5032
▁Immigration	-11.5037
▁bechance	-11.5037
▁divided	-11.5037
▁Using	-11.504
▁organise	-11.5043
▁suitable	-11.5043
▁00	-11.5048
▁injection	-11.5048
▁unsafe	-11.5048
▁glimpse	-11.5051
▁reunited	-11.5051
▁interim	-11.5054
▁comparatively	-11.5057
▁efficient	-11.5057
▁bunch	-11.506
▁rope	-11.506
▁doubts	-11.5065
▁panels	-11.5065
▁premises	-11.5065
▁automatically	-11.5068
▁abusive	-11.5071
▁establishment	-11.5071
▁integral	-11.5074
▁expansion	-11.5076
▁Superintendent	-11.5082
▁Standards	-11.5088
▁Bible	-11.5093
▁critically	-11.5093
▁greatly	-11.5093
▁gifted	-11.5096
▁Field	-11.5099
▁climbed	-11.5102
▁literal	-11.5102
▁Taiwan	-11.5105
▁Valentine	-11.5105
▁proffer	-11.5105
▁shouted	-11.5105
▁precede	-11.5107
▁prosecuting	-11.5107
▁embarrassing	-11.511
▁trifle	-11.511
▁dependent	-11.5113
▁IT	-11.5116
▁petty	-11.5116
▁Berkshire	-11.5122
▁premiere	-11.5122
▁motorcycle	-11.5124
▁academic	-11.5127
▁mayhap	-11.513
▁rip	-11.513
▁Churchill	-11.5133
▁Dale	-11.5133
▁Iceland	-11.5133
▁Megan	-11.5133
▁heroes	-11.5133
▁Go	-11.5136
▁diddle	-11.5136
▁bless	-11.5138
▁dignity	-11.5138
▁upload	-11.5138
▁wrist	-11.5138
▁conscious	-11.5141
▁Ivan	-11.5144
▁Miranda	-11.5144
▁gradually	-11.5144
▁privilege	-11.5144
▁Amsterdam	-11.515
▁Id	-11.515
▁Mick	-11.515
▁closest	-11.5153
▁bn	-11.5155
▁topic	-11.5155
▁astronauts	-11.5161
▁surviving	-11.5161
▁apprehend	-11.5164
▁belongings	-11.5167
▁cruel	-11.5167
▁slept	-11.5167
▁Javier	-11.5172
▁emerging	-11.5172
▁Factor	-11.5178
▁removing	-11.5178
▁crush	-11.5181
▁Floyd	-11.5184
▁abduction	-11.5184
▁instructor	-11.5184
▁obscure	-11.5184
▁sorts	-11.5184
▁Superior	-11.5187
▁foster	-11.5187
▁Sandra	-11.5189
▁sheep	-11.5189
▁sizes	-11.5189
▁recognized	-11.5192
▁Lance	-11.5195
▁buyer	-11.5195
▁cartel	-11.5195
▁revelation	-11.5195
▁Christina	-11.5201
▁prosperous	-11.5201
▁schoolgirl	-11.5201
▁handled	-11.5204
▁exam	-11.5206
▁harbinger	-11.5206
▁necessarily	-11.5206
▁ashamed	-11.5212
▁insight	-11.5212
▁perchance	-11.5212
▁chains	-11.5215
▁1978	-11.5224
▁Honda	-11.5224
▁Giggs	-11.5229
▁sued	-11.5229
▁highlighted	-11.5232
▁forcible	-11.5238
▁inflict	-11.5238
▁intelligent	-11.5238
▁hurricane	-11.5241
▁breakthrough	-11.5246
▁Griffin	-11.5252
▁cord	-11.5252
▁females	-11.5252
▁sensational	-11.5255
▁Carney	-11.5258
▁annunciate	-11.5258
▁Standard	-11.5266
▁Ex	-11.5269
▁befall	-11.5269
▁fleeing	-11.5269
▁youre	-11.5269
▁1969	-11.5275
▁Mirror	-11.5281
▁kidnap	-11.5281
▁volatile	-11.5284
▁episodes	-11.5286
▁womb	-11.5286
▁Dog	-11.5292
▁dose	-11.5298
▁trim	-11.5298
▁IS	-11.5301
▁pig	-11.5301
▁potent	-11.5301
▁Silver	-11.5304
▁overturned	-11.5307
▁limbs	-11.5309
▁coloured	-11.5312
▁manoeuvre	-11.5312
▁Constable	-11.5315
▁Greene	-11.5315
▁Pat	-11.5315
▁Wiltshire	-11.5315
▁Janet	-11.5321
▁pastor	-11.5321
▁Alliance	-11.5327
▁smuggling	-11.5327
▁absolute	-11.5335
▁crashing	-11.5338
▁diverse	-11.5347
▁halfway	-11.5347
▁trap	-11.5347
▁Ecuador	-11.535
▁disregard	-11.5358
▁Springs	-11.5367
▁ins	-11.5367
▁endangered	-11.537
▁Photographer	-11.5373
▁artwork	-11.5373
▁advances	-11.5376
▁fend	-11.5376
▁Drogba	-11.5379
▁Environment	-11.5379
▁floating	-11.5379
▁spiel	-11.5379
▁shy	-11.5381
▁gambling	-11.5384
▁rescuers	-11.539
▁pin	-11.5393
▁stranded	-11.5393
▁casual	-11.5399
▁Abdul	-11.5402
▁Command	-11.5402
▁automatic	-11.5402
▁counterparts	-11.5402
▁Claims	-11.5405
▁harsh	-11.5408
▁maneuver	-11.541
▁overwhelming	-11.541
▁Plymouth	-11.5413
▁Province	-11.5413
▁altercation	-11.5413
▁prestigious	-11.5413
▁Sutton	-11.5419
▁hamstring	-11.5419
▁introduction	-11.5419
▁Challenge	-11.5422
▁overdose	-11.5422
▁serial	-11.5422
▁Hassan	-11.5425
▁prisons	-11.5425
▁ugly	-11.5425
▁whenever	-11.5425
▁flats	-11.5431
▁hailed	-11.5431
▁identical	-11.5431
▁Cesc	-11.5437
▁Forbes	-11.5437
▁Neill	-11.5437
▁anonymity	-11.5437
▁wouldnt	-11.5437
▁bind	-11.5442
▁Tribune	-11.5448
▁Nigerian	-11.5451
▁dread	-11.5454
▁examiner	-11.5454
▁courses	-11.5457
▁finances	-11.5457
▁tasks	-11.5457
▁Diane	-11.546
▁Election	-11.546
▁Joint	-11.546
▁contents	-11.546
▁upwardly	-11.546
▁Luiz	-11.5466
▁robots	-11.5466
▁meter	-11.5469
▁Madeleine	-11.5472
▁calf	-11.5472
▁explaining	-11.5477
▁generated	-11.548
▁unpaid	-11.548
▁Corporation	-11.5483
▁Hammond	-11.5483
▁chapter	-11.5483
▁bicycle	-11.5486
▁leap	-11.5486
▁wrap	-11.5486
▁Ibrahim	-11.5489
▁misdemeanor	-11.5495
▁sustainable	-11.5495
▁vie	-11.5495
▁Brits	-11.5501
▁storey	-11.5501
▁Dublin	-11.5507
▁Chloe	-11.5513
▁Lords	-11.5513
▁Yaya	-11.5513
▁explosions	-11.5513
▁battled	-11.5518
▁drill	-11.5518
▁eliminate	-11.5518
▁fox	-11.5518
▁somehow	-11.5518
▁forged	-11.5521
▁anyway	-11.5524
▁cockpit	-11.5524
▁duck	-11.5524
▁lined	-11.5524
▁Beverly	-11.553
▁sheets	-11.553
▁victories	-11.553
▁principles	-11.5542
▁ultra	-11.5542
▁Guardiola	-11.5548
▁tattoos	-11.5551
▁Ball	-11.5554
▁dated	-11.5554
▁organize	-11.5554
▁Bryant	-11.556
▁Hook	-11.556
▁container	-11.556
▁101	-11.5563
▁depressed	-11.5563
▁Half	-11.5566
▁Patricia	-11.5566
▁Pittsburgh	-11.5566
▁Thats	-11.5566
▁affecting	-11.5568
▁regulate	-11.5568
▁Boys	-11.5577
▁Pete	-11.5577
▁overhaul	-11.5577
▁blonde	-11.558
▁database	-11.5583
▁scramble	-11.5586
▁stiff	-11.5589
▁Would	-11.5595
▁amongst	-11.5595
▁Damascus	-11.5601
▁Derek	-11.5601
▁Nebraska	-11.5601
▁Walmart	-11.5601
▁definition	-11.5601
▁solutions	-11.5601
▁Mobile	-11.5604
▁accountable	-11.5607
▁sham	-11.5607
▁superstar	-11.5607
▁Front	-11.5613
▁Salt	-11.5613
▁Sources	-11.5613
▁bushed	-11.5613
▁gunfire	-11.5613
▁quarterback	-11.5616
▁Riley	-11.5619
▁drives	-11.5619
▁Capt	-11.5622
▁commissioned	-11.5622
▁airplane	-11.5625
▁checking	-11.5625
▁notable	-11.5625
▁Snow	-11.5631
▁pirates	-11.5631
▁rat	-11.5631
▁immune	-11.5634
▁vaporize	-11.5634
▁Peninsula	-11.5637
▁canceled	-11.5637
▁commend	-11.5637
▁creator	-11.5637
▁corporation	-11.5642
▁remind	-11.5642
▁ache	-11.5645
▁Bangladesh	-11.5648
▁Creek	-11.5654
▁Families	-11.5654
▁Herrera	-11.5654
▁WHO	-11.5654
▁nursery	-11.5654
▁Travel	-11.5657
▁promptly	-11.5657
▁1976	-11.566
▁Hispanic	-11.566
▁Judaic	-11.566
▁dirt	-11.566
▁assumed	-11.5663
▁cared	-11.5663
▁rampage	-11.5663
▁reliable	-11.5663
▁Donetsk	-11.5666
▁ate	-11.5666
▁banner	-11.5666
▁Button	-11.5672
▁collecting	-11.5672
▁reassert	-11.5672
▁regarded	-11.5678
▁famously	-11.5681
▁Users	-11.5684
▁discontinue	-11.5684
▁hungry	-11.5687
▁upstairs	-11.5687
▁Mission	-11.5696
▁faulty	-11.5696
▁hospitalized	-11.5696
▁insects	-11.5696
▁eldest	-11.5699
▁northwest	-11.5702
▁rankings	-11.5702
▁Hugh	-11.5708
▁reducing	-11.5708
▁diversity	-11.5714
▁embarrassment	-11.5714
▁modelling	-11.5714
▁tonnes	-11.5714
▁Northampton	-11.572
▁narrowly	-11.572
▁recruitment	-11.572
▁tours	-11.5723
▁Oakland	-11.5726
▁Side	-11.5726
▁Singer	-11.5726
▁providers	-11.5726
▁94	-11.5732
▁b	-11.5732
▁doll	-11.5732
▁pill	-11.5732
▁supermarkets	-11.5732
▁Berlusconi	-11.5738
▁Room	-11.5738
▁coins	-11.5738
▁illnesses	-11.5738
▁packages	-11.5738
▁indoors	-11.5741
▁secrets	-11.5744
▁washed	-11.5747
▁acceptable	-11.575
▁dip	-11.575
▁surgeries	-11.575
▁adjudge	-11.5753
▁distrust	-11.5753
▁endured	-11.5753
▁unfortunate	-11.5753
▁Del	-11.5756
▁Money	-11.5756
▁evacuation	-11.5756
▁dire	-11.5759
▁lilliputian	-11.5759
▁tide	-11.5759
▁Footage	-11.5762
▁Sporting	-11.5762
▁shutdown	-11.5762
▁Assembly	-11.5768
▁Gove	-11.5768
▁beget	-11.5768
▁nominated	-11.5771
▁spreading	-11.5771
▁Chuck	-11.5774
▁sophisticated	-11.5777
▁Couple	-11.578
▁overwhelmed	-11.578
▁hugely	-11.5783
▁weighs	-11.5783
▁lions	-11.5786
▁scrap	-11.5786
▁exercises	-11.5789
▁Serbia	-11.5792
▁Grey	-11.5795
▁mining	-11.5801
▁Beyonce	-11.5804
▁Col	-11.5804
▁Cricket	-11.5804
▁Hugo	-11.5804
▁Patriots	-11.5804
▁Survey	-11.5804
▁blown	-11.5804
▁convention	-11.5804
▁unfit	-11.5807
▁unhappy	-11.5807
▁conservatives	-11.581
▁violate	-11.581
▁diminished	-11.5813
▁raises	-11.5813
▁casino	-11.5816
▁respects	-11.5816
▁tables	-11.5819
▁Chen	-11.5822
▁hind	-11.5822
▁throne	-11.5822
▁visitor	-11.5828
▁Prior	-11.5831
▁deadened	-11.5831
▁sufferers	-11.5834
▁bow	-11.5837
▁Bulger	-11.584
▁riders	-11.584
▁lavish	-11.5844
▁Brien	-11.5847
▁flesh	-11.585
▁soap	-11.585
▁Starbucks	-11.5853
▁Un	-11.5859
▁risen	-11.5859
▁slim	-11.5859
▁Cameroon	-11.5865
▁Champion	-11.5865
▁aspect	-11.5865
▁consciousness	-11.5865
▁purse	-11.5865
▁kip	-11.5868
▁Richmond	-11.5871
▁apartments	-11.5871
▁countrys	-11.5871
▁monster	-11.5871
▁severally	-11.5871
▁worrying	-11.5871
▁urine	-11.5877
▁Bo	-11.5883
▁Gabriel	-11.5883
▁ordinarily	-11.5886
▁Gloucestershire	-11.5889
▁Lohan	-11.5889
▁briefing	-11.5889
▁nominee	-11.5889
▁remorse	-11.5889
▁Stars	-11.5892
▁farms	-11.5895
▁canvas	-11.5898
▁Page	-11.5901
▁naval	-11.5901
▁underway	-11.5901
▁viewing	-11.5901
▁Indeed	-11.5904
▁cartoon	-11.5904
▁Centers	-11.5907
▁Should	-11.591
▁Dems	-11.5913
▁Windsor	-11.5913
▁murderer	-11.5913
▁Nicola	-11.592
▁deceased	-11.5923
▁outcry	-11.5923
▁ratify	-11.5923
▁insisting	-11.5926
▁rarified	-11.5926
▁exception	-11.5932
▁sober	-11.5935
▁=	-11.5938
▁Hilton	-11.5938
▁holy	-11.5941
▁ESPN	-11.5944
▁wandering	-11.5947
▁Alzheimer	-11.595
▁Banks	-11.595
▁Hopefully	-11.595
▁Olivia	-11.595
▁austerity	-11.595
▁mainstream	-11.595
▁rarefied	-11.595
▁rice	-11.595
▁rapid	-11.5956
▁Robben	-11.5962
▁Latino	-11.5966
▁Cheryl	-11.5969
▁creates	-11.5969
▁dictator	-11.5969
▁momentum	-11.5969
▁routinely	-11.5969
▁scans	-11.5969
▁Reuters	-11.5975
▁Sue	-11.5975
▁rockets	-11.5975
▁Mali	-11.5981
▁Pietersen	-11.5981
▁Tracy	-11.5981
▁Zuckerberg	-11.5981
▁obese	-11.5984
▁Final	-11.5987
▁costumes	-11.5987
▁iOS	-11.5987
▁skill	-11.5987
▁southwest	-11.5987
▁Dunn	-11.5993
▁Mohammad	-11.5993
▁Bad	-11.5999
▁Century	-11.5999
▁autism	-11.5999
▁jar	-11.6002
▁participating	-11.6002
▁Daley	-11.6005
▁wont	-11.6005
▁endanger	-11.6009
▁relating	-11.6009
▁sailing	-11.6009
▁backyard	-11.6012
▁forgive	-11.6012
▁kinda	-11.6012
▁Click	-11.6015
▁mistrust	-11.6015
▁successor	-11.6018
▁170	-11.6021
▁Burton	-11.6024
▁Chapman	-11.6024
▁Wolf	-11.6024
▁fantasy	-11.6027
▁1930	-11.603
▁Coventry	-11.603
▁ash	-11.603
▁captivity	-11.603
▁councillor	-11.603
▁headline	-11.603
▁technologies	-11.6036
▁Customs	-11.6043
▁Sandusky	-11.6043
▁Palm	-11.6049
▁scorer	-11.6049
▁cattle	-11.6055
▁proven	-11.6055
▁shortage	-11.6055
▁weekends	-11.6055
▁tangible	-11.6058
▁entrepreneur	-11.6061
▁vintage	-11.6061
▁Kenny	-11.6067
▁lecture	-11.6067
▁Ban	-11.607
▁artificial	-11.607
▁aboriginal	-11.6073
▁conceded	-11.6073
▁Elsewhere	-11.608
▁Reporter	-11.608
▁awesome	-11.608
▁branches	-11.608
▁Fast	-11.6086
▁Gilbert	-11.6086
▁rays	-11.6086
▁Looking	-11.6092
▁deserves	-11.6092
▁especial	-11.6095
▁abducted	-11.6098
▁Oprah	-11.6105
▁flunk	-11.6105
▁respectively	-11.6108
▁Dad	-11.6111
▁Through	-11.6111
▁Hertfordshire	-11.6117
▁Protesters	-11.6117
▁vigil	-11.6117
▁cracking	-11.612
▁Napoli	-11.6123
▁Wade	-11.6123
▁Circuit	-11.6129
▁Youth	-11.6129
▁jersey	-11.6129
▁occasionally	-11.6129
▁Bahrain	-11.6136
▁deciding	-11.6136
▁sketch	-11.6139
▁nationals	-11.6142
▁transported	-11.6142
▁Arnold	-11.6148
▁crocodile	-11.6148
▁proceeds	-11.6148
▁Gardner	-11.6154
▁signalise	-11.6154
▁tense	-11.6158
▁1974	-11.6161
▁Mauricio	-11.6161
▁freestanding	-11.6161
▁levy	-11.6161
▁prank	-11.6164
▁Neighbours	-11.6167
▁beard	-11.6167
▁dismissal	-11.6167
▁driveway	-11.6167
▁trends	-11.6167
▁hashtag	-11.6173
▁monkey	-11.6173
▁Chase	-11.6176
▁signings	-11.6176
▁sire	-11.618
▁Building	-11.6183
▁Close	-11.6183
▁lobby	-11.6183
▁organizers	-11.6186
▁Target	-11.6192
▁correspondent	-11.6192
▁roadside	-11.6192
▁Ivanovic	-11.6198
▁Muhammad	-11.6198
▁Radamel	-11.6198
▁breeding	-11.6198
▁primarily	-11.6198
▁favourites	-11.6205
▁confine	-11.6208
▁hook	-11.6211
▁implications	-11.6211
▁mutual	-11.6214
▁Cahill	-11.6217
▁fete	-11.6217
▁treats	-11.622
▁Alison	-11.6223
▁Newton	-11.6223
▁altitude	-11.6223
▁butter	-11.6223
▁observers	-11.6223
▁penis	-11.6223
▁rust	-11.6223
▁spends	-11.6223
▁HERE	-11.6227
▁northeast	-11.6227
▁surrender	-11.6227
▁equipped	-11.6233
▁Russians	-11.6236
▁magazines	-11.6236
▁withdrawal	-11.6236
▁valued	-11.6239
▁Left	-11.6242
▁Trent	-11.6242
▁alleges	-11.6242
▁peril	-11.6242
▁scary	-11.6242
▁Hero	-11.6249
▁UPDATED	-11.6249
▁splice	-11.6249
▁stored	-11.6249
▁comic	-11.6252
▁Archbishop	-11.6255
▁homeland	-11.6255
▁weary	-11.6258
▁Idaho	-11.6261
▁Record	-11.6261
▁Swift	-11.6261
▁promoted	-11.6264
▁1972	-11.6268
▁Middlesbrough	-11.6268
▁mock	-11.6268
▁Model	-11.6271
▁Doctor	-11.6274
▁deportation	-11.6274
▁knead	-11.6274
▁stumble	-11.6274
▁Ajax	-11.628
▁Lallana	-11.628
▁motivation	-11.628
▁sofa	-11.628
▁thirdly	-11.628
▁barricade	-11.6283
▁Wendy	-11.6287
▁Liz	-11.6293
▁capabilities	-11.6293
▁estranged	-11.6296
▁contractors	-11.6299
▁gravity	-11.6299
▁unexpended	-11.6303
▁Pacquiao	-11.6306
▁Reynolds	-11.6306
▁conducting	-11.6306
▁distribute	-11.6306
▁firefighter	-11.6306
▁spinal	-11.6306
▁divide	-11.6309
▁Tragedy	-11.6312
▁intromit	-11.6312
▁salvage	-11.6312
▁educated	-11.6315
▁lip	-11.6318
▁Primary	-11.6322
▁lit	-11.6322
▁suburbs	-11.6325
▁comport	-11.6328
▁powder	-11.6328
▁Along	-11.6331
▁Deborah	-11.6331
▁pleading	-11.6331
▁embarrassed	-11.6334
▁Bin	-11.6337
▁Fraser	-11.6337
▁championships	-11.6337
▁pavement	-11.6337
▁unremarkably	-11.6337
▁Somali	-11.6341
▁discharged	-11.6341
▁empire	-11.6344
▁preventing	-11.6344
▁princess	-11.6344
▁Malaysian	-11.635
▁cult	-11.635
▁Look	-11.6353
▁detected	-11.6357
▁disgusting	-11.6357
▁hearings	-11.6357
▁pipeline	-11.6357
▁swear	-11.6363
▁Low	-11.6369
▁PR	-11.6376
▁Victims	-11.6376
▁indict	-11.6376
▁prevention	-11.6376
▁temple	-11.6376
▁profoundly	-11.6379
▁silent	-11.6379
▁Xinhua	-11.6382
▁dental	-11.6382
▁lofty	-11.6382
▁participation	-11.6382
▁Guinness	-11.6389
▁announcing	-11.6389
▁feat	-11.6389
▁restored	-11.6392
▁restricted	-11.6392
▁brick	-11.6401
▁Given	-11.6405
▁arouse	-11.6405
▁97	-11.6408
▁Brother	-11.6408
▁Discovery	-11.6408
▁asteroid	-11.6408
▁forbid	-11.6408
▁voluntary	-11.6408
▁Victorian	-11.6411
▁enterprise	-11.6411
▁toast	-11.6411
▁Remy	-11.6414
▁Things	-11.6414
▁bankruptcy	-11.6414
▁brace	-11.6417
▁urgently	-11.6417
▁Fernandez	-11.6421
▁Magazine	-11.6421
▁Medicine	-11.6421
▁fiction	-11.6421
▁Earl	-11.6427
▁animated	-11.6427
▁innovation	-11.6427
▁replica	-11.6427
▁trillion	-11.6427
▁uniforms	-11.6427
▁universal	-11.6427
▁mindful	-11.643
▁audiences	-11.6433
▁barrister	-11.6433
▁financially	-11.6433
▁Koeman	-11.644
▁Montgomery	-11.644
▁govern	-11.6446
▁reopen	-11.645
▁Player	-11.6453
▁delivering	-11.6456
▁Delaware	-11.6459
▁da	-11.6466
▁op	-11.6466
▁singular	-11.6466
▁Malcolm	-11.6472
▁gains	-11.6472
▁heated	-11.6475
▁Ambassador	-11.6479
▁Hopkins	-11.6479
▁disputed	-11.6479
▁menace	-11.6479
▁premium	-11.6479
▁correspond	-11.6482
▁1977	-11.6485
▁Geneva	-11.6485
▁Moon	-11.6485
▁heighten	-11.6485
▁sail	-11.6485
▁Private	-11.6488
▁costing	-11.6488
▁Porto	-11.6492
▁lens	-11.6492
▁masks	-11.6495
▁wipe	-11.6495
▁Airbus	-11.6498
▁Germain	-11.6498
▁Studies	-11.6498
▁sections	-11.6498
▁barren	-11.6504
▁belonging	-11.6504
▁dishes	-11.6504
▁equaliser	-11.6504
▁outdoor	-11.6504
▁gossip	-11.6508
▁lionise	-11.6508
▁successive	-11.6508
▁toe	-11.6508
▁Shadow	-11.6511
▁Take	-11.6511
▁rumors	-11.6511
▁senators	-11.6511
▁spider	-11.6511
▁sticks	-11.6514
▁hill	-11.6517
▁shaking	-11.6521
▁Rigby	-11.6524
▁confession	-11.6524
▁responses	-11.6524
▁thanked	-11.6524
▁poison	-11.6527
▁transformed	-11.6527
▁disjoined	-11.653
▁cub	-11.6534
▁intervene	-11.6534
▁Bolt	-11.6537
▁Pippa	-11.6537
▁contracted	-11.6537
▁emotionally	-11.6537
▁tomb	-11.6537
▁Cara	-11.6543
▁Steenkamp	-11.6543
▁complaining	-11.6547
▁ruined	-11.6547
▁eurozone	-11.655
▁executions	-11.655
▁hosting	-11.6553
▁Players	-11.6556
▁Rivers	-11.6556
▁anyplace	-11.6556
▁orotund	-11.656
▁Janeiro	-11.6563
▁credits	-11.6563
▁provoke	-11.6566
▁Obviously	-11.6569
▁flower	-11.6569
▁outskirts	-11.6569
▁pockets	-11.6569
▁preferably	-11.6569
▁Assange	-11.6576
▁Exeter	-11.6576
▁Ibrahimovic	-11.6576
▁foreigners	-11.6576
▁Elvis	-11.6589
▁Song	-11.6589
▁enhance	-11.6589
▁jam	-11.6589
▁negotiate	-11.6589
▁deepen	-11.6592
▁Book	-11.6596
▁Convention	-11.6596
▁Samaritans	-11.6596
▁Scholes	-11.6596
▁amend	-11.6596
▁legendary	-11.6599
▁sperm	-11.6602
▁useful	-11.6605
▁1968	-11.6615
▁Communist	-11.6615
▁Pedro	-11.6615
▁campaigning	-11.6615
▁deposit	-11.6615
▁relieved	-11.6615
▁serves	-11.6615
▁skiing	-11.6615
▁veil	-11.6615
▁aright	-11.6618
▁assemble	-11.6618
▁dim	-11.6618
▁1940	-11.6622
▁castle	-11.6622
▁topped	-11.6625
▁Donna	-11.6628
▁GPs	-11.6628
▁Marcos	-11.6628
▁disruption	-11.6628
▁fortnight	-11.6628
▁tick	-11.6628
▁Line	-11.6632
▁disgraceful	-11.6632
▁rude	-11.6632
▁strengthen	-11.6632
▁Globe	-11.6635
▁antibiotics	-11.6635
▁bonuses	-11.6635
▁Sex	-11.6641
▁accent	-11.6641
▁releasing	-11.6641
▁skipper	-11.6641
▁crashes	-11.6645
▁trivial	-11.6648
▁hefty	-11.6651
▁improbable	-11.6651
▁confidential	-11.6658
▁1963	-11.6661
▁Holocaust	-11.6661
▁advisers	-11.6661
▁auto	-11.6661
▁barriers	-11.6661
▁middling	-11.6661
▁unnecessary	-11.6661
▁deserved	-11.6664
▁root	-11.6664
▁tops	-11.6664
▁Lin	-11.6668
▁incline	-11.6668
▁log	-11.6671
▁theres	-11.6671
▁Body	-11.6674
▁Heath	-11.6674
▁churches	-11.6674
▁directions	-11.6674
▁la	-11.6674
▁ambitions	-11.6678
▁cherry	-11.6678
▁Lynch	-11.6681
▁resemble	-11.6681
▁unborn	-11.6681
▁Cathedral	-11.6687
▁Lily	-11.6687
▁Source	-11.6687
▁adept	-11.6687
▁rats	-11.6687
▁resistant	-11.6687
▁sandwich	-11.6687
▁youths	-11.6687
▁genes	-11.6694
▁Austrian	-11.6701
▁prosthetic	-11.6701
▁discussing	-11.6704
▁nab	-11.6704
▁Estate	-11.6707
▁hike	-11.6707
▁ribs	-11.6711
▁carriers	-11.6714
▁comprise	-11.6714
▁improper	-11.6714
▁Wild	-11.6717
▁conceal	-11.6717
▁husbands	-11.6721
▁selfies	-11.6721
▁travels	-11.6721
▁chairs	-11.6724
▁kvetch	-11.6724
▁aides	-11.6727
▁booking	-11.6727
▁mice	-11.6727
▁mode	-11.6727
▁Range	-11.673
▁Schools	-11.6734
▁supervision	-11.6734
▁swell	-11.6734
▁chasing	-11.6737
▁Joyce	-11.6747
▁THE	-11.6747
▁receives	-11.6747
▁Empire	-11.6754
▁Fisher	-11.6754
▁intercept	-11.6754
▁offense	-11.6754
▁ghost	-11.6757
▁Tea	-11.676
▁bravery	-11.676
▁switched	-11.676
▁deplete	-11.6764
▁tenth	-11.6764
▁Jenny	-11.6767
▁fraught	-11.6767
▁observed	-11.677
▁pertain	-11.6774
▁transgender	-11.6774
▁Jill	-11.678
▁Metro	-11.678
▁indicted	-11.6784
▁Days	-11.6787
▁crowded	-11.6787
▁crystal	-11.6787
▁punished	-11.679
▁hub	-11.6794
▁mainland	-11.6794
▁stormed	-11.6794
▁showers	-11.6797
▁lionize	-11.6804
▁blew	-11.6807
▁c	-11.6807
▁slump	-11.6807
▁tooth	-11.6807
▁HMS	-11.6814
▁IVF	-11.6814
▁commented	-11.6814
▁belonged	-11.682
▁substances	-11.682
▁Tripoli	-11.6827
▁memorable	-11.6827
▁riots	-11.6827
▁signalize	-11.6834
▁Against	-11.684
▁Area	-11.684
▁classmates	-11.684
▁Arabic	-11.6847
▁Katrina	-11.6847
▁dissemble	-11.6847
▁niece	-11.6847
▁shameful	-11.6847
▁Blind	-11.6857
▁Upper	-11.686
▁lively	-11.6864
▁overtake	-11.6864
▁abandon	-11.6871
▁bidding	-11.6871
▁Barton	-11.6874
▁Supporters	-11.6874
▁fossil	-11.6874
▁horrified	-11.6884
▁outspoken	-11.6884
▁alfresco	-11.6887
▁uncertainty	-11.6887
▁priced	-11.6901
▁inevitable	-11.6908
▁predecessor	-11.6908
▁wedge	-11.6911
▁Dutchman	-11.6914
▁awe	-11.6914
▁prostitutes	-11.6914
▁prototype	-11.6914
▁Medal	-11.6921
▁completing	-11.6921
▁Economic	-11.6928
▁Lindsey	-11.6928
▁Political	-11.6928
▁Storm	-11.6928
▁formula	-11.6928
▁mandate	-11.6928
▁greeted	-11.6931
▁Newark	-11.6935
▁courthouse	-11.6935
▁disorders	-11.6935
▁1975	-11.6941
▁Westwood	-11.6941
▁shootout	-11.6941
▁speedy	-11.6941
▁Marks	-11.6948
▁Robbie	-11.6948
▁focusing	-11.6951
▁pickup	-11.6955
▁processing	-11.6955
▁quetch	-11.6955
▁recordings	-11.6955
▁layers	-11.6958
▁Matthews	-11.6962
▁Questions	-11.6962
▁isnt	-11.6962
▁cheating	-11.6965
▁Aleppo	-11.6975
▁Martha	-11.6975
▁ambition	-11.6979
▁attendant	-11.6979
▁Malala	-11.6982
▁contributions	-11.6982
▁heroic	-11.6989
▁opted	-11.6989
▁skinny	-11.6989
▁titled	-11.6992
▁McConnell	-11.6996
▁elevator	-11.6996
▁preparations	-11.6996
▁rebuild	-11.6999
▁Hoffman	-11.7002
▁Shaun	-11.7002
▁glow	-11.7006
▁holder	-11.7009
▁inspect	-11.7009
▁negociate	-11.7009
▁committing	-11.7013
▁Denise	-11.7016
▁Muller	-11.7016
▁Representatives	-11.7016
▁cocktail	-11.7016
▁untimely	-11.7016
▁conventional	-11.7019
▁processes	-11.7019
▁Actor	-11.7023
▁Brothers	-11.7023
▁forum	-11.7023
▁handing	-11.7023
▁seizure	-11.7023
▁farming	-11.7026
▁Shannon	-11.703
▁Windows	-11.703
▁chased	-11.703
▁distant	-11.7033
▁1964	-11.7037
▁allowance	-11.7037
▁tournaments	-11.7043
▁vomiting	-11.7047
▁Whatever	-11.705
▁Wozniacki	-11.705
▁Liu	-11.7057
▁crops	-11.7057
▁Beatles	-11.7064
▁Strauss	-11.7064
▁tycoon	-11.7064
▁Junior	-11.7067
▁justly	-11.7067
▁smooth	-11.7067
▁bespeak	-11.7074
▁Alexandra	-11.7078
▁brawl	-11.7078
▁hearted	-11.7078
▁deem	-11.7081
▁experiencing	-11.7081
▁miscarry	-11.7081
▁steer	-11.7081
▁Newtown	-11.7084
▁forestall	-11.7084
▁purchases	-11.7088
▁CPR	-11.7091
▁deployment	-11.7091
▁perception	-11.7091
▁wears	-11.7095
▁Morsy	-11.7105
▁bra	-11.7105
▁dolphins	-11.7105
▁elementary	-11.7105
▁paperwork	-11.7105
▁powerfully	-11.7108
▁sovereign	-11.7108
▁Xbox	-11.7112
▁aerial	-11.7112
▁bases	-11.7112
▁prosecuted	-11.7112
▁recalls	-11.7112
▁solicitor	-11.7112
▁Fish	-11.7115
▁Current	-11.7119
▁Giroud	-11.7119
▁Scot	-11.7119
▁Uganda	-11.7119
▁mounted	-11.7119
▁approaches	-11.7122
▁Lyon	-11.7126
▁confirmation	-11.7126
▁reclaim	-11.7129
▁Cyprus	-11.7133
▁Lincolnshire	-11.7133
▁Poyet	-11.7133
▁Trayvon	-11.7133
▁Help	-11.7136
▁slot	-11.7136
▁Arts	-11.714
▁Jorge	-11.714
▁submarine	-11.714
▁honored	-11.7143
▁gaming	-11.715
▁convoy	-11.7153
▁counties	-11.7153
▁distressing	-11.7153
▁patch	-11.7157
▁skilful	-11.7157
▁chart	-11.716
▁juvenile	-11.716
▁voter	-11.716
▁Athletic	-11.7167
▁Norwegian	-11.7167
▁raided	-11.7167
▁tolerance	-11.7167
▁sponsors	-11.7171
▁Iron	-11.7174
▁Lisbon	-11.7174
▁Nature	-11.7174
▁chronic	-11.7174
▁motorway	-11.7174
▁primitively	-11.7174
▁seekers	-11.7174
▁shall	-11.7174
▁tempt	-11.7174
▁queue	-11.7178
▁grocery	-11.7181
▁intensity	-11.7181
▁lingerie	-11.7181
▁stint	-11.7181
▁McCartney	-11.7188
▁Z	-11.7188
▁enjoys	-11.7188
▁exams	-11.7188
▁forthcoming	-11.7191
▁hats	-11.7195
▁Carson	-11.7202
▁suitcase	-11.7202
▁Review	-11.7209
▁lanes	-11.7209
▁requirement	-11.7209
▁zones	-11.7209
▁Policy	-11.7216
▁Veterans	-11.7216
▁batteries	-11.7216
▁demonstrated	-11.7216
▁reprehensible	-11.7219
▁span	-11.7219
▁sponsor	-11.7219
▁unscathed	-11.7219
▁migration	-11.7223
▁Natural	-11.7226
▁cow	-11.7226
▁sends	-11.7226
▁1973	-11.723
▁Asda	-11.723
▁Bear	-11.723
▁legislative	-11.723
▁reckless	-11.723
▁safer	-11.723
▁Attack	-11.7237
▁Broadway	-11.7237
▁Isle	-11.7237
▁Netflix	-11.7237
▁grid	-11.7237
▁pigs	-11.7237
▁sore	-11.7244
▁wardrobe	-11.7244
▁bay	-11.7251
▁lifting	-11.7254
▁stepping	-11.7254
▁Budget	-11.7258
▁Jolie	-11.7258
▁Pierre	-11.7258
▁ok	-11.7261
▁Clifford	-11.7264
▁Dick	-11.7264
▁Ruth	-11.7264
▁bombers	-11.7264
▁efficaciously	-11.7264
▁midway	-11.7264
▁parachute	-11.7268
▁pressed	-11.7268
▁credibility	-11.7271
▁comprehend	-11.7275
▁pairs	-11.7275
▁unfortunately	-11.7275
▁Bird	-11.7278
▁Hagel	-11.7278
▁handicapped	-11.7278
▁Tests	-11.7282
▁Karzai	-11.7285
▁Rivera	-11.7285
▁Burns	-11.7289
▁Dark	-11.7292
▁evolution	-11.7292
▁helpful	-11.7292
▁rifles	-11.7292
▁cubs	-11.7296
▁junk	-11.7296
▁playground	-11.7299
▁boycott	-11.7307
▁distraught	-11.7307
▁minors	-11.7307
▁Laurent	-11.7314
▁Porter	-11.7314
▁Upton	-11.7314
▁wherever	-11.7314
▁fateful	-11.7317
▁meets	-11.7317
▁standardized	-11.7317
▁understandably	-11.7317
▁Fiona	-11.7321
▁Leo	-11.7321
▁arena	-11.7328
▁flagship	-11.7328
▁revive	-11.7328
▁humiliated	-11.7331
▁worries	-11.7331
▁psychologist	-11.7335
▁villagers	-11.7335
▁assisted	-11.7338
▁Boyd	-11.7342
▁Someone	-11.7342
▁Statistics	-11.7342
▁Twenty	-11.7342
▁attach	-11.7342
▁adorable	-11.7345
▁arson	-11.7349
▁shapes	-11.7349
▁matrimonial	-11.7352
▁situated	-11.7352
▁1967	-11.7356
▁Eventually	-11.7356
▁Hussain	-11.7356
▁consultation	-11.7356
▁manoeuver	-11.7356
▁superb	-11.7359
▁Governments	-11.7363
▁salon	-11.7363
▁mesh	-11.7366
▁Gardens	-11.737
▁freak	-11.737
▁lyrics	-11.737
▁yoga	-11.737
▁sanction	-11.7373
▁staged	-11.7373
▁Chester	-11.7377
▁Does	-11.7377
▁Monroe	-11.7377
▁pinch	-11.7377
▁podium	-11.7377
▁Asiatic	-11.738
▁kicks	-11.7384
▁haired	-11.7388
▁Aberdeen	-11.7391
▁Marcus	-11.7391
▁minus	-11.7391
▁collaboration	-11.7398
▁diplomats	-11.7398
▁prepares	-11.7398
▁rivers	-11.7398
▁wallet	-11.7398
▁Gea	-11.7405
▁Glen	-11.7405
▁economies	-11.7405
▁Debbie	-11.7412
▁Lieutenant	-11.7412
▁Yemeni	-11.7412
▁beg	-11.7412
▁eject	-11.7412
▁explicit	-11.7416
▁Play	-11.7419
▁Ralph	-11.7419
▁nerves	-11.7419
▁Could	-11.7427
▁Regional	-11.7427
▁identities	-11.7427
▁rhetoric	-11.7427
▁GM	-11.7434
▁Barkley	-11.7441
▁litter	-11.7441
▁concede	-11.7444
▁irregular	-11.7444
▁Brett	-11.7448
▁Schalke	-11.7448
▁blogger	-11.7448
▁monitored	-11.7448
▁unhurt	-11.7448
▁aviate	-11.7451
▁hung	-11.7451
▁unanimous	-11.7451
▁Nazis	-11.7455
▁Tina	-11.7455
▁choosing	-11.7459
▁implants	-11.7459
▁tropical	-11.7459
▁Southwest	-11.7462
▁flies	-11.7462
▁Taking	-11.7466
▁peach	-11.7466
▁bikini	-11.7469
▁containers	-11.7469
▁gravely	-11.7469
▁toilets	-11.7469
▁upside	-11.7469
▁outrageous	-11.7473
▁shuttle	-11.7473
▁Briton	-11.7476
▁Crimea	-11.7476
▁Ipswich	-11.7476
▁Salmond	-11.7476
▁hatred	-11.7476
▁negligence	-11.7476
▁pinkish	-11.7484
▁sadness	-11.7484
▁southeast	-11.7484
▁install	-11.7487
▁Puerto	-11.7491
▁seas	-11.7491
▁trainers	-11.7491
▁consistently	-11.7494
▁Zara	-11.7498
▁interact	-11.7498
▁litre	-11.7498
▁minorities	-11.7498
▁index	-11.7501
▁rented	-11.7501
▁Balls	-11.7505
▁diminish	-11.7505
▁responsibilities	-11.7505
▁faithful	-11.7509
▁Commander	-11.7512
▁failures	-11.7512
▁genocide	-11.7512
▁rover	-11.7512
▁unspoilt	-11.7512
▁estimable	-11.7516
▁lam	-11.7516
▁1971	-11.7526
▁Inn	-11.7526
▁nuts	-11.7526
▁relish	-11.7526
▁sanctuary	-11.7526
▁Nike	-11.7534
▁hockey	-11.7534
▁mails	-11.7534
▁nanny	-11.7534
▁Cambodia	-11.7541
▁Goals	-11.7541
▁convenience	-11.7541
▁scram	-11.7541
▁Overall	-11.7548
▁fag	-11.7548
▁neighbourhood	-11.7548
▁physician	-11.7548
▁salutary	-11.7548
▁savage	-11.7548
▁languages	-11.7555
▁maximal	-11.7555
▁provider	-11.7555
▁rental	-11.7555
▁strikers	-11.7555
▁texting	-11.7555
▁uprising	-11.7555
▁adapt	-11.7559
▁laboratory	-11.7562
▁sweeping	-11.7562
▁transparency	-11.7562
▁delete	-11.7566
▁restraining	-11.7566
▁reviewed	-11.7566
▁Morocco	-11.757
▁Vogue	-11.757
▁rides	-11.7573
▁sailors	-11.7577
▁fool	-11.758
▁wield	-11.758
▁240	-11.7584
▁Mountains	-11.7584
▁dealers	-11.7584
▁reconstruct	-11.7584
▁reacted	-11.7588
▁Culture	-11.7591
▁writers	-11.7591
▁CLICK	-11.7595
▁Toni	-11.7598
▁pad	-11.7602
▁Finally	-11.7606
▁footsteps	-11.7606
▁signatures	-11.7606
▁Race	-11.7609
▁understands	-11.7609
▁Tigers	-11.7613
▁trophies	-11.7613
▁Didier	-11.762
▁adverts	-11.762
▁surmise	-11.762
▁650	-11.7627
▁Kasem	-11.7627
▁Cruise	-11.7635
▁Ellen	-11.7635
▁MH17	-11.7635
▁Weiner	-11.7635
▁destructive	-11.7635
▁oversee	-11.7635
▁seldom	-11.7635
▁unrelated	-11.7635
▁aggress	-11.7638
▁Fifty	-11.7642
▁disgrace	-11.7642
▁ethics	-11.7642
▁supervisor	-11.7642
▁surf	-11.7642
▁whoever	-11.7642
▁unspoiled	-11.7646
▁Memphis	-11.7649
▁Newport	-11.7649
▁bullied	-11.7653
▁cleaner	-11.7653
▁judicial	-11.7653
▁Common	-11.7656
▁anticipated	-11.7656
▁holders	-11.7656
▁prospects	-11.7656
▁Ground	-11.766
▁clips	-11.766
▁modified	-11.766
▁Fi	-11.7664
▁Hey	-11.7671
▁Drive	-11.7675
▁reaches	-11.7675
▁Lebanese	-11.7678
▁grapple	-11.7678
▁interchangeable	-11.7682
▁Falls	-11.7686
▁Payne	-11.7686
▁hazard	-11.7686
▁motorbike	-11.7686
▁regrets	-11.7686
▁Ahmadinejad	-11.7693
▁Algeria	-11.7693
▁Tracey	-11.7693
▁fraternity	-11.7693
▁manhunt	-11.7693
▁tumble	-11.7696
▁Alberto	-11.77
▁Farrell	-11.77
▁Leigh	-11.77
▁Leonardo	-11.77
▁seeds	-11.77
▁rive	-11.7704
▁vacate	-11.7704
▁blasted	-11.7707
▁gloss	-11.7707
▁ambitious	-11.7711
▁hacked	-11.7711
▁timed	-11.7711
▁1966	-11.7715
▁depending	-11.7715
▁incorrect	-11.7718
▁script	-11.7718
▁Honduras	-11.7722
▁Lawyers	-11.7722
▁Library	-11.7722
▁Market	-11.7722
▁kilometres	-11.7722
▁occupied	-11.7726
▁troubles	-11.7726
▁Brewer	-11.7729
▁Myers	-11.7729
▁repairs	-11.7729
▁psychiatric	-11.7733
▁Raul	-11.7737
▁Tech	-11.7737
▁believing	-11.7737
▁meliorate	-11.774
▁ATP	-11.7744
▁Tunisia	-11.7744
▁activate	-11.7744
▁themed	-11.7744
▁console	-11.7748
▁collections	-11.7751
▁instruments	-11.7755
▁Crawford	-11.7759
▁Mack	-11.7759
▁corrode	-11.7759
▁banning	-11.7762
▁Athens	-11.7766
▁Gomez	-11.7766
▁Labours	-11.7766
▁contacts	-11.7766
▁salaries	-11.7766
▁Ana	-11.7773
▁Cable	-11.7773
▁Horse	-11.7773
▁Mall	-11.7773
▁Tyson	-11.7773
▁specialists	-11.7773
▁bits	-11.7777
▁Burgess	-11.7781
▁Daisy	-11.7781
▁Gloucester	-11.7781
▁Hood	-11.7781
▁honeymoon	-11.7781
▁intentions	-11.7781
▁invitation	-11.7781
▁lessen	-11.7784
▁Clarkson	-11.7788
▁Petraeus	-11.7788
▁Xi	-11.7788
▁commuters	-11.7788
▁cottage	-11.7788
▁drops	-11.7788
▁enclosure	-11.7788
▁skeleton	-11.7788
▁swap	-11.7792
▁Uber	-11.7795
▁warehouse	-11.7799
▁Goldman	-11.7803
▁architecture	-11.7803
▁knot	-11.7803
▁nicknamed	-11.7803
▁contaminated	-11.7807
▁Newman	-11.781
▁lied	-11.781
▁reflection	-11.781
▁significance	-11.781
▁insert	-11.7814
▁insult	-11.7814
▁attitudes	-11.7818
▁hardest	-11.7821
▁prostitute	-11.7821
▁achievements	-11.7825
▁Jade	-11.7829
▁desolate	-11.7829
▁Early	-11.7832
▁mixture	-11.7832
▁cried	-11.7836
▁Mia	-11.784
▁appalling	-11.784
▁lounge	-11.784
▁spoiled	-11.784
▁undecomposed	-11.784
▁Doug	-11.7847
▁bleed	-11.7847
▁verbal	-11.7847
▁ameliorate	-11.7851
▁Lukaku	-11.7855
▁sculpture	-11.7855
▁speeches	-11.7855
▁bans	-11.7858
▁Q	-11.7862
▁insider	-11.7862
▁collective	-11.7866
▁drown	-11.7866
▁seeable	-11.7866
▁Dead	-11.7869
▁Sherwood	-11.7869
▁bearing	-11.7873
▁grace	-11.7873
▁lawfully	-11.7873
▁Lowe	-11.7877
▁Luther	-11.7877
▁appointments	-11.7884
▁backpack	-11.7884
▁critic	-11.7884
▁productive	-11.7884
▁references	-11.7884
▁sunglasses	-11.7884
▁transit	-11.7884
▁harbor	-11.7888
▁Canterbury	-11.7892
▁Holy	-11.7892
▁USS	-11.7892
▁pains	-11.7892
▁theories	-11.7892
▁transcript	-11.7892
▁Belfast	-11.7899
▁Florence	-11.7899
▁Kay	-11.7899
▁Serbian	-11.7899
▁pageant	-11.7899
▁bubble	-11.7903
▁staring	-11.7903
▁System	-11.7907
▁bout	-11.7907
▁fundraiser	-11.7907
▁cognizant	-11.791
▁destitute	-11.791
▁pensions	-11.791
▁Gerard	-11.7914
▁abbreviated	-11.7914
▁savor	-11.7914
▁export	-11.7925
▁heed	-11.7925
▁drunken	-11.7929
▁Walters	-11.7936
▁Wi	-11.7936
▁fertility	-11.7936
▁profession	-11.7936
▁Barrett	-11.7944
▁astronaut	-11.7944
▁fabric	-11.7944
▁garbage	-11.7944
▁glamorous	-11.7944
▁guitar	-11.7944
▁Program	-11.7948
▁111	-11.7951
▁1945	-11.7951
▁Quinn	-11.7951
▁agony	-11.7951
▁circles	-11.7951
▁expanded	-11.7951
▁passports	-11.7951
▁poured	-11.7951
▁Brand	-11.7955
▁Ltd	-11.7959
▁Parkinson	-11.7959
▁Tonight	-11.7959
▁belly	-11.7959
▁biting	-11.7959
▁doubles	-11.7959
▁footed	-11.7959
▁hormone	-11.7959
▁respiratory	-11.7959
▁Bosnia	-11.7966
▁Chad	-11.7966
▁Holloway	-11.7966
▁Madonna	-11.7966
▁Nation	-11.7966
▁Pablo	-11.7966
▁contestants	-11.7966
▁curve	-11.7966
▁diplomat	-11.7966
▁disappoint	-11.7966
▁registration	-11.7966
▁heel	-11.797
▁Kathleen	-11.7974
▁Klein	-11.7974
▁categories	-11.7974
▁boards	-11.7978
▁sauce	-11.7978
▁Kids	-11.7981
▁endorse	-11.7981
▁gauge	-11.7981
▁lesbian	-11.7981
▁notified	-11.7981
▁segment	-11.7981
▁Barker	-11.7989
▁abuses	-11.7989
▁lump	-11.7989
▁vow	-11.7989
▁AFP	-11.7996
▁Far	-11.7996
▁Randy	-11.7996
▁XI	-11.7996
▁functions	-11.7996
▁jeopardize	-11.7996
▁jewelry	-11.7996
▁neighbouring	-11.7996
▁crude	-11.8
▁declamatory	-11.8004
▁portraits	-11.8004
▁resolved	-11.8004
▁cede	-11.8008
▁smuggle	-11.8008
▁Derbyshire	-11.8011
▁jihadist	-11.8011
▁predators	-11.8011
▁separation	-11.8011
▁speakers	-11.8011
▁cute	-11.8019
▁habitat	-11.8019
▁memo	-11.8019
▁mightily	-11.8019
▁neighborhoods	-11.8019
▁Reserve	-11.8023
▁sights	-11.8023
▁Wilfried	-11.8027
▁autonomous	-11.8027
▁graves	-11.8027
▁jihadists	-11.8027
▁behindhand	-11.803
▁cognisant	-11.803
▁Dream	-11.8034
▁Whitney	-11.8034
▁bathrooms	-11.8034
▁engaging	-11.8034
▁obsessed	-11.8034
▁sake	-11.8034
▁schoolboy	-11.8034
▁robust	-11.8038
▁graffiti	-11.8042
▁illustrious	-11.8042
▁mechanical	-11.8042
▁Erin	-11.8049
▁instances	-11.8049
▁slave	-11.8049
▁surroundings	-11.8049
▁Sanders	-11.8057
▁components	-11.8057
▁disposal	-11.8057
▁maths	-11.8057
▁germinate	-11.8061
▁performers	-11.8064
▁tribe	-11.8064
▁assured	-11.8068
▁channelise	-11.8068
▁conflicts	-11.8068
▁standardised	-11.8068
▁bombastic	-11.8072
▁channelize	-11.8072
▁representation	-11.8072
▁plunged	-11.8076
▁Cumbria	-11.808
▁hunky	-11.8083
▁healing	-11.8087
▁inclusive	-11.8087
▁tricks	-11.8087
▁Mass	-11.8091
▁laundering	-11.8091
▁Millions	-11.8095
▁palm	-11.8095
▁schemes	-11.8095
▁fraction	-11.8098
▁laughed	-11.8098
▁steep	-11.8098
▁Salvador	-11.8102
▁cows	-11.8102
▁vodka	-11.8102
▁documented	-11.8106
▁snatch	-11.8106
▁triple	-11.8106
▁blocking	-11.811
▁flex	-11.8114
▁Mac	-11.8117
▁Moreno	-11.8117
▁Rupert	-11.8117
▁blasts	-11.8121
▁dual	-11.8121
▁pitiful	-11.8121
▁quell	-11.8121
▁alternate	-11.8129
▁shallow	-11.8129
▁Environmental	-11.8133
▁journalism	-11.8133
▁voluntarily	-11.8133
▁mouse	-11.8137
▁Order	-11.814
▁editorial	-11.814
▁instrument	-11.814
▁theyre	-11.814
▁transform	-11.814
▁concur	-11.8144
▁Oxlade	-11.8148
▁outraged	-11.8148
▁Due	-11.8152
▁fiddling	-11.8152
▁streaming	-11.8152
▁Bernabeu	-11.8156
▁Bronx	-11.8156
▁Charlton	-11.8156
▁Downton	-11.8156
▁addict	-11.8156
▁exchanges	-11.8159
▁Congressional	-11.8163
▁Hansen	-11.8163
▁Indianapolis	-11.8163
▁labels	-11.8163
▁Skype	-11.8171
▁astir	-11.8171
▁heartbroken	-11.8171
▁placing	-11.8171
▁rains	-11.8171
▁realistic	-11.8171
▁evaluate	-11.8175
▁scarper	-11.8175
▁underage	-11.8175
▁Hot	-11.8179
▁Television	-11.8179
▁blistering	-11.8179
▁heal	-11.8179
▁nonprofit	-11.8182
▁Baldwin	-11.8186
▁Dixon	-11.8186
▁Kompany	-11.8186
▁carriage	-11.8186
▁experiments	-11.8186
▁explode	-11.8186
▁homosexuality	-11.8186
▁lawful	-11.8186
▁organisers	-11.8186
▁ritual	-11.8186
▁redeem	-11.819
▁burger	-11.8194
▁compatriot	-11.8194
▁strive	-11.8198
▁Enforcement	-11.8202
▁Phelps	-11.8202
▁Premiership	-11.8202
▁dolls	-11.8202
▁dump	-11.8202
▁Albion	-11.8209
▁Dominic	-11.8209
▁Photos	-11.8209
▁clay	-11.8209
▁doping	-11.8209
▁lawsuits	-11.8209
▁mourners	-11.8209
▁Nice	-11.8213
▁tumid	-11.8213
▁footballers	-11.8217
▁investments	-11.8217
▁juice	-11.8217
▁philosophy	-11.8217
▁handcuffs	-11.8221
▁AP	-11.8225
▁fragile	-11.8225
▁frightening	-11.8225
▁polling	-11.8228
▁slice	-11.8228
▁groin	-11.8232
▁con	-11.8236
▁decree	-11.8236
▁drowned	-11.8236
▁Actress	-11.824
▁Fabio	-11.824
▁Islamabad	-11.824
▁tortured	-11.824
▁Sharp	-11.8244
▁bargain	-11.8244
▁ensuring	-11.8244
▁sums	-11.8244
▁Mackay	-11.8248
▁Mid	-11.8248
▁evaluation	-11.8248
▁mild	-11.8252
▁savour	-11.8252
▁sensible	-11.8252
▁Dogs	-11.8255
▁Goodman	-11.8255
▁golfer	-11.8255
▁provision	-11.8255
▁tow	-11.8255
▁Sevilla	-11.8263
▁cans	-11.8263
▁snakes	-11.8263
▁Getting	-11.8267
▁felonious	-11.8267
▁steam	-11.8267
▁Carr	-11.8271
▁Cincinnati	-11.8271
▁gadget	-11.8271
▁turgid	-11.8275
▁Observatory	-11.8279
▁bowel	-11.8279
▁decorated	-11.8279
▁labelled	-11.8279
▁motorist	-11.8279
▁plough	-11.8282
▁prostate	-11.8282
▁Gus	-11.8286
▁Judy	-11.8286
▁Subs	-11.8286
▁advertise	-11.8286
▁cautiously	-11.8286
▁favored	-11.829
▁Blood	-11.8294
▁Darwin	-11.8294
▁Ricky	-11.8294
▁Sinclair	-11.8294
▁greet	-11.8294
▁sided	-11.8294
▁bankrupt	-11.8302
▁dynamic	-11.8302
▁refusal	-11.8302
▁shield	-11.8302
▁sidelines	-11.8302
▁withstand	-11.8302
▁absorb	-11.8306
▁defective	-11.8306
▁graduated	-11.8306
▁Columbus	-11.831
▁boundaries	-11.831
▁courtesy	-11.831
▁respondents	-11.831
▁shelters	-11.831
▁venues	-11.831
▁occurs	-11.8313
▁instant	-11.8321
▁repel	-11.8321
▁Fellow	-11.8325
▁Rojo	-11.8325
▁Temple	-11.8325
▁exchangeable	-11.8329
▁Watkins	-11.8333
▁cartels	-11.8333
▁credited	-11.8333
▁diplomatical	-11.8333
▁Mini	-11.8341
▁eruption	-11.8341
▁margin	-11.8341
▁vacuum	-11.8345
▁Peters	-11.8348
▁judgement	-11.8348
▁jungle	-11.8348
▁slaying	-11.8348
▁stays	-11.8348
▁Too	-11.8356
▁accumulate	-11.8356
▁matched	-11.8356
▁Consumer	-11.8364
▁Cups	-11.8364
▁exploration	-11.8364
▁nasty	-11.8364
▁vets	-11.8364
▁whip	-11.8364
▁Bony	-11.8368
▁condemnable	-11.8368
▁Customers	-11.8372
▁Third	-11.8372
▁noting	-11.8372
▁Pearce	-11.838
▁devoid	-11.8384
▁restrict	-11.8384
▁weird	-11.8384
▁Organisation	-11.8387
▁Salford	-11.8387
▁freely	-11.8387
▁aggression	-11.8395
▁jeopardise	-11.8399
▁spells	-11.8399
▁Camilla	-11.8403
▁Theatre	-11.8403
▁lawn	-11.8403
▁mandatory	-11.8403
▁foregather	-11.8407
▁liberate	-11.8407
▁wrench	-11.8407
▁Noah	-11.8411
▁daylight	-11.8411
▁dioxide	-11.8411
▁unsound	-11.8411
▁wrongly	-11.8411
▁dory	-11.8415
▁jade	-11.8415
▁originative	-11.8415
▁Audi	-11.8419
▁Details	-11.8419
▁Monis	-11.8419
▁Never	-11.8419
▁Olivier	-11.8419
▁affordable	-11.8419
▁fog	-11.8419
▁mobility	-11.8419
▁quiz	-11.8419
▁Car	-11.8427
▁brutally	-11.8427
▁graduation	-11.8427
▁hid	-11.8427
▁fond	-11.8431
▁Branson	-11.8434
▁Brooke	-11.8434
▁Bruno	-11.8434
▁Owner	-11.8434
▁Venus	-11.8434
▁Less	-11.8442
▁WASHINGTON	-11.8442
▁suppliers	-11.8442
▁swimmer	-11.8442
▁tattle	-11.8446
▁Fellaini	-11.845
▁Gibbs	-11.845
▁banker	-11.845
▁chatter	-11.845
▁embark	-11.845
▁forgather	-11.8454
▁Watts	-11.8458
▁rejoin	-11.8458
▁heating	-11.8462
▁Heroes	-11.8466
▁Mosul	-11.8466
▁Syndrome	-11.8466
▁notion	-11.8466
▁robbed	-11.8466
▁recoup	-11.847
▁swelling	-11.847
▁Carey	-11.8474
▁Il	-11.8474
▁makeshift	-11.8474
▁onlookers	-11.8474
▁displaced	-11.8478
▁filling	-11.8478
▁slew	-11.8478
▁Betty	-11.8482
▁MH370	-11.8482
▁industries	-11.8482
▁offenses	-11.8482
▁scat	-11.8482
▁bask	-11.8486
▁spicy	-11.8486
▁Mahmoud	-11.849
▁Ramirez	-11.849
▁Cheney	-11.8498
▁Living	-11.8498
▁unfreeze	-11.8498
▁worthy	-11.8501
▁Flores	-11.8505
▁bulk	-11.8505
▁exploitation	-11.8505
▁horrendous	-11.8505
▁locks	-11.8505
▁perceived	-11.8505
▁rainfall	-11.8505
▁inflicted	-11.8509
▁rationalise	-11.8509
▁surrogate	-11.8513
▁calorie	-11.8517
▁scar	-11.8517
▁Gun	-11.8521
▁Morales	-11.8521
▁fury	-11.8521
▁screams	-11.8521
▁Racing	-11.8525
▁acquitted	-11.8525
▁veridical	-11.8525
▁Camerons	-11.8529
▁Fame	-11.8529
▁anxious	-11.8529
▁humour	-11.8529
▁possessing	-11.8533
▁Parish	-11.8537
▁babble	-11.8537
▁transformation	-11.8537
▁punching	-11.8541
▁seeks	-11.8541
▁Stones	-11.8545
▁holidaymakers	-11.8545
▁versus	-11.8545
▁worsen	-11.8545
▁policing	-11.8549
▁renewed	-11.8549
▁preclude	-11.8553
▁veto	-11.8557
▁contempt	-11.8561
▁laughter	-11.8561
▁meth	-11.8561
▁proudly	-11.8561
▁deported	-11.8565
▁interrupt	-11.8565
▁jibe	-11.8565
▁niggling	-11.8565
▁Prosecution	-11.8569
▁publisher	-11.8569
▁alight	-11.8573
▁flame	-11.8573
▁rang	-11.8573
▁Lego	-11.8577
▁Winfrey	-11.8577
▁ominous	-11.8577
▁slogan	-11.8577
▁cart	-11.8581
▁evacuate	-11.8581
▁Benzema	-11.8585
▁Cyrus	-11.8585
▁Images	-11.8585
▁Kirk	-11.8585
▁Neal	-11.8585
▁Violence	-11.8585
▁intruder	-11.8585
▁Hardy	-11.8593
▁congressman	-11.8593
▁pleas	-11.8593
▁Bentley	-11.8601
▁barrel	-11.8605
▁cooperate	-11.8605
▁speculative	-11.8605
▁stray	-11.8605
▁Minutes	-11.8609
▁PUBLISHED	-11.8609
▁Saunders	-11.8609
▁capability	-11.8609
▁checkpoint	-11.8609
▁cull	-11.8609
▁electoral	-11.8609
▁lapse	-11.8609
▁musicians	-11.8609
▁pursuing	-11.8609
▁secondary	-11.8613
▁Medicare	-11.8617
▁Vermont	-11.8617
▁administrator	-11.8617
▁criteria	-11.8617
▁fashioned	-11.8617
▁receipt	-11.8617
▁publishing	-11.8621
▁Batman	-11.8625
▁Sr	-11.8625
▁seizures	-11.8625
▁gainsay	-11.8629
▁relax	-11.8629
▁Leonard	-11.8633
▁Shah	-11.8633
▁Vancouver	-11.8633
▁militia	-11.8633
▁rapist	-11.8633
▁tragically	-11.8633
▁u	-11.8633
▁un	-11.8633
▁unjust	-11.8633
▁Argentinian	-11.8637
▁capsule	-11.8637
▁Jamaica	-11.8641
▁Theres	-11.8641
▁Visitors	-11.8641
▁nonsense	-11.8641
▁Referee	-11.8649
▁intake	-11.8649
▁220	-11.8657
▁WikiLeaks	-11.8657
▁consuming	-11.8657
▁diary	-11.8657
▁lava	-11.8657
▁charts	-11.8665
▁gallant	-11.8665
▁mourning	-11.8665
▁recipe	-11.8665
▁accidental	-11.8669
▁offending	-11.8669
▁Story	-11.8673
▁Teresa	-11.8673
▁axe	-11.8673
▁carer	-11.8673
▁disabilities	-11.8673
▁sensor	-11.8673
▁chilling	-11.8677
▁draws	-11.8677
▁quarantine	-11.8677
▁Born	-11.8681
▁aggregate	-11.8681
▁orientation	-11.8681
▁strapped	-11.8681
▁talents	-11.8681
▁clerk	-11.8685
▁reflects	-11.8685
▁sells	-11.8685
▁withdrawn	-11.8685
▁Hezbollah	-11.8689
▁adolescent	-11.8689
▁presentation	-11.8689
▁satisfaction	-11.8689
▁sickness	-11.8689
▁blab	-11.8693
▁injuring	-11.8693
▁Southwark	-11.8697
▁median	-11.8701
▁adjunct	-11.8705
▁airspace	-11.8705
▁applause	-11.8705
▁trunk	-11.8705
▁drilling	-11.8709
▁senesce	-11.8713
▁voyage	-11.8713
▁Joy	-11.8721
▁ashes	-11.8721
▁hoax	-11.8721
▁overhead	-11.8721
▁pneumonia	-11.8721
▁Venezuelan	-11.8729
▁bikes	-11.8729
▁distributed	-11.8729
▁hunters	-11.8729
▁pays	-11.8729
▁priorities	-11.8729
▁deform	-11.8733
▁indicates	-11.8733
▁pepper	-11.8733
▁volley	-11.8733
▁Holiday	-11.8738
▁descent	-11.8738
▁detection	-11.8738
▁grenade	-11.8738
▁qualities	-11.8738
▁seaside	-11.8738
▁utility	-11.8738
▁operative	-11.8742
▁secretive	-11.8742
▁strategic	-11.8742
▁Lanza	-11.8746
▁electronics	-11.8746
▁towers	-11.8746
▁turkey	-11.8746
▁kibosh	-11.875
▁Ryanair	-11.8754
▁fixtures	-11.8754
▁handsome	-11.8758
▁stuffed	-11.8762
▁unbeaten	-11.8762
▁elder	-11.8766
▁Desert	-11.877
▁Interstate	-11.877
▁hiring	-11.877
▁reasonably	-11.877
▁Rich	-11.8774
▁evidently	-11.8774
▁sharply	-11.8774
▁strongest	-11.8774
▁Michel	-11.8778
▁Seth	-11.8778
▁clinics	-11.8778
▁escorted	-11.8778
▁delegation	-11.8786
▁ing	-11.8786
▁analyse	-11.879
▁snowy	-11.879
▁Brook	-11.8794
▁Rickie	-11.8794
▁ensue	-11.8794
▁shattered	-11.8794
▁fundamentally	-11.8798
▁Courtois	-11.8803
▁Danielle	-11.8803
▁Gavin	-11.8803
▁contention	-11.8803
▁frequency	-11.8803
▁optimistic	-11.8803
▁villa	-11.8803
▁battered	-11.8807
▁Clare	-11.8811
▁appetite	-11.8811
▁monarch	-11.8811
▁sergeant	-11.8811
▁thread	-11.8811
▁punish	-11.8815
▁dancers	-11.8819
▁terrain	-11.8819
▁Ethan	-11.8827
▁Freddie	-11.8827
▁Leslie	-11.8827
▁debates	-11.8831
▁oz	-11.8831
▁richest	-11.8831
▁tunnels	-11.8831
▁Smart	-11.8835
▁darkness	-11.8835
▁deeper	-11.8835
▁fixing	-11.8835
▁maintains	-11.8835
▁sunlight	-11.8835
▁requiring	-11.8839
▁biography	-11.8843
▁pensioners	-11.8843
▁reunion	-11.8843
▁joins	-11.8847
▁calamitous	-11.8856
▁destruct	-11.8856
▁Clive	-11.886
▁Nairobi	-11.886
▁Sciences	-11.886
▁commanders	-11.886
▁proving	-11.886
▁Small	-11.8864
▁nationally	-11.8864
▁shin	-11.8864
▁esteem	-11.8868
▁internationally	-11.8868
▁mistress	-11.8868
▁piddling	-11.8868
▁Canberra	-11.8876
▁catwalk	-11.8876
▁headaches	-11.8876
▁Shepherd	-11.8884
▁complimentary	-11.8884
▁Official	-11.8888
▁Fowler	-11.8893
▁Hasan	-11.8893
▁reflected	-11.8893
▁surfaced	-11.8893
▁unity	-11.8893
▁foreground	-11.8901
▁echo	-11.8905
▁Cowell	-11.8909
▁Dominican	-11.8909
▁Johns	-11.8909
▁Nou	-11.8909
▁alliance	-11.8909
▁expedition	-11.8909
▁indoor	-11.8909
▁ton	-11.8909
▁slaughter	-11.8913
▁1920	-11.8917
▁Iain	-11.8917
▁Miguel	-11.8917
▁autobiography	-11.8917
▁outlet	-11.8917
▁responders	-11.8917
▁someplace	-11.8917
▁Drew	-11.8926
▁Freeman	-11.8926
▁Panama	-11.8926
▁contrary	-11.8926
▁picayune	-11.893
▁Johannesburg	-11.8934
▁launches	-11.8934
▁memoir	-11.8934
▁wireless	-11.8934
▁tempestuous	-11.8938
▁1965	-11.8942
▁Bulgaria	-11.8942
▁brink	-11.8942
▁gruesome	-11.8942
▁sexy	-11.8942
▁Future	-11.8946
▁exchanged	-11.8946
▁Vince	-11.895
▁globally	-11.895
▁regale	-11.895
▁distinctly	-11.8954
▁Nepal	-11.8959
▁blows	-11.8959
▁diamonds	-11.8959
▁enthusiasm	-11.8959
▁narrative	-11.8959
▁tier	-11.8959
▁Colonel	-11.8967
▁commentator	-11.8967
▁fortunate	-11.8967
▁h	-11.8967
▁105	-11.8971
▁elevate	-11.8971
▁foreclose	-11.8971
▁lining	-11.8971
▁wise	-11.8971
▁Whitehall	-11.8975
▁bids	-11.8975
▁declaration	-11.8975
▁boarded	-11.8979
▁Oxfordshire	-11.8983
▁advocacy	-11.8983
▁bridges	-11.8983
▁rant	-11.8983
▁sexuality	-11.8983
▁tougher	-11.8988
▁Abbas	-11.8992
▁NTSB	-11.8992
▁Patel	-11.8992
▁hoard	-11.8992
▁maternity	-11.8992
▁riposte	-11.8992
▁Dancing	-11.8996
▁chill	-11.8996
▁Mugabe	-11.9
▁Regiment	-11.9
▁Wilkinson	-11.9
▁everyplace	-11.9
▁extremism	-11.9
▁immunity	-11.9
▁incisively	-11.9
▁semifinal	-11.9
▁Reddit	-11.9008
▁au	-11.9008
▁barred	-11.9008
▁glamour	-11.9008
▁imagination	-11.9008
▁overturn	-11.9008
▁induced	-11.9013
▁organic	-11.9013
▁Store	-11.9017
▁expertise	-11.9017
▁fracture	-11.9017
▁lands	-11.9017
▁clever	-11.9021
▁fearful	-11.9021
▁footling	-11.9021
▁remand	-11.9021
▁administrators	-11.9025
▁misery	-11.9025
▁gaining	-11.9029
▁jab	-11.9029
▁reviewing	-11.9029
▁Baroness	-11.9033
▁Cpl	-11.9033
▁humor	-11.9033
▁lads	-11.9033
▁piano	-11.9033
▁sponsorship	-11.9033
▁vest	-11.9033
▁Eagles	-11.9042
▁Together	-11.9042
▁abdomen	-11.9042
▁incorrectly	-11.9042
▁spa	-11.9042
▁appease	-11.9046
▁115	-11.905
▁argues	-11.905
▁verify	-11.905
▁Semite	-11.9054
▁amass	-11.9058
▁disputes	-11.9058
▁stylish	-11.9063
▁260	-11.9067
▁Atkinson	-11.9067
▁Pitt	-11.9067
▁candy	-11.9067
▁denial	-11.9067
▁notably	-11.9067
▁stitches	-11.9067
▁asunder	-11.9071
▁bold	-11.9071
▁visual	-11.9071
▁Gill	-11.9075
▁Kahn	-11.9075
▁Saleh	-11.9075
▁qualification	-11.9075
▁replacing	-11.9075
▁stating	-11.9075
▁surplus	-11.9079
▁MLS	-11.9084
▁Porsche	-11.9084
▁canal	-11.9084
▁showdown	-11.9084
▁Hyde	-11.9092
▁Rovers	-11.9092
▁UKs	-11.9092
▁salad	-11.9092
▁spat	-11.9092
▁tearing	-11.9092
▁gibe	-11.9096
▁grabs	-11.9096
▁constituency	-11.91
▁performer	-11.91
▁stepfather	-11.91
▁mentor	-11.9104
▁bailout	-11.9109
▁drain	-11.9109
▁traces	-11.9109
▁whereas	-11.9109
▁entertain	-11.9113
▁exists	-11.9113
▁Oldham	-11.9117
▁Something	-11.9117
▁gadgets	-11.9117
▁meaningful	-11.9117
▁piffling	-11.9117
▁Come	-11.9121
▁captive	-11.9121
▁cautious	-11.9121
▁flick	-11.9121
▁styles	-11.9121
▁Emmanuel	-11.9126
▁collided	-11.9126
▁supplier	-11.9126
▁defeats	-11.913
▁till	-11.913
▁scars	-11.9134
▁violently	-11.9134
▁Elliott	-11.9142
▁Upon	-11.9142
▁Warning	-11.9142
▁shroud	-11.9142
▁treaty	-11.9142
▁restrained	-11.9147
▁Editor	-11.9151
▁abruptly	-11.9151
▁clause	-11.9151
▁columnist	-11.9151
▁saddened	-11.9151
▁anon	-11.9155
▁lucrative	-11.9155
▁sweat	-11.9155
▁unloosen	-11.9155
▁Hungary	-11.9159
▁awkward	-11.9159
▁nest	-11.9159
▁rationalize	-11.9163
▁Beauty	-11.9168
▁Erdogan	-11.9168
▁Patients	-11.9168
▁accessories	-11.9168
▁cyclists	-11.9168
▁Worth	-11.9172
▁balloons	-11.9172
▁crimson	-11.9172
▁Podolski	-11.9176
▁arrangement	-11.9176
▁cables	-11.9176
▁encounters	-11.9176
▁magnificent	-11.9176
▁outwear	-11.9176
▁icy	-11.918
▁revel	-11.918
▁Davidson	-11.9185
▁spectrum	-11.9185
▁unsure	-11.9185
▁Throughout	-11.9189
▁marvellous	-11.9189
▁undergone	-11.9189
▁Burger	-11.9193
▁Patterson	-11.9193
▁arguably	-11.9193
▁knocking	-11.9193
▁colorful	-11.9197
▁pie	-11.9197
▁1962	-11.9202
▁2022	-11.9202
▁Miley	-11.9202
▁Yale	-11.9202
▁Zhang	-11.9202
▁compassion	-11.9202
▁concisely	-11.9202
▁refuge	-11.9202
▁revert	-11.9202
▁Hammers	-11.921
▁Initially	-11.921
▁Theo	-11.921
▁amendment	-11.921
▁births	-11.921
▁interaction	-11.921
▁malicious	-11.921
▁weve	-11.921
▁1000	-11.9214
▁Abraham	-11.9219
▁Diaz	-11.9219
▁Doyle	-11.9219
▁Rhode	-11.9219
▁Rotherham	-11.9219
▁assembly	-11.9219
▁Brittany	-11.9227
▁Making	-11.9227
▁asthma	-11.9227
▁martial	-11.9227
▁afield	-11.9231
▁Buffalo	-11.9236
▁Plan	-11.9236
▁retort	-11.9236
▁regretful	-11.924
▁BC	-11.9244
▁Gay	-11.9244
▁loyalty	-11.9244
▁spoilt	-11.9244
▁Roll	-11.9248
▁collide	-11.9248
▁surprisingly	-11.9248
▁Controversial	-11.9253
▁Data	-11.9253
▁Frances	-11.9253
▁Stanford	-11.9253
▁accomplice	-11.9253
▁cling	-11.9253
▁nails	-11.9257
▁Evidence	-11.9261
▁districts	-11.9261
▁regulators	-11.9261
▁Miles	-11.927
▁appalled	-11.9274
▁consumed	-11.9274
▁drift	-11.9274
▁primed	-11.9274
▁CPS	-11.9278
▁Hamburg	-11.9278
▁factories	-11.9278
▁heavyweight	-11.9278
▁recommendation	-11.9278
▁turmoil	-11.9278
▁accessible	-11.9282
▁Kremlin	-11.9287
▁angel	-11.9287
▁dedication	-11.9287
▁default	-11.9287
▁exhort	-11.9287
▁scandals	-11.9287
▁drum	-11.9291
▁rash	-11.9291
▁unaccompanied	-11.9291
▁Baptist	-11.9295
▁Figures	-11.9295
▁Parks	-11.9295
▁Watford	-11.9295
▁expanding	-11.9295
▁surveyed	-11.93
▁Montreal	-11.9304
▁interrogation	-11.9304
▁Shortly	-11.9308
▁exceedingly	-11.9312
▁prints	-11.9317
▁Clay	-11.9321
▁Ecclestone	-11.9321
▁Joey	-11.9321
▁Nashville	-11.9321
▁commitments	-11.9321
▁hardware	-11.9321
▁replicate	-11.9321
▁sinister	-11.9321
▁banish	-11.9325
▁imprisoned	-11.9325
▁Currently	-11.933
▁articles	-11.933
▁bacon	-11.933
▁colourful	-11.933
▁entertaining	-11.933
▁obsession	-11.933
▁reserves	-11.933
▁Going	-11.9334
▁convincing	-11.9334
▁cue	-11.9334
▁deleted	-11.9334
▁Hotspur	-11.9338
▁lunar	-11.9338
▁Hospitals	-11.9347
▁Kroos	-11.9347
▁landlord	-11.9347
▁predominate	-11.9347
▁sightings	-11.9347
▁unblock	-11.9347
▁grades	-11.9351
▁imminent	-11.9351
▁pressures	-11.9351
▁rend	-11.9351
▁Casillas	-11.9355
▁Dani	-11.9355
▁blade	-11.9355
▁shifts	-11.9355
▁verge	-11.9355
▁patience	-11.9364
▁sunny	-11.9364
▁uncertain	-11.9364
▁wished	-11.9368
▁tenants	-11.9373
▁tuition	-11.9373
▁operates	-11.9377
▁fails	-11.9381
▁noon	-11.9381
▁1944	-11.939
▁Naval	-11.939
▁format	-11.939
▁scope	-11.939
▁happier	-11.9394
▁Jefferson	-11.9399
▁Oscars	-11.9399
▁collector	-11.9399
▁observation	-11.9399
▁uttermost	-11.9399
▁identifying	-11.9403
▁Fallon	-11.9407
▁Forum	-11.9407
▁Gemma	-11.9407
▁oversight	-11.9407
▁platforms	-11.9407
▁Flowers	-11.9416
▁Townsend	-11.9416
▁campaigner	-11.9416
▁colored	-11.9416
▁countless	-11.9416
▁disperse	-11.9416
▁dribble	-11.9416
▁releases	-11.942
▁reluctant	-11.942
▁torch	-11.942
▁Poole	-11.9425
▁Resort	-11.9425
▁Sanford	-11.9425
▁Zoe	-11.9425
▁homeowners	-11.9425
▁injections	-11.9425
▁innings	-11.9425
▁relay	-11.9425
▁robber	-11.9425
▁sentiment	-11.9425
▁vocal	-11.9425
▁Rather	-11.9429
▁blessing	-11.9429
▁excite	-11.9429
▁Israelis	-11.9433
▁Neighbors	-11.9433
▁Robson	-11.9433
▁finale	-11.9433
▁robbers	-11.9433
▁nod	-11.9438
▁Cambridgeshire	-11.9442
▁Coach	-11.9442
▁Grade	-11.9442
▁Les	-11.9442
▁Wyoming	-11.9442
▁cosmetic	-11.9442
▁gratuitous	-11.9442
▁whatsoever	-11.9442
▁approximate	-11.9446
▁inject	-11.9446
▁produces	-11.9446
▁HSBC	-11.9451
▁Rubio	-11.9451
▁bedside	-11.9451
▁closet	-11.9451
▁mere	-11.9451
▁milestone	-11.9451
▁controlling	-11.9455
▁gestures	-11.9455
▁hitherto	-11.9459
▁snack	-11.9459
▁valid	-11.9459
▁supposedly	-11.9464
▁Kieran	-11.9468
▁Pensions	-11.9468
▁Philippe	-11.9468
▁Rail	-11.9468
▁Santiago	-11.9468
▁Sociedad	-11.9468
▁admire	-11.9468
▁backdrop	-11.9468
▁packaging	-11.9468
▁pond	-11.9468
▁slavery	-11.9468
▁departed	-11.9472
▁sounded	-11.9472
▁sprain	-11.9472
▁Gallery	-11.9477
▁Ruby	-11.9477
▁Sakho	-11.9477
▁Willis	-11.9477
▁fume	-11.9477
▁lag	-11.9477
▁sq	-11.9477
▁violating	-11.9477
▁hedge	-11.9481
▁Burke	-11.9485
▁Helmand	-11.9485
▁Opposition	-11.9485
▁Oval	-11.9485
▁unforced	-11.9485
▁resting	-11.949
▁AT	-11.9494
▁Antarctica	-11.9494
▁agreements	-11.9494
▁strangled	-11.9494
▁warrants	-11.9494
▁implant	-11.9499
▁Dana	-11.9503
▁indefinitely	-11.9503
▁angered	-11.9507
▁incorporate	-11.9507
▁strokes	-11.9507
▁Nina	-11.9512
▁dispatcher	-11.9512
▁retaliation	-11.9512
▁counterpart	-11.952
▁surround	-11.952
▁silly	-11.9525
▁Heat	-11.9529
▁apple	-11.9529
▁jumper	-11.9529
▁satellites	-11.9529
▁repeal	-11.9534
▁shells	-11.9534
▁Levy	-11.9538
▁McCann	-11.9538
▁Mesut	-11.9538
▁examining	-11.9538
▁medications	-11.9538
▁shaken	-11.9538
▁Classic	-11.9542
▁Marina	-11.9547
▁intelligibly	-11.9547
▁servants	-11.9547
▁vitamin	-11.9547
▁175	-11.9551
▁alarming	-11.9551
▁jolly	-11.9551
▁Case	-11.9556
▁freshman	-11.9556
▁prizes	-11.9556
▁rick	-11.9556
▁booze	-11.956
▁maritime	-11.956
▁spying	-11.956
▁Blacks	-11.9564
▁Sudanese	-11.9564
▁initiatives	-11.9564
▁Eye	-11.9573
▁installation	-11.9573
▁authorized	-11.9578
▁barrack	-11.9578
▁Farah	-11.9582
▁Marsh	-11.9582
▁Tamerlan	-11.9582
▁cries	-11.9582
▁devastation	-11.9582
▁disclosure	-11.9582
▁forehead	-11.9582
▁homemade	-11.9582
▁sprint	-11.9586
▁Cafe	-11.9591
▁Meredith	-11.9591
▁colleges	-11.9591
▁familys	-11.9591
▁graduates	-11.9591
▁queer	-11.9591
▁Dzhokhar	-11.96
▁Minneapolis	-11.96
▁intimidation	-11.96
▁mogul	-11.96
▁varnish	-11.96
▁bitten	-11.9604
▁blunt	-11.9604
▁obligation	-11.9608
▁parenting	-11.9613
▁Aurora	-11.9617
▁Clinic	-11.9617
▁Pulis	-11.9617
▁Thomson	-11.9617
▁plunk	-11.9617
▁sequence	-11.9617
▁transmission	-11.9617
▁assigned	-11.9622
▁Magic	-11.9626
▁customs	-11.9626
▁remainder	-11.9626
▁heaven	-11.963
▁Y	-11.9635
▁sidewalk	-11.9635
▁spike	-11.9635
▁Allan	-11.9644
▁Autumn	-11.9644
▁Walcott	-11.9644
▁economist	-11.9644
▁jihad	-11.9644
▁predator	-11.9644
▁Jagger	-11.9653
▁Journalist	-11.9653
▁Tomas	-11.9653
▁blooded	-11.9653
▁cleric	-11.9653
▁literature	-11.9653
▁poke	-11.9653
▁wickets	-11.9653
▁confirming	-11.9657
▁Cat	-11.9662
▁Rod	-11.9662
▁Victory	-11.9662
▁Wellington	-11.9662
▁applicants	-11.9662
▁miners	-11.9662
▁standings	-11.9662
▁transactions	-11.9662
▁pools	-11.9666
▁Clooney	-11.967
▁Natasha	-11.967
▁combine	-11.967
▁belittled	-11.9675
▁magnetic	-11.9675
▁controller	-11.9679
▁exotic	-11.9679
▁revenues	-11.9679
▁spared	-11.9679
▁balanced	-11.9684
▁destroying	-11.9684
▁monkeys	-11.9684
▁Climate	-11.9688
▁Giants	-11.9688
▁Ofsted	-11.9688
▁Valerie	-11.9688
▁curriculum	-11.9688
▁midst	-11.9688
▁objective	-11.9688
▁Make	-11.9693
▁betting	-11.9693
▁imperil	-11.9693
▁persistent	-11.9693
▁ranch	-11.9693
▁Beck	-11.9697
▁Buenos	-11.9697
▁Fiorentina	-11.9697
▁censor	-11.9697
▁womens	-11.9697
▁flush	-11.9702
▁prolonged	-11.9702
▁tenure	-11.9702
▁Felix	-11.9706
▁stakes	-11.9706
▁devil	-11.971
▁Londons	-11.9715
▁discovering	-11.9715
▁heretofore	-11.9715
▁sexist	-11.9715
▁exports	-11.9719
▁grieving	-11.9719
▁Shakespeare	-11.9724
▁disrupt	-11.9724
▁wrestling	-11.9728
▁Bercow	-11.9733
▁Kercher	-11.9733
▁Savannah	-11.9733
▁downstairs	-11.9733
▁gruelling	-11.9733
▁mistaken	-11.9733
▁oral	-11.9733
▁marking	-11.9737
▁Box	-11.9742
▁caliber	-11.9742
▁governors	-11.9742
▁mammals	-11.9742
▁unloose	-11.9746
▁05	-11.9751
▁Groves	-11.9751
▁Irvine	-11.9751
▁shook	-11.9751
▁undermine	-11.9751
▁workforce	-11.9751
▁Aires	-11.976
▁Reeves	-11.976
▁hunter	-11.976
▁publicist	-11.976
▁showcase	-11.976
▁tumor	-11.976
▁volcanic	-11.976
▁speculate	-11.9764
▁Clayton	-11.9769
▁Eto	-11.9769
▁Nissan	-11.9769
▁hobby	-11.9769
▁sticking	-11.9769
▁disclosed	-11.9773
▁intentionally	-11.9778
▁makeup	-11.9778
▁speedily	-11.9778
▁Johnston	-11.9787
▁Venice	-11.9787
▁acceptance	-11.9787
▁cups	-11.9787
▁intersection	-11.9787
▁weddings	-11.9787
▁prop	-11.9791
▁Harbour	-11.9796
▁Hours	-11.9796
▁inequality	-11.9796
▁possessions	-11.9796
▁spiders	-11.9796
▁Gaga	-11.98
▁Estonia	-11.9805
▁abilities	-11.9805
▁backgrounds	-11.9805
▁disasters	-11.9805
▁seller	-11.9805
▁invested	-11.9809
▁Koreans	-11.9814
▁tweeting	-11.9818
▁Beth	-11.9823
▁Eva	-11.9823
▁cellphone	-11.9823
▁cousins	-11.9823
▁iPhones	-11.9823
▁separatists	-11.9823
▁sword	-11.9823
▁apace	-11.9827
▁Clippers	-11.9832
▁Rossi	-11.9832
▁atop	-11.9832
▁fridge	-11.9832
▁ink	-11.9832
▁interfere	-11.9832
▁likelihood	-11.9832
▁colors	-11.9836
▁repulse	-11.9836
▁Molly	-11.9841
▁handset	-11.9841
▁nameless	-11.9841
▁Milner	-11.985
▁Paterson	-11.985
▁accuracy	-11.985
▁acquired	-11.985
▁irresponsible	-11.985
▁pint	-11.985
▁recruits	-11.985
▁Milton	-11.9859
▁Moses	-11.9859
▁Romanian	-11.9859
▁cancers	-11.9859
▁counseling	-11.9859
▁efficiency	-11.9859
▁mend	-11.9859
▁badge	-11.9863
▁Behind	-11.9868
▁Cheltenham	-11.9868
▁Popular	-11.9868
▁elbow	-11.9868
▁nutrition	-11.9868
▁tents	-11.9868
▁fore	-11.9872
▁230	-11.9877
▁UAE	-11.9877
▁concerning	-11.9882
▁corners	-11.9882
▁revolutionary	-11.9882
▁Aid	-11.9886
▁Amir	-11.9886
▁delicate	-11.9886
▁whites	-11.9886
▁Ki	-11.9895
▁Late	-11.9895
▁Revolution	-11.9895
▁portray	-11.9895
▁streak	-11.9895
▁tactical	-11.9895
▁Missing	-11.9904
▁Nicky	-11.9904
▁eve	-11.9904
▁screamed	-11.9904
▁stimulus	-11.9904
▁Hard	-11.9909
▁Corporal	-11.9913
▁Dec	-11.9913
▁Guatemala	-11.9913
▁Karim	-11.9913
▁Nolan	-11.9913
▁portrayed	-11.9913
▁profiles	-11.9913
▁rein	-11.9913
▁silk	-11.9913
▁nobble	-11.9918
▁Annie	-11.9922
▁lure	-11.9922
▁mechanism	-11.9922
▁merchandise	-11.9922
▁owed	-11.9927
▁wrick	-11.9927
▁Canyon	-11.9932
▁Courtney	-11.9932
▁Juarez	-11.9932
▁enthusiasts	-11.9932
▁fishermen	-11.9932
▁galaxy	-11.9932
▁leaks	-11.9932
▁occupation	-11.9932
▁static	-11.9932
▁succession	-11.9932
▁Exchange	-11.9936
▁ostensibly	-11.9936
▁Dover	-11.9941
▁Legal	-11.9941
▁getaway	-11.9941
▁drank	-11.9945
▁horrifying	-11.9945
▁recoil	-11.9945
▁Grammy	-11.995
▁credentials	-11.995
▁inebriated	-11.995
▁jumps	-11.995
▁crowned	-11.9954
▁wasted	-11.9954
▁Midwest	-11.9959
▁Previous	-11.9959
▁Williamson	-11.9959
▁corporations	-11.9959
▁expressing	-11.9959
▁handbag	-11.9959
▁laying	-11.9959
▁skilled	-11.9959
▁dreadful	-11.9964
▁shun	-11.9964
▁Made	-11.9968
▁Marilyn	-11.9968
▁Sales	-11.9968
▁Stephens	-11.9968
▁albums	-11.9968
▁von	-11.9968
▁coerce	-11.9973
▁lighter	-11.9973
▁Jubilee	-11.9977
▁Petersburg	-11.9977
▁Zurich	-11.9977
▁conclusions	-11.9977
▁jug	-11.9977
▁priests	-11.9977
▁Got	-11.9982
▁straw	-11.9982
▁Fury	-11.9986
▁Roland	-11.9986
▁Sacramento	-11.9986
▁ambulances	-11.9986
▁antics	-11.9986
▁fits	-11.9986
▁kissing	-11.9986
▁luxurious	-11.9986
▁sinking	-11.9986
▁Finland	-11.9996
▁Ontario	-11.9996
▁credibly	-11.9996
▁gentleman	-11.9996
▁printing	-11.9996
▁curious	-12
▁notify	-12
▁Communications	-12.0005
▁DVD	-12.0005
▁semifinals	-12.0005
▁elicit	-12.0009
▁weakness	-12.0014
▁monitors	-12.0023
▁JFK	-12.0032
▁battlefield	-12.0032
▁protocol	-12.0032
▁recruited	-12.0032
▁encompassing	-12.0037
▁pause	-12.0037
▁ransom	-12.0037
▁Harold	-12.0042
▁Kanye	-12.0042
▁costly	-12.0042
▁meningitis	-12.0042
▁quietly	-12.0042
▁compelling	-12.0051
▁fertile	-12.0051
▁physics	-12.0051
▁disagree	-12.0056
▁fashionable	-12.0056
▁Band	-12.006
▁Mathieu	-12.006
▁Tennis	-12.006
▁hygiene	-12.006
▁iPads	-12.006
▁policemen	-12.006
▁takeover	-12.006
▁epic	-12.0065
▁Newsnight	-12.0069
▁breaches	-12.0069
▁lily	-12.0074
▁amazed	-12.0079
▁hurry	-12.0079
▁pathetic	-12.0079
▁prospective	-12.0079
▁camping	-12.0083
▁Dempsey	-12.0088
▁audit	-12.0088
▁infants	-12.0088
▁embracing	-12.0093
▁healthier	-12.0093
▁herd	-12.0093
▁snaps	-12.0093
▁tackling	-12.0093
▁batsman	-12.0097
▁greenhouse	-12.0097
▁messaging	-12.0097
▁promotional	-12.0097
▁referees	-12.0102
▁Cesar	-12.0106
▁Mom	-12.0106
▁Township	-12.0106
▁prohibited	-12.0106
▁sequester	-12.0106
▁IV	-12.0116
▁unplayful	-12.012
▁Parsons	-12.0125
▁circus	-12.0125
▁lengths	-12.0125
▁secrete	-12.0125
▁topics	-12.0125
▁import	-12.013
▁Heights	-12.0134
▁Melanie	-12.0134
▁Monk	-12.0134
▁aiming	-12.0134
▁beak	-12.0134
▁Anger	-12.0144
▁Rahman	-12.0144
▁Sasha	-12.0144
▁Vienna	-12.0144
▁instructed	-12.0144
▁regulator	-12.0144
▁reverence	-12.0148
▁rows	-12.0148
▁Graeme	-12.0153
▁cough	-12.0153
▁stockpile	-12.0153
▁heartbreaking	-12.0158
▁snacks	-12.0158
▁sponsored	-12.0158
▁Brennan	-12.0162
▁Calderon	-12.0162
▁economics	-12.0162
▁exceed	-12.0162
▁lawmaker	-12.0162
▁naming	-12.0162
▁pedestrian	-12.0167
▁Dundee	-12.0172
▁extinction	-12.0172
▁hanged	-12.0172
▁impacts	-12.0172
▁netted	-12.0172
▁provincial	-12.0172
▁snub	-12.0172
▁fascinating	-12.0176
▁thorough	-12.0176
▁Mancini	-12.0181
▁clue	-12.0181
▁fatalities	-12.0181
▁liability	-12.0181
▁rouse	-12.0181
▁stun	-12.0181
▁dub	-12.0186
▁plausibly	-12.0186
▁sprung	-12.0186
▁Issa	-12.019
▁ordering	-12.019
▁traditions	-12.019
▁wicket	-12.019
▁MoD	-12.02
▁eyebrows	-12.02
▁psychiatrist	-12.02
▁Shirley	-12.0209
▁shoots	-12.0214
▁baggage	-12.0218
▁deflect	-12.0218
▁wounding	-12.0218
▁Colbert	-12.0228
▁Griffiths	-12.0228
▁ceremonies	-12.0228
▁precaution	-12.0228
▁Gross	-12.0233
▁enchant	-12.0233
▁happily	-12.0233
▁invalidate	-12.0233
▁Stacey	-12.0237
▁Walton	-12.0237
▁breached	-12.0237
▁darling	-12.0237
▁marvelous	-12.0237
▁mourn	-12.0237
▁operational	-12.0237
▁thirty	-12.0242
▁Americas	-12.0247
▁ancestors	-12.0247
▁colony	-12.0247
▁controllers	-12.0247
▁exploring	-12.0247
▁jockey	-12.0247
▁bias	-12.0251
▁tailor	-12.0251
▁Independence	-12.0256
▁Kelley	-12.0256
▁Vanessa	-12.0256
▁historian	-12.0256
▁kills	-12.0256
▁Dewani	-12.0266
▁Mo	-12.0266
▁reminded	-12.0266
▁cakes	-12.027
▁credible	-12.027
▁Gina	-12.0275
▁HMRC	-12.0275
▁Wiggins	-12.0275
▁crushing	-12.0275
▁kindness	-12.0275
▁Design	-12.028
▁duplicate	-12.028
▁08	-12.0284
▁Calais	-12.0284
▁Ethiopia	-12.0284
▁Katy	-12.0284
▁Paramedics	-12.0284
▁mins	-12.0284
▁necklace	-12.0284
▁provocative	-12.0284
▁Alastair	-12.0294
▁compiled	-12.0294
▁ruby	-12.0294
▁converge	-12.0299
▁unsuccessful	-12.0299
▁Isaac	-12.0303
▁bounce	-12.0303
▁invented	-12.0303
▁reconstruction	-12.0303
▁rogue	-12.0303
▁refuses	-12.0308
▁vile	-12.0308
▁Angelina	-12.0313
▁Senegal	-12.0313
▁kingdom	-12.0313
▁remembers	-12.0313
▁willingness	-12.0313
▁Rush	-12.0318
▁flowing	-12.0318
▁hostile	-12.0318
▁Huffington	-12.0322
▁Yang	-12.0322
▁frontman	-12.0322
▁lonely	-12.0322
▁supplied	-12.0322
▁forming	-12.0327
▁crane	-12.0332
▁goers	-12.0332
▁telescope	-12.0332
▁Universal	-12.0337
▁scattered	-12.0337
▁Nasri	-12.0341
▁Outside	-12.0341
▁Starr	-12.0341
▁dairy	-12.0341
▁raced	-12.0341
▁surfaces	-12.0341
▁Soon	-12.0346
▁ought	-12.0346
▁surfing	-12.0346
▁Hebdo	-12.0351
▁Infirmary	-12.0351
▁childcare	-12.0351
▁haunt	-12.0351
▁localize	-12.0351
▁patently	-12.0351
▁securing	-12.0351
▁bragging	-12.0356
▁broker	-12.0356
▁grabbing	-12.0356
▁Doncaster	-12.036
▁Relations	-12.036
▁Short	-12.036
▁budgets	-12.036
▁perpetrators	-12.036
▁presenters	-12.036
▁permitted	-12.0365
▁Ahmad	-12.037
▁Cunningham	-12.037
▁Nash	-12.037
▁Saddam	-12.037
▁Webster	-12.037
▁roommate	-12.037
▁tractor	-12.037
▁Rocky	-12.0375
▁manifestly	-12.0375
▁Boyle	-12.0379
▁Conservation	-12.0379
▁believably	-12.0379
▁boasted	-12.0379
▁curfew	-12.0379
▁entrepreneurs	-12.0379
▁threshold	-12.0379
▁touches	-12.0379
▁Flying	-12.0384
▁sank	-12.0384
▁Gallagher	-12.0389
▁Sharia	-12.0389
▁Webber	-12.0389
▁miniature	-12.0389
▁Says	-12.0394
▁exile	-12.0394
▁Barnett	-12.0399
▁HBO	-12.0399
▁Marion	-12.0399
▁Owens	-12.0399
▁Urban	-12.0399
▁bide	-12.0399
▁cooked	-12.0399
▁bins	-12.0403
▁praying	-12.0403
▁Jonny	-12.0408
▁Thirty	-12.0408
▁fortify	-12.0408
▁ignite	-12.0408
▁ramp	-12.0408
▁pencil	-12.0413
▁Cliff	-12.0418
▁Lille	-12.0418
▁Thierry	-12.0418
▁Twickenham	-12.0418
▁honestly	-12.0422
▁revere	-12.0422
▁Elliot	-12.0427
▁dominant	-12.0427
▁gray	-12.0427
▁heir	-12.0427
▁Cats	-12.0437
▁Grove	-12.0437
▁RBS	-12.0437
▁Sollecito	-12.0437
▁albeit	-12.0437
▁mastermind	-12.0437
▁mercy	-12.0437
▁settings	-12.0437
▁stats	-12.0437
▁affluent	-12.0442
▁calculated	-12.0442
▁guided	-12.0442
▁Alfred	-12.0446
▁corpse	-12.0446
▁filmmaker	-12.0446
▁indorse	-12.0446
▁picturesque	-12.0446
▁setback	-12.0446
▁Amerindic	-12.0451
▁Bernie	-12.0456
▁Stefan	-12.0456
▁ageing	-12.0456
▁bush	-12.0456
▁frantic	-12.0456
▁offshore	-12.0456
▁sadly	-12.0456
▁tumours	-12.0456
▁unresponsive	-12.0456
▁bowling	-12.0461
▁Jerome	-12.0466
▁Professional	-12.0466
▁fist	-12.0466
▁frustrating	-12.0466
▁influx	-12.0466
▁brakes	-12.047
▁fascinate	-12.047
▁inherited	-12.047
▁Native	-12.0475
▁payout	-12.0475
▁scales	-12.0475
▁technically	-12.0475
▁intellectual	-12.048
▁tapes	-12.048
▁Pole	-12.0485
▁Wing	-12.0485
▁caravan	-12.0485
▁diesel	-12.0485
▁outlook	-12.0485
▁pedestrians	-12.0485
▁enroll	-12.049
▁provoked	-12.049
▁drawings	-12.0495
▁fluids	-12.0495
▁IPCC	-12.0504
▁Nottinghamshire	-12.0504
▁Stan	-12.0504
▁memorabilia	-12.0504
▁sovereignty	-12.0504
▁worthful	-12.0504
▁broader	-12.0509
▁Chiefs	-12.0514
▁accordance	-12.0514
▁implemented	-12.0514
▁inherit	-12.0514
▁resurrect	-12.0514
▁transparent	-12.0514
▁uncoerced	-12.0514
▁vacant	-12.0514
▁wisdom	-12.0514
▁rugged	-12.0519
▁Beatrice	-12.0524
▁Marquez	-12.0524
▁concentrated	-12.0524
▁Hicks	-12.0533
▁Mayfair	-12.0533
▁admissions	-12.0533
▁bureau	-12.0533
▁halftime	-12.0533
▁picks	-12.0533
▁sneak	-12.0533
▁takeaway	-12.0533
▁Carrick	-12.0543
▁Hayden	-12.0543
▁Pastor	-12.0543
▁Pepe	-12.0543
▁Relatives	-12.0543
▁Rochdale	-12.0543
▁Seahawks	-12.0543
▁Summit	-12.0543
▁spoil	-12.0543
▁analyze	-12.0548
▁associates	-12.0548
▁swollen	-12.0548
▁135	-12.0553
▁Cech	-12.0553
▁Forrest	-12.0553
▁evident	-12.0553
▁peacefully	-12.0553
▁servicemen	-12.0553
▁trance	-12.0553
▁Cuomo	-12.0562
▁Royce	-12.0562
▁grenades	-12.0562
▁micro	-12.0562
▁plots	-12.0562
▁addicted	-12.0567
▁troop	-12.0567
▁Affordable	-12.0572
▁Buckinghamshire	-12.0572
▁Tanzania	-12.0572
▁cement	-12.0572
▁interference	-12.0572
▁hollow	-12.0577
▁stern	-12.0577
▁Ballon	-12.0582
▁Charity	-12.0582
▁Mickelson	-12.0582
▁Rico	-12.0582
▁Schmidt	-12.0582
▁Simmons	-12.0582
▁Sugar	-12.0582
▁ace	-12.0582
▁addressing	-12.0582
▁catastrophic	-12.0582
▁clamber	-12.0582
▁eagle	-12.0587
▁socks	-12.0587
▁Ashes	-12.0592
▁Breakfast	-12.0592
▁Wawrinka	-12.0592
▁evolve	-12.0592
▁suspicions	-12.0592
▁Full	-12.0596
▁blacks	-12.0596
▁denying	-12.0596
▁earliest	-12.0596
▁regress	-12.0596
▁wander	-12.0596
▁Gatwick	-12.0601
▁Qantas	-12.0601
▁Very	-12.0601
▁contestant	-12.0601
▁dare	-12.0601
▁depends	-12.0601
▁strictly	-12.0601
▁anguish	-12.0606
▁Lower	-12.0611
▁Prof	-12.0611
▁compile	-12.0611
▁mortality	-12.0611
▁pullulate	-12.0611
▁theaters	-12.0611
▁Witness	-12.0616
▁locally	-12.0616
▁soared	-12.0616
▁Donnell	-12.0621
▁alternatives	-12.0621
▁attributed	-12.0621
▁consequence	-12.0621
▁novels	-12.0621
▁circumvent	-12.0626
▁favourable	-12.0626
▁scent	-12.0626
▁temper	-12.0626
▁terrace	-12.0626
▁Eagle	-12.0631
▁McDonnell	-12.0631
▁Woodward	-12.0631
▁Yeah	-12.0631
▁caretaker	-12.0631
▁competitor	-12.0631
▁Gloria	-12.064
▁Malaga	-12.064
▁Warwickshire	-12.064
▁artillery	-12.064
▁jackets	-12.064
▁technological	-12.0645
▁unconvincing	-12.0645
▁Guests	-12.065
▁Kris	-12.065
▁List	-12.065
▁Lovren	-12.065
▁Paralympic	-12.065
▁creativity	-12.065
▁loads	-12.065
▁texted	-12.065
▁flare	-12.0655
▁peachy	-12.0655
▁Carnival	-12.066
▁Cowboys	-12.066
▁Ellie	-12.066
▁Sloot	-12.066
▁butt	-12.066
▁feud	-12.066
▁listing	-12.066
▁Amerind	-12.0665
▁soup	-12.0665
▁Fukushima	-12.067
▁gunned	-12.067
▁nifty	-12.067
▁accomplished	-12.0675
▁Slovenia	-12.068
▁puppies	-12.068
▁slashed	-12.068
▁yelling	-12.068
▁falsely	-12.0685
▁fractures	-12.0685
▁Kuala	-12.069
▁blowing	-12.069
▁inviolable	-12.069
▁recreational	-12.069
▁sweets	-12.069
▁Breaking	-12.0694
▁Rudd	-12.0699
▁avalanche	-12.0699
▁brutality	-12.0699
▁clearance	-12.0699
▁gorgeous	-12.0699
▁Scotch	-12.0704
▁flourish	-12.0704
▁hills	-12.0704
▁Sentinel	-12.0709
▁Typhoon	-12.0709
▁Warnock	-12.0709
▁creations	-12.0709
▁environments	-12.0709
▁fortunes	-12.0709
▁enshroud	-12.0714
▁Kristina	-12.0719
▁disbelief	-12.0719
▁dye	-12.0719
▁steering	-12.0719
▁smuggled	-12.0724
▁LGBT	-12.0729
▁LONDON	-12.0729
▁Pamela	-12.0729
▁unpopular	-12.0729
▁visibly	-12.0729
▁sparking	-12.0734
▁voiced	-12.0734
▁Goodison	-12.0739
▁treble	-12.0739
▁Better	-12.0749
▁Dee	-12.0749
▁Franco	-12.0749
▁Gibraltar	-12.0749
▁Pan	-12.0749
▁standoff	-12.0749
▁declaring	-12.0754
▁Lima	-12.0759
▁O2	-12.0759
▁bruising	-12.0759
▁burglar	-12.0759
▁fisherman	-12.0759
▁reader	-12.0759
▁Comes	-12.0764
▁contributing	-12.0764
▁fussy	-12.0764
▁rounded	-12.0764
▁Copenhagen	-12.0769
▁Coulson	-12.0769
▁Craigslist	-12.0769
▁Latinos	-12.0769
▁MI5	-12.0769
▁Mitch	-12.0769
▁Uniteds	-12.0769
▁gloomy	-12.0769
▁kindle	-12.0769
▁needing	-12.0769
▁splendid	-12.0769
▁doses	-12.0774
▁Falklands	-12.0778
▁Hello	-12.0778
▁Mental	-12.0778
▁acclaim	-12.0778
▁forecasters	-12.0778
▁plague	-12.0783
▁swelled	-12.0783
▁toned	-12.0783
▁chemistry	-12.0788
▁towel	-12.0788
▁Copa	-12.0798
▁Mann	-12.0798
▁Mel	-12.0798
▁designated	-12.0798
[...]
